FB52F53E
F98701C5
004F06CC
0441F936
FA9601F0
00290321
FFF200C8
053907B5
0262F815
01E5F85F
FAF5047C
047CFDCF
FA1CF6A4
0365F98A
FFF4FEFB
FF7A0CBC
00FE08DE
FEC5FDC4
041407A8
0465F574
0436FD16
03B200D3
FD20F708
FE960A19
FB6C03E4
05DF0071
FCECFA77
01F00383
07390487
081A05B5
009DFCDE
FAD906CC
FFC7FB90
02EFF3EF
0899FF5A
03F50D23
03DAFC7B
FDEC00EE
017403B9
FDDC02E4
FF940544
01290557
F90D0480
0577FEA4
026BFEAB
02760488
FBFEFFDA
FF13FFA3
F805F5BF
FED3F78E
FC4C01D4
0244F7FC
01B1FE6C
FF6303C2
019509B5
FF1E066C
FE990217
02720671
01AEFF01
FC40FBDB
FE19F775
FC4902CD
0169FF86
F858007B
00F7FD52
039A03D4
F71BFA58
FE9707B7
F86C00FE
FBABFC86
FC8400E7
F9EE01B2
FF1D0353
0BA10604
02F8FF8E
F839F9AC
01F802F6
0383FDB0
F4FEFFA7
F68802B8
016EFD74
FF500008
FD8C06FF
F770FDBB
06FF02D0
0BD90200
05AC05B0
FF84F858
014AFC3D
0372076F
001F00D8
FE0008EC
FEFAFDD0
FC31FA47
030CFD0F
FE3CF62D
08C202D2
01EC03A6
FD07F9E2
01ACFD2F
03D00091
00590025
02DAF5F7
F730FF5C
05AE019D
FFAFFFB8
02DBFEC5
0B4BFB32
FD000177
F602FD74
F763FF05
031EFAFE
05B8FB3E
FF11FE83
04D3F999
01480264
07B0FBD2
FDE8023B
F922FF00
FBD7073D
FE4D07CB
039E02B6
01CE0255
00F0FF19
0491002A
F974025B
03B80062
FE7AFC89
FDADFA82
FC9C0175
0460F882
FE76FFF9
FCD3055D
FC5A025A
01ABF98B
03FDFE41
04A8FEC3
FFD7FE11
03E60524
001A0508
0B440040
FCB00019
F98A000D
FCCFFAD3
FE6EFA06
0362FB0C
0832077C
FE08FE58
02D7FDEA
00E80359
0431FCB7
00190172
FA46007C
02FEFCCC
FF33FEFB
FE830203
043FFE6B
05E5FD9A
FCA5FB5C
0709FFFF
FE5CFD4C
004F01EF
02F3FFA5
0397FDB0
FFD20456
FE68047F
011E00C3
03DCFF56
067D0315
FEF2069C
042A0364
03FE0440
00DC008A
01250002
007802A5
FCCEFF7A
019FFB77
00DD0341
0223FACB
FF2D00F6
03A8FBE9
FD7400F1
0185023C
03B3FF17
FF3D01BF
02F101BC
0710FE61
FD760338
06DDFEA8
FCB807A0
066000FD
FFE500DD
FA960178
03E2FEB5
FFB6052F
FDAF010A
0112029E
001DFFC1
044DFFA9
FF11FE8B
FD570278
051AFC63
F8BDFFD7
FEA80354
FA18FEFC
02FCFD4D
02F6FE02
01910064
FED5F972
0740037C
FB6BFDDD
FF43090A
024F02A3
FE20010D
FD3200D9
0417FC4C
FC470176
0027011A
04310184
FB6AFE09
046AFB4A
FCC9004D
022FFFC3
056E0087
FF41FEB8
005B054C
062CFB3F
0491FFA5
FF30FDD3
FCB8FAB8
FF3D0217
0058013E
FFD6008B
0360002E
01F90328
00490098
0074FFC5
03B2FFA4
0226FC97
0387FF14
FE940467
0144022D
FE420425
00B501E4
FF270325
FBB6FF7D
FF33FF19
FD4DFDAD
0527FE5F
0103FA61
0200FFA6
0168054B
F9E20363
05E9008A
FD89FDB1
FCFFF81F
05E001F6
080D0229
FDBAF8B1
05E5FB77
FDA9FD04
FDC40010
03330499
0433FF1B
FF160360
003B00D9
020005E5
01CFFDD7
034DF1B8
02C900DA
025308CB
FF510108
009203D5
0386034B
FC67046D
FEC70171
0138FC3B
FA6DFD18
FE170032
02070198
029B009A
07E301F6
039E01EB
FF9A0388
02080544
F9FA054D
FF500523
FEB800A0
FFD3FBE9
F9FEFC67
083CFE62
0125FD91
0787011D
0179FE53
FCB70B29
011905FD
FBD503D3
012F01CE
0557FFB1
FDF2F92B
001B026D
048B01C5
01E0FD9A
FDBAF8A8
0485FFDC
FC1CFADC
FF0702CC
0540FF44
FE220685
FEDBFFA5
FF92FE20
0089F912
FE7FFEC0
050003F9
FF22FCF0
0893031B
FFC1FC4E
FD6B03A9
FF13002B
FB39031E
FB4E0800
0199FCEB
01B100DB
00B1FB84
05080366
FD33FFFD
04C402E4
FCFC0195
FC55FECE
014E0459
01CDF3D7
03F50077
FEC40122
FC080345
FE8E000B
FCA5FED4
0E180012
FE46F98E
FF99FE32
FEDC0D25
05F9FEA7
FFFDFD52
F644FF48
F926FE5B
FD6B0135
0478F973
0172FF60
0112FF1C
0019F7E0
0207F9EF
03110317
FB21005C
FC41FB0E
FBA1F721
066E02E1
FE3903A7
FA4C02A7
FEE0F845
03330747
FF1AFBE8
025FFC83
FE0606DB
047901D6
F652FB22
020DFA0D
FDC4F7B5
FB93018F
06A300EA
FDD30862
04E6031E
01E00221
0401053A
029FFE5D
FF3203EE
FE760305
FBF00467
094CFBB5
00FCFBB0
FB87F791
007B0015
FE9CFE54
FF900244
F885FC33
00E900BF
04D6FADB
FFE7FE7C
FD5203A6
FAF4FD6D
04650260
FBD8FD05
F831FD05
FF0F0003
FDC3FB0F
F6B6FFA4
FB40F6F8
F7DB0513
0190024C
048AFDA4
047D0234
FE5A04E1
01C00255
05FDFE7F
FF95FBBE
FBD50335
048BFC3D
FD34F9D8
05D70124
094404F9
025703DF
FF51004D
FFF9FDBC
FE59FBAC
012A04BC
066B0071
011401E0
FFCB061D
0315FF0C
FC40FE96
023CFFA8
FE6002B9
FD0E0435
FC18FD66
FE3D005D
06C8030E
FFB70089
F6B10532
059308D5
039CFF4E
03A5FE13
FAC5FF7E
FFA0F626
FB750545
FA9A06EA
FD270218
0633035E
0271FFC1
04E8069F
01DCF76A
0202FAAE
FFED06B2
0A39038A
03E80065
FADCFC5C
F5BEF7F6
090FFDA6
01ABFD78
0135FC8A
FA58042D
0137F5EB
015DF620
05800023
025804ED
010E056E
00E10495
00C0FD0C
FEB1FD41
065500DC
081EFFAF
FDA9FFB8
0330FDF1
FD70012A
FFE1F839
0160FEF7
06970437
00CC0363
011B01C3
019BFCD7
026D0280
009EF7DC
FFC4098C
FFD90659
FF61FDFB
002401B7
01FE018A
00F402D0
0093039D
0022FD21
FD90044F
FDB200BE
01770360
00D1FB14
055A0250
03FCFE9B
013D048B
0056FEAC
FA97FC4F
FEA9FC94
02CB041D
FEEB0295
F983FE86
0689FF5D
FD6DFC97
01D803CF
004DFFE5
027A03FB
037B019A
FD620101
00EB029F
019A00D2
FDA40126
016803E7
0201FBBD
0663FED4
F8CBFCD2
FFB50693
04EC01F1
0AE7FC31
060AFAF9
FA02FAB3
015FFEFC
FF5E0431
024603C7
FDEDFD54
F920019F
FABFFCE5
00DBFD0A
FAEBF1B5
04C7F811
FD2D006D
FE7903E8
FA77FEC1
FE37F97B
F72FFBDB
04D200DC
F65BFC2E
01DFF991
08DC0146
FAFD0082
000200FF
FFD7FC57
F5B7FF59
F77BF9D7
0042F930
02F9FCA7
FEA60677
05820001
FF22F8D7
063D0262
FE93FDFC
00240053
FB9804BA
FF1604B2
FAA30BEE
FDFFFE59
0146FD35
FF300788
FF2E0427
F76EFDDC
051F0070
FA0FF7B3
FE9CFA29
FBF402B5
FF69FD27
FF67FD71
01D50391
FBC20001
01A3FE94
06A20024
FDB602AF
FEB1FECD
F75AFCF5
FE46FB08
0352FD30
029BFA64
F9C70003
01930962
FFB20254
FD0603CA
FE13FC9E
FBA903B0
FEC20127
FF52026C
0204002E
007A01FA
03B306C6
F88AFF8A
FC60FDB9
035FFD1A
0037FA87
013201DD
04C5F9F1
FF6C07FD
01B107E3
00CFFFEA
0598FD0F
044D0653
0B8600AF
FAC90024
041B00CA
014E0BEB
0676020F
FE6602D2
FD48FF3D
FECC04AB
02D9FDB1
0449FC3B
0418FD7F
FF2B01DB
0426FC4B
02E0FCA2
FFD8F913
0079F884
FAE800CB
019DFE0F
002B05E4
05F5061E
FB900263
01F50585
FCB8FD57
0377FD79
FC1FFD54
FF05FC4B
FC2CFCFC
FC76FA92
FC0EFE81
050B09CD
FA100531
FE37FE81
FD9D031F
FE6EF7F1
FBF9076C
FD8BFFB8
FFABFD45
0AA90178
FB2E090B
00CCFE88
00F3FB5E
FF93FF27
FACD01FD
FC2304AB
0106FDB3
FF870587
FED7FEDD
02E6FAFC
01C404F4
06680073
07C2FEF5
FB260264
032DFD14
FE2B02CD
FCE50377
0000054D
F9DAFDB8
03C1FC43
FFD200C3
019100AD
078707FE
FFF601C0
FC400145
FB2BFB49
FE6FFC28
FE23FFF3
02EC01F6
00AA0085
FC90031D
00F4046C
0419FB34
FE52FF64
0586F93D
003DFF43
FA9A0126
01880270
00FB012B
FDEEFD7F
FCACFEC2
FDBB0BA5
FA6CFFA2
007BFFB8
FE2401CC
007E00BF
0146FC02
01420351
FF11005E
034D0111
FBE6FEB8
FE92FE12
FDACFFD4
FD48001A
025CFC39
036CFD4C
FDFE0037
FA19FDE9
018CFD82
007BFA70
FF2A0217
03FF0231
03FBFAEE
FF59FD56
038BFED2
FE0A02DC
027A05B0
FE2105E6
FFC504A3
05DBFD36
006A00C9
0078FF6D
FEF402BD
FCBEFB99
01F3FD69
FF1EFB76
FF210119
0527FBED
FB67FADA
03E7041B
008202A2
0261005C
020805E3
FA0A0360
03C90164
FF990176
FCAD00EC
FC5B05B3
03D3FF4F
FE50FDD7
0014FF89
FD38FFEA
0065006F
01FE05FF
012F0A71
FFEBFB2A
000BFFFA
FDF802EF
05560158
04A004DC
006BFE68
03230742
0638FDC0
06CBFB54
0312FB0F
00BE032D
FF7F00FA
FECF0896
FD9400D4
FF600190
0626FD5E
FE16FE58
067C01D4
016C05A7
FEE305F6
FD65018C
FE0C0104
030BFE47
0493FE38
FC7500C9
F87DFB42
FF630558
04630150
0303FE5F
02B3037A
FF73FEC0
011D00ED
FF65FFC9
00700394
01C6FA80
027802BA
FDC6FE8E
004501CA
03CAFE3C
0490FEBA
02C3007C
FAD10158
FE53FDD3
00B4FD1F
01DDFE55
FD370278
05E10305
FBED03CA
0304041F
FC5601C3
F9E60063
FCE1009C
0236017C
FFBE01D7
FD6705B0
02A002FB
FD91FBDA
FF53FF8E
FE86FAA9
05A7FF63
01C502D3
0481FC59
FD860492
FBC0FF20
FC87FD9E
046AFD5C
FFC203D4
045F0280
FD48FF81
02A80265
FBF201FC
04190084
03F203AC
0132FFB3
00560047
0228002A
FFB9F827
FE020360
03A4FF41
FE50FF45
FE67FAA4
00F60837
0963FEF4
FE4E01E4
0022FEA3
FEB000CA
FECAF9AB
041C023E
074A06B2
001DFC90
0380FE5D
F88E028C
FF46FB46
FB7BFF2E
04BE008C
FBA302BA
FCF20709
FE9A04AB
0002001F
FBD0FF8E
00EC0094
FA72FEDF
FBF8FC40
FBACFE60
00C104BB
FED003CA
FE4CFC0A
00CD01E1
FFF5FECA
FE02027D
FCAEFF10
0155FDED
00FC049C
0227FF0D
F79CFE7E
0530FF3E
031C0386
FEF50445
00A9FC15
FD6B03DF
0108028E
0249030A
05F703CA
FE1E006C
FE5802DA
07C8FED3
FF7801FC
0541022A
FAE207DB
FECBFECF
FDE9F891
F8B6000A
FFCA0318
FDABFFC2
03A9F8AA
FDA0FEAF
01D2FFA8
FF43FB71
FAD60622
FFEF03A8
FF38FC16
FF05F93B
0230028E
FA7A01C9
042BFDC7
FB80FF63
04E8056D
F805FF61
F8B00040
FDF304CA
F941EE44
FFF5009C
FF64FE2B
FA6AF926
FC7EFF82
FD7602BC
FBC8FA45
FAF70789
FAC50036
F7B2004F
FE8BFE0C
0083F98A
04DD02E8
016FFDF7
F886FC95
FEC709AF
FE77074D
09FD0397
FC51F3EF
FDF7FEBE
056A042C
F9880645
01070C34
F98E0268
04A705C4
F9A4FA9C
01D5FB8B
0034FDAA
FEB8FD30
FF04F68E
0255F9F0
FE7503AC
01CE042D
0099FF32
057BF483
001DFDFA
FEE9FD90
01F0FA63
0471FC1B
FC7B0445
FD56FE35
FFEBFC1D
00BE0191
FE850338
06FEFFF8
FD530113
FD3C0680
016E049E
FB89FF13
FF9101D7
020B0155
02C902BB
06DEFFC7
FD7FFBC2
F9BBFDC9
FF59FE8D
FBA2029E
FFA705C7
FEDCFFDA
0114FB5F
0BF7007F
01E7F9AB
FFCD0452
FDE8044C
F9FA0396
FEF10683
005F01FF
048EFBF6
FE5CFBD3
0644FA61
017409B6
FE7D0580
0727029B
FC4F00A5
FCB1036C
0084FDD8
0513013C
FC9E0508
FCB3022F
00A5FC3A
FC6FFD9A
02D501D0
FFD302EA
05DC029E
093FF6C6
00AEFBCF
FB330077
0553F9DB
FE91FD65
FB0AF9A1
0701FFCD
02E00169
038AFB55
FE2C05A5
03BBFCB2
FD370771
FB10011A
01F6038E
0446FE52
010EF5E2
040A07BA
044D019F
F9EFFC18
0272FDE7
FE7AFF3C
001CFD5E
FE92FFA8
FBE8FE41
01690398
008B00F0
030EFDE0
040402CD
FBB20657
065F00D6
FAA70304
FD05FFB9
FCBEFE66
0645FDF2
05790AED
FE7DF7B1
FBEE04D1
0358080F
09E7FC05
FFDE03C6
FFB9054F
029A0940
F95D0471
F1D9FF8F
017101A9
FE390235
FD0DFAAD
FB78F4FF
F6C50709
0816FA57
FBC1F287
0845FC84
FB8D03A2
FCECFBB9
03DEF535
FE95056C
FF7D017E
FE110332
02FC005B
FF8107C4
0B87F8C6
007C00D2
FA4A04A2
02D0041D
0107013A
FD37034B
0634007A
FEA8FFA5
080000DC
FC24F9DF
F5B0FC7C
FCE7FEDA
F9440041
FC7BFD90
07F00270
0486F9EC
0231FDB5
0459F22C
F8F80057
F6A20031
04D2002A
FEE70249
082D016E
0946F82B
FEDA0298
0EDC0473
01B20D20
FFB3059D
00D9010E
F6EBFFC2
053C03E9
06D6F651
0464FEE2
FACC02CD
FB700347
FB13FBAE
FC8E01FB
0203FF7A
02E8003E
0150FE25
FAEDF88A
02AEFF4F
FFACFAA6
03A10498
08F50085
0418FEA5
0527023A
00350014
FD12FFF8
0236FE0E
0403FEFD
03470390
FD920732
043E003E
FEFD019B
02E9FBB0
01B8014B
0255052E
FD3B02DF
FF31001E
06D60482
FF3A0594
FB8303F6
02A4FE13
062D0107
029BFEE9
FF350320
03E3FA06
01B006F3
FF83051E
02EF014B
095B00FE
0397FFBA
078801FB
0104FD68
FE9EFAC1
FC18039B
0B99FFA4
0428017D
F641FFAF
00A0F860
05BD03EE
FDE601A4
05A9FF86
01A000E2
00310071
0208F67E
FFED01F4
02B2FC1D
03850001
FC36FBDB
020805FE
00250132
0005027F
03CFFFDD
FE20FE99
FDB0FB54
FF940344
FE5A01B5
FE6EFDF5
FEF902FB
FF56FD23
03EA00EF
FF93FBFE
FFEAFCE0
FE7D0241
04090113
F9FEFDD7
FE86FD8B
FD64FC75
00E9008F
FCC4FEA2
0266FFE7
02F80225
00EE06DF
FE770333
020601C1
FBAEFE08
FD520035
FF51FE7D
0026FC46
00F90118
01340170
02C9FF7F
045A00F5
FF9FFFE2
017500ED
0104024D
0627020A
017A0207
FEBCFD7D
02ECFFAB
00EF0406
03980205
FE350043
FA51FE14
0163FDAB
FBCF0509
FECDF9C3
FED0F6DB
04F002F0
FF670634
0078FBFC
FF4801FC
FF73FFC7
01E3F780
048FF4C6
003B042D
FF7E00B8
FD64FFB6
F8B50267
FE6EFBD1
09C2F6EE
F985FA78
0A17F9AC
F610FCA0
0174FAF8
FADEFC52
F644FC31
F7E5FDCC
06E40A94
F489FFF8
02CEF8BE
0232FEA3
FDDB0223
F4FF0160
034FFDB4
F71006E1
FE8FFC33
00E100D3
00E9FC6E
05CC04DE
0774026C
FB2A0A21
0159FFE8
F82DFDA8
0100FC6A
F7B1FE84
03CB01F0
01F60224
F92D02F2
02D2FD47
F9290386
F99A0545
019D003F
028900FC
FE14FA8B
00F3FDFD
FCDC016D
FF4B0722
0363F70F
FD3100CC
FFAFFD82
FE83FFB4
0034FEE2
FF6BFD15
02BCFD55
FAC3FDF7
0287FE01
FEC3FAC2
0118FF40
FAEF01B1
01D1028C
FF850251
003F0029
011F0137
027B011D
03D6009B
02B90091
FDFF0066
FD4EFF99
FF4D064D
01E6F96C
FF0AF9FF
FA8B01F0
04B8FDCD
09CA0283
0258FCEA
04C1FBE2
01DCFC64
FEF1FE96
FF01014A
029B01BC
003CFC47
FFA2FE58
015E016F
FC2F02B6
009D0116
036402BC
01AC0447
FFAFFF75
0036032B
01C603DD
FDB3FECE
0217024E
FC74FFFB
FEF1FEC6
00C60532
05ABFB54
0C8B0084
FCD6F85A
FF69FF7F
FDC40003
047C0138
04CCFF6D
FA92FC2D
01A201F8
01E8039D
07BAFAFD
F94105CB
01E007FE
010600C2
FE1C05D5
FD4DF8C7
03C1F62E
FAF0FD93
0759009C
F86AFE71
F473F363
FB0CFC17
0C250410
F652FA8F
FC5DFFFC
03BC01FE
FCEA0B2D
019A060C
FCBEFCF2
F4C8FC5F
F72AFEF8
01CCFD3F
FCA8FCB1
05720337
0645FC5B
04B402A1
0A19007C
F980F58D
0033022C
0335057A
07780058
F769090A
FF61F676
06A50143
FC200533
01880459
FA1EFFBD
F92EFEC6
FB13F271
01B9F84C
FC77058A
028301A8
04C00118
02BAF97C
FAB500B9
0377FB4E
00DDFD99
FE2300F6
01B6FED9
02150024
04ECFB97
01C6058E
0294FB33
01480523
F6F008C4
019F020F
000FFF11
0941FD2E
00EC070B
031805E1
027000B1
0047FAA5
00BAFAEE
FBD0FEEE
FB920135
FF0C0478
FF8C02FD
0607FB66
FF80FE9D
00D6F68C
FC130405
FFB605B8
00C80315
FC3B055C
FF1B00CD
09D1FB7A
FAAD0541
05ECFBD9
FEBD0AE1
02C20652
FE05FFE4
F9EA01B9
FFDC04B7
014AFFB5
FEB6FFE7
F818FF03
FBE000FC
0306F89E
FDB6040D
01080841
07ABFCDB
FF96F798
FF01FCD6
01400573
FB90FF69
FD4C0380
05F9FC24
FBE404BC
FCC80319
FA74FE72
01C3FD73
02A401F8
F7F70804
0025FDDE
0255FEC4
FAB7FCCC
FE1D01C4
FC8FFDD1
FB850756
FD0C06B9
FEECFE51
006CFE1A
032700FF
FFEBFCE9
FE51FF80
075E010B
FFF3048D
F61DF7EE
F675FF70
FD07F95F
FC5EFE0A
FF400560
F6790545
00EF0098
0453FDA0
014D02EF
003D059E
02A1FC43
003B03EB
018CFF8F
00BC01A6
F722FDC0
F8CFFEAB
02ECFE0D
FD0800AA
0851045D
FFB203E3
FFDA000B
FEE004A1
00220329
03ED01D6
FAB6FD8C
0347FABB
FC17FEB3
FACFF542
038F02F1
0407FCE1
FF110269
0233FFA9
F9D0FF24
001C05FC
FE1C02F6
041EFDAC
FEE7014B
FF8000A0
FCC60383
FFD2FE8A
0111FE32
032F03D4
05220807
02C800B7
FEBBFC33
FBC7FF4D
FE5B05E7
0026FF1F
FE0A00BE
FDE70136
025CFD83
0176FF43
004FF9CE
FE8CFEBF
00160097
FB6100B8
FE8701DE
FCD1078E
01FFFD3F
FE690046
0F18FC9E
FD400544
07880243
007C0303
0116FB54
01830546
FE5BFFD7
010C0364
F8FC0282
FFC4055A
0363FCE2
FCF100AC
009AFFB0
FA6D0045
007703C7
05FEF86D
03C5FE2A
FC270211
FFD4FEE4
0206045C
F863010B
04EFFD42
050A00AB
0155FAD9
FDC90546
04B0FC18
FD06068D
00270575
FE32041F
0101FCFB
FD9AFBF3
029C005E
FECD0AC9
0161FE1B
FE82FD10
01AAFE38
FE8AFBC1
FBD0FD1B
0083013C
F88FFF2E
00ED0235
05AE01B5
0237FB68
0008083D
01E5FCBB
FE33FD28
016B0528
FA5C03E8
08D10392
FC110501
FF11FAC0
FDDD05F2
FFDA02E5
06DE0028
003DFF08
FDE80079
00620512
FF4F01F3
F951FE61
00550367
FF5B00C0
FA81FC24
022F0109
0160FEDC
03A8FD3B
025006F4
0152FB46
FFC7FD04
09F9FC3E
0700FE02
FBD9F79F
069B0143
034B02CC
02CFFDA0
030606FF
00AB0194
00D5017B
FC30FD8A
FF13FEAC
0768F93C
FBAFF624
FF360942
FDC1004A
F823FFCB
FD6E01E0
075204AB
F69AFD91
F9510128
0499FF7B
FD05FD78
FEDC0008
F91CFAED
FB84FEC1
FCE2FCFC
032AFEDA
FF21049D
00000200
014CFA8F
FE3C0387
078D0445
FD23F5D4
FFC70111
FD80024F
FFAEFC38
03E708C9
F684F868
043AFFB7
F89C073B
FED600C0
FBC405FD
015700FB
F8C7F98C
FE8D05A1
02C1FB9D
FF17FCE7
FF02FBB7
FFDA002F
FF24FF01
01AF019F
022DFDF2
012902DE
FED0FE73
0215FDCE
FC8400FE
002D02FF
F6C10721
FFF7FEBC
0386F7EB
01E6FD9A
09EFFF7C
00D20912
FF9DFFC6
0392F997
00E5FCB6
FE77FC01
042002B7
FF55FB3B
FFE0FC5A
FCBC05D2
05A30267
02F9FA2A
06B6FF94
FF6700D4
FD0EF9F2
FD0304F7
FF4F0044
FDF4045B
0041FC54
05C7FCE8
FB97FD99
FD9EF8E2
0034FE1E
F8FC01E8
FE65006B
FBCDFDB0
FF3CFEB1
0119FA31
FAFDFF55
F739F965
01E9FD50
FFF001A0
0320FCB1
0442065C
00B20063
FF12FE32
02D8FED4
FD2FFF77
FC97FC4E
FFFCFD97
0347FA8E
00BC03FD
01CFFBE5
F94AFC6F
FE24FB2B
046D011B
0253007A
00790440
03BAFFCF
03AD0020
01F604F2
0671FB9D
002A068A
042B0400
03220099
027403DF
FB21FE62
03460222
029DFDE7
FEA3003C
00500091
017CF715
0E1EFFF0
0227FB8D
02CFFE7C
02390025
F69B0533
FBDEFEF8
01BBFF91
FBBDF8F2
FF0303A0
060403E4
FA1EFEAD
0836010D
015BFE26
030CFB37
FD11012A
FA3F02C2
043F00E4
F9E701B0
031A01B0
0000031D
FE560615
FD7B0081
FE6AFBB4
02A602D5
FFBDFED7
03FA02FD
FEEF0CD5
F75CFDED
06950040
FD940695
FE1200A2
FF61F9A4
02BAFDD5
04A8FF0E
FB6AFC7D
0031012B
FFAC0515
031800BF
FD160369
FB2B01E2
FEF00547
FCA20579
022003D1
0907FE0C
096EF93E
02F1FE8A
F93301EF
0693FFDC
02BBFED7
FE09FBDE
00C003DF
0343F41F
0012083D
00740126
FA23FF09
FD1400AC
071AFC8B
07CC049A
FA6C0C2C
0B07FCE0
029D084D
04D7FF40
FFFBFE9E
F62DFDB6
EF6AF857
041500BF
0475FDF7
05AF01AE
00FCFA7C
FE61FD0F
FFD20231
FDF300E3
04FA0000
0256031E
01EBF935
0150000A
FC30FEEC
022CFE30
0013014A
FBD100DB
0215FE8F
FF6FFDB1
03B0FE2B
FB5003F2
001201F8
FAFD0280
000406D4
FC6301D6
FD67FE69
FFCE038B
015A01E5
FCFAFF8A
FE77FC41
FB1CFCA7
0229FD46
FC1C0212
FC7AFA3C
FFFC03A3
FF18017C
005EFD20
FF57FEF5
FC96FDE8
F8C0004B
014802E9
F838FE4F
FEC60780
04A7023B
09DBFFA7
FF1D003F
FDE4F867
037D0757
FDAA0740
01B907B2
FD4701AC
FECD030F
FF3C0009
002B013D
017D034D
FDE80247
FF9DF84E
FF330173
00840138
035D02E0
FBBEFD36
FF050108
FAE6FDDF
002AFEF3
FB960117
FE070037
006EFFF4
0076FFC8
F8FFFF5D
FF600023
04EAFBC3
040BFE65
000FFAFC
03F0011E
01DA03E9
FFBD038A
00E001D9
FFB1004A
016A0599
0511029E
0360FF4A
FF92FFF9
02550918
0114006D
03C1FD9D
0162FF79
FDA0FCB4
017904C1
0182FF5A
030FFE60
024AFFB3
FFC303DA
FE41FDE2
FEF40107
02A40340
FDDC0209
02B80100
FDD7FDA4
FEA1FE91
FED1FC88
FFC1FCC0
FF73FFBA
FE5502B2
00B9005E
017801A2
05A4001C
01FF03A3
043001B0
FBB1FF3F
FECF0392
00A0019A
05B4FFA0
FAE50042
002F057E
FB7BFA9A
0211031F
0190FA50
05DF025C
F8E8F816
01C2018E
FF1F0179
0312FB17
FFCAFFA6
FBD305A8
00250C6C
001D0275
05EA0124
0316013F
06B70196
03E2FD31
00AEFD99
FFEDFFAA
00A8FD22
FE990130
F9D1FD50
01760233
03F5F936
0729018F
03B40606
001805B6
FF52001E
FE30FDAF
F81000DE
FB970329
00A5FAAA
F6D7050D
0AD4FEF5
FD12FDDB
FBAC06B0
FDBB0136
FFF6FD84
046805A5
FD54FE4C
050DFD82
FBB9FE9A
015BF8BA
FE740407
FD3C022A
FF590416
FEEDFAE4
0001FC12
FFB8FEBF
081B05D6
03FBFEDC
00CDFEA9
0A5FFF4D
FCF9FC48
062AF9F9
0416FF32
FDEE02EA
004EFD9D
EFCFFE1E
FF9C0082
0503F984
FA4BF89D
0CC0FEE2
FAC0012F
FC68FE74
FDEA0181
F423FC3E
FD3BFF91
0B740F42
FADF03BC
FB10F98C
05BFFD8D
FD0DFEA7
F953018B
03E9012D
F9A805CE
FF0400C2
027CFDD4
0155FDDC
052B0411
048E046B
FEDF025C
021C031C
F813F70E
FE3A00B4
FACE033A
FD1B0220
F809003B
FAFAFC82
04E3FB32
F476FF80
FA990213
0424FFB1
02F0FF8C
FF32FBC2
054607B9
0C4004C5
FD2F0587
FE6FFA22
FFA4F902
FA6FF5A4
04E50280
0191014A
00BAFE7C
073E05F8
00280110
FE65FB68
FC970456
066E04BD
0153FFDE
FB97036E
FADAF9E3
FE87FE8A
FE6AFB40
02330739
01E80136
FB18FF98
FBA20014
0390FE2F
FC1BFF75
00E5039A
033205FD
01200331
0001018F
FBE50241
FD5DFB27
048605BD
048FFA2A
FBE803E2
04F308A1
FABBFC08
01E6003D
0392FC20
0131FAFB
002BFF4C
037BFDF9
0BC50115
FECF01DB
FE42FC00
017603F6
FA0004FB
00BA0215
FE2E0029
048303D2
F909FB00
F81E07A9
06BB0141
F749FA88
FF6B0000
00F4011D
097D022E
010DFBB8
09B5FF24
0268F96D
04530060
FFFBF889
F9920F59
069F02BF
F30202E4
F9860063
0075F952
FFBF02B1
064D0815
025C0D5C
F65BFD95
0A18FEB9
0309040B
010A0151
04C301AE
02F0FE8C
FBC301AE
FDC5044A
0985FBBF
FEE3FB64
F97DF8F7
05900188
FF6FFCF8
FAD40558
FFE70336
FE0EFE98
FE97000F
FF5401BE
FD0AFABD
030EFA83
0A1302B0
F6630272
FABA02B3
FB33FD63
0532FF7C
00E9F9B1
F5A7F62C
0074FBF0
0014FA8A
0A3000BF
048C004A
FE31FA37
FCC8032A
FA550371
0829FBCE
FD5A0262
05A2077E
00DFFC7B
FF5301E8
FDFBFFD7
06460155
F4B3FAC9
00AC025A
035A000F
00B6F845
FC210408
F9DF0B65
FCF90AB7
FE620508
FFFD03C3
0065FD08
01B60834
047A03D9
03470161
038900DD
FFF70055
FA07FBD2
FFCBF8B1
FFC2FD32
003DFDEE
F92E025A
0A7EFAAF
FDFE06C1
03C301C3
FFDEFFF7
00BE0225
050500EC
04F002A6
FBE30463
06E5FAD4
FC4305B1
02610463
FABC0631
029EFD22
029DFF66
F9C608A3
FDD7008D
05C202B9
FD89FDE1
02E10123
FAEE00A8
FFC50341
02AFFC68
00F50328
050803A3
FE4BFE13
FDDCF9E4
008B04D1
FD950764
001DFDD8
057BFF9B
FC96018D
00B0FCEB
FF76FC81
0511FB74
FE6000E2
FF2F060C
00BE0603
FEE70090
F95BFD4D
0452FC66
01A10169
FDACFE2F
03ABFCD8
053405E0
FED601D6
00C0FE66
0389FA8E
0146FD14
031601A1
04690125
FDB2FCD0
FC550363
0259FF42
FF4B00A5
078A00AB
044601C7
0511099C
01DA008E
F8F0F7A4
FD0502DF
0486042D
0368006C
06C9FFCE
F76BFC2F
05E10533
FDB5020C
047203BB
FDDF0266
01AAFFE6
FC34F8E9
FBCBFBF3
FC9E026E
FA7303F1
043CFF43
FBD0FD72
00FC0616
FAE6FC00
FF92FBD4
FF79FBA4
0117016A
FD73FCEC
FE8B0413
029E01C3
00E6F7AB
FCDBFED9
FD820991
025C0591
0145FF9C
04890693
0047005D
060A00EC
01E702AB
03B5001D
FEF6FA2F
0072004E
FD0F0230
FE99FF10
02DDFF5E
035EFDB2
03D0FF14
043704EC
03980666
FCA20041
00B60031
FADF0122
02DFFFC0
FFA106E0
FD010505
037F00CD
01DD00C6
FC7300A8
FD920007
FDFBFC6E
0166FF35
FD7C0361
FEBBFE3C
FD5A01E8
02F7FD74
078FFF0A
FE1E02BD
0019019A
0440FDF1
FF4BFE1F
FE42FE81
FFC301DB
02990093
FF7EFDE6
01B1FD2E
FC30FD6F
00E7FF85
FF4601E8
00EB02FD
FED1FE34
FED2FEEB
FC64FE49
00FE00B7
FBAA01F4
030DFDA9
FC960185
FD50FFBA
0052FE6B
FC6B00B2
FDCCFDF0
03540516
FE29FF68
03240036
001900E4
FE7C0669
00FA0270
FFA80046
FDCA00B1
FE310087
FFFAF9CE
FDAB0007
002E03AE
00A00022
FD9C0197
045F0002
FBB10063
0128FF06
FB09034B
01FDFFC8
01C1009D
00DCFC7B
00CC00BD
FEF905AB
FEF303C5
FDF7FAFE
0084FFA3
FC1FF920
FF6B03E6
0546FC4B
FEB002C5
019C0008
FD530243
012A0057
FD7C018B
008BFF7E
FE950114
0171FCD0
FCD9FC70
0028FB5A
FEC9FFA7
FE1E04DE
FC5E0240
04BB043C
FF00FC71
0264FEA8
FD360163
012DFFFA
FD22036C
FC320195
0060FF3C
089E0147
FD90040C
FEFBFC94
06CDFFCC
FF5E01A6
F85B0030
049E044F
FE95FBFA
046A0181
0150FC26
FB22FF0F
FFC60259
0652FD68
06740129
0159040D
FD68FB62
FB460050
00EAFEAC
06FA0232
FCDEFC73
FC5BF707
FE7A0504
01B10254
07FC02F9
0336017D
FA9D009A
FC9BFA4C
01B102A3
FC3FFDDC
FDB800B7
045BFC55
007F0378
FE0DFE9B
FD2103E1
FC1DFF7B
02B6FB33
02FAFCE6
FFA6F876
FE8502DD
00AA02D9
016CFF7C
FDA80449
04110579
FE96021D
04CA007B
FFE0FBEB
01FE000C
FD110028
FEDCFD2B
FFDEFDF5
FE3D050E
01FB0380
024FFA6C
FFBF014F
00360122
FAC2FF5B
048DFFE5
01EEFED0
04AA04AD
0312FF60
FA83FE85
0633FF6E
01060261
FF2801E8
FF37FE89
011300FB
F94EFCA6
0124FEF6
061602A7
0192001C
FE8CFE6D
FCF206CB
FB0DFA6C
FFD7FDEE
03D900DC
FB600016
FFB5FB0B
FABFF9C5
FCA40505
FD95006D
035C0304
01D9FA80
009B063A
FD0CF967
F7D5FDC9
FC3BFC60
FE73009E
0779FDFD
01EF067E
00A60480
05D8F8E8
0235FDE2
FC4E0704
FFC8053C
FF8200E4
076108E8
FF540154
04FA0337
06320177
0473FF0E
00D50288
0216FED8
FF0F0133
FC0600DF
01860224
06E4FF33
031E0023
067DFE89
04E603BA
FDBAFDE5
010201AF
FDFEFFB3
FC7F00E0
08A102A9
FB260212
014BFFB2
FE5D08A1
FEEE003F
0151FD8B
FA030025
01740240
FAF3FEA5
01D4FD87
F7EEFDFB
FFE2FD44
05BFFBA6
0012000E
FE26FF62
FA9C06C1
028A00A8
FDC6FC28
02FBFA7E
07090816
00ADF7A9
060E00FE
FBACFEAF
FB2300B9
019FFD0F
031FFDEB
FFF70379
07DEFB31
00DDFC45
FBF00404
02C50113
F875FED6
073803DD
FD99F9D9
0145FF8A
0425FCCD
FC7BFF4D
FFABFD08
0078F8BA
FA6BFE3E
F8720400
FE4FFEEC
0765FD40
FE8EFDDA
053BFBFA
013D0139
FFEF01BC
019B00E2
F8090314
040900E7
059DF326
FB88FD75
04A2FC01
02740377
00C4043F
FD950149
FA84018B
056A060D
0292FB98
07ADFC52
F8B2FAB6
FD00FFC5
FF4BFAFC
FF5EFD25
009CFBFF
04550409
FB0EFDE1
FB140193
FE55FDC8
FB38026B
F9AC0400
01D302E8
FBE60279
FFAA02EC
F93EFEBC
FE2DFF1A
033AFC4D
05EFFFC0
00B5FDA9
002304D8
03540691
FCC804B7
06330271
FCE901E3
057B06EE
047005B9
04360228
FD830138
044F0935
FE120573
00BCFDF6
01D8FFC0
0402FD41
FCE507DC
071AFA65
01E2FDC3
FF9C00AB
0282023F
0086F8E0
FDFB005F
1032FD33
F88F0161
05C803BD
FE730ADC
09F7FC5C
FC1FFD2D
FDF3FD58
01E3FF43
FB2007AF
0390FC03
0307010E
04B5FE92
048602BE
031CFEA7
02170210
046C01B7
02AB05FF
FE7901A7
FC3DFB72
01C5FB32
09F0FD4C
06430542
FB72FC3C
0665034F
014104C0
003DFB13
FC400495
079100FA
FDAF02AB
FC7C0270
01730522
FDD8F82E
0420FD5B
FE0E04E2
FF7800DE
FD6CFC0F
FCB1FBB8
0369FA9F
F8E5FFCC
FBC904DC
FE8D0001
03BC0191
057BFFDF
FB9AFCE0
FE75F9A0
FBBA0273
03EDFF0B
FF6FFF28
00B605E5
0347FB21
FF24FBAA
03090210
003FF89A
00F70170
02F10098
02C4020B
FBFD0297
FC1DF8CC
0878004F
FE5302BD
03C6FEBF
F9B30719
FD7EFE60
FD20FD2A
034DFB2C
FFFCF7FB
08630336
FA45FD0F
FC7503FC
02A903FC
07A60094
019F0230
F936FFE1
026204BA
FC4A0320
0241FFBF
FF21FE2D
00AD0250
FD0E0054
FBD3037D
FBA4FAA0
00E6FD44
F996FDE4
0177FE8A
F5AF01E1
F890FD27
FAC5017A
088A0798
FCC3FB2D
005AFF90
024AFCE0
00BAFE31
036E0434
F2F8015F
FE1EFB3E
F9FB00A8
FDAFFD6F
0591FA1C
07900328
08EF0121
091700AD
05BEFE92
024FFEF5
FC4E04B3
04DA027C
FE7E0397
F89109CD
FE9FF7FD
FEC202F3
06AC04EB
087503DF
F84B015F
FBFEFBD0
FFB3F7AD
0691034C
FF130146
0227030E
FF50FE7E
FF2B01DB
FBFE0404
01100297
FD5D0135
F9FC02C5
03BCFE3E
F9A1FBDE
0189FCA5
03F1FC7D
0146FBAF
FD240474
FCFD037A
013CFBC7
054101EE
FC8AF9DE
01360441
FA7F051A
FE8AFFAD
052F0559
05F9010D
01B802B9
FF06FE60
0691F97D
F7BAFD86
FD4800E9
061006E6
01ACF803
0465FF6F
0869FD27
FCA30199
FE96FAC6
FB7BFD03
09B3FE20
FFD504BC
FDAFFB70
F97F03FF
0C44FF9B
02FFFBE0
078902DA
F952FAE5
F71B0D19
FD9B0126
FBEA0210
0652FE02
FFF603EB
FA7FFD4D
F790F679
F92F000F
FCFAFF0E
020BFE0E
FFA6FDB6
00AC068C
FC9301CD
06B00247
0063F5B5
0552FD95
00B3FC5D
02F8068D
03F0FFE9
FFF6F6BA
0008FF15
FB320699
04610499
0281FF30
FEEF037D
FE0AFAE8
016D04DA
02310660
002BFE33
049A0017
FD4603B5
FBE20522
034FFA3C
FFDFFEF3
03ABFF25
FE5B019A
02AFFF46
FFA10853
FFCB0655
02FD022A
03D6FF6A
04A202B0
FF5E08D9
FEE1FF88
03E5F976
01E30672
FE8DFE2C
FF0FFF07
F941FA2D
FBFEF9E5
055202E2
F882003F
017B01CD
011B01E9
03E9026F
0091FE46
FA610212
03510288
02100156
0377F5EA
FF5CFDC8
FACDFFCF
01ABFDC4
064703A7
FF2B0428
FF6CFE96
FDE5FF95
03BD023C
009702C5
02390180
FBA4010E
FC2A07AE
FE5B04F5
FDB1FE0C
007CFFC9
0374FFC5
0459007B
0248FF06
FD20FBBD
01870064
FD7AFFFC
FA89FB98
FEBF0347
04DE02D1
032B03BB
0966FF12
01DFF6BE
FAD702EF
00530552
FC670045
03950848
03980309
0934018E
008CFD7B
02D0F3C8
02BA0BE4
00850801
04F20560
FF5A026F
FBD0FE2A
04CD0484
02700152
FD8403D0
FBCF0116
FD64F8F2
FD1DFC40
01F0FE66
056A013A
F6E7FD8F
FBBC05E1
01980361
0083FED5
04FD043D
00F90101
024DFD48
016A03D8
F7F901ED
FEE502D5
037CFE3D
FF77FC25
03C0FAE9
FC15FD9B
FC0B013F
00F402FC
01190322
FDB502A4
0266FC0A
013B05E5
01540864
00DAFBB6
012F0356
FD91FD3A
FE83FCBC
03860441
057BFD9E
F945FC01
FFD9FF23
00DEF8B2
FFB10534
04A8FED4
071A0148
0B7F0094
FE99079B
02E2F4EB
00BC005B
FF8C00D3
0679FE48
FA80031D
FEDC02EA
0488FA1A
06F1FDF2
0095FD03
063701EB
FF46FE00
05ACFDB1
046CFDE1
062104BE
02A3FC6B
011EFBCD
F9CAFEBC
010E01EE
009DFBF0
02E2065A
03B20017
051CFCEC
01E5FED3
FAEAFF80
FE92F8F4
FFF5FBCC
040A0143
FDDC046B
044A00ED
025EFEE6
FEF1000D
F67EFF15
FFE301E7
F5CF01AA
FA9502BB
FFCDFFDD
010602B0
FE8707D0
020CFF3C
04330049
FE0EFA83
F950FD4A
FBB901BA
00E8FEA7
03AAFF02
FDC003B9
FE7C00A9
074BFEE3
0312FF5A
019F0737
0064FA7F
03B70065
FBD700CF
0077FF0A
067E014A
FF4900B4
F7BDFC80
FD86FCFF
002900D5
059402E2
014102B3
FCF3FFD9
0124FB34
FC81F93C
F85E0619
03AA06A5
08270323
018DF9B3
FF8404E7
0399F95C
05BF0197
FE36FBA4
FD83FB7A
0758FDD8
028AFD91
FFFB03B8
03D0FA50
0270009D
FC070CA9
05D102DA
FE9DFB9D
07E9FB07
022C038C
042301FE
0256FEAC
FD3AFB8A
FB0FFA1E
FF81FE75
FD2700E2
FCD1044A
0013032B
FFDFFDC1
0434FFFA
049BFF8F
FFDA0609
FED4017A
0011028D
F8DD0134
FC54004D
FDBCFE1D
04F50838
FA1BFC9F
029D043E
FDA602C8
016FFBF2
042600F3
FAA40306
0485FE60
03AE027D
F80AFE24
FD8E0357
FFB9FF9C
FE8300BA
014802DB
0121041C
FD63056C
03B8F8EF
FAFF03D7
0274F6F4
0032FE5C
059E029C
FE1F008D
FD48FBAD
F839FE2D
FFF1F613
027EFDBA
032DFFE5
FFCAFEB1
047C062B
01E002D9
017C0119
057BFE1B
035DFE23
008D01D0
028101E5
008400A7
FF9CFF6F
FF6E0015
0195FF79
019A001D
FD34031F
FF31FD4A
06B70371
FFE1FCC5
061A04EF
0484FE06
FD1E009D
00B400C0
FC69032E
FE39FC7D
FFA104C5
03EE0122
FF59FA89
02EDFF0C
02260211
FE650173
0706FFF5
FFAB0545
02E30041
FC18FE4E
01B001E7
FF0403A5
FB53FC4A
018102C1
FFB70177
FF7C0BA3
05FA006F
03C0F4D2
FEA2024A
FFABF982
04B00019
02400148
0397010C
09A9F6B6
F8620039
03D80EE9
05C0FB4C
FF060D26
F2CBFD82
01260505
03F1FFCC
0B3CFE36
FF760755
08F9FFD4
FBEF039A
032904B7
05080393
0061F9E5
F652014A
FA4109CE
0848FA23
07BDFEC5
0B73FB81
059601D6
00840703
FC84FC96
FB6F039A
FEF604E6
F9ADFB95
03C4FB46
FE9604B1
FC4BF794
FE39FD74
FE6A008D
0784FE43
FFA6F870
FD4E013B
FBABFFE3
F905FDCB
F81BF3D5
04EC0180
052C0881
F9BFF8D6
FF6AFB6C
FEE7FCBB
07BC0015
FD33FB45
02A6FF7E
012602DA
0CFEFD4C
046BFE1F
0042FDCE
0164FEF3
039A02EA
00FB0351
F9880509
FF2B05EE
FE570221
FF8F03E9
FE9501D9
FDB8F72A
FFAA068A
FDBBFF52
F7A9FCFA
FE2DFC10
F644F803
0574029E
F44FFA19
FCC9FB81
FC610525
0286FEE9
030A0156
FCC8FB0D
FC41FCF3
F8FDFE36
FA6AFFE0
FFE6FB76
01270B90
0777FC1D
041FF8B5
025CFDE8
015FFA38
00E806B7
FD4F046A
020708A1
F77F0BC4
07A1FE5F
046CFC56
00640126
0320FD7A
F55D05E2
FC97FB87
FE7EF7DC
019D0109
FEFBFB26
015FFF5A
0089FCFC
FE170216
FCFB06FB
00BBFEF1
0026FF21
FA0DFF3F
00A00007
F9D3FEFA
03A8FB5D
FF55FF7F
FE5F00AF
FC5DFF95
00B601EC
FF51FDA0
0151FE1E
F5F70409
0104031B
F88505EF
FC97FF37
FFF6FCE0
06250066
FF4703BB
0032FAC9
07AEFA3E
FCDE023A
FDC5FED3
FE5A006C
FEF9FC06
FEB9017F
0078FF00
FDD2FDC2
FE16FF21
070EFF00
074AFFBD
FEFD047C
000EFC81
FD5A04DE
0322032D
FFDF02CD
FDC30221
FB0FFBE4
FD86094B
FDFC0184
00800306
FF27FEDF
FEE7FFF1
FC9D005E
02060031
FE55013E
FE480648
07C7FEAF
FCC30251
FFE8FE95
00D1FFFE
02EA0071
0115F735
0453FDA9
FDDE0123
0235FC99
FB4DFF3E
FEB300F1
F972FD49
03BE06A0
FBCB050B
FDC2FE89
F8DCFE71
0587FBBD
FECDFF40
FCD6FD09
FDABFF72
FDB00577
F92D005C
02A9FE73
FE85FC48
FF69FF4B
FC510247
F971FE21
FE37005F
FF4806C5
02EBF7F5
FE01FBD3
0161059E
0143088D
016001B7
0219FE71
0283FD25
0030FDD3
FF0103B0
035D0552
0237004E
023F0350
027FFD1B
FD2700AD
051E0259
FC7E0110
FC77010E
F986FC54
0083FE97
FE2DFE39
FE620297
05E1FD6E
FC8304B8
03E408C6
FCD7FF8F
01D2003B
FB9BFACD
02B6FB5A
FE3FF884
FDE80133
FBE1FF44
FF13FA65
FC4C0462
028E04EF
FD7C013F
FE14FFBF
0200FC66
02AF0301
FA6703BD
F9400045
FD48FE56
05B50344
FDAC0441
FF24F7F9
01B90250
00A405D2
FAEC02EF
0452FF90
020E0002
FF92093D
02C8FA37
0017FCBD
0127047D
02E901C5
0269FAD6
FE1202AD
F7A7FE93
F93CFEC9
01960244
05EC04B0
FD0DFCAB
013000C1
FF710AD1
0064FDC4
FFBCFB92
00740181
FB530110
F937FA9A
0206040F
00270410
FFE0FC63
FC3AFC88
01CCFAAC
FCE8FA4F
0015FFE7
01E0FF70
FF4E0344
03FD063B
02460159
01F7033D
05A20098
04A3019B
03B3FBDD
FE67FDAE
02AA00F8
FEB00310
FF13FB28
FCE7091D
01C206F5
058F02CA
03760240
F955FB74
0216FD97
FEDA0501
02DDFC6E
020C0355
0394FA4B
FBE2FFE3
041DFB0E
05A10202
004EFE55
021303C0
FEE502A8
FD23FABC
03690802
FE180304
02E0FD18
FD380086
0894FB5F
FE9EFF8F
02B40038
FA54FF0F
009AFF45
F9B0FEF5
FDE90089
00F7008D
00FC0026
FA90035D
FE35FDE2
FDA2FCA6
FD05026C
FC9D0332
FED30067
036EFCF8
010802E4
04C3080E
0118FCD5
00B3FCEB
F8B3063F
FDE901B6
FF1FFB66
016A00C6
00F600B7
0204038D
FC8B0034
0242FF7B
00DF006E
FCCCFC98
013200CE
FF8B036A
FFE5002F
FE130397
FBAF07C0
01D8FD47
FA64FCB8
FF78FF65
0367038B
FEF404BB
00ACFFC7
FEC7FF3C
FF5E0206
048DFE47
0559FD00
0222038C
01CD0094
FFB1F85A
FFC70288
00D30547
FEAC0363
016A01AC
F65002C6
04C6FCF9
0740FBFE
02DE0037
FEE8FFD9
FFAB01A9
00530049
0175F982
02CEFD54
FA95FF03
FDCA06C9
0158FDBB
FDB1FE6E
FE26FD8C
051B0022
05510004
F8C5FF16
07E00306
FB1BFD5F
02C3FC72
031BFEC8
0037FBE8
FD6E04FF
FD66FF08
0029FEED
03FCFEAB
FAABFBF3
005FFEE0
FB6206F8
0114FFD0
FBD3071A
05710101
FD2B0064
01E2FBB3
06ACF75A
FBADFA82
02F3FC2D
FDCE0230
FC43FD2E
031F00FF
FF26FD3E
00ED03B2
02AE03A8
FC0A0082
027F00EE
FDB90840
0594FB91
FB1EFE8F
0482FD1A
F8A5023A
057A032C
FBE3FE90
FB170A53
FCD1053D
FFF60321
FFBE00E5
03880478
FC4302C9
F984FAB4
F990FDF1
06C0FE55
0053FE89
09570185
FEB9040C
FCA8F7F0
00CEFC54
FD4AF78B
FB62F92F
0BADFE65
0438FD8F
FEB701C2
FFEFFE5A
02EDFCF1
00EA0A8A
0028008F
FBE0FD01
FFF10380
00B60092
FB380068
FE04FD6B
FDB1F89A
FCA2FCF7
FCADFDF9
FD36FECE
FC4705F7
FE41FFED
FEE0FE41
027CFED6
FEEEFE87
FE4DFF08
FAF602F8
0448FD2B
F87B0461
01E60148
040FFD3C
FFF90525
0561FFB1
030004D8
FC070848
025201D1
F59D0266
FFEE02DC
05FAF8BE
0329007E
004601F0
FBF6016D
FA42F76F
FF21FFEB
016D04A2
0120010C
FB40006D
059BFFDE
FCDB023B
0036FDBA
00D1FE90
0255FD93
0264FF27
023CFD3C
FDAEFB34
FD9C0626
0067FE78
FF170310
FAF9026B
04A6FF38
FCD30048
023E02D6
0401FF91
FF44059F
FDF3FEFE
FE82050F
01900097
0046FE31
003104CF
0043FCDA
031DFC1C
FF0C00A5
FE36FE9B
08C10309
01BFFEA6
0464011B
0366FD26
FDCB0057
FC5501CF
FFB00137
00D3FC48
FF82018A
041CFE65
FB860039
038A00EE
008801BC
01BA005B
00A3021C
0013052E
FDF1FE31
F943FFFA
05090185
01690030
FD4BFCFD
FBB6FD07
FC0C0373
013801F5
FFF7FBAD
074500A7
038AFF0E
0406FB05
0243FD72
FBE2F900
00B5FB16
069300A4
0374FF01
FC86047A
02FEFE96
FFE9FC63
0533056B
04100019
FEABF9F3
0994FFCE
016BFABD
0158FC6A
FF9CFC38
FE85FBDB
F830FCCB
FC81F8DC
FD1D0284
F97E040B
FDB1FF92
0680FEA2
06F5FBB9
FC850477
FC7501AC
FC9C0084
01E9F8F3
FAFD005E
F65E0626
01A4F752
0330046B
021F0983
024F00A5
02560758
035CFDF0
00FF0497
0AE00BCF
FDAF0184
02990136
F2CBFED3
F97001F8
FC04F380
FF84FAB6
0376FE68
FE2FFFD5
02A70047
FCB1FF28
FED6FC9B
FD9D0081
FC1AFEF4
FDE70231
FC0702D1
FA96FD3F
02FF0190
051DF9BE
FC040402
081A010E
050E00D4
017A0D3C
06B307BB
FBF3FC69
002A00FC
02F2FE25
FDF5038D
FF9FFBD6
018FFA17
FF0CFCCD
01A50018
00100799
FFCE00D4
001FFF36
0646FE3F
07F2041E
029AFD25
FF2702C5
0211FF2E
FE4DFCF8
FF76FE00
0271FF32
0649FA89
FF4405A0
FD1D0854
FB3A0412
03220292
05FAFD41
F2580298
FF9DFD2C
FAD10207
08AE0354
047AFC4B
00AB027C
F99FFC9E
FF89FA60
02A3FB2D
FC120221
FB3D0CC4
0D46F664
FC98FCA9
FC9CFE54
FF96000D
03BB070B
FA9CFD0A
01AAFB2F
FFBFFCC0
FFD6F74E
FDEAFD8E
0686FC9F
F94D0E04
FECD0B6A
00760906
021AFED3
0450FBB8
0888FE28
079D0A27
FD28FE40
032BFE6B
01BF0700
00FB048D
01E4FFE0
F893FE82
063AFD21
00650200
056C0BB5
05D5FEB7
00FC0AC7
03E202E5
F9E1FF1A
011EFE90
FE0B058E
0CCEFACD
FF9E0D09
0744FFA6
F45606BD
046B01E7
0BB3FEB0
000FFF17
05EA0413
FA2D0ADC
06A704EB
FB40FC61
03FC0396
FA92FFCA
FD3CFA75
FCE20484
005E010F
02C103DC
FEC9F936
016FFCC2
00A4F9CB
0016FC31
09AAFCBD
FD31FA7E
FDFFFFDE
04D6FEE6
00A6FE75
FE72049A
0624066B
FF48039D
02D6FFCE
01C50157
FF8EFDFE
025EFEBD
FBA0052B
FC20012C
00AAFCF8
FE1F01F2
00A6FAE7
0233FE2F
FC26018E
FEB60638
0037FFC4
015B000A
03BBFE58
01CBFDCD
010E0102
FB2E0389
FD68FFC2
FE3C0126
FDDAF97E
FFF30140
003C00AC
0064FB77
02A0FD22
FE30FE93
01D1FE61
F5B80063
0116FE98
050202D5
006AFB99
0042FE09
FE1F0588
FEDFFE27
0157FFA5
0252FFBF
F936FC20
000B04F9
06B7FDB0
FE3206B3
03D0038B
0256FC3A
FA69FFB9
0266F46A
0349FCF2
FDB8FB7A
FCA4FE48
FF3401C6
F5D7FF48
FE7001DE
00FA022D
FB33FE71
0AF3FD2F
FB66FF08
0132FCED
FBAEFCCE
F74EFF53
FCDC020C
06240D27
F98EFBFF
01F6F6B2
01A9FDB1
FD2601DB
F6B8FF23
0705FEA4
FBD20540
0695008D
04EDFB14
FD6FFEBB
03EF0583
FFFEFDBF
075503C1
04AB02B5
F8C7FAB7
FACAFC96
FCC2FE75
01400533
FF100465
0081FE99
F80F0671
FA5D0101
FFB30309
0386FC3C
FB740195
FDD0F634
FA8EFA67
F6D9043B
028E0970
0E01FB7C
FE51FC62
0564083E
FDA3F3AE
0204FC46
F999EE7A
01E1F591
07CFFF3E
0300FB59
FFA50479
0034F612
0003FB5C
03300434
048305F8
0500FCDD
09E700B8
092AFC68
05AD00CF
006BFD38
00A8FB39
FBC501D4
F9FFF64B
FC15021B
FCC602F7
FDBA044A
03030323
0BBAFB66
FF6704F2
01100822
FFE5F606
FE4FFB13
F09704B3
F72809AA
FCF5F56F
FA100FC4
FCB00000
FEDEF8B7
FD9405A2
058DFF26
FF93FF7D
05AB0844
FF34077C
FEB10341
F4D5FE17
FF2FFD16
FBB8041E
F638FDE5
FEDEFAEF
FCDFFF2E
F80805BB
049BFE6A
FA09FFF2
00670233
022C01BD
03F704C9
0076F8D2
0646FF54
FFFB0401
001403D5
FE2AFDFF
0012FE72
FA6B02BB
02AB04F5
FDB40681
0091FD6F
049A06D5
0090F86E
00F30361
FF30FFED
FD23FFC4
082D03E9
F9840582
FECDFF05
FEE4FEB2
057CFC1F
0360011D
FFAE01E0
00D301BD
FD9506E8
FC65FD84
0027FDB4
013B0717
02FF06EF
070AFF55
00E3FB2A
04B7FC65
000D058C
FD8D0375
FF8003D9
FEAA01FC
04CFFF39
FF7B0264
FECB014C
02E4FF86
FE3900F4
0280FC45
FCE7F571
FF930767
05E30599
FFBCFF12
FB3DFD6B
015EF681
0463FB6E
0BA1F989
0CC6FF01
F9EDF818
0A391135
FE81FE99
FBD701B0
026C0C83
058B0591
FC1E09B6
F83DFC46
0196004B
033EFE79
0788F988
F8D60390
02070171
FC4EF8DA
FD3306C1
01D5F796
FE1BF4A4
F6F905E0
FFE1FF1E
0410008B
0B4AFD7F
F652F773
00BC0091
018D0631
FE8007E9
03C10953
F9CC0616
0452F02B
000101A3
0BF1F97C
FD69F5F3
0462FD84
040C00B2
029DF907
FD53035B
FDD2F8F0
04960AC5
FBE0FD9B
005AFBB5
FA520A4A
07C60654
FF63FDE3
FB2EF8FC
F61CFE84
FDEB0613
08B3FB53
03E103F3
FE5409F9
FE1CFDA0
FB68FD82
FBC2F9DC
0072F783
FC4EFBB0
FEBAFD5D
FFCC0294
FAF0FA0F
FC16FD93
FD59090F
01E00031
0554FF9A
F8ABFF4B
01C7FAA4
FE1700BF
FD5EFFA1
009F0423
042E072B
FAC1FEDE
FF70F9E5
FCD4FA94
F887FD00
FB240070
F79A0247
FD4A045E
02920754
049BF747
015DFE68
026A0419
FF9D0688
039000AC
FF6E081F
FD9BFD41
FE47FD06
FD16FFFE
01EEFFE3
0C910253
068502FB
F73B0B67
FD1202BD
00230301
03C1FA0F
FE73028C
F9E6FFD5
0555FD13
FCEBFC32
FF67022B
0344FE19
01B4FD96
FA3FFC32
FF15FF15
F991066E
F7B80196
FF6CFCC4
FE930327
059DFA0A
FE8AFE9E
03B2FCC9
039AFED6
04470AE5
013D0AD9
00B9033F
04C7016B
01CBFDEC
02590981
FFBAFDC7
04F4FB93
04BF03C4
03E50376
FDD707D6
FD2BFE4B
FDD3027C
02D7FEDD
FFE107DA
0514FAB3
011607BD
04BC041D
FCB2FBAF
0206FB97
FBC70207
0C1D010A
FFAE0458
FEFD061F
FA560676
081F0367
0508FFE9
FB3C008C
FAC0FCDA
F4CC0413
058E0239
05F800E9
01B0FB3E
FB67FACB
0359F70C
F9C8FF2C
FFB4F7D5
01BA003A
FF47F751
019702F7
FD3C006E
FD6D002A
052C068B
FC84048A
F963FE13
00D000C8
066A00BE
F950003C
015A0684
004BFD35
021F06D9
FC8DFBA3
FA91FD8D
F99A0337
010AFA3C
FCAC02A3
FED5FAEF
F982F9E9
02B20838
011D0005
000100E4
00340124
FFE10674
F9F201E0
02E10266
FCE1FCC7
FED40216
0258010B
FD0EFA70
05D703E8
027B049F
0A5001B5
0176FFB3
024CFCA3
065009B8
FF540332
037203A6
F4B902AF
02EC0020
022EFAC7
0845FE97
021F01F9
FCB3018C
F5A9F6DE
0055F414
02ABFD54
F97F0054
FF060DB9
0967FA7B
014CFFC8
036D01EB
07DDFA48
040CFE96
FC01F312
0AA40029
00D30090
FE10FC8A
F8F20872
FF51FFE5
F7CC09C7
FF19FF0B
F89603DD
0721F74C
0326FC8D
FF53020E
016DFF45
F700FBFB
FA200134
03A3025F
F4EDF9B1
FBA0FD08
F990FC67
026901A4
00A80350
01AFF7B3
FD000192
0162046E
FFD0F973
002AFAF2
FEF90AC5
0173FC89
0197FF4A
032606DF
FD8DFA5E
FCF9FC1C
01AE011B
03D00830
030704A9
06B90049
01C501F9
F753031D
FC1F045E
FCDC09DE
FC890529
F6E2F989
FB75F8F1
F2C3FF31
FE4A001C
07BAFE91
01E60221
FEAA0A93
FF7EFCB4
FEB1FCE7
0514FFEB
FE68F834
FD14FCFE
FE8FFF59
00CCFD02
F8B6F77C
01F4008E
0197FF16
0011047D
024A030B
FA92032C
FEAEFAA8
01DAFCA0
034B0510
00CB00B5
FF480ABD
FB1402C2
FD3BF9B7
FC10FACE
026DF9ED
F97EFC6F
050602ED
017A014B
046A0062
FE32FF62
048B0096
0876044B
039008EC
0036035F
FB5C03DB
010EFD7D
01FFFFE3
F8ECFD48
FA53037D
FCBCFE2B
0278022A
017AFC2F
FBB2FD2A
F9B1FF72
02310297
FF6B0079
FBF40091
FCF6FF8F
FD86FF3F
03150213
0133FC10
02720116
FFEE0121
FC0DFFC1
FFEEFE00
FB67FC29
018EFEFC
FF77FD4F
017DFE67
FCE10114
FFD1003F
FCDE0373
01B701DF
01F8FDC4
FAAA0091
FFFF0030
06520398
FD8C01B2
01D400AF
FCBBFC25
FC92FA62
FF53FEF0
FF39FE29
FDBD028B
FC39050D
0007FF3B
0A8FFB7A
FFF1FF9F
FFC4FE93
FFC2FD05
FD57FD40
FE0F0125
FFE9FF3A
00490367
FE1301F3
FBE4FD42
00C2FF16
FEBFFFCB
03E3019E
FEA6FE76
FFEEFF80
02A1033B
FDB0FCF8
FF07013C
FF7B0190
FB23FFC3
FD91FFF8
028602FE
FDFC0148
FF39FF21
0204FFEC
013AFEB7
FEE0FD9C
FC93030C
FD61FBEF
FE33FF88
FEE8FC62
0278047D
03E0FA27
014AF774
002802DF
01E7F629
079300ED
068805EE
00BB015A
003703A8
FFC40520
03AA0D71
01E7FE09
0230FE49
FE2EFEC0
013B05AE
0BF600FD
015D0462
FF110533
FEF3FA61
06300590
01C4FD5E
FE9F0284
019D0032
FC1A0334
FFEDFE6B
F9C70069
023C0321
009803DD
FBCF0706
FC230152
FFE9FFC1
05CFFA50
04EE0184
FBEE023D
FC51035C
FEC602C3
F85AFF37
02C6FCB4
FC5DFC56
016203C8
0608060E
0156FF49
012F002A
FE5DF8C0
03710384
FD26FEC4
012902C9
0563FCC3
00BB0574
FEA7FB3F
FF55FEF8
FD5FFEDD
0094FC81
FF43055B
FFF60409
024C014E
01D9FD30
01C6013B
FF62FF36
016006D2
FB1E05D3
02E2FE43
018102FB
FF23FF6A
020703BF
01D2FDA6
02E1FD84
FFD301DA
FC47FC18
07E804D9
FFC5F933
01A6011E
FCE5FEBD
FB97021E
FD94FDD0
012EFF33
06E3FE62
01BB043E
014203BF
F5FF0194
07B7FE14
03AF014A
FD0EFD8A
FB4EFD45
FCA70233
012B00EB
FFCB022A
01B2FDCF
FCB90274
FE4702F4
00FEF787
F8AEFE0B
FFD10047
064FFD61
02E0FF82
FF900580
F933FD71
EBC1F7B3
08E5FDD7
FE13FCB8
06520319
005C0349
03A6FE7A
FD4CFBC2
01B2012B
FC540497
02CB0066
086D01D6
0159FF77
0477FF5A
05ABFCA6
FF1A04F1
087900F0
FCF50124
FF03007C
058D00E6
FD23FC0D
00AAFD52
0523FAB5
07420567
FE0B0502
FE1A0036
0335FCF8
0859FCF9
FB00FC6D
F6C604B0
05A7F968
FDBD0322
FED40967
F61000C7
03FD007B
03EBFA28
082DFF79
FF7702FC
F202024C
FD5F066A
F977059A
0B34F80E
FFD404EF
037C00FD
FA2800BE
FBF8FADE
00010095
009EFD95
018A05C9
072805CA
01BCFB79
03D5FF82
FB00F9BC
0315FE5E
FD9CF92C
FE1BFE77
FD6DFFD6
FBAEFE43
FE1702FC
059B068F
FEB3FBC0
FC4000C3
FE6F0603
FF44FA26
FA99FD9B
FB69FD3A
FC79FD8B
0885FFF1
FE890155
FEE9FAD2
01F6FF3B
FEFD00F1
FB8301B0
02D8FEB4
FDDFFE0B
06390157
FEB0FD46
FF400188
FBC1036C
03F5FE8F
01F8FF22
0404FD2E
FC71FADD
043C021B
FE5F00AB
00C803F0
FDFB03A9
FFE7FD04
01BA000A
FE2AFB6A
03B8023B
FE7B0101
FCCEFF8F
FE3BF62C
FE4AF9F1
F8170058
FAFCFCC3
012A026A
FFF00440
03B9FEBB
FF510234
07590142
FF10F9AD
0231F699
00F8FECD
FCEDFFD7
019DFDD2
FA67FA04
0007FAC0
01F90227
FD0A0119
053A0177
FEE60292
01C8F796
FC35030F
00EE04A1
01A3FE0E
045608A6
FD910184
FFE1025B
FF6AFA75
FB6EFCAB
FEC8014C
00370080
FE200192
064BFDBF
038800B2
0A81FDCC
02A3F91B
F9A70562
FC43FE1C
FF33FE52
00CA0635
FE18FAC2
FA5200F7
F6AD00B8
F9E90167
032601D7
FF36FEDE
FDE503AA
FBD30960
00C9021D
07AD02D6
0188FB9B
FE1CFD39
FD28FF94
F7860000
06B40341
FDCE0204
00B004F5
FEC7FCEB
FC4A0867
F7A0F8B4
074D00A2
010900A1
035E060A
FAAF022A
0152FF0D
F91601EE
02180B49
FD850821
FB44FF22
05DD017A
0243F941
FC7A044E
FFCBFFB6
01D2012F
010A04A2
FF190018
FD50009C
FD600111
05C501B6
FF95026A
F836FC89
03C0047C
017107E0
000C00F3
FCC7FAD0
FCDAFFF8
FE3408A3
02C20196
FE55FF12
03A500E6
01FE0466
FD7D01F1
FC9D050A
FC4300B7
03D0040A
FC2601FE
FCBE009C
021B0514
FE3EFE6E
FC3DF5F5
FF02FA0C
0516FF1F
0449FFCD
FC07FD4D
038104AA
0203FFE9
02F10230
FDD40257
FFA00293
FE560078
07110555
F8F0FDE5
FF18FC06
039BFEED
0212FAD2
FECE03FC
004F04E4
02E3035F
00FD044D
FFE9FF14
FC96F9B4
FF4206E8
FE8D027D
03F7FFB5
09D3090E
0268059D
FD9D05D9
00EDF98E
05DEFEDD
FE62FD90
FC8803D9
0627FD61
026C08DB
04BF05AA
FEC4FFAA
09D8FB32
0105FE47
09EC0334
FF930024
02AE020C
F6210326
04E90077
0240FE15
F780FD7A
FA37FC38
FC540166
0013FEFE
05EF0358
0340FD20
007C01AC
03B7F855
FB9EFCFF
FD55FC69
FE15F909
FCA1FF34
07AD006D
FCA701D2
FB9C056B
FEBBFCE1
05CA03B9
FDFA00EB
0809FED6
FB4001A9
0134FCD9
0200FF9F
07D20040
02D2F8E6
001CFDCF
023A01C6
FD66034D
00F4FF80
00AE00C3
03F00149
00D7FFDE
FA1D077C
02A3FD2E
013705FC
FF5EFEC5
02C2FD2B
015F010E
055507B8
03E8FE03
02E201A4
F85301D8
09660079
08C5FF12
00DA01E4
03C80434
FF47007A
014D06B8
FE370167
00D4FF54
0139FB68
F554FD78
FC210100
FF5CF998
0292FEE9
FD71FC84
02F1FCB3
007BFAB0
0150FCC9
FF13036B
01CA0150
0288FD81
0743FEF9
FC41FDF6
0073FF64
00DA0000
FF6902B6
FCED07AF
FDA4FB12
03D500FE
01040669
01DF0457
029600B7
006AFFF7
FD5F029C
FC6608EC
FB46FE24
04520803
FD4DFCB0
0981FE3E
00DFFF44
FA7DF78B
F9C1F9BD
FDC2FE2F
FC6F0035
FEDB07D3
037D00EA
0931FA36
FED9FFF8
009AFAB8
F728050A
FF3C0137
FBFFFD7A
00BA0625
018305C3
059AFAE4
00C7FC5F
0078FB4E
0304085C
FA5D0AAD
040B0989
FCA600DE
022F0398
0027FB72
0473FE31
F9F3FE45
F8840285
02EAFAE5
018B0378
054AFCB1
027D0100
F999FE72
FB88007F
0148015E
0078FC8E
FE9308A5
01640462
015FFF91
FF7B02DD
FB7CFE44
FCE602C6
0341F908
0212FE76
0209FEFF
FFD000CA
0105006A
FEB501E9
02D7007E
FEDAFA60
0435FEB9
00780329
03300223
043D087D
01410708
011604A4
FFFFFE1B
024FFEBE
056D028D
FE7A0776
02ADFCA6
0078015A
FDCD0414
07DC000F
0612FE60
052E0239
0826014E
005DFC0A
00FFFE50
FF3C0146
04670001
FF9CFF4D
FD02000E
03C2FBE8
FF9102E3
019C0067
0262FF14
0463FF2E
0398FD22
0402F843
014CF973
00020170
FE04037B
04F7F4D7
0117FF0A
01BCFCD4
02BAFE1E
0289FAF4
FA2BFB0F
069F034A
FAAA0060
FF9CFD1A
FF5C0292
04C1FEDA
F49A0A22
F9020904
FC3A04BB
FDA9FE5D
FE7100A2
FF10076F
F78D0C0E
FFE5020F
FC5EFFD3
00850336
01BB0124
FD00FA5B
01EBFC29
03040177
F6E70494
F994FDA2
04C9FA26
035D060E
FBA60311
FBC4029B
009F0264
0544FFEC
027CFB4F
049C0311
0AB50254
FC79046D
00F70434
05C60767
FEBFFFF9
066AFBC2
00BDFC63
FDE6008D
0A5F079C
F76D0138
FC3D001F
FC570303
011B05B5
073C04F4
FE24FF00
06ADFF6C
FACDFEBF
017FF6EB
059102A4
0503085F
F9A6FF99
0043F90C
01C4FBE5
FDBC00E7
0261FCD3
03E401BB
024801D3
052F04DF
02EE0678
02B101AF
0C50FD3C
FD3C01E0
07A60506
038FFED3
01BEFC24
03020343
01750422
FFDA01E2
01F20143
FE120209
054AF99B
0925021B
FFBDFBC2
0208064E
0820037C
FB690149
0188014B
FD5D031B
FFCEF75C
0179FF11
FFE0F96A
FDB0FF5E
04B3032F
051E066D
0297FF92
FDEF0070
FE5303C6
FE75FE73
FAF5FDFC
FF600090
0110FE8F
FDC7F8D3
02EE015E
0306FACF
02850554
0106FB24
FF8C01C5
0515FD45
0351FD60
038300E6
FB45F950
042BFEE2
FB91036B
FEA9FAA6
FCAD00E6
017401D0
FBBF05EC
047006F8
FB4A023B
001CFE8B
FD4C048A
FF29FDBE
F8280396
FADAFDF6
FCB3FC34
0865FFFB
FCB80223
FC36FC47
03E8FFBD
03C70205
FADE0205
FF4FFE27
FFF4FAA3
FE2A0474
0128FDCF
FF6BFCFB
FF370437
04F1FEE9
04C1009C
03F2FFA4
FCD3FB46
FCCE0182
FFC00304
050F08EE
FC9D01AF
FED7FC64
0453FE76
013C0198
08C30584
FBEC0529
F957FEF7
FDEEF98C
033904DA
0071FD0D
FCCDFE07
0058FDCE
00860487
03DEFCAC
00CA0417
0515FEFB
FC0DFE6B
06C2FB09
FC14FDCC
F900FB8D
FF4C0178
FD5800AE
FD070635
04140121
FADE01C9
04470076
FFAEFD87
FDB2FF8D
F94805F8
FFD0FF83
FBF00393
042A0800
FEA2036C
F9D20308
03C5F82A
FFDB0006
FE7EFEAE
FD58016A
FEAFFE56
059D039F
FE72FF5B
FE1501B3
0B0D01C7
0466FF2E
010D01C1
011A00EF
FD1FFD9D
FB25FD57
02ECFEC0
03A505F2
FA2BFF20
FE9EF94C
FF6B066E
FB83006F
0477021B
00330287
026505DA
FCE5F853
FE6FFDD3
FD710214
FDC302C4
04B5F0FA
FF5E0137
01A1FED9
FF68FF6D
0582FE25
FF69FC9D
06D6FDFD
F500FDAA
FF850365
FB8AFF93
000FFE95
FA0BFC30
00C3036E
FB96FE97
014900D0
FEEC059A
02250178
FFE2050A
0365FCC0
FA5C0048
FCD303B8
FEC10246
0022FC88
021BFB8B
F9B301F6
F9A90215
FD3DFD0F
0445FE11
FFD80104
FF79FCD5
FE7CFFEB
FFA70024
FD6F00E9
00F40312
FBE4FC25
037403D4
FE0B0344
FA5200CE
FD990361
FDE102DC
069004AF
FF8F016D
FD1000DC
FEAD0631
FF080144
FFA8FF0E
FE00FCD4
0018FC1B
FA4D063E
05140671
03B6F731
0446FB54
FD1EFD69
0169F911
0226FC40
FE32F7A0
04DB016A
04BF0666
029FFEC2
FB3E063F
07A50271
00D20185
FBF30471
019C027F
FE76FA26
FEF50034
0739045F
0140FCA8
013DFD71
FB5BFC93
FBECFAA8
FD52FA42
FCCEFE51
F94FFDE4
FAB00273
02FB02DD
08C0F88F
FF92FBF7
00F7FE92
0345FC4F
0041FEBE
FA480530
FE4EFDA4
FFD8FC1F
03020342
00B004A5
FCDE0096
FE010364
00C60048
FEB10567
041A0310
005E016E
FF2C0415
FB9AFCA8
FBD700E9
FB91FFB7
FDB3FBA3
020601FE
06DBFD3F
FECA0494
FF74FCCC
FE6B01C7
01F4FA2E
027D00C6
055103C1
F82B0135
0108FA96
FF30022A
FD9BFC73
FF1500CB
02540231
007D0088
009306A4
FD9200DA
00ADFE19
0233FD39
03850155
FC23078A
FDA30138
FFE7FF11
04ECFD9D
FE2701A0
FFF0FFEA
08070256
FE1900E1
FF15032E
03220224
FC6AFB4D
07180351
044BF980
FEF0012B
010201C4
FB3B0112
00ACFEB4
012B01D3
FF8EFFFD
FE3AFF4D
0149FCB7
05FF02F7
007DFF1E
FE2AFC13
02B103A9
022C0434
0408FCCC
FE3405FE
FC7F00DF
FDC1FF69
FBC7FC70
FBD1034A
FBE0FF91
FDD40107
0040FC91
042E0545
018DFA64
FC1CFDDB
0186FF2D
FB650089
0284F702
FB020236
050D025B
01ADFB34
0053FF26
FACB003A
056404AE
FDFE02FD
06930A3B
FDD8F9EE
0025FCE0
00F40559
04EC0435
01C30182
0032FCA0
FAEB0362
FE020328
025AFA50
0575FA5A
FFE7FB7F
03A30298
0868FBE5
FD4D03F0
03E304D4
0032FC55
FD41FD44
FD86FDE8
FC55FF05
022302AD
03C3FCA5
F9A8FCA5
F9D5FD5F
047AFCFC
06E603AA
FB50FA55
FFA5F9FC
0280FCD1
027EFFAE
04510482
03AF01D9
