03E4FF9C
FFEAFEB3
01830242
FEB5008B
01CE0004
FF58FEAC
FFBE019E
FC050074
00950270
01560205
000A01B8
01B6FDCE
FE87FF88
FF080058
004300FB
FE55FC7C
FF04FE42
010BFFF3
FF68FBA9
01EA04A2
FDC9FF47
FCDDFF05
005800E1
021D0059
0001FDDA
017A0098
FE41FE91
FEA80035
FFE1020B
007301FF
FFC70218
00DCFDCD
0188FD80
010BFEAA
FE75010C
FF6BFD59
03CFFB81
026D0008
004C0088
FC350043
01BBFFEA
0075FDC3
FFE1FFF1
FF0DFEB8
FD030101
FF5B021C
0098010C
0052FFCB
00AD0037
0044FDF6
01F60316
045AFDED
FEDBFD11
008C0143
00270115
026EFE91
02230022
02380079
FF2802DB
0113FF6C
0140FDCA
FB5D002C
002F0201
FCAA0320
011F0334
0303FBE6
002EFF87
01920040
FEF90152
FE100256
FCF6FE04
FFC20137
003A00F2
032C003C
0262009C
FFB7FF11
02C40347
FE7CFFC2
F976FE99
01A8FC58
FFBAFFDA
0270FE66
FE6A0201
FD3F0172
FF4E002D
00F6FC83
FF8A01D9
051BFE6A
FF91FD52
01C2FC95
FF46FD5A
FED300CC
FF17FE3F
0022FB23
FF07FF2F
FB60FBD2
02B2FFD9
FEB00184
FFC50118
FFF3015D
02FF0035
0219018F
FC100099
035101DE
FE33FE3E
025BFE05
007E0180
FD8B009D
FEAD023F
018B0079
028BFEA9
FE78FE1D
FF12FEDB
FEA700A3
FE14FFD2
0115FEDE
00C2024F
FDF4FF42
0392FFD4
FC630336
00E8FEEC
FEE10157
0087021B
031600F6
00CA01AB
004501BD
00D10257
FD46FEC8
FCBA02FF
FFA600D1
01DD004C
02A8FFAF
02D0FF49
FDAF0226
FFC301DE
0360FCF8
018E044E
0262FC61
0129FD15
FEB8FE6D
FF1FFDF5
009EFF08
FE49FFE8
02A1FBFD
FDCE04A5
FDE0FF90
014D0289
002E004B
00790122
FF6B0004
0026FEAC
004500EF
0037FF75
00B90021
00B10008
FEF50149
0248FF57
0192FFBC
FE6CFDE6
0358FED7
FFF5FE17
FF06FE3E
012001A6
02F0FDAA
FF21FFD9
FF6801A9
FEB0FFAD
0179FF97
FF2AFEA2
024A01DF
00DC0029
0326009E
FFB4FFF5
003E0147
0105FE79
FF54FF19
0132FF81
FFAC009F
0109010E
010DFFEE
FE96FF0A
FFA60035
FF5B0053
014DFF4D
FFC90195
01E30034
FD87FF5E
0044019A
FF40010C
FDD1FF53
03480299
013CFFDA
FEAAFFA9
011F007F
01D004A8
004CFDB8
FE68FFBB
FFC3FFF8
01950177
FF46FF95
0085FE2B
FED8FE43
04A40109
FD0B0109
003A00E6
007A005D
FED6FF9F
FF8A007D
018F020A
FFB40176
FD9B0082
00EA0096
012EFEA5
FEED0008
FF28FF93
FD9100AA
FE78FEC6
FC46FECD
FCF300E6
FE89FEF3
FD830037
FDEDFF5A
008301C3
056BFED8
FEDEFECD
013A0005
01E50001
02750009
004F00AA
F97F010F
001E0023
00D80036
FEE80165
FFEA0132
00BC0077
0124FE42
03A0FFC0
01DDFF25
0000FED7
FFA401BB
FFE3FEB5
FE1000BB
016DFE55
0104FC5F
011A0165
020D0041
05B0020E
00B8FE9A
FFE8FDDC
FE88FEDD
0130FFB8
FED8FD76
00C0035A
00AE0483
FE80FF17
FFDE01E0
021BFE8E
02260152
FE2FFD33
0272FFF6
FF9500FD
00C8FBD3
FF6AFF6F
FE3A0286
FED101B1
01B703FA
01A10217
FDC4FF16
FF8E0077
FECBFF37
FEF40384
FD5FFFA2
00CF000B
02AD010D
0088FF37
008A0045
FC6EFEA9
02FFFE4F
015E0041
FF2BFF7D
0140FE1B
FEC30315
FE68FFDF
FE050021
00CD00E6
00BDFFDA
0285FFD7
000000A2
0039FE58
FE9F013D
009100C6
008DFEAF
024AFE1E
02A9FCE4
FF12021F
002EFEAA
02490031
FE38005D
0015FF56
FEC90013
0139FFB3
FECDFE07
FDE80222
FEC2FE58
012CFF92
FEE6015D
016DFF57
00C6FEA1
FEFEFEBB
00790185
026FFDCC
FCAAFEF6
FFBE0248
FEC201E6
FEE900FA
FFCA01FE
FF8EFD4C
FF75FE51
FCE9FE34
FFF701BB
FD4D0097
FD6700E7
FD370232
032D00D6
FD47FF38
FF76FDAA
FE55FFEA
0099FF86
FD660160
FF15FE58
FFC8FF4D
0022FEE1
FD75FF75
FE1C0140
00DF024E
0185FD82
01E8FECD
FF37FE68
FECCFDE1
FEF3FDCF
FFD5FF5E
FE9302AA
03FAFF8E
FE73FEB8
0023FEC0
FEA2FDD2
FFD0FF4C
FFDF01AE
FF840252
FEE9FFA3
011B0195
0202FD05
FDCCFBD4
00E4011E
FF68010B
0027FB22
FF9C0175
FDB7015F
FE96FBF9
FCECFA7F
0368FFD7
FF5BFD2D
00510368
04A3FF79
04C1FE5E
031E031E
0483040D
FDC90050
FFC7FA3E
01FFFE18
FCD102C8
FFD6FB56
FEECFCCD
FEA2FE7C
FE64004D
FFF60582
024E0681
FF2CFF25
02AAFD64
FF0B0135
FDE40172
0218FCC5
024503CA
F9D1FDE8
0045FEF7
0249FD41
FC850049
01B8014D
FBB40198
FF09FC2A
FF55FFC0
0314FC8F
0492FC54
F740FF2A
FF09036A
04BB0181
01C5FDA3
028BFEA9
FBECFED1
00E1FD59
FC8CFB8A
FF8EFC78
0255FFC8
F8CC018C
0390FE26
FFE70175
FF3DFF30
0032FE48
02D0FFF9
FD45FF62
03340263
0236006B
FFC80107
026FFE62
0278FF64
FD3C01F8
008EFE00
00D8018F
FDFCFFB2
0135FB72
FC25FD21
023C008B
002EFF8C
FDCDFE45
0197FFF1
FCD8003D
023F023E
FD21FE82
033FFE83
005600B3
0002000C
FDD3FB81
FF8E002F
075BFD99
0025FE3D
FC5FFBED
FCFA0324
FD21025C
FFFE03B2
00D80084
FE1CFED7
003DFDF6
0063FEB4
00CDFE6C
FDC4FE81
00BF00E7
02060239
FE2DFF34
007000B7
0152FEC2
FF77FF08
FFA0FFDC
FE89FD8A
FE99FE37
FF8B0417
001E035F
FEED000E
FF5AFF0F
FDD40080
FC8A016F
FF71FDE1
0021FDF9
FFC8004B
F977009A
FFB7FE46
01A4FFE1
FD00FD99
FF98FF83
FF3A0070
FF43FC25
01E8FD41
FF390004
FF5500A5
013601F4
00CFFFDE
00BCFD51
007F0114
FEE0FF43
FBB0FEB2
FC0CFFD1
FFB60204
FE2BFFDE
019902D3
FF2E00E1
007900BF
012E021D
021EFF2C
FE98FF3B
FD8D0251
0003FF6C
FD790179
FF3301D4
FDB8FFCB
03E302C7
FDBEFCF7
00B1FDBE
01FBFE95
00EAFF7C
0238FF88
FE8CFD8F
FD01FEC7
0029FFC5
013C0051
024FFEF4
003202A4
02B0FFD3
FE4D007D
FFD7FFF2
00A9FE31
FD47F9F4
02AC0004
006A008C
FEAEFC02
FD9EFECA
0149FE48
04A801B7
00F20103
FD1B00C0
FDFBFFCF
00CFFADA
0012FFAA
012101EE
006FFD31
FD230040
018C0028
00AEFED5
0085FF87
FEEDFEE7
FEE0FFC2
FD4B00A1
FE3102B3
01380158
00B4FDC4
02F6FD2E
FA5BFDC9
FCB2055A
FCDCFE9F
FECBFE69
FE05FF9D
0267FDEC
F9A80004
004900D2
02BE0268
001E0279
FEC7FE4A
027FFF31
FEB10221
0243FE8F
017F017E
FFAAFF04
FDA9FDAF
FB32FCF2
00AF002C
0119FB56
004B0684
039307AC
FC80FED4
FFB6018B
FBECFE49
FF6101F7
FFF0FACE
FFC2FFD0
FF6FFF9C
FD09FEB2
FDDB01CD
01A1028B
FD23FFE7
FE120414
FB7C03D5
0198FABB
FBEE0465
FE42FFDC
00DD00CD
03DD00FD
02240093
FE57FCC2
FF7CFB85
011D01AF
FB7A0186
FA710153
02C8008A
006B042A
FE6AFEE4
02DCFC7A
0164FF74
03E0031C
0106FD45
FE8E026F
FFD6FFA6
FFE201DE
FFE1FE8F
FE350397
FE200029
FFE7FD43
FB5DFFA3
0305FD0C
FF1EFCDE
0232FF4C
FB7C0079
FE21FD69
022000D9
00210065
03DB01C3
FE560058
00BA00A4
FEB0FDFD
03C60039
017A0166
019AFF2A
FF10FFD1
FEE90110
004E007B
006D001D
003B00B6
00520051
FDBEFE98
0163FE12
0105FD9A
FF43FE51
004D035D
FF680080
FD8702A6
FF490119
02EBFE43
FD54FFA7
FE12FF53
025900F1
FEE40042
00CFFECD
02A2FEC0
FF06FEED
00DFFE5B
00A4009D
FE8D014A
FDED0258
FEB7FE9A
041700AF
009B0138
002B0053
FF600156
0134FE1A
FF7AFF5A
FEE300C0
FE61FD6C
022E0127
FE5800E2
0050010E
FFF5FECB
0298FEC3
0093FD91
0171004E
026EFFE3
FE69011D
00B600D8
FEA500E8
FD9AFFA5
FE09029D
FFED01CB
004A0366
FECB01DE
00A401AB
FE1E00F6
FEB7FEC0
FEBC0138
FF1BFD07
00E3FB70
FE29FEE4
014DFEDA
FFE600B9
FD87FFBE
02C9FFAC
FF74015F
FDE1FE88
FFE703C1
FEF4FE3F
02E7FFE7
FFB2FF99
00870060
FF3E0246
01860268
0099017A
0093FE90
02AAFF3F
015FFF73
032F0157
00580050
0242FEEE
0086FEA9
FFCF013F
FE16FF06
00B00145
FF95001B
FC95FECA
008C017E
0040000E
FF47FFC6
0025FDC1
01EE0107
03110104
FFC40083
FE48004D
FE7300EE
0387FFA6
FEFA00E0
0053FF57
FCA5FCB9
006AFDE8
04D1FE13
000602B1
FF95FEC6
FEEFFFB5
008E0038
00FF023A
FEDF015E
01420051
01EDFEEC
0073FFFC
024CFEAF
FF16FECC
00B90249
FFB70052
00F5FFAF
01450117
FFC40164
0021FFDC
FED2FE09
FF760154
FDBBFFD0
02400073
0278FE33
FF21FE1D
FF3BFB51
FFCEFFDB
0153000F
FE41FFED
FE0B024F
00DAFF47
FED40445
006C0005
02200230
008B0221
FED40042
FC3D00CB
011E0060
02B500AF
FDB5FE32
FE3FFF41
0214FE8B
00E3FFE9
FFA7FF4A
FF5C02EE
00BA0233
FC6BFFAB
FF92027A
FD7CFCAC
02D5FF81
00D9FF12
00EE0104
FEC2FFBF
000E0090
00B6FB9A
007AFD24
01A3FFE2
0054FED3
01D5FFC3
FF0900E6
026B0229
FF3CFDC1
028CFF01
FF34FD89
01B3012A
FED90060
01630163
058F020E
FF1CFE95
02030168
01E90070
FFD0FED2
00E4FF49
011E010D
018CFF5E
0457FF3E
033E020D
FF330262
0151FF03
FFE7FF54
00190035
012FFFBE
FDA4FE6D
019DFF21
00A4FE13
FD72FF44
FF65009A
FB5AFF12
00370359
0310FE41
02CBFD61
FF26028C
00D6015B
0176FC40
FFA4FF2B
02040285
00EFFF1D
FF1DFFDE
003DFF41
FE44FE2A
007C0005
FFD4FEC3
03E7FEA6
FF46FFC2
FE3A00A2
005301B0
0157FB76
019EFFB4
0036FF38
FE99FF92
FFD5FFAD
FD4701B9
FFC7007C
FEC3017A
03590049
027302FD
01E50067
FB870073
FDF60067
FF49014E
0103FFF1
01BEFE46
FF73FF80
FD6EFFE5
01BF0080
FF5200EB
FD67FF44
FFED017B
023900F3
0225FF4E
FEB602F4
FC31FD92
00EEFF50
003DFFF4
015DFF11
005F00E3
0001FE8E
FF97FF22
0416FF85
FFED0176
01760171
00C0FEBF
029DFE91
003702CA
018B00B8
FEF00242
FEBDFB0C
FED50198
0039FE7E
FC34FF5E
FD5201D7
FE65FF8E
FF3E07F1
FBDE0009
FDC3FEE9
025FFFF2
006EFECD
0100FFC2
033EFC6F
FF530015
0208001F
FF160357
FF2BFE89
007A02AA
019F0211
03FF003F
013AFF65
FB73FC5C
036B01D3
FFA0012D
010401E2
FD4A00CC
025E00B8
FF2A0464
FFC6FE1B
0098FEEE
02F101D5
FFF2019C
038BFB88
00260193
FFA102CC
FDEA00E2
00CB024D
03220312
FF0E0048
FDF7FD8B
00F00286
FD02009A
FD87FD2A
031CFF98
00490153
01A2FE0E
0103FD42
01A1FF1B
00F2FD81
0003FFAC
FE4E04D5
005604D5
00DEFE74
FFB900E0
000FFECA
FEBBFE14
004EFC95
02ACFE83
0089FE2B
FEBC0125
017C040D
FE52FF64
00A50039
FEBEFFFB
FFD003CE
014FFEA3
012FFFD6
FEA0FFC2
024DFE20
FFE700AA
00640306
032801A2
FFFCFDE8
FDA10106
FF05FF3B
00EDFF4B
014100E5
FC75FAFD
0208FFB8
FED000B0
FED5001C
FFC7FF7A
FE4CFD3A
FE8600E0
FFEEFE24
FE6501CC
02CB008B
FFA6FED8
FFF30174
004D015D
02BDFDBD
019BFFC2
011BFF64
FC040126
036DFD1B
FF9300E5
027802DB
003F0145
017AFFA4
008000E2
FF2A01D9
FEFBFC2F
FFE5FE5C
0337FF3F
FD49FE5B
FEAF0404
FA340024
02CA002F
FDAD009D
0062FCCF
FD2A0021
0546FFA2
FE19022D
0037FF47
FFA602AD
0027008C
FE350224
FBAD01EE
00260012
007EFEE4
FFFCFFBF
FE59FF62
032E0221
005CFE6D
FF70FDAC
01FCFDB4
00EE02E4
FD5EFF89
034F0206
FF5000C5
FFFDFF4B
FD24FE39
FF8EFD6D
00340138
00A900A8
FE5D008A
000A0077
FDE50227
00A50282
FFC0011B
0071FD17
01E2039A
00500069
005600D8
010601E4
FC6B01AB
FDCDFEF4
FE850081
FEDDFB91
0046FD29
03BAFE8C
FB1FFFD0
046AFBE2
FFD3005B
00340316
FB1CFC9A
037404A4
FEF1FD93
03A60123
001802C6
0256010D
02F20071
0089FD76
FDEDFAC9
FF99FB8B
01AF0086
FD580248
002BFEDF
FD14FEAF
00A5013C
FE6D01B6
020500A6
FF31FD65
FF77010B
01C70287
FE23FDC5
049900DF
03A800DD
FE74FF8B
FE36FDEC
FB2FFE95
08B90107
06360673
FF58FA7D
FE7DFF16
FFFF0099
00D9FD88
0193FF2A
FF400012
009A00DE
01060383
00F8F825
FFE1FF1C
0173FF60
000B00F8
FD61FCDF
0014007F
FD4EFEBB
0298FE48
03AA03F3
00C10039
FEB002D7
FA7FFDC1
FD9BFD2F
02D20252
0186FF94
034BFE2E
FF7C005F
FB7A0666
0404FF34
FD24FCCB
03DB0089
FFF9FDD2
FEC40261
009DFFAC
FC94FAFD
019CFF2D
01980062
01FEFE31
FE7BFE85
FEFFFEF6
000700AD
FA8601EC
038503DA
FD7AFE02
007E0311
0012FE91
FF660277
FF6F00F3
FE40FE27
017E00AE
FDE0FE18
FEDBFFD7
02D100D4
0307FF35
01E0FE57
FFB40366
00650599
033900A5
0276FC09
FAB4035B
037C03C1
03C70035
01250628
0335FD91
FDF30036
FFCFFBC7
037A00F4
FEAA0061
FF43FFC6
0096FF07
00CF0068
00F1FEC6
FF36004B
FEFEFDED
FF4C00F2
FE0C0146
01E1FF95
FF81001E
017E00B5
FE9100B8
00C0FEF4
FFCD0055
FFA30420
FF8B0169
FECCFE19
FEAAFDC7
0119FE35
FF1DFF09
FF40FF34
FF53FFEF
030C0098
FD70FEC2
FF950108
001CFFAD
FCE9FF94
FEC7FECD
FF67FE91
FF41FEB6
01DEFF43
01C4FDB6
FE0CFFF3
FD750105
FFE00036
0298015B
0193005E
0096FE72
00070347
FFD102FA
FE78FF34
FEA602D4
FEF000D6
FF60FF23
FF0CFFC1
FD27020E
FF83FEDD
FF7DFE99
0019FEF6
FC3F0261
000E02EF
FD92001F
FFE7FE00
FE7602C8
FE08FF43
0058044F
00A9018A
FCFCFF07
FDAC037D
FBB7FC60
FE6904A9
0015FE26
009901C3
0185019C
0195FE2B
FDAD001C
FFA0FFEC
044B013B
FF62005E
0339FE31
0274FF6E
00100045
FDE8FF5E
FE92FF51
011DFBBF
00B0FFC4
024004FA
028A0369
027F0065
0364FF13
FFDBFF1C
038BFF2C
00EFFFCE
0202FEFD
FEA10201
001DFFD5
FFC00473
FE8FFF99
022B0403
0152000F
010D037F
FE6EFE39
01610280
FF670100
FE14FED1
04B30076
004D0233
FEAFFE6C
FE740039
0028FD8B
FF4A0042
0065FD7D
FE4DFF85
0153FFF7
016E0131
FFC1003B
FFA80168
019B0055
FE8CFF9B
02F400D5
FFBCFFFB
0017FDC2
FF22FC9C
00A0001A
FF82FD3C
FFDEFF22
00400089
008DFFFD
003402BE
FE7EFEA8
FEC40072
FDDBFD9A
00EE0100
FF40012B
0150002F
FF920083
01900267
FEE2FEB5
FF0AFFA7
FF90FF81
00310230
FE5C0013
00C9FFEB
FFAFFF1D
FFFB002F
FDE30024
FF150067
0196018A
0042FF74
FE6BFFE4
024C00EC
0097FEFE
00180072
FEFBFF6E
FFB9000D
FDDC00C2
017AFE36
008B0138
007B022A
0015FE88
0182FCD9
00120082
FDCBFE4E
0157FE93
012BFE80
032B00E7
0035FEFB
FFD5FF91
008E02B9
02690143
FD43FE69
00AF034F
04920066
01070080
FE7DFCAB
0006010A
00EFFF55
FE30FF94
FF5800CD
FC5C0074
006E0108
FE7400DE
02B1FA95
FEB0FEE3
FCDC0033
01B00092
005BFE29
023B00C6
FEE1FB7B
006DFF65
019FFD90
FE42008B
055F0244
043B01F6
00EEF700
F94E007D
FF53FF42
002DFEBF
0161FD92
FDDFFCE1
FEE000FB
01B80017
0179FB4B
007F003B
00EB0073
02F601B8
FD8601D8
00C805A4
00060040
024AFFA8
02E900E5
FFD80098
0068FFB2
FC56FDD4
FF2DFF47
010000E9
01C9004B
FDB700B0
02640399
FC370353
005DFF20
003BFFD4
058E00E4
FD27023E
FE0B0341
01BA0208
FEA5FF4E
02BDFF48
00C502AF
007902E3
FFE6FFC9
01B3005B
FFB9FF81
FF94006B
00D3020F
0147FD5D
0072000C
03F50157
011101E7
024BFE34
FD720035
00F10263
00270176
FE7BFF22
00ECFF50
01E1003A
FFE70186
01910267
FBCD03CB
06A7009D
00DFFF47
FF32FFC0
FFB6FFB3
00780440
00AE0295
0171FF3C
FD5C0076
FF0AFFC1
FF6700D8
01D0006A
022E005A
FF5AFEF0
0017FEF2
FDEF019F
FF1AFFCC
FD8A0028
FDF2015E
FF320207
FE6900F2
FE89008C
00DB004E
FDBD003E
FDA40225
FF26FD75
00CFFAB3
FE0CFF55
FFA6FECE
00B6009C
00EF0394
FFA5FFE9
0015FDF2
FE830220
FFE401D6
FE94FC83
01DB008A
00F70110
019201D3
FE3E0201
FF93FDD5
FFC9FE97
FF87FDF9
FD5D011F
FCE2FFAF
00940290
0392FF31
0135FFD6
FFC0FFF1
FF9BFF87
01CB0169
00FDFF82
FFE90166
FB11FFA3
01BB00A5
01B5FFCA
FE840192
027B002E
FE43FE6B
FC6C012E
001402EB
FF6FFEE7
0057FFEE
FE02FD96
FE47016C
007DFDC1
FEEEFDD5
009E0389
011801E3
021203A1
003EFF58
021C00DD
FE5D0246
FF99FEE3
033EFD22
0184FFED
0133FDF9
01B6FF53
FED1FFA0
00FEFB47
02B9FE3B
FFE600ED
00E3FEAE
FF2AFE51
FD04FF67
FFAF017B
0035FF24
FEB6FFCA
FE5D02B4
01ACFF78
FF4704EB
FE390232
030AFE16
019300D1
02C8004E
02F9004C
FDCBFE86
FCB500E0
00E10263
FD15FE48
FEC8FBF9
0177FE48
FE4B00D1
FD8DFCFF
FFA3FEB1
02470105
03D301FB
FE95FE15
002E03C4
FE98FFBA
FE0A0275
02C500DE
FF6CFDC8
00B30290
FDE2FCE2
01C5FFB1
FF44FDFB
02E100D4
00FAFF41
0124FE55
00660124
0015FF92
FF4E038E
FFB7FFC7
FE8800E1
FF81004E
00E700EE
FECC014D
FFF0FE06
00E10022
FB3800AF
FD04FF30
FDBE0093
01E001BF
04E5009F
03180367
FE54FFA4
FEE2FFB9
0290FDB4
FF24FF54
011BFFD9
017EFEEB
0081FFFA
FDAD052A
FE840084
FF69FBC0
0012FE54
01CEFFE1
FFDDFEB8
01C0FFBE
FEF0022F
FEAC0001
FE670042
FED70043
FEF0FCC8
FF5EFE73
FE2900BD
015D006C
00E101C1
008E004E
053CFD9A
FE21FF6F
FF4DFF5E
FEC2F9E8
0192021D
FFB2023C
FC4F00F5
004B0036
018FFCDA
01770218
FDB9FEC8
05DE0309
FFC80208
FFDC0200
FC8403DD
00EFFD85
0267F8D9
FF3BFEA1
00B0000E
0182FE51
0259FEC4
02F8FCA3
0159FD5F
FE02FF55
FC86FFD3
FECCFE04
02890135
FFCB025B
01410195
0053FD13
FFEFFF5C
FB6F039E
FD19FDCB
FECB01A8
0035FF91
FCD6041C
008D0257
00F8FCFA
0236FE19
FD9D0037
042FFD9E
FE280192
00C5FE74
FF3DFDE8
FFA100D9
00A0FBA9
FF02FDFB
FEFDFF10
0110FEDC
0149FE8B
00D9FF9C
FED9FF2D
00980072
FDFD0195
014D00C8
FD53FD31
01C1FF95
FF2E0111
FFB800B1
0087FF6D
02C90119
FE9FFFA2
005D00D0
0022003C
023B0062
FEA9FFAE
0264031D
FFD2FFCD
FC8CFFDB
0160FF81
FF2D0051
FF16004F
005AFF04
00C900FE
FF50FF04
FFEF0189
FEA000DC
FFD3009D
00BEFFCC
FEADFF69
FCF9009D
01610001
0136FF51
0092FFB3
FF0A0099
FF1403A6
008EFFC2
045701B8
FE4BFF92
00C3FEE1
035C00E2
0273FE34
007D0066
0183FE21
00C8001B
FF6901D7
01B6004A
009600B0
FEE4015B
011FFE44
002B00CA
0071004E
FD610088
01D1FD2C
FD18FE77
004E0003
01AE00F9
FF8E004A
0480FCB4
0007017D
FE28FF2A
011300D9
FF2AFF67
01780062
025BFF5A
03090024
0296FFC8
024BFE3E
FF860171
0229FE5A
01B201B0
FD0E002B
0126FFA7
FE61FE83
FE53FE23
00D0FE7A
01450128
0476FEFB
011A0370
FF89FEBF
037F022F
FF9EFF9F
FFF6FFFB
00A2FE95
0022FFF4
FD2A0087
00F3FE35
FD36FFEA
00E80169
FD580155
FC19FEFF
0440FEA1
FF69FF7D
FFB5FF85
FD0CFD3E
FF8003C2
019E0056
00BFFDAF
FFADFC89
FE53FF74
FEE202C9
FFFF0176
0093FEF7
FF4FFDE7
032205A0
FE32FE73
FFA5FE10
01970202
FEABFF42
01C5FFDF
012BFE0D
FE2BFEE7
00120030
00C10342
03C103B8
0246FF7B
00B5016A
03C0FF4F
FF9DFFEE
005FFDD6
FFF1FD59
00C501A5
FF6E0216
FFA7FF34
FF7EFFD0
0053FD85
FF5F01E8
004EFE6D
02C8009B
018DFBD6
00FCFFC3
FD0F0053
009C010D
0169FF3F
FCD800D7
00810002
007DFF49
FCF40078
FF5700DA
019000F9
FFF9FF04
0026FFA4
FFA7FDC9
02E3FF44
FDF0FE75
FE380017
FF18012E
014E00AB
FEB9012B
006B0123
FD7D00CA
FFFCFFA1
FFC4002D
FFA6FF33
FD9D02E3
FDDE02A2
01A100EB
01B60032
FE49FFB5
FEF8FF97
FF6FFF7C
00ADFF37
0089FF79
FFDCFEB7
FD6C003A
00DDFE99
00C1FA13
FF9901E3
FF7A0016
012AFF48
FF4600DB
FEFEFFDE
0078FFB4
FFA100B3
01270146
FEA3FF53
FFC20026
0003FF79
FCD3FF34
FFE8FF46
02F4FF48
01A8FEE6
FF6A0050
00BF0010
FFE00122
FF5101AF
FF8BFDE6
FE79FDA5
00450028
004402F6
FE35FEB6
003BFF73
FFA8FF91
FE2E01C1
FFC4FDB0
FFC00063
FDDA00D7
FD860059
007701CA
FFDE029F
00740163
FCB5FDC1
FF55037A
FDCFFD2D
FDED0275
00A1FE7C
00C30233
FCCE0084
FCAAFEB7
01E702EE
00C30184
FF47FFA9
FC7C0319
01EFFFDC
0243FE91
02ACFEF7
FEF7FCF8
018102D7
FF9A0371
00EA00E9
FF6BFF76
01E9FF15
04DD01DD
016703C0
F8F3FFFE
050C02A4
FFEAFF89
FE15FE1F
001DFE8B
0136FE8D
FCD30130
01FA0027
00A5FE47
FF74FFDD
03BA0135
0017FCD3
FCFC0143
FC27FF72
FC16FEC9
01D80370
00B6FD79
FD7AFDD9
FD92FEFE
01B6FD66
FF9D0318
FE06FDF6
FED3FF2D
FEE80009
03D2FD16
03EF0336
015F02F7
FEAF0186
00ED0055
FFA20128
00A8FFFB
FDB202B4
FF4BFEA8
0161000D
04C8FFBD
028401E2
00A9FC8E
03AF0085
FD92023C
FFD5020E
00330044
FF7DFFB4
01EA01EB
FCE7FE55
037C0180
FF270004
019CFF88
015AFE41
0220FF96
0186FC85
FEF00036
00C9FF1F
FDC8021B
010DFF4D
01CB00A3
03BBFFC8
0250FF1B
FD920131
FDE9035E
FEA70222
0173FEB7
FEE50245
032100BB
FD6701AB
000CFF2E
FE70FDD5
0078FE8B
02E30157
0097008A
FE43FF54
FFCAFE79
017A0020
FDF90031
FE990120
FF87FEFA
FDAAFF20
FEBB007B
FD530083
00390031
FDE3FC26
0339FE1A
FFC802AB
FFEB02E6
FD7AFEDB
00F00085
FFC9020B
FC0E0055
FC93FF2D
0096044D
0074FAEE
FB46FE37
FEF60069
FF910264
002EFECF
FE450278
01940588
FCE4FEBB
FF700052
00DB007D
01A1FB8D
FFAA0092
01E20297
01C2FF8E
FF1E0108
FE3A0041
FFABFF12
FEFC0131
02AAFF64
FDE001CB
FFAF005D
00C6FFA6
FCCBFB33
005F072A
0254FA38
FBFBFED9
01B203C8
010A0622
FC1203FA
FF430261
F94702BA
01F50372
FF47F706
0067FD92
01060223
FEEFFF38
0116FB4C
028F013C
01A0004E
0180006F
03D003C0
FCD5FBF5
FD57FF49
0028FF21
029A0039
0135035A
FF77010B
034E030A
FC48FDD2
01130008
FD4BFF9F
00E8FE2C
FF8FFF77
FE6E0014
FBA3FD7A
FEA8FC4E
FD1F00B0
FD92FFF4
05FA01D6
FC98FF38
FFBF0183
01AA00E1
FB1F0044
0258FE93
00A9FE6B
009A04B3
FEF7FF05
024F01B5
FFFBFD5F
01B8FFF7
03AFFD6F
FFD0FFAF
00EB03E1
0491004C
01010529
05C7FD42
FF44FDF3
FFB5FF9D
FEC8000B
FE4EFDFD
FEDD001B
FF05FF29
01A1FE8D
FDE402FA
0296FE7F
001100E3
FF51FF23
009F0240
01ED003B
0016FF37
022A021C
FAA3FE87
034B00E8
FE210128
004FFF00
01A2FE86
FDE903E6
FE65FE59
FF43FF20
01FCFEAB
FFC7001D
FC8B020C
0105FE5E
03C3FBFE
FF8EFE3D
FF500113
FF88FFD2
FFBA04DA
004500F7
FEDDFE3A
0190FF91
01DFFBF7
012BFF6A
00750069
FFD4012D
FF7A0113
FC03FE48
000FFDA7
FF9CFFD1
FFF8012C
008CFE2D
FF4D00DF
FAECFF76
FCE2FB9D
0176FFFB
00D7015F
001F009E
0072003B
0191FE6D
00DFFE65
FBD6FE30
FF50FEDE
00820106
0056FFDF
016502E2
0086FE65
008900CF
FF4206F7
FF0BFD38
00D0FF3C
FB97FE8F
04F2FD0A
FDDBFF63
00CD006E
0371025D
017402E1
FC750290
0072FB9E
FFECFFB0
01FF00A1
FFD301A8
01C8FFA8
01AB0162
FD8AFF10
00A1FFD4
0322FF5C
0156FE82
0252FF1D
FF0405A0
009BFE68
FF7FFDCA
FF4BFEFF
FD0FFEFA
FFF4008A
0379FFCA
00100097
0164FEF6
FDF7006E
FF42FCFF
FDB3041F
FEBC01C3
0132FE43
FFEE0314
012E01D2
FF13FE7A
013C0228
FE41FC90
01FCFFE5
02CB0097
068E01FE
012F01CC
0253FECF
02F40443
FE13FE0B
FF4EFD4D
FE1E020C
FEE00113
FCF60570
00AEFD38
FD910072
FF53FDFD
040701A8
0077FFC2
FEA10125
FE46FD9E
FF95FCC8
014EFEFA
FF23FE14
02E2004C
006101D4
01DB0142
FE5AFE46
020BFBC2
0413FF8F
FEEFFED9
FFABFFEC
022AFEC4
01090224
0194FF85
FFB701AC
FF5801A6
0046002A
FDB6FF94
004EFEC2
0099003F
FE9CFF21
FCF5FC1A
00B0FF69
00CB0026
FEE1FE5B
FDCA01EB
01790113
FF24FFE3
FD7E010A
00AE00C0
FD39FE62
033302CE
00830020
FE1400CE
FE9AFEDE
FE68FD62
FE6E032A
FE3AFFA9
0211FF85
FD510014
0209FF7C
003300A9
FF74002B
FF89FE9A
FDF8011D
FF30FEC0
02FDFE83
FE94FF39
FDBC0089
00C0FF42
00CAFD65
00730231
FFA7FEAC
0117012B
FFCBFF04
00EEFE92
0179FEAE
000F0055
FEB3FFBD
0114014F
0129FFC5
007400EC
0127FF40
0101001D
02170121
FFAEFFC0
003EFE40
FEB9FDE9
FF7E0256
01A8FF65
FE8E00F3
0243FDC4
05B00265
00400052
FFE7FDE2
FF480062
01980170
007FFFD2
011A0139
FE2AFEC2
FEC300AC
00E60014
FE8DFF62
FE8F00CD
0113FEAC
012FFF3C
00AA00C6
FFCC0106
00740161
FC36021E
0083FCD2
022B0136
FE2D0201
FE5BFDD9
FDA30215
FE96FFB1
FF92FF85
011B00EF
FF59FFFA
FDEDFEDE
0018FE7C
045BFDFA
FE79FF97
0127FF61
FF1BFEFD
FF10FDBC
0166FCD6
0107012D
0083FFBF
0095FE12
FFAF0239
00A2FE27
FED700F3
FDC6FF75
01D70093
FFDE00EB
FC73FEF0
01BD01C2
FE60FF9A
FF2FFF32
FF59FF35
FFDAFEFF
056D00A3
0155FE39
01F0015B
019E017F
01750091
0024FFEB
019DFF34
FCA4FE69
FB77FEDC
009600BE
FD8F02B0
0027FF53
025701B7
FF08FE04
FD890086
01920012
01B0FE61
009B00A9
011A0275
0121011E
FEBD0492
FE6001D3
00F802FA
0090FF7B
009403A6
FEFC0023
FF35FFCA
FE4C0021
FD74FEB3
01370269
FF2EFFC4
FEC0FEE7
FF78FFCD
FF4EFFBA
0101FF2B
0084FF8F
0089FFFF
00920050
FE8F013A
FEE4FDB0
008A0057
02E00065
00320053
0259FF43
FE31FC38
02E6FF3A
00A600C6
FF05FFB7
0162FFC4
FE4101C1
FEA10078
00DBFF41
FFDEFF07
00DD0113
FF570124
FE50FD1A
0066FE96
FDD70070
FF15006D
FFFA0089
FF0FFD84
0361FE5C
0242FD71
007CFEBC
FDF70254
FF35FF72
01820060
FFC2FE31
00B100B2
00C001C0
FF1103E8
0075FF7A
FE21007B
FE86005F
FE4DFADB
FF81004E
0192FF71
FFEFFEAC
FCD4FD58
0011FDEE
FEDB032F
01D10182
FF63001B
0050FF0E
02BA01ED
FFB3FE75
0005FF11
02ABFEF7
00910061
FF4D00E0
015D017C
FF58FD63
FFADFF49
FFFCFCC7
FBA2FD92
025000E4
00CDFF8F
002000DD
020701A9
0143FFE5
FF9BFE55
01FE011F
FECD00F8
FEDC0242
0270FFC8
00080047
0015FF5A
FD1F003F
FEED00B1
00CD005D
FF1AFDED
00E901E5
0402FE02
0300FF39
0106006F
FDC50109
FED00033
0003FFC4
0184FEA2
FF1D021D
FF620028
002E019B
FFBCFE8B
00E50249
FD6AFFC2
009D017B
0230FE91
009FFF84
0104FEE4
00A902F0
FF79FEFF
001DFFD0
FDD0FFD3
FECFFFE1
FBCC01D7
FFCAFFC3
0443FF03
005CFEA6
0114014D
0072FEFD
FE2C009B
FF3800DD
FD56FF57
FF480030
000501B6
FF8FFFC5
FDDBFEC0
011901D1
FEEB0011
FDD5FEBA
FF1A0074
FEA9FEDE
0091FFC7
FF10FF6D
FFE8FF75
FFDFFF9A
FD68FF59
0355FBAD
01230084
FEBAFF89
01D9FEF3
0021FD6B
00600024
006EFEA8
00A6FFCA
0090FF56
0120FDBC
024BFE4B
01FDFFDC
000902B0
FF83FD7D
02B1FFC3
01E0FDCC
00370015
000B01D5
01790155
FD28FED6
00910175
FA71FF6D
01B1FD01
0081014B
FC11000C
FF63FF53
022EFCCC
FA700035
FEE801EB
FFD3FF9E
FF3CFE91
03A7013A
FB80FEAA
FEBA0233
FCCA0255
FEA50106
0101001E
012C0408
FE1301D1
00EBFE9B
00B7FF14
FDD8FFA5
0026FF5E
FF1D0109
FF590123
007EFECC
0029FFF4
FD49001A
0343FD44
FD60006C
007E021D
FF870094
FE850158
FFB4FF50
0166FFBC
0002FF69
01A20166
FED5FFBD
FE010041
FDCA0067
01F20221
01D9FE51
0000009F
0096FE0B
FF210017
007E0228
FD85FFBF
FC48010B
0059FE58
00AEFEDC
FBE201DA
FE9F0056
FFBF0817
FED50082
FE65FFDB
FEF1003B
005DFE42
04930226
01E9FE4A
015EFE52
037F0227
FD0A04FA
0144FFFE
FE42014D
00FD00E1
06DF013C
035C00F1
FA19FDCE
073401D2
00CB024E
FD30FF96
017FFF94
FF85FFE2
FDC304D1
0335FF45
0228FECC
FF7C00B4
FFA6029D
0112FAE8
FC7E0034
FE08FE32
FD20000E
021E03F0
0039FEC8
02A6FD8A
FE26FDEF
0265FD5E
00FE0285
FEB9FE8B
0272FDCA
FF6300E1
027D0043
00A10160
02400443
01FAFF6D
FE3801F0
FE3AFD55
032002C1
01B0007F
FE66FD9E
FF36FEA1
FE32FD35
FFE1FF7E
01D8FD6A
00D5FE8A
FFCC0138
FFAF0016
003BFD1D
FF9BFE8D
01CAFFEA
03260177
009C01BF
0010FD73
FEC00037
01E80022
02A3015E
00CE0056
FCE1FFDA
002E0057
FF9AFE63
FFDD00E5
FE63FD4E
FE82FD32
033D0128
0187028B
0241FF16
01FE0249
FDE80315
FD0AFFDE
FD850347
017A0273
FD08FFD9
FE530395
FFF1007C
0067FEE8
FF88FE74
FE53FEE4
FC1E0435
FE24FFD0
FEE7FFF2
0054020B
01E2FE2A
043BFDD2
008203C9
FFED028D
01A100CA
FF66011A
0193FC30
FDF4029A
03D3FF5F
00290210
00A5048F
FB91FDC6
017FFF04
FD21001A
0285FE44
FC1DFD82
FD4D0452
FBE5FFF4
FF17FFA2
FD23FDDC
00D3FE2B
FFC50183
01F10035
FDC7FFBA
FD58FB2B
FDBDFD4D
03AB04C3
FE2DFEB1
0327FF93
01210240
0078009A
FB490066
FEA401E6
FDD9FF8C
FE72024B
03280237
FCC7FD34
FF6D0241
02070347
0554FB6B
029EFED9
FC7900BF
FF81017A
020A041D
02F00262
FAA50255
00D30316
016A025B
FE78FFE7
FF2CFF1B
000200F6
FCD8FCAA
002A00FB
FF9BFF31
FF00FF5F
005EFEA0
FDDD0102
FE9EFF0C
002C008C
0002014C
FFC50183
05ACFFA9
FE0A004B
02D7FF7C
01ED0226
01ADFFA5
0215013A
01A3FDE4
FF87005F
0286FD5A
FEAFFEDA
01F6FF73
03380002
013F00B3
00C2FC53
0113FF71
FEB5FC5D
FFE9FE0D
01DE030E
00BCFFED
FFD40269
0383FCCF
FD5E009B
FC3C0227
FE61FE7C
FFDDFFFD
002BFF1B
0004FF58
0316FC79
FCF9027A
01BD015F
FF06004C
010BFF98
FFF2006E
02D4FD7E
FD42FF56
FEA00275
0241FEF9
037F0132
0047FF67
FF3FFE77
004CFFA6
00830080
021FFEFC
FD51FE62
025E007A
FE0EFE0D
01A00172
005B0387
FF21FEB8
FF33FC4C
0086FF5C
FE9FFEA3
015F0035
FF33FE81
016D0084
FAF5FE97
015C0092
00C3FE07
FEF80105
02A4006C
005400BC
002B0165
00F000A6
01480237
FEEAFF9E
FDC5FEDA
FC8BFDB9
FEEAFD97
0056FFE9
004501A6
FC4EFFFF
0525FE82
006BFF29
FF21002C
FFFAFCDF
FEC7003A
FB750073
0059FDD9
05BF0199
FC1D0005
FFF90063
0032FFDE
FB2DFEE6
FF6FFF64
FB8BFF8D
FEABFFB5
0077004D
FE46FFBB
FD8D01CF
0218FD42
00940162
FF300027
FBF20393
02B8FD9B
011DFF1D
F879FE44
0273FF62
02EAFF16
00870224
03D3FD5B
FF6A04AA
FE4C00D9
00D6003C
FF6801EE
0241FEF5
010E025C
FEEFFFD8
FF18FD28
FF7EFDAC
FF640263
FCC10360
FD1B01ED
FC86029F
00F90033
FF2E00EC
00CC00EC
FE250092
FE0FFE31
04510208
0030FE6D
022BFEAA
FF2100A7
FF050075
FCCBFE31
F9DBFFC2
02810083
01530055
FD9AF9E1
003302B9
0123FCB1
FEFAFAC6
03140237
FD9DFE1D
FF69FE6C
FDE3FFF2
FEDDF9D3
00F30024
01DBFD99
02620513
FEC1FD42
027FFE91
00F9FE44
00DC029A
023DFDFA
FE29FE40
FCB10242
00620336
008D0043
04020181
00D2029B
FE550137
FE6FFF5D
FDC60164
017C00B2
FE5DFD53
FFC9FFCA
FEF2FEF7
FF84FE93
FDEBFF91
025FFFF2
FE970273
0203FEF6
FF55009D
0077FF78
FE2BFCFE
0084FE6B
01FD0060
FF720017
033BFE94
001702C5
FFF200D2
FBF0005A
FD3BFFB3
FD48FE64
0500FF72
FF48FF76
013CFE7C
010D02B6
FE4F0202
009500DB
0311FEF6
00210338
01350142
014201C3
009FFEC5
FD1DFCEB
056C001E
FD6BFFB6
01A5028D
FEEFFF75
FE0EFD4C
001401EF
FFDF001B
015C0171
FDCBFF5A
FF10FF30
FF07FFC5
011A00B4
FFACFF21
01D90050
00820163
03DD021F
FE28FF4F
00830025
00600187
FEB90140
005C0026
012EFF88
FC52FFF9
01C0FF94
02F10018
FC73FF71
02A40222
00CE0199
FE0701B1
007D0211
FE710193
0047FF16
0016FF53
FF0EFF52
FF49FFB1
FFA00113
FF5FFE80
0052FFD5
FF94FFAA
FF740157
00A6013F
0085FF4B
035BFEBA
01FCFC1E
FF46FF39
0243007B
00FFFEFF
FD4E0127
F949FFE7
01EFFFE9
02EF0023
FC5AFF25
003DFFBF
FF890021
024CFF09
010AFE0B
003001ED
00F1004B
037301B2
FF81FFF4
FBEFFEB2
FFDDFDE4
01B6FFDE
0126042E
FD390070
FFAE017F
FABF001D
0043FEC1
FFA9FEB6
0379FFC9
FFC700BE
FEB0019C
FE8500A2
FECFFE47
FFF6FFDA
00D2FDBA
005403B2
FD53FE69
0068FFC4
012BFE47
FFD5FF2F
026000E5
00F7FE28
FF9AFF93
005DFEEC
FFAAFE7A
FE9100D2
0039017F
0353FE8E
FCB1FD92
01A0FE66
003D0061
FDB40237
02A100B9
021AFEE9
FDA50188
01F302BC
02C70143
FFE70114
FDC5FDA0
FF4F049E
017F03DB
0131FE9D
FF000031
FD62FE40
016801AE
00E6001C
009200F5
FF590395
009DFCAF
FF41FF30
FFEE02FB
FF3D0149
00EB03CB
FCB4FE4E
FFB7FF8E
01190137
0075FE1A
FEB9FE1D
00A4027D
00360114
02B30210
011A024B
FCDBFCFB
0009FFC4
FFDBFEE3
027C01D4
FD8EFF67
00D301C7
04E800B9
FFFB022B
0127FF80
FD4CFC46
012500E6
FEC203A4
0165027B
024E0352
039C0299
02A6002D
FEF5FFF0
FF0DFD73
0264FF8A
01760095
FFC90098
FDF1FF0A
FE570133
02AFFD30
FEC2FD82
FE56FF01
0269FE8D
01640262
0026FEBC
03FF006F
FF640383
FEFBFEC0
00BBFDD9
030501DE
00B20186
FEE20139
FE950103
FEDB001C
FF490030
FF68FE62
FF56FF1A
FBDA0273
03FF0024
FFBDFD61
FF60FD57
FFCBFF67
FDF20052
FF10FF95
0427FA6C
FF5A001F
00AF0079
02DB04D8
FD5A01A1
0037021F
01D9003F
FF230026
0214FDB8
FFC2015E
FF4E0104
FFB9FD8A
0034FF80
009DFEE5
04D8FE11
02A8FDA5
00C3FFE8
FE5C015D
FE4FFF8D
00230236
025DFDA8
FEEB0255
FEFBFDB2
00F5017D
FE3D0144
FE6EFEAC
FE190316
FC5EFCD2
FEF2FC2D
0162006F
FBCBFE24
04300140
FD3C02A4
00F901F3
015F0363
00ED0254
00CF0135
FE8FFFD8
01F3FE84
FE580100
FE730003
FDB40214
FE2D014A
FDEE03EB
0080FF8E
FFA2FE76
02CCFE17
FEFDFE5C
027A0240
FFD6002E
01F90101
00D70164
FFF2FF44
FFB9005B
0082FF8C
0106FFC8
0139FD34
0033FDC0
FF5D01CA
0163FEEA
039DFE9C
00BC001C
FE4001DC
FE0E01C2
004C035A
FF4A00FD
00FA0001
012F0005
FEA00149
FDFFFF53
FF9C03C6
0324FCFB
FF72FDA7
FEEC019E
00A7004E
017B00C4
011BFE9D
0057FF3A
008C0159
FF090037
0364007A
FEB1FDF3
00D4010B
FDACFED2
FEAC009A
FE46FD60
FF4C0193
FD9101E1
049CFFF3
FF44FFBB
FFEBFEED
FF5CFF25
FD40006B
FE1DFFE0
FF3EFED2
0105FF09
FFEAFF21
004101EB
02FBFF3F
00B3FF41
002300DB
0265008D
00C9016C
0171002A
00ED0227
00100137
019E003E
00BEFF87
FC66FF3C
04CD0123
FFFE0236
FEB5FECA
01ACFE48
01A7007F
029C0107
01AA00A8
FFAA01F0
FEEC0144
00B500A9
003EFBE9
FD98004D
FD7F009C
FD7B028F
04DE0175
FE30004F
0307FEC3
003AFD23
FEE7FD03
FF020163
FF0C018B
00B1FD36
FCE3FDB7
00930172
01540028
FF7D0348
012001B5
00D30122
FF890243
0090FD48
FD090224
FE0D00AB
FF94018C
FECC0288
FF64FB01
00E30134
FFF30182
024501D2
FDCA01E7
00F701E4
FD33FE47
FFE60109
FD67FECA
FD6FFE86
FF2F0154
04BDFEFC
02D1FE1F
FDD6FDD7
002CFD1F
FD65FFC0
FEB30043
01A7FEDA
00C6FFAC
00D303B5
FFAE00E6
FC34013D
FF26021A
FF6A0148
00C8FDF0
FCC8FE34
FE1B024C
02C00282
FEE700CA
FFE3013E
0065FDC6
FFBBFF6E
FFD100F6
00E7FF06
01C0FE38
00560333
00EAFFDA
00C802DF
00DAFF7D
00630017
FE3AFE3F
FE5E01F8
FF9FFFC1
02A80441
FE9A0187
FFE3F9E9
FF2B0005
020BFC49
FF24FF16
FFE5FD25
01E7FD8B
006C02CB
0251FE8D
FEDC0003
FFD5FFFD
01FB007E
FE900163
024EFE48
0129FFE6
014001DF
01680010
02510106
04C20191
02AA0249
0171FF9A
FB7CFE37
030201DD
FE680278
FE5B0149
035701F5
FD35013B
02D40083
01B0FF86
FF9A00A0
FD6401C2
011802FD
FCEB0094
FE1D0119
FAB4FFC2
FFFBFFD2
02BDFDF2
FE9FFBE0
FF66FE89
0276FF59
FF7AFE50
FEDF0041
01A6FF14
00FEFE88
FB35FE79
00F2FFD6
001C01F0
00ACFFBE
0087FE44
FF240037
017CFC7E
FE8F00D9
042D00CF
00940569
FFDFFE0D
0383FEEF
01A20145
FD6FFE8F
048EFD55
00010139
02CA0275
FE9500D9
039EFC72
FF290719
003AFF4D
FE7EFFC5
FEDDFD48
FE4DFDDA
02FB01A7
FB0A001E
FEB1FF86
03C2FF5F
FE42FDE0
FC2D03E0
0128FFD0
009BFEB2
FED7FEAE
F82A0084
009AFDAA
00FF0231
FFBC024E
FE120013
00D4FF4E
FE03FFFE
00CBFD51
0161FEC7
03E801A7
FED50051
02B1017A
01330081
FE4BFEC8
FE00FF4D
01C2FF0E
FED2FE78
034601B0
0017FF38
0195FE5D
FFE5FB80
02490125
FF8C039D
FD7F0105
FF0EFCC9
FE2AFF00
02FAFE94
0147FF86
0149FF5E
FE0BFE08
0318FEEF
024CFD54
FEC0FE85
FF2C0229
000AFFDA
FFEE01F7
0327026E
0139010B
0031FF9E
00E0FCAA
FC34FE16
00B3FFA4
000600A6
FF980137
0435012C
01CEFF2C
FF51009D
01770238
FEB6003F
FBA6FF3E
00CFFF63
01A2FF8B
056E00AB
00A0014B
00660400
FF050151
0147FDE4
005DFE20
0250FD61
FE23FE4D
0038FED5
0038FF05
00030003
FE00017B
FEFBFF08
0187020B
01D2FDDD
FF93FA6D
FECDFFF4
02F40138
015FFE01
FFB7000F
FF35FEA1
FE81FCB6
FCF50136
FFFFFF7C
00FA0057
FFD2FFDD
0051FE3C
FF9D00D8
0006035F
00D9FEA5
FE800174
00C7009F
002EFE0C
00640030
FE77FCAC
FF3EFE46
01340118
FE74FEED
FC82020A
FB37FFFF
FF3201CC
00CE0131
FE6BFC2F
0279FF83
FD5FFDA5
0191015B
FE33FD95
FFB6FF0A
FD9EFF85
01D9FFF1
FDD3FB68
FF1D0246
00F9FF40
01ADFC4E
038BFCE2
FCE5030B
009E0152
FF0F04C7
00B10114
0173FFE4
FF7900FA
FBD10019
FF88FC8A
0037FFFC
FE38FF2D
03FCFFF9
FE43FF89
026D00DA
00E2FFED
0040FC39
FDAB022F
FF630009
FCF3006D
FEECFFBB
005900DC
FE370224
FF0901A6
009FFD19
FF6400D8
FC9E0040
0024FF21
FF45FBAD
0330FEC9
0137FF52
0124FF60
00AFFFE3
0308FF0D
0093FDAC
FF17FE7A
0195FF4E
0204FE9B
01CB00A8
FDC4012E
004D00A6
041301ED
FD43FAC0
FD9F000A
033D011C
018F036D
019C0275
00D10029
00C6FCDA
0413FF81
0302FC5A
FFFE003B
FD13FBB7
FF4603E6
02130523
FE7CFE81
01B1FFDB
FFA8FE28
FBB2030E
02D60197
FF12FF65
01FA02E8
FDA10056
0092FF56
028301F7
0270FD95
0109FF56
FF38FFB4
0000FF2B
002AFB89
00CAFEB8
FE0DFE1D
FF0FFE47
0099FDC6
013A00EB
03140151
0226FFE9
010600FE
FE090046
01D5FFDA
FF7B00D7
FDBFFCE1
FEC3FF52
024802C9
FDEDFF6C
00E004D9
FE7DFE66
02EE0139
FFBBFF93
FDB1FE1C
0098FEA8
FE1DFDA2
FEC7FFCF
00FD00E8
FE93FDE1
FF57FDC8
FE80FF00
00E5FF89
00A90102
035FFFEC
00DC00BC
FE62FD59
FCC2FEEA
FEE5043C
0214FF1C
FCBBFF47
00B9005C
0174017E
00A10183
013AFFA0
027CFF98
FCD500CE
FB84019F
0050FE79
00630337
FF67020B
046B007D
0325FE99
FDE7FEC2
006CFF57
FFA80195
FF7EFD51
0005045D
FDD1FDEA
016301BC
00710055
FF7900E1
FD4C02F2
01A5FCB1
0038FF91
FF87015E
00FDFBD6
FD19FE7D
009E0102
FEBAFFC6
FF65FFC2
FF6B011C
FFAA029E
0017048A
02240469
FDCC0305
0191000D
02D9FE07
0291FBD6
FE030075
FEC903C0
FFABFFA9
000B02EB
FFA500A0
01DD0045
03A802C8
0154FE25
01DC009A
FFB9FF7C
033EFE10
FBEFFEB9
00FBFDF8
003601FD
0188FB5F
0058FFFA
0161018C
FF4501A5
0237FFDD
02A1FF20
011D017E
00C70179
FF31FADC
FE65FDB0
FFC30138
0072001A
00DFFFF8
045301D5
027000DF
FFD8FDD4
FD16013A
045B02D6
000B00AF
FFDB029C
007701B5
0090FEAF
FDB6040D
FDBAFCCB
FCE7008F
FEA8FFA7
FE9F0185
001F0148
FD93FF40
FFE5FF75
FD5D02E1
00380069
F9D9FCB7
FDCAFD45
FFD9FF4B
0317FD63
01300095
FAF8FE9D
FF73027D
FE5A00F3
FC360138
04C10141
00A301DD
029B002A
FF9BFF6A
0223FF99
03DEFF93
0135FF31
FCF60089
FE2F039D
018C01D7
01E6FDF8
0315FD4C
FE55FFD9
03CF0157
FD12019C
030EFF0C
FEC4021B
0141FF07
FC9B015A
018FFE7D
02D2FBD4
FE5B027E
026F01BD
000F0134
01CEFF70
FD43FEC3
02E5012A
FEA2FF4F
012B01AC
FEF1FD51
FFE3FCFD
FE650211
FF73FCAE
FF4501A0
FFC7005D
FF120604
003C004E
0136FE5A
011A0188
FE4CFF2B
00A6FE16
00A70192
0392FD8F
FEF3FBD0
046F00B2
008A0168
FCFB00DE
0169FF30
FFB00085
FF7D027B
049AFF4C
01800112
04810116
02BA0115
0063FE92
02BDFE83
FF280504
FF2BFE7B
FDC903B0
FCB8004C
FF76FE01
01180048
0072FFBA
FF3AFFF3
00B40297
FED2FFE9
01860210
00D3FFBA
00CB023E
FF12FE68
028400E4
00CF003D
FB9B00FA
FEC8FEE9
00070143
006AFE59
FF19FDD1
019AFD16
0282FD0C
000A0081
FF6F00BF
0028FF11
02C905A3
FFC7FDED
00EAFE89
0233FCEA
FFCDFC5A
007001A8
FF35FFC0
FE3DFF89
007B01A4
FDFE017A
00F0FEE6
00F6FFD9
FB2801F5
FE9EFFE6
00B50107
0031FF7B
00C4FE50
01DFFE8D
FFC10413
010D01B3
FF3A017D
03F8023F
006C0050
FD91FE97
FF930157
008CFF79
FF8B0034
00A20055
FCFD0038
FF15011F
FE57FF14
FD380070
00C5FF56
FEBFFEE4
00DCFD28
022FFE6A
0053FF5E
FF9BFCA5
FF0A0061
0057001B
FED5006F
FD9201C5
FF0E00B6
FEFD02D8
FDE000E8
004E0037
FEEC007B
0084FEAF
FFAA013A
009BFFC5
FE580205
001900CF
FF320157
FFB302C0
FF4801E6
FFB0FF92
0139001E
02500045
03790172
036B0050
FFCB01FF
FE70FFA8
01ABFEB0
0235FF9B
FB4F0280
01D2FE82
FEBF00A4
FE5F019D
000FFF4B
0125FDD3
012B0097
043EFED4
FE09FED9
01930235
FFC30346
0218FF58
FFBEFF0F
FD51FE30
00A6FE48
FD3DFE3C
0258FDE9
023EFED2
FF4FFF14
FF91FF52
00C6FDF2
011DFFBD
FE23FEB5
FF5CFC84
FF53FE11
055C0032
FED4013A
FEC601D9
FC4D001B
00510131
FF0C0302
03D60022
FCA001E7
03DB03D5
001BFAD8
00340130
FE140275
02370073
FDE20302
FE6D0240
FE03FFDA
0086FE6D
FFB50515
FF4E031B
FFC3FE76
0182FEF5
FB17FF8D
00B80408
030EFD8C
FC7DFC4F
0240FC2D
0367FF8F
FF230430
FE410282
011A0257
06480264
FF63FDC0
028205B4
0288FF76
FD72FE96
009D00D8
FD7EFFA6
FFD3FFC0
04BFFE97
FE66FE9C
017800EF
FC7CFC3A
FBE90110
0094FE67
02DAFEB5
006E01D8
01970025
0232FDB6
FF9E0142
FCC90033
FEF3007F
02F7FE56
013401EC
FF4C016E
FFF9FF2F
00C7FF16
FF6E01DF
FF4701E1
002EFD8D
FF3201DF
FFCE004A
029CFCA0
FEFDFEDD
003DFDE5
01550148
FFAD020C
FE4EFF25
FAB5FFC2
FE0200EF
01D6FECC
FC350086
0167002C
0007009C
02770281
00580243
014B00B2
FDFE0003
FF930028
FC890200
00C7FE03
00EF0161
04EFFF23
01EB0050
0537FDBA
FFE7FD27
01B6004D
0043FE62
FEF20159
FF11011A
0259FB82
0218FFCA
FF91FEEC
0359FE98
FF0F03AB
FD30FFE5
01E5FDCB
026AFFAD
FDF0FEB2
06C302AC
FFB6FF98
FDBCFE69
01890100
001AFF34
FD89FE91
FEF8FEFD
02A700AB
FF8D02B4
02BCF938
FC71FFA2
FE9E0177
FD3BFE54
035B0102
FFF6FCD9
FEA50035
FD04FFF8
FF71FFE0
FE44021A
FCC4FE46
003500A2
01F0FD96
017F0014
01BE01F3
017CFE46
F9A203DF
FA1C000C
026EFFAF
0133FDB8
035DFFF5
056CFDF3
FC4300E3
F9E6FEE2
007EFD43
045A00E4
026D0114
F7D1FF04
FEDA026B
FE10007B
020AFC1D
FE88029C
FDDCFE44
FD4A0084
FF1701BF
FC9DFFEA
0370FE7A
FCF300C8
008EFE7F
FE40FF98
015A045A
FE41FCD6
01BB0006
FF04FDD6
FEF0FC54
FE7F001B
005FFECE
0476FE12
01AE000B
FF2800E2
00BA022C
026DFC04
027D0143
0236FEB3
012B0108
01750044
FF5300E2
0015FD93
02DC000E
03B9020E
060503F6
006EFEDE
F870FC63
01310240
FFF302C6
003BFFF5
01190293
FF4DFDD4
019F0129
008EFDE5
056CFF0A
027F0295
013701AC
FEE3FFD9
00EB01F0
FD98FF18
FB77FF28
05CB00B4
FD9F009F
FEA6FF8B
0154FE65
FB20FC2E
00370194
014DFDB2
FEDF017F
001D02DB
0221FF03
003200D2
010006E7
0069FE3B
016601ED
FBFCFFB1
FF6B00CE
FE09FE06
FE73FF6A
FEFEFFEF
FCF10117
FEC2FD70
0016FD3E
FD8402CA
0278FDE8
FE91FE8C
03D10161
FEA4FEBB
02CE072D
001A00C5
FCE8FEBA
0370FF7E
03B5FDD5
022A004A
01DBFD8C
003BFDB3
FC32FE0F
01D901D5
02DE01B3
FF54FFDD
FCA10178
000CFF7D
015F0408
FFD3FFA9
00E2FF12
025AFE8D
FD21FE67
FF5BFDCE
FED103C6
FC45FEA4
FBE7FE1A
FB5A06DC
FCC1FF33
024F02DE
01DBFE23
FD0B01FA
02B0045A
FC1302A2
030F017B
FE99FCC9
00150013
FDCAFB1E
000E0035
FB08004F
011000F5
0197FE93
00B50002
FD6B00A9
FBF7FE42
006E00ED
012C035E
00800056
FE1EFDF4
FFAA000D
FF350203
00A600C4
FFFB01FC
FF6EFF54
00B002A5
FE71FEEC
FE45FEC6
FE02003B
00E2FD0E
0180FF5F
0004FF70
FEF6FE13
FF3400E9
FF08FE29
0030FED1
005801E7
FF860193
00FC0026
019CFE39
FF41FFAA
013C00C9
001000EF
FF1D0084
03B500AA
010AFFEF
FDD10362
FF2EFF88
FD96FCE9
0433010C
FEB1FFF5
02F9FF79
00A40034
00EA01E4
02CFFF71
0268FF08
0125FE7F
FFAC0162
FECCFE09
FF2AFC79
FF740108
0151FF95
0348FBB7
016B002A
FE680034
FF110049
FF220015
027FFFB2
00EC033E
FDC9FE56
FC71FE92
FF09FE17
007EFE29
FF6EFF02
0005FFA7
FFA00518
013B01AE
FF270281
01D6FF9B
FEC600C6
FF67FF9A
032C0140
00C3FF9D
006BFFF4
031202FF
FF2400D4
00AA0159
00D300A0
FE42FD4E
FF7E00F1
0127FBED
006D017F
01D4024C
FF3A0121
FEDBFD2B
FF5D03A8
04F4FF5B
FDFE0036
00B5FEDE
015F0394
018EFF7A
FEE5FF60
FA51FDEB
FD01005B
012400AD
02B8FE19
FD6900C0
FF5EFE1C
00A0FE78
0240FFAF
03C500B0
01AE01EB
FEE80031
015D0071
FF33FEEA
002AFF95
00D7006C
FEC4FFA7
FF4203F5
FF5D02B4
FFCC0108
FFAAFF00
010C019E
01530050
FE4CFFB1
FE72023B
019501CA
FF6300D2
02E8FFE1
FE5A05F7
00D60088
02110109
037F01DB
02DE00B9
04BCFE19
013C011E
0081022D
026BFEB4
FF54FF31
FD9EFE76
0305FE90
FFD703C2
FD3F0273
001001A7
FFBDFCA8
FF74FF22
04760046
FFC2FFBC
0198001B
FF2C01DE
06110100
FFCBFFD8
FF50FDDC
01000098
FF40058D
FF7FFEFC
0090FE2E
0088FF60
01E501E3
019A014F
FFDD0226
0010FBF2
01250048
FF6B0207
FFE2FF16
006DFEE0
0315000B
00A80126
FBB4FFAE
039CFF70
FC23FEF4
011F007D
0074FE4B
FF820002
FDD0FFED
FFA103A6
FEED003F
0062FFC9
FF27FF0A
FD2BFF4C
FAF4FF2E
FDCBFDDA
00B300F3
04A301D2
FD7EFEF5
FEC40041
004CFE5D
FDBBFDD6
FE79FEB8
FBCEFF9B
FF77FFDF
0330FFE3
0361FF21
FE50FFAC
FE5AFE80
FD800026
0541FEEF
02E701ED
0099FFFF
01240215
001BFEB4
FDE40056
FFEC0137
FE740147
FDF8038A
01310057
FF8602A7
FFF7FF0A
FF0BFD50
00EEFB77
FF5D0022
035AFDCC
00080140
FB34FF2A
FF7FFEC2
01C1FF69
01A7FE67
FE16FF1E
02E9050A
010902A3
0090FFE1
FF06FF38
022301A9
FDCB02FB
01FCFD4A
FE120324
FC49FD61
001D0152
FFA001FB
F959FF1C
06B3FE5C
FC910175
022A0489
00A0FEDB
FD0AFDCB
FD9801E8
028C0095
00E4FD16
FE78FF0E
FB74FF52
FF73FC31
0092FD65
FF99FF4F
FF05010C
015B03D7
FF18FCCD
031500BA
0556FE16
FFDEFFDC
0131044B
01B60250
FF7F0094
FC2003BD
00D7FCEF
005901F3
FFFF006C
0463FFFB
FE00FFF9
023CFF73
01450010
FEDBFF08
FE1DFF16
FDA0FEE6
FF9A0049
01A0011E
00E7020D
0042FF8F
FD630075
008DFF9A
0013FFAA
01630115
FD660097
02270042
FDF8FF39
00EFFFC6
00E801FF
027000F9
FFFD004B
005EFF82
FF43FCA6
022900C0
008701BB
00F102AD
02000252
FCF2FF3F
FD64001D
00E70043
FEA9FCF8
FF3FFE45
FF09FFE4
008BFFFC
022C0027
003AFF9C
0346FF8A
0037005A
FD2400C6
02F6FED4
FF7BFF86
016CFF6B
037E0319
FA7700B0
FE3EFF75
FEE200DA
FFF8FEC7
FF7AFDF2
0091FE7D
01510175
FF8B0067
01280030
004CFDDD
FF3EFFE3
FE64FE4C
FFF0011C
0144FE5B
0042002D
FB7EFEFE
FFD3FFEE
FBA4FF57
FFA1FF93
FFBEFF27
0025FFCD
0158007D
01460050
FC14FF2D
005B01B0
00440038
FFC6FE6B
0372001F
FED6FECE
007B01D0
014A0127
FD9EFEA7
00300054
0000FEA5
001AFF45
01A2FF6E
FFF4FEAF
0088000A
FC8CFFF2
027B0015
FF0AFEA3
00BA006C
007EFE46
FFADFF1F
0185FEDC
FDF4004E
FF0C0041
01ADFFB2
002FFEEA
FB80FCFB
02B5FFA1
0001FE63
08A8FE61
FD12FE52
FC8E018E
FE5AFFD8
FF07024A
028B0038
FFBB015B
FE8800B8
016AFF4F
FD06FFDF
06A00316
FF5D00F1
FE2501FE
009BFF56
03AB002C
FF3F0379
FE70FE0C
00F1FF55
FDA20063
0340FCC0
FE0CFC9C
FF790033
FF8C01C4
FF99043A
FD6A00CE
FCF9FD58
FD2AFCCA
011D01EC
FF0CFFCB
FD19FED6
FED3FF1B
006C022C
FCACFDB5
013BFD70
FFF7FF64
FD5002BF
02710293
014B019D
FDCEFE51
00B200FB
032DFD2F
000BFEF6
FFB00018
FFB500BC
049AFE6D
0231007F
0080FFD1
FEF802E1
012E0105
00690203
00970369
FF48FBDC
FDC50276
019302D0
027801E6
FEC60078
FD2DFAEF
FDCCFB02
FF81FECD
FF55027E
FF280476
004DFFA8
FF0C01E7
FB920015
018D005B
023C029C
0105FCA9
03250256
FC8100E6
00FFFF9E
FD15FCF2
05810369
00340057
FCAF0547
FEF9FEFE
0055FF9E
011BFFBC
0238FC5C
014D005F
03830188
FE190091
FD07012B
01DD02D4
0033FE86
FF08F990
FF8EFEEE
03B10616
FF5802F6
01AEFF13
FFC30209
0193FF07
03C3FD6C
003DFF46
03BE0408
FDE10055
FE2FFFD6
035B0117
FE080001
0214FE5F
FF18FF73
FBEA03AF
0526FE3A
FEF403BC
FF9F0258
017C039B
0013022C
FFE4FD97
0096FDF1
01A302F3
005F01C7
00ECFF4F
027900FD
01FDFF83
FE1E0145
006BFEFC
00BA00E3
FDE8FC45
0154FF4F
02D8FF5B
0187FF5B
FD75016D
026AFEA5
0108FF81
FE8E050C
006E0087
FEAF006D
FFA0FFD9
0016FED9
FC83FFB8
FFC1FD57
FEEBFE8B
FF34FE59
014EFF09
FF77FFF9
0060018E
FDE40031
FFE7FF96
FE7BFDE8
FF92FFCD
FF210163
018F01D8
FD51FF42
FF92FF54
FF28023B
FFD9FFC5
FE3D038E
000B01AE
FE4301F2
FEBD0229
FEC500E8
0273016C
00720436
FF9800BC
FF380008
FD690147
FF9EFDAC
FFC2FFCC
FF90FCD7
FCE1FE50
012B0085
01B40081
FBC8006B
0320FF0D
FBA3FF39
0137FDFC
0686FE45
01C4003A
FC7700A3
FF7401F2
FF6200A3
FF2C0120
0310FEF4
02BEFE42
FC92FF53
FEE3FE67
FD95FDB3
0141FEE6
00B503C9
FE9500C1
FE35FF6C
FD78FE71
FFFEFF52
FC8DFDFC
FDA50230
00D106B2
FDA0001F
045AFECD
FD68FDB9
FF8B000B
FE63FD79
FC17FFA9
01240033
026A0271
0458FDE5
01EA0049
FFC5FF63
018FFD89
0424018A
FDA7FFB8
FF23012E
F75300EF
01D70158
03F3FDBA
008EFEFF
FF2BFF0E
FF14FF4B
00AEFDF2
00DAFFF9
03CBFF81
FC6DFE56
FF740280
028CF9A5
FED10396
01CE04FD
FF510033
01BDFDE1
FC0D01F5
032AFE50
FCACFD4E
FE6AFF66
00F00181
FD8C014A
FF0DFF54
04D30339
FDB50086
FFD701D7
FD410209
00FA0061
FFA8FF5F
0216FEFC
011D03AF
FF9FFE9D
FF99FDD0
FE1CFD1C
01AEFE6B
020B00A1
FB2B00DD
0150FD01
00E1FDE9
FEFA003D
FBEEFF07
FEA5FF2F
FF950176
FFEFFE86
056D016B
FFC90102
0080FC73
FDA1017D
003EFEF7
003F0054
FE68FDDF
0353FDA8
FCA303F0
FDF9FDA8
00C20031
017DFFCE
FEBA03DD
FDE80003
FFA20000
01EC0036
01A6004D
FF43FE1C
FD760224
0000FD84
00460327
FFC3029F
FE8E0400
FDF6FEB8
FD1801E9
025CFF54
FE43FC2D
010C00DC
008C0075
02000383
FE09FE17
FEB2FEE7
FFAE008E
014E0015
FD3CFFE0
01FAFD6E
FD3AFF8C
FAD5FF4D
021C018F
0369FE3A
0165FED4
00280257
FEF0015E
FF250425
FEDAFFF3
FD97001E
FFBBFF96
FE3CFC78
FF36FF85
01F202E1
02F0FF9F
00200020
FCF802BB
00D1037D
02D1012B
00EE014C
003B01F7
00EA020B
0005FEBD
04A200F7
017200BF
00720051
FC4DFB4A
015DFFF8
06F70061
016F039C
043905D5
FF6EFEC3
FCE5FEA7
FB21FEB9
0535FF33
024200B3
FA6EFA23
062A005E
FD95027A
03A0FA3A
FDC4006D
01740092
FD9602E6
FE740445
FE1BFDA4
00F4F952
FF7AFB6A
016D0401
007402F2
FA95FC02
FBCCFF45
04C2FFF4
F645FF09
00B900CA
01A5FD3D
FFB60150
FBDF03B3
03430227
FE58FCA4
00AC00A8
0315003D
FD5A0177
FF540420
042B0091
04E40055
03B20224
FC63FDD8
F9DA01BD
066E02C9
02D7FFC2
FBE3035A
007FFE5A
031D07DD
FD48070A
FE05FF87
FDE60603
FFADFE73
FC620037
FF49FE2A
FE820159
FDCA0140
012800E6
01CC007F
02AA017D
FEDEFFC4
003FFD73
FF15FCBF
FC91017A
FFA0FF69
FE8E01D2
01DE001A
0045FF75
02D9FD40
028D021B
053C026B
FE8AFE5D
006AFF25
009AFEDD
01AEFF4F
01460197
FF1E01BC
FF24FF66
FFB4FF8D
FF03013C
FDA901C3
FF530099
FD7CFF5C
FF870192
01B0037C
037DFF30
FE8E00AF
00FC00C0
FF27FF61
0109FE4B
014DFE7B
FF85FFF8
00B800E2
FFFBFCA4
02490168
FDF2FE05
FF6BFDD4
0011FEA9
FF5AFD2C
037DFF8A
0114FCA7
01D4FF34
02EDFF3F
FE85004C
FE13FF8F
FF40FF39
025FFD64
FF350131
01A3019C
FF39FF7D
FECBFCCE
FD76FB64
051CFC34
FEF5FF1F
FE13FF01
019F02F4
0194FF2F
FCABFFCA
FD8FFD74
FF0102DC
0130FFE3
FEB1FF99
FCCDFA2F
FF38FE3E
0108FF14
011502B5
01A3010D
0165FEBF
FE5D0064
FDD500AD
0076FE3B
FDC4FE98
FB6CFD7C
FEB0FF92
00EA0025
016DFBC6
035B0072
FDB200E6
FC30FE39
00FA003D
010FFF93
FED8FC39
00090216
FF7704D9
00BE00AE
FCFBFDBF
023AFFCE
0197010C
FE6100F4
FEECFFFB
036E0265
01FBFBD4
025EFF02
017DFE48
009F0191
00D00012
FCC00112
FEFBFE8E
00C0FF88
01C7006B
FE73FF9C
00CB00D8
FFDCFFA3
01CA01BD
025AFF8E
FD820272
00710008
FF5FFED5
FEB601AF
0135FAF6
FF74FFA9
00D20228
0257008F
FEA6FFE1
FEEEFE50
01FA0269
013F0101
FFB3FFC5
021D011C
FF8A010A
01CE0055
03A3FE76
003D0028
FD710167
FF7200BC
FF150062
FF66016E
00020190
FF96FEDA
0103FF24
FD0D014B
FEA4FF02
FFB4018C
FF6FFD70
006CFFCC
00DB0090
0026FE5A
002600CB
0032FFF2
FBFEFFA4
0245FEE7
00620045
01A00509
FF950302
031F01F5
FD15008D
FBB50326
0163006D
01DFFE95
FD7BFE9E
021F01C6
02040198
006D007E
FEBF00BC
003BFE1F
FDCAFE3C
FFC10275
01CFFEE0
FDBA0018
00AEFDC0
00B2038D
0098FCB1
0216FF0C
FF4000BC
FFA301B3
FD500033
FFE30261
02BD01AF
0066FF6A
FFFE020C
FFF4FFBB
FEE9FEDC
FF66FF2D
025B0047
015AFF94
01C900BA
00EC0367
FDC4FFC4
030B0107
016BFE4F
017D01A1
00E2FE30
00580148
FD9EFF3E
0222FF36
FFE3FEAD
FD79FEC0
FF00FEBB
00E400F3
00CFFDA9
01F7FE41
00E200DA
FD85016A
01FC0003
010EFD5F
FEE8020C
0017FF5E
036302DB
0054FFC6
0044FFEA
FEFC0044
FF57003B
FEA8FCCA
FE14FC92
04500142
0234FEC0
022DFDF0
0206FE0A
FEACFE01
00E1FDE7
033D008A
0168FFCB
0079FE00
FF25035D
01D100D2
FF870057
00ABFFE7
FE85FF4E
0054014B
01970332
FF6A0053
FDCFFFAF
02E2FF9A
FEAD025C
FFC5FFE7
025B04D3
016DFE4A
01BCFF86
FEA5FD42
FBA101AF
FE05FDAB
FEC0045E
FEC80099
FF08FFB2
FF3B00BB
0257FE76
00880055
00030340
000102BA
FC8EFFE4
FEDAFE1A
01DBFF30
012E0239
FFACFFEF
00670189
00410030
FE3101F6
0254FEAE
FD950093
00A80001
FDEDFE68
FF2AFE34
00C5FF69
0090FEB1
FFA6FFA3
FFC5000D
02B4FFB0
FE47FEA4
FC870172
FFCFFAF2
010AFFF5
024B011E
018B00AB
FF2E0303
FFFB020A
FFDBFF8D
002101E0
FEA1FF9C
0093FF8C
000FFEE0
0092FFBF
FF30FFF1
0119FE63
058EFFF3
0007FF68
FFA5015E
002EFF32
FE930072
FE14FD3E
FBACFE73
FC1AFC2A
00180266
FD8F00F4
FDDEFE3E
FF360042
0081FE39
00490224
00D901B8
FDB502D5
FCC3FF27
FF0D00E7
014CFFA7
00870522
009E022E
FC3D0144
0266FEEB
FFB1FDC3
0079043D
FE180106
01D0FF17
FFE6025F
FFAB0182
02BCFC9E
FDCD0063
FF13016B
FF36037D
02EAFE28
0159FFB6
009A0175
0029FCE1
036B03B3
014800F7
00EC01FD
004300A7
FF5BFD91
02F70215
02A700C7
FE24FE6D
01B10125
02FF0349
0292FFE0
FDF8FD5F
00B0001B
01F1FFE6
FF540377
0012FD23
007001D5
011300FA
FE8BFCC9
00F5FDF1
FE98004D
FF6800D9
FFF3000C
0121FFA5
FEE4FE23
00E3FECB
FFD6FF4B
FDCEFF91
00B80096
00C8014F
0170FF1A
02C5FF38
FF05FF42
020B0129
FD22FD9E
FDC0035B
FF8700A1
00DB0285
01EAFFC7
FE9A0507
FF09FC52
FC26FF6C
01520164
FCF3018F
01ABFA70
FDF1FFF4
022403C9
00DCFDBA
01B10206
FF4E006B
026BFF8C
FE4A022D
03030128
FF01FF43
FF39FDC6
FF81FFFE
01E303A0
FCA5FB65
00DEFED8
FEB1FFCB
FDEB019B
0111FD0A
007DFDEB
FDEFFF1E
020B0318
0253FE80
FE0A01AF
033E01A6
FE42FFC4
FFA1FEEA
FDFEFBEE
FE6BFEC0
0384FFB7
0174FD1B
FCEA0059
FE0EFC66
0609FE94
03CD0392
FF53FF3A
0196FD6D
0146FE50
00550000
00A10176
01C602C3
