00D5
0A15
FEDF
F84C
FD86
FD85
FCAF
FB45
0627
00FA
F86B
029D
FDFC
04AB
0541
FFAB
FB1A
07E3
FFB9
FFD3
FD28
FAEE
FCD0
026B
0593
04EE
F83A
059C
F7F3
FB65
FF90
FD63
FC6F
FA67
0145
FFCE
0181
049C
02FA
02B5
01C2
FB70
00D2
003A
FC67
F66F
FFF4
06DA
FF7A
FF1E
088F
0B42
FD84
042C
FEB5
FA18
0331
01B0
FF60
0165
0059
05B6
FEF9
FE91
088C
0398
F7B9
FBE1
053E
FACA
F18F
08C6
0365
FB32
FE76
0623
F8CB
FECB
FCB6
FB4F
0411
F3B3
F9D9
07EB
075D
0840
F333
FE60
F17E
04AC
029C
FA4A
0215
044B
FF23
0092
FC04
06A5
036F
03FF
F460
FF38
FD12
1581
FE44
010D
0237
FE30
FB70
0693
FDC5
0DB6
02A2
FAC2
024E
FF9D
FCC8
01B0
FBF2
FB49
035A
FBC7
FC3A
09A8
F90C
F383
0451
FE22
F98B
F907
F96F
FDAC
FF2E
0136
FF93
F95C
FD97
FFF1
036C
091D
FF03
0CAC
FB10
F92F
FDFD
FC85
00B1
F973
FD58
FDEB
FE4A
F8F0
0431
024E
F84F
EF6E
F8DF
01A8
009C
FA23
FE1E
1307
FD85
FF12
FDE0
FD6B
0083
0066
FBF2
030F
FE86
013A
0191
0150
0099
FCDC
FE4E
0478
FFC9
F6F0
FD26
0279
04E9
FF68
FF54
013D
FB12
09C6
0C3E
0D70
0B40
0360
FE6F
FD58
015C
FFB5
07C0
03DE
00E9
FE7B
F8B4
FF42
057B
0128
FBF8
0CA6
044C
FC3A
F963
066D
FE62
FDFD
F7BA
0407
F3BF
FB3A
FD38
FE93
FA3A
F1B9
FE0B
0465
002C
04E7
FE61
0E32
F44D
0A8D
0654
F990
FCB2
FFBD
F9F3
F6F2
FA36
0CA6
FE8D
0595
FB02
FF6B
FB0D
FD01
FC95
FEF2
F9E8
00E6
02CF
FE80
053F
F7D2
FC5F
FF1B
FFE5
FBEF
FAAC
FC4D
0705
0A16
FCE7
FA22
FDCB
033B
FC8F
00DD
02B4
FEFC
FB6D
FFCE
F148
FB49
0139
FEB7
FF2D
F709
F74A
00CF
0022
FEF9
FB50
FADD
00A3
FCEF
FB01
FF56
FDD7
FC0C
0754
0326
F82E
FB07
F116
02FF
F891
F642
0198
F5A1
04C2
FD77
FB62
F74E
FFA3
F7AF
0663
FAB3
FEAA
FADD
006E
FAB3
F9C6
01C9
06E1
FE7E
0111
019C
FA4F
0079
02B3
03B2
FB5B
0483
00EE
03E3
01E6
FD13
FFD7
FA4C
FC05
FD04
F32C
FEEE
0013
06CC
0477
FBBE
FD79
FE02
FC6F
00B7
043B
F622
0348
075A
FCEF
0008
FC20
FAD4
FBAD
04F1
FC3E
FA91
099F
E6D4
EBF6
0D92
FDAA
FC65
0855
F818
F9A3
F810
FC29
FD35
FBEF
F9BC
021E
08ED
FFBA
0680
0450
FBD3
F9E7
FEF0
076D
FFCA
FD9E
03EE
FCA3
FF50
019C
FC14
01DF
03EE
0117
FE01
0345
FA8E
07E4
0E18
00B6
FC4A
FE22
FD77
FFB1
FB87
0505
035F
FE1B
FA20
0A30
F1A2
FBA6
08DB
FFC8
0257
FDCB
02B2
FCEC
FBC7
FB89
009C
0067
EF2B
EECB
0CE0
FDBA
F4BE
FC8D
02B1
0360
09AF
02E8
FEA4
002D
F659
F39A
014D
F95D
FA12
0665
FDEE
0125
0294
01B8
FB9F
08EB
FB8E
0AFF
F376
008E
FC09
FFEF
F2D1
FE4E
1545
0183
F85E
FAF2
FF13
0C10
FDC3
FF2A
FEF8
FD7C
F886
02A1
FA82
FF0E
FF27
FDC6
F1EE
F9FA
09DD
FD22
FCCD
FA72
0188
FD56
FC26
FF37
0765
FE01
FD62
FAEB
F8C3
FD8C
FBDC
0A26
F8B4
FA54
FC55
0377
0BE4
04DD
0AA5
F9BD
01C9
FD79
0187
003E
FA4C
F8F3
FD62
033B
F96E
FAFF
FDAA
063B
03CA
00D8
FC54
FC36
FD8A
FFA4
FD4F
0C0A
FE89
FD20
F209
F119
0662
FF6D
FB58
0053
00B7
0339
FC58
FF3C
070B
F908
F297
FCE8
0E0E
0468
0BB3
FB30
F664
F990
FE73
04E4
F785
F82B
0137
F87B
0077
0193
0941
03F5
0863
0568
01AA
F909
025C
F689
04E7
FD33
0AF6
0013
021E
0183
FC34
0396
FA1C
FBB1
0503
0748
F3BA
FB4E
F8C9
0283
FD2B
F733
032A
F7FC
F996
FED0
F88A
FC8F
0263
F2B2
F73E
00BB
0199
FF29
F9F9
F714
FAC3
01FC
FA07
FB7F
033D
0A35
FB06
FC96
FBD1
0540
F1E3
08D9
0217
FE46
FE38
FC9B
FB02
F814
02E6
00BE
0588
0073
FF45
07D8
07AB
