02F8
F8EC
FAEA
FE27
0210
F3B0
FE92
0373
FB4E
0649
00DA
F686
FC5C
0402
FAAE
062F
FCB4
F5AA
FC80
034A
F72B
FE63
FE76
0859
FDB3
F536
06EA
044F
0B76
FD05
02F4
F6BC
08E1
F58E
FD64
FCFA
01FE
0503
FCF8
ED2D
FD82
04DF
FF5D
0493
FF67
066E
FEAD
04E8
00A1
FE4A
05D3
0A5E
029B
0298
0230
02D5
05AF
00F9
0319
F885
01F6
FE36
0626
FF40
FBB9
FC54
0189
FDC0
060E
01C0
01E3
06C1
0001
F91A
08ED
FFD6
FCE1
F934
FFD9
0400
F886
0445
FE9E
F66F
F429
FC25
0857
FEDF
FE40
F6FA
FCBA
033F
FB98
F7D8
FF2D
F7DE
0374
062B
0375
0948
028D
09D6
FD4B
02C7
F4A7
0AD2
017D
FA98
0395
FA3F
03F0
F537
FB3C
F784
FF83
FDFB
02C5
07C0
FADA
F80C
032E
0220
03A2
0558
0180
0B3F
FEE6
FD90
FF48
03F5
0052
FD7C
FC44
FE56
F9AC
FDC0
0533
FD61
0359
0821
01EF
0B00
FB97
080D
00AD
FF13
FE64
0832
FC09
0A71
FFDC
FC10
04E1
FE06
FBB7
03E0
FB77
FF70
F707
F96F
FABB
0207
FDA2
FEE3
FFF9
0267
028C
F432
FCFB
0312
FB76
0558
0306
0615
02E5
FD26
0787
F8C3
FCB4
FD9A
00DF
04EC
FC6C
F87C
03E2
FBC1
FDAE
0591
F92B
EAE6
00C7
FB36
FDDA
FE9D
F965
0172
FF8D
0B95
FDA2
00FE
FC40
F27E
F9C3
06AC
047E
FA9E
06BA
0313
01AF
043D
0045
04E2
F734
0779
001C
05CC
FE85
FE5D
F8A1
F7EC
F9E5
09A8
FEEE
07D6
02FC
0660
F7A9
0349
FF2F
FC50
FA8E
F8F5
02B4
0317
FE57
EBDD
018D
099A
0197
01B2
FF56
025D
F7C3
FF1C
FEA0
0A66
FCA2
F829
FA8A
F8E6
FD6E
F97C
FC57
0399
F601
00DD
FDA2
09AC
0271
03E9
01E3
05EC
FC46
075D
00EE
FFD2
F7F1
02F8
FEA0
07B8
03CD
FB22
03D9
0335
FBD9
FED6
02C8
FAED
0785
01B2
FF62
F160
052D
0586
0566
FD15
0114
F75C
FD60
028D
F511
03CD
0168
04B8
FDB5
07CD
F86B
FCAA
FFD4
FF95
0106
024E
F62D
F97E
03F9
FFD1
FECA
FB7A
F6A3
043B
FDB8
0323
000F
FDE0
FABD
0718
FEFF
F689
FC11
0522
FEDF
03E9
02C3
059F
01E5
FCAF
0312
0053
F5BD
03C6
FC9F
FEB5
F8E2
FD58
0485
FCE4
FE2E
FF36
FF3E
0234
F775
0E81
FFC5
FDB0
039E
FAF6
0001
F484
0356
F928
02FE
F40D
0680
0E5D
FF11
045F
F5FC
FBD6
058A
FCA6
FE2E
00FA
FBD2
FBDB
FA39
034C
03E3
05E6
045C
0160
FF1A
0957
02D7
0070
FD2F
F7A1
0400
FA54
01FB
FB89
000A
F47C
FB06
FFE3
FED4
0166
F7A6
FB56
0562
FAAE
FCEC
0447
FA33
0315
FA32
FF53
025B
FD83
044B
084E
FC20
07C6
FE3C
024D
FA10
02E0
FEA8
023D
0338
0458
FEEF
0525
FBF6
F467
014B
00F8
0863
FC5E
FD09
F6BC
FC72
00D0
06C6
028C
FBB0
F15B
FDA6
0BE2
F847
F329
FF1B
05DD
FE91
FE1B
FBAE
FABD
0428
F0FE
00C2
0256
FBED
0CCE
01C0
F1FC
02B0
F94F
05D9
0244
0184
F53A
0225
F53B
01AC
00AD
0019
09CC
FDD2
FE79
FE40
044D
F9AC
039F
FE2A
048C
F72A
FFAB
0341
079A
FADE
0A84
FFA2
0954
FE35
FCDF
FB41
01EA
FAF0
FDD0
FF24
F747
FE76
F84B
F738
F9B7
FD64
F8E2
FD3C
03A1
FA92
FB6D
FE6C
036C
028D
FAB0
FC5A
F87B
010E
FD0C
00B9
042B
06F2
F9EF
FC3C
F891
0DFC
00D9
FD89
0034
FE0F
0D74
FE91
FDC9
03D0
01B5
05DF
FAEC
FEB2
01C0
04DC
FA68
F9B2
0412
FE79
0A68
F98D
FAE4
FEB9
0C45
F69E
FE91
09D1
0199
FB1C
FC77
021F
F40D
FC86
F55B
FDD1
FD6C
FB4B
04FD
F8C5
F97D
01E0
0080
0024
F8DD
FE0C
FF8A
01DD
FB54
FFD6
FE72
038F
01D9
FE00
EDBE
FFEE
FDA8
033C
0738
01EE
FE11
02F5
0403
FB74
02A1
0648
088D
0087
FFFB
0704
F5A9
FC5D
FA06
0112
02DD
009C
0B07
FAB5
083B
03FF
F93C
0634
061F
FDF9
0547
FDD8
02DA
FAA5
05E1
004E
FE69
FD6C
008B
FCA2
0339
F8CC
0D42
