0038
FFBB
0074
FFA9
FF49
FFC8
FFB7
005A
FFF3
0011
006E
FF52
FFE6
00CB
0024
FFA5
00A7
FFE3
006E
00AE
0067
0085
FEEC
0114
0089
FF84
FFB6
FF1C
FFD5
FFD8
FF7B
0051
FF8F
003F
002D
0068
0031
FFAE
FEFE
FF29
0056
FFAB
FFEA
0105
0040
00E5
0069
0149
002F
0051
FF85
003A
002B
FF50
005C
FF24
00D5
0032
FFE4
0033
007F
0063
004A
FFB0
FFE9
003C
00E7
002E
01C2
00AE
FFE4
FFE5
00C3
0103
FFF6
FF45
007D
FF7B
FFF2
001B
0028
FF95
FFDA
0045
FF4D
FF90
002D
FF91
0080
0021
FF7A
FF75
0099
FFDE
006E
FFA0
0105
0073
005A
FE2A
