FEDAFFC4
FEFEFFBB
0136FFC1
007800BC
FFCFFEDD
FF4500FC
00230065
FF240015
00D1FEB7
00260182
FF4A001D
0008FF91
FF22FF52
00CE00B3
00CF005A
01130049
0031FDED
FF66FFFD
FEC90044
0090FEF5
00580024
00820120
FFA2FF6A
FEE0FFB3
00ACFFEC
0071FFA6
0077FE2A
FF78009A
00750086
0080009A
0034FFA5
00F4FE16
FF48001D
FF7D006A
005FFFD3
019EFF45
FF8B008F
FFE0FF4B
FDD0FFE2
00D9FF01
010CFFFC
FF6EFFA5
FDD200ED
FF060132
00E4FF6E
00E7FFE5
0042005E
0022003F
019FFFA6
00C7FF89
019BFF4C
FFEBFE4A
0011FFE2
0012FFF1
0023FFB9
00670072
01A8FE2C
0109FFB1
FFFEFE9A
0002FE80
FFC2FEE1
0047013E
FEBAFF0F
FF9FFFB4
FFEF00CB
FFB7FF42
004200E7
0053006F
0042006D
00E4007B
FE70FFE8
0008FF77
FFCA0088
FFEAFF68
004F00BA
007000B2
FEE700CE
002BFF6C
01650094
016AFF60
007AFFAA
FF3800CF
004CFF19
0006FE06
001C0145
00F2FEF9
00E70059
FF2D00D3
FEC00108
00BC0150
FF5B0016
FFA7FF70
FFA6FF43
01030040
FF900099
FFB0009E
FF20FEBA
FF88006F
FEFC0004
FEC40012
FF9B009C
006D013C
005B004C
FFE4FEF4
001EFEE0
FEAAFFDC
FF5500FB
0000FF9A
FFBB008B
FFDDFFC4
00CAFF3F
00FC002E
00CF0063
FF47FF8B
00830065
FFB2FF6D
0087FECD
FFFDFF8D
00CB0044
0131FF70
FE1D007E
007DFFB9
FF92FF94
FF740098
00150099
FFC2007C
FF42FF8C
FFF3FFE3
FF9600DD
FFE0FFA0
FFA5FF56
007B0165
0008FF7A
FE5BFF38
FF6DFEED
013EFE25
FFD10017
000EFDEB
00F5FE6C
FEA4014E
FF9300DE
FF950019
007F00C5
0047FE9D
00B7005D
FF8300B5
FFD1FE14
FF78001A
0023FFCE
FF8BFF25
012B010C
00BEFF25
FEAC001D
003000D3
00C60129
006C0103
FF1FFFD2
FF90FFCD
FEE40042
016B0000
00770057
00D50001
003C006C
009900DA
FF7FFFCE
FF87FF74
0034FF20
005FFFEF
FFCC003E
FFD8FFEA
FFB6FFA2
006101BA
FECE003E
FF58FFE8
01E00196
00F6FF2D
FF42FEDE
0125FF80
FF06FEC9
FEDFFF33
015AFED8
000A020D
FF81FFEE
FFF9005F
00B5FF3B
FF24002A
00E9FE9F
FFCC010C
FF980054
FF15003E
FFE4FF76
FFFEFFB0
00850182
FF28FE53
00D9FE6F
FFC2FE96
FEEFFF29
00680172
FEBEFF26
FE86FFFD
0131016D
011EFF90
FFEEFFA7
FFFBFFF8
00DC0018
02C8FFE1
000F007C
014EFF6B
00EFFF41
014BFFF0
FF610091
00D30033
0065FE8D
FF8AFFB7
FEEFFFF7
FF81008D
017A00D9
FF0E0092
FF45FF1F
FEFE00DD
00AA015D
0086FF2C
FFE6FEC4
007FFF2A
00800063
0168FF6A
004CFFFB
FF5D00FC
FF620124
FFA8013C
FEDE0029
00C00104
00B10044
01020119
00760007
0167FF2C
FFCD004A
00DBFEB2
0020FEFF
0014FEC2
00B20112
FF44003C
FF3DFEA2
004EFF87
00190069
FFE0FFAB
FF61003D
FF7A013E
FFA6002D
016AFF85
0044FFE4
FFADFFDF
FF9C0052
00E2FE59
0051FF9C
009EFE84
0015FEE5
FF8E00BB
00F8FE9E
FFEFFF20
FEBD012B
FF8DFFB6
FFFB00F4
FFA10058
00A5FED7
007A0009
FF61FF8E
FF10FFF3
FFC3FFBE
FF2A01D5
016D006C
00BF00A2
0058FF6D
005C0021
FF1AFFE9
FF4DFEB8
FF24FF9E
00020076
001400A1
FF2CFFA9
009800AA
FFCB00E0
007D0002
002600C4
FFFCFE17
FFE10106
0106FF27
000DFFB1
FFBCFE86
FFE50036
FF21FF64
FD8A01A7
00290043
007601B4
009AFFBA
004EFFCC
FF1E01E7
FFF20071
006EFDF6
00070125
00FFFEEB
0054012B
0056018E
00420000
FF65004D
0136FF83
FF54FFE7
0121FEE1
FF45FF8C
00F10074
00B500C5
FFC9FE85
001F021B
006C0058
00AE0079
FF300024
FEB1FFD7
0032FF9F
00B50020
00A800DA
0180012D
0031FF80
FF900020
FEC1FE1D
FF50FEC2
008D00B8
0074FF5D
0003FFA1
FF290049
FFF60026
FFDBFEFE
00380043
0006005E
00A9FFF5
00150216
FF51FFDC
0198FFB5
FF8B0009
00BBFF63
0159015E
FF55004B
FF35FF4C
FF5B004B
FF93010D
00A6008B
0041FFBD
FED8FFAF
FFE7FDDB
004BFFDD
FED2FE6E
006A0078
FF3B0059
01660176
FF45FF95
0122FF12
FFA00098
00500004
FE83FF8D
002B00FD
00F2FF8E
FF45FF9F
FEB100D3
008BFF87
FFA6FFE2
00100073
0083FF8C
FFEC00AA
FF8CFE79
FDD1000E
0103FF88
004200B7
00730126
0193FEFF
FF10FF0A
00C10100
FF99FFE0
008C00B9
007600E5
FFD7FF27
FF5DFF05
012600AA
014900ED
01ACFF63
FF5200BA
FEF7FFCB
00B70001
FFFBFFE6
FF2000E9
FFEA00BB
FFD70035
010C000E
0140018B
00E000D8
FFF0FF2A
017D00B5
016FFF6C
005FFFA3
FE84FF9D
FF960068
00A4FF91
FF0B0107
012800C4
0015FFFC
008F00A4
0072003C
FEE8FED4
0085FF24
007AFF7B
003600A2
FF6600E6
017400BE
FE9AFF98
01570079
FFC60038
FFF9FF54
001AFEB2
00FCFFCD
00CAFF92
00EE0039
FF080182
FF7D0016
0056FEBA
FFC7FF36
FF920083
FEFDFE62
0155FFE5
FFD20034
FE96FE9A
009AFFD8
00F0FF6E
FFB7FFC2
00A70142
FF8AFFBA
FF830020
FE43FEAC
0035008C
01CE0082
00970018
FE93003E
00FAFE6C
01C3FEEE
0011FF79
024DFF58
FEF10028
FF40002E
00EEFF64
00ACFF2E
FF65FFA5
0053FE92
FF3DFF65
FF87FF2A
00F4FF82
0245011E
0000FFD3
009900E9
004D0032
FEF4FEB4
003E00A5
009CFF9D
00290037
0069FFDA
FFAB00C2
FE85FFE0
FF2FFF6B
FF59FFB1
FF1F000E
00BC00EA
015D0059
FE77FE6F
0040001D
006A0195
FF140094
00A7FFFD
FFB8FF05
FFD8FFB7
0032FF74
FE770128
FF2A01CE
005D000D
FF5EFF5D
006300B1
00B9002D
FF93001C
FF140002
FEF5FF6F
009C005A
FEECFF8D
FF4CFFEA
FFA4FFB3
0073FF15
FF52FEF4
FF8AFED1
FFAF000F
01D9FF69
FF70006F
00690152
008AFF22
00BDFEE3
001200AB
000B0018
00930083
000A01D3
FFE90073
00B80065
FF48FFB4
00A0FF0E
0079FF96
FDF10047
FFCB00DC
FFC40173
FFCCFEE3
FFF7FFF9
FE220165
009500A2
FF8DFE2E
01550055
FF83FFD6
0002FFBD
0100FEF6
FF79FEDE
FF2500D6
00DEFFD2
FDC300F6
FFD100F4
00DDFF8B
FF8DFE19
006C008D
008A026F
FF47FECC
000FFF57
FFD0FEFC
FDF9FF5E
FF59FFBA
FFE6FF22
0095FF80
00B1FE3D
FF2A0051
FFEE00E7
0095FF91
003E0061
FF2E0060
FECB00C2
FEDCFF54
018A0136
FE3B0018
FFA600A5
FF94FEFD
FFE7FE76
0035FF46
00520100
013C005B
FF2AFEE8
001A0065
00400191
005BFF9C
008D0097
0032FF27
FFDA008E
007A0103
FF74FED1
00DEFFA8
FFA3001E
0067FF0F
FFB5FF5F
014FFFF4
004EFE33
FFD60137
0036007A
00720026
00F3004C
00460032
002500C9
00850142
005D0170
FEF0FE57
0107FFF7
001B00CA
FF620062
0054FFBD
FF9E00EB
00E7FFBA
FF060059
001D0003
00E00006
0109FEA4
019EFF51
000F00F0
FF98017A
001DFFE0
0073007B
FE9AFF7F
001FFEF5
00650017
FF49FFFA
FEE9FED9
FE5AFEFE
FF7FFEFB
FFEAFFDC
FFD3FDE2
01A7FFE8
FF1CFF8A
FE62004B
FFDA0030
FF5B00E7
00CE0007
FFE40021
FFB2FF95
01310108
007E0147
FFD6FFD5
FE6BFF95
FFF8FFCC
FF2AFF4F
00EA00D9
000300CD
FF7B00DD
002800E1
0055FF3B
00AF0031
00E5001D
0007FF47
00EEFFE6
FF9800F4
FEC6007C
0072FFC4
00C9FFBF
0127FFE4
FFAE0026
00690126
FF6F013A
002600D1
010BFF0C
FFAE009A
FF980154
00AF0007
FF96FF65
FF86FFB6
018E0017
00640115
FFEE008A
FF5B00FF
FFCBFF77
FF680007
FEE400E3
FEBBFFED
FFFFFFAA
FFB5000C
0033008A
FEF1FF3D
00A9FF5C
0104FEEB
0080FFED
FF9C00C7
FF75FFC7
00140064
FE7800AF
005EFEFB
FF14FEA5
0050FF9C
0029FDE9
FF6FFE96
FFFCFF5A
FF8E010B
FF0B007F
015E0121
01BCFEF6
FE39FE2C
FFA1FF47
FEB2FFDE
009EFF25
001E002A
0052FEEE
FFB5006F
FF6EFEED
000600EC
008C00A9
FF5BFF90
009CFF8C
00590082
FF820091
0012015C
FE88015F
008B0075
FFCF0177
00F4014D
FF3E0094
0077006A
014C0091
007A00CE
0028FFCB
FFC0FF9E
FFC1FF19
007A00B9
FF84FF9B
0004FFBB
00180074
FF0CFF46
002500A1
003AFF5B
FFC70185
003E002E
FE9BFF1C
FED60021
FF52FF26
005E01C3
FFEAFFD7
000CFF67
009101C7
00BFFFAE
00760060
00C2FF8D
FFC8001D
010101BF
00BB0084
0034FFE9
FFEC0221
0096000F
FEF9FF60
FFEE0085
003600DE
FFACFF92
0085FF63
0099FFFA
FF5EFEB4
018200A0
008DFF65
FFE6FF04
00800090
012C0036
0086FF7E
FF5D00A7
FFFE000E
FF030150
FE130047
FFD7FEC4
0085005A
FF88FF0A
FE8B0048
00A800C4
00590071
FF67FF96
00A6FE1B
FF8AFFC5
FF460025
022AFFFC
FDF0FF4E
0072FFA7
0052FFEE
FF48FF11
0072011B
012700AB
012CFF9F
00FC0121
FF32FF52
0005006A
FF2A00AF
FFE10059
012EFEA5
0012FFB6
FF16FFBF
007FFF68
002D00EE
011F009C
FF90FEEF
FFAD00E0
FEAC008C
00E0FF4F
0069FE8D
00D30057
00F00228
00C4FE6D
0120FFEF
00580244
004DFF4F
001C0078
00670023
FFA3FECE
006400C7
FF9B00C6
00BFFEE7
FF620037
0018007D
FFF80113
FFB50094
FFAAFEBB
006E0084
006A00AA
00640016
0081FF16
01340004
FF70FF20
FFE70128
FF0FFFA5
00240078
FFD7FED8
FEE2FF88
002E0173
010DFFB6
005100A6
00A10133
FFE0FFF9
FFAFFF4E
FF2CFFF4
FFF1FEFF
FE8B0043
FF49001A
FFEEFE51
00110091
0068FF17
FEC300A9
008E008D
008C017C
016B018F
FE120047
00CBFFA9
0066FF2C
FFEFFFD9
FFF8FF05
011000A2
010C0032
008E0043
00B2011B
0066FEEF
FFCC00CF
00CCFFD6
005D001A
FFA70000
0281FF1E
01210020
0081FF82
0050FFE7
005C0012
FF5EFF81
00EFFF9E
0085004D
00C8FFDC
FF67020A
00C2007B
0015FD8D
FEA5FFFD
00ECFF94
00EA0057
FF690073
FF04010F
0048FFF5
FE8C00AF
0069FEBF
00E30040
FF5BFF7F
FFC2FF7C
FE930058
FF21FFD5
FF01FE9D
FF8CFEE3
FE2A00C5
FED4FEC1
FF8BFFC6
FF9500D9
FFCFFFA4
0178FF98
FF9AFF81
FFA7005D
00BAFF17
00030004
FE3AFF0E
00C4FF91
00ACFED9
00B6FF9F
00D60023
00160004
015300CD
FEA5FF28
FE7CFF80
003AFF42
0127006F
FF85FEE4
00ADFFAC
009FFEE5
FF8200A1
FFF4FFD3
FFEB00B9
FF8AFFB3
010F0220
0079FFA6
FE9800FD
00AD005A
0107000B
FF77007C
FF38002E
005BFF7E
FF75FFFE
02220180
0011013C
FFB3FE51
FF0AFFE2
011DFFDF
FFE600BC
FEAAFE39
0055FF47
014FFFD6
0088FEEB
FFB70058
FF45003A
FFCF016D
FFD70069
FF7CFEFF
FFEF000C
FEFC006D
FE830099
00FAFE83
00AA002A
FF40010A
006E004A
FFA5FFE6
010600DB
FFB7FF75
01EA011B
00A8FF0E
00BF0143
FEFBFFD8
0094FF75
002B0014
FFC5FEF9
FFA10013
FFCF020E
FFCAFFD7
FFECFE35
FE0B0020
009FFFCA
FFC00104
FECF0017
00B5FE45
00A0FF7C
00A4FEE4
FFF0FF04
0009FFDF
00D2FF50
00B1FF21
0086FDF9
0002FFD0
0030FF08
FE01FF2F
FF53FFC3
FFE2FFA0
0136FFA8
FEEDFF83
FF30FF97
000FFF8C
00620045
00DDFFCC
005F00A7
FFA90098
FF240041
0074FF4E
FFC2FEDD
FEB40095
FFDD002D
FFC9009D
FFC0007B
0016FE9B
FF9B009B
003D0029
01B9FF75
FFDBFF9D
0078004A
FF20008A
FFEFFF84
FF41FF0B
FF470004
FFFEFFBA
FF51FDEF
FF1FFE60
FFB500A0
005EFEAC
FF2E0057
0024FFC9
FED3007F
FF5900B0
FFBD0070
FEE8FF1B
004AFF6B
FFC2001C
0022FF0A
FF6200F5
003AFF78
FFFC00D4
FFF5FFBC
0145FF20
00650045
FEBAFEEA
FFA0FE64
019E0092
FF0AFFE5
0066013E
008BFF69
010E012D
00CF0005
FF6CFFBD
00770093
FEED003B
009E01BE
FFE600C7
FE7BFF0A
013C0024
FF0D0020
FFC70214
FFE300C5
FE3600A1
00E20061
FFA7FF8D
FE87FF9B
FFFAFE72
FFABFF55
FFB6FFD7
FFED010B
FECAFED1
FFCA0029
0017006B
02000033
011EFF32
00D700B6
00BF0097
0013FF8B
FED7FEB3
FF170035
0074FE52
008901AA
FEEF0010
FF8B007F
027CFFE5
FFEF00D9
0038FFAA
00DF0095
013000CC
FEBAFF4F
008A0074
FFA1FF0B
01510050
00210142
01100116
000FFF8A
FFB3FE33
007E0075
0020FFFB
00C70173
FF48009D
FF8DFFAF
00A1FEA6
00FE00EF
FFEA009F
FF93002A
FEE8FEEA
004600B0
FFE1014E
006CFF28
00D90065
0032FF76
0025009E
00BFFF68
FF7FFF71
017C0104
FF7DFF13
FF15FFD8
FF7100CB
FFE3001E
00180123
FEC9015F
FF2EFE39
FF04FEF8
00E2FF85
0017FFE9
00540090
0018005B
01840083
012DFE8B
FEB0FFA7
FFFBFEFF
00EA00D5
FF610028
0073004A
FE57FF8B
0031FF45
FFC80076
FDA8007E
FEB00040
007FFFFE
01FEFF0A
FF78FF0A
0067007B
FFAFFFB9
0005FFA9
FF1B00F9
00780093
0089000D
012300EE
0062003B
FF140037
002E0047
FF35FF53
0027FF8D
FE9000BE
FF4C00CD
0140002B
FFB10111
FFC201AF
0088FEEE
015DFE3A
FF84FFEA
00C0FE91
FFE1FF8E
FF59FFCB
01AF0053
FE60001C
0068FF9C
003A009F
002CFF4B
0020FF8E
FF47FFE4
00C6002B
FFD50128
FFED00D1
0049FF0A
FDBB0084
FF72FF32
FF6BFF41
FF48FFFB
00740096
FFE2003F
01340048
0034FF9C
FFE3015D
0037FE92
0097FF54
FF7BFF51
FEABFF2B
01E70051
FFC20028
FFC2FECE
0125FEE9
007DFF17
FF4600AB
00CB0064
FF0F029E
FFDD0053
0024FEF8
00B60014
FFE2FFB9
FE560111
FFB4FFF8
FFEFFFDF
FE46FFAC
0057FFCC
007B0049
008E0036
00430083
0133FF1B
FF5FFFEB
01800041
000BFFB8
FE16001B
FEABFF89
0112010C
0026FE6C
00810079
0050005B
004100D7
01000088
FF260039
010CFF07
FF3D0038
0067FFDC
FFF2FFA5
016AFFBC
FEF2FF82
00A90058
00F5FFF9
01920108
01280016
FF22011B
FF330034
FF75FFB7
021C0097
0063FEEF
FEB3FEF3
FF5700CC
FF5F001F
010A009A
006801B9
00CE004E
014800AC
FFBEFE83
0099FEA7
004FFF84
FED1001D
FE00FF6F
013AFFFD
FFDFFF85
0096FF69
FFD4020E
00EDFFAB
FFD40035
FF38FF81
00EAFF2A
FFB7FFA8
FF7FFFBF
FFCA00C7
00C8FEED
FEBA0056
FF93FF3E
013EFFA6
FFDD0003
FFCDFF7C
FE7F00FB
FFD0FFDC
FE67002B
018F0085
016DFF4C
007C00B6
FFE0FFA2
FF86FF94
FF860070
FFEC006F
0031FEFC
FE02FE3B
FED60119
FFB7001B
FEE50003
FF3BFFFD
00F1FEE3
FE9FFFB1
008EFEDF
0091006F
00B5001C
FFF000EA
FFA1FE8E
FF40FE78
002D001B
0072FFF0
0111FF48
001B0073
0083FFD6
FF56FFE3
FFB5FFCE
0107009A
004EFE37
FE760138
FF4000C7
005FFEB3
FF1C0064
01A2FF58
FF2A011D
00FAFFC3
001CFF06
FF85FFA0
011AFF7B
FFA200A5
00430015
FFDDFEA5
0024FF2E
007A0089
0079FF6D
FFCC0025
FFAFFF93
0183FFBE
FFFAFF8F
FE8B0118
FF87006F
0049007A
FFD4FFD0
00410025
FFEDFF22
FFDC004A
FFEEFF31
0023FF9B
006AFEA1
FF94FF6F
FFB9FFB7
FFF6FF3A
FFE900EF
0080FF7B
007F00ED
002D00DF
001DFFAD
0057FE24
015AFEEC
009400ED
0045000F
FEEE008B
0075FFDE
FF84FFFB
007A004C
FFB100B0
FF32007B
FFB700E3
FF47000C
0054009A
FF960026
FF61010B
002EFEF4
0038FF46
002BFFF8
00F20083
00510043
FE19004F
FFD60062
FFDE023E
017AFFA7
FEFEFF54
00DCFEE4
FFE8FFFE
FF70001B
FFCEFE25
0031FE4A
FFA3FF14
FF9C009E
FF86FDED
0057FF9A
FF8F0078
FFB2000C
FF50FF60
001700EB
00A8FFDC
01870049
000F016C
FF97FFAD
FFABFFF9
0077001D
0148010A
FFAA001A
00BF00CC
FF86015C
0178FFE1
FF46FF91
FEDCFEF4
FF640015
0133FEF6
FF97FFDC
01380158
0061FFD9
FF36009C
FF630027
002A00A2
011BFEA7
FF68FFC1
0115005E
FFDAFF76
FFAD0033
FEDF0033
FF65007D
FFCC01F7
026BFF4A
00500079
FFB4002F
FF7F004D
FFAEFF4B
0102FF18
00580020
004601AC
FE300056
FEF0FE23
005D006F
FF4EFF9D
005AFFBD
004B0103
00FBFF08
00F60112
006900C3
005E0003
FF610105
00ECFFCB
FFDD00FA
00CC00B5
FFD1FFEF
001FFE68
00670032
FF0FFEEF
0061FF61
FFC40111
FF1000E3
FFD00189
002CFFC6
00CC0087
FF820023
003EFEBB
010C003F
FF64FE44
FE240039
00000089
00F500A8
FF7AFF6E
FFA70140
FF8DFF43
0035001D
FFBDFE5C
FF4C00DA
00E40129
0000005E
FF7BFFE8
00520063
FF25FED8
FF39FEC0
FF1CFF47
FFD10047
FF3200BC
00C4FF9A
00AFFEDD
0017FE87
FF9CFF0A
0093FFB5
001EFF9C
0061FFFE
FFF7FF76
FECF0090
008CFFBF
FED1FFC2
FF8D0015
010E01B3
0006FFE6
FFC90009
0011FF33
FFF90000
FED9011A
FF470095
FF67FEFE
00B0FF69
002D0010
0075FED7
00D0FF59
0016FF6A
015A004C
0105007B
FFA400B5
00B300F0
FF2900C9
FEFAFFF7
FF96FF5A
FE6FFFC0
FF71016A
00810009
00010089
006CFFEC
008FFF89
FE97FEFF
FFA6FFB1
001CFFB0
014B0054
FFFF008C
00500059
FE4B0052
FFD90072
FFC8FF4E
00F1FEA3
0014FFB1
004000F4
006FFFD9
FFD0FFE3
00E1000F
00AFFF31
0055FE67
FF13FFC3
FF4F0089
FF1CFFE1
0110FFFB
013A003E
00EA0070
FFE60096
FFFCFFD1
FFC7011E
FF75FF26
00650025
FFCC004A
FEFBFFDB
FF98FF6B
0066006F
FF70FF75
FE0F0098
FFAC00C0
FF5D00B4
005D0058
005A003A
004DFFE7
010A0104
FEF3017F
00B20186
FF57FEBD
00C70021
00340095
00D8FD7F
FF8FFFC9
FFE700D3
FF8FFE44
0034FFE9
002C00C9
00E8FEB8
0030FFF9
FFF9FE87
001300CB
FE48FE97
FFF4FFF7
FF4E0082
000A0034
FFCBFF95
00A7FE7F
012E0147
FFAA0052
011F0035
FF26FFE8
FE25FEE7
01050182
0035FF60
01020062
FEFEFF94
FFE600AE
001EFEC0
FEFFFFA5
0072FFBC
02010156
FF42FFE0
00480027
FF200037
00DEFFAD
015600C5
015601DB
FF7C0094
FF0F0094
001D011C
006EFF90
FEA7FFC7
00D10042
0124FEA4
0161FF11
FFD700E9
FFE20001
FF1CFFBD
00E60029
003000F3
FF5500E7
00420012
0012FECD
0087004A
00920005
01B70069
FE810164
FF91FF71
FFF0007B
0009013A
FF3FFF8D
008EFF28
0189001A
FF53FF90
00E9012C
FFCD00FF
00BA0067
FEEAFF89
FECA00D7
004BFF89
FEC8FFBE
00ACFFF3
00490082
FEE0FE1E
FE37FEBE
FFBD0015
FFACFEA6
FF03FF87
009F0109
001700E9
FF63013D
FF2C00F2
FD50FF2B
FFF7008A
00A0FFDB
FF390101
FE63FF5B
FFBD0157
01190003
008E0012
0158FFE6
FF1C01B9
0032FEF9
FFE7FF27
FF680159
FFC10042
0012FF7B
FF90FECB
FF35FF55
003801A5
0140005C
FF79FE92
FF86FF92
FF8100C6
00E80051
0042FED5
FF5E0001
FFFFFFB4
008DFE11
FF91FFBB
0073019C
0047FEE3
0052004C
00360024
FF870093
FF790069
00CBFF37
00A30101
FF25FE8D
FFD7000F
FFB3FF6B
FF34FFFC
0039FF2E
002BFEDE
0270009F
022A0082
01970016
00C6FF7F
FF9F0012
FEEB016C
011A006E
FFB5FF3E
0101FEC6
0041FE25
003100B7
FF72FFF2
FF35FFD1
FEC7005C
FF80FFF3
FF2B01E2
FF8400F3
FF92003C
0076FFD5
FF29FE92
00B1FFD6
0032FFB8
001CFFDF
FFDCFF75
FF6B0022
FF4C0050
FFA4002A
FF7000D8
FFC5FF32
FF9AFFD5
01200025
0006FEA7
0163FF76
FF9B0128
007A0057
FFA4FFF2
00FAFFF6
FF83003B
00190026
FFD70035
FFC80143
001FFFDC
FFE2FF54
01AA008F
0086FF7F
00000072
FEA4FF38
FFF90013
FEBDFF31
00AAFF2E
FF62FE80
FFAEFFF1
0046009F
00B20012
00100026
0157FF8E
FEF4FFC3
FF030110
FF560006
FF750136
FF8F0058
FF820014
FFB000E2
008E004C
0010FF7F
FF25FF27
0089003D
FF580035
0040003D
0006FF2D
012F009F
FEAD00A1
024EFF98
FEE700D1
01930095
01440000
003800D3
000B00AF
FFAFFFA1
008C006D
004AFFE7
0022FFA9
009CFFBC
FF51FF76
FE23000A
FF49FF73
FF1100EF
00CAFFB7
0012FED0
FF8BFE8F
FFDEFE7E
00AC012E
FF92FF43
008D0076
0064FF54
000DFFEE
00D90190
00AD001B
FE9E0040
00270049
FFE500DE
0053FF09
FF0C0071
FE4A00D6
011B0043
013C00B8
FFDB00AA
FF5900CB
FF43014F
FED4FF7B
0007FFEB
00BB0088
FF160068
00F1FFA4
FFFBFF91
FE8A001F
005EFF32
00F50038
FFBD0018
000B013A
022D0056
0001FEBA
FFD10038
FFD0FFDF
FECEFE71
FFEDFFF5
00330005
00FAFF62
00DB0083
0022FE87
FEACFF76
FFE8FF77
000EFF8E
0001002C
006FFFE6
FFD500DE
FE9DFFCF
0178FFA3
FF49FFFC
00BC00B2
01590019
0075005A
007AFF06
00DF00C2
FF6F0065
FECC00AC
0036FFE0
00BCFF2F
FE98FF8D
FE3BFF62
FF91FFB5
00540000
FFDEFECF
00BBFF56
0046FFC4
FE98FF98
00AB016C
FF750130
FFC600A3
FFE8FF47
FFFD0016
FED8FF5D
01A7FE13
009AFE3A
00EC0044
000CFF8D
012A003C
00E8FFA9
00CCFE6C
004E0031
008EFFA0
FFC600E5
004F0180
005DFFBC
FFB6FF9C
005FFFED
00E5009F
FFE20023
FFA600C9
FEE7000A
FFDE006B
FFA10119
FF4DFEAF
00E1009E
FF82FFAB
FEF1FE5E
FF6A0038
007400DA
0048FEB4
00EBFF5D
FF330090
FFC7FFFE
FEEA0136
00C50116
001F0111
FEB0FFD8
FFE0FFB9
00FA00B4
00340027
002CFFE0
FF2700C1
FF6D0058
011FFF72
FF680065
0089FF7D
00ACFEA6
FFBF0002
009E005F
FE5FFF3D
FF0000FC
FF2CFF57
01180140
FFD2009D
FF57FF75
00180132
00500275
FF5FFF18
FF70FFC6
006AFFAD
FF34002D
00E5FE56
0074002E
0049FED7
004FFF02
FF880011
0142FEEE
FEC9FFAB
0163FEF6
011EFEEF
FF5A00B7
0051FFF1
FFCFFF74
FFC200F0
01D4FFB0
000D010C
015AFE59
01BE0065
00A0FFA0
FFDBFFE8
0154FDC7
01ABFF25
FF2DFF79
023F012F
FFE1FF08
FEE000E7
0052FF66
FEB3FFDE
FE54FEAB
FF82FF3A
FEDB0020
FE0B0127
FFC90092
0083FF98
0029005D
FEEFFF5F
FFB2FF7E
0076005E
FF8D0131
00A6FF7D
001EFF39
00310195
FEA90071
FFF3FFA8
FFA4FF98
00AA0067
004E007B
003FFE6D
FE95FF31
FF270154
FFB5FF12
FEE2FF8F
FFCBFF05
FFCA0155
FFA3FECA
0061FEEE
0051000F
FFAEFF5B
005800E4
FEB5002C
010D00A9
FF4D0016
FDF6008E
FF5B00F0
FF7DFE05
FFBDFFE7
FFCB0009
0021FF0B
00440059
FEA8FF21
01ABFFB7
019C00FA
FE5AFF40
FF940087
0059FF85
00D601A7
FFCF00CE
FFC80042
FF7100BA
00C0FE10
01D20035
005BFF57
00240005
0045FDA1
00A4001F
FF0DFFE4
0047FF49
000EFFF8
0056FFC4
FEC4000E
FEC3FE9A
FF8F001B
FFE9006E
005FFF6F
007900D7
FEF60115
FEE80033
FF1300C0
FF35FF74
FF66FF5A
0082FF47
001B009E
FF3EFFCB
0036FF90
00AE0084
FEA300A1
FF0F002F
FFFD00AF
FFA4FFED
00BA0053
FF44FF9B
FFF7FEDA
FFBDFF0F
009C005C
FFF2FFBC
FFDF001A
00B600A1
FED50039
005AFF77
FF860094
00A2FF27
007500E5
FF84005D
005EFF3B
FF7B01F2
FFF101AB
FF06FF26
FF9700B5
00110022
002CFF29
FFCE0065
FF660057
FE3D00B6
FF8BFED5
FE80FFD1
00D7014E
FF52FFE3
000F005F
FE130106
FFA8FFA8
00E1FE6B
004CFE79
008CFF66
FF2B00A5
FF6B0012
FF7CFF1F
FF95FF81
FF470190
00140005
FF9E018F
FEDD00F0
FF91002D
FF960007
009F007B
FF2BFFCD
0057FFDB
FEC2FF9D
FFB50011
FFBEFE9B
FECFFF11
FFDB00B5
FEF60070
0210006E
FF8DFEB4
FFC4000C
003AFF19
FFFAFF9D
0001FF19
0152000B
00DD0024
FFBEFF88
FF27FED3
FEBB0116
FEED0061
FFDB0011
FED50104
00E8FFEA
FFFE018D
0044FF10
FEE70012
005F0070
FFFF00B4
0015FFA3
0059FF63
FEC401E3
FF5FFF67
006B0088
FF7800EE
0068FF98
FF5FFFEB
00DA001B
00D1FF53
0106FFE9
006FFF81
FF5BFFD9
FF1CFFED
FF92FFFD
00CE004A
FF8DFFBF
015400E5
0081FFD1
FFE5FE3B
FF73FF6F
002AFF18
0012019F
0157FFF6
FFDBFFB9
0045000C
0033003D
00EB0068
FF71FEF2
00E8001E
FFF10061
FFABFF3E
FF35011C
FEB4FED5
009AFEF1
FFC9FE0E
FE8F0009
FF33000E
00CE004B
FF080086
FFCF0047
0102FF29
FE3400F3
FF94FEEC
FFEE0038
FF98FFD1
FFF9010C
008E00EE
FFB20090
00E7FFEB
FF5000F7
FE71FF81
FFEBFF8E
01590179
FF9400EB
FFECFE59
FFF8007D
00390005
FFE1006F
014EFEA0
017E0032
00EBFF80
FF560075
0114FF6D
000EFFE2
FEFD006E
FFEC014A
00B000B8
FF6F0096
004B006A
FEB10111
00DFFF68
0107FFCD
FFE3FFF3
FEF2FFAC
0069007E
011BFFF2
000500E9
FF5BFF4B
FEE6001E
FEA5FF64
00DD00ED
FFF4FFF5
FE49FE91
01600125
00C900CF
FF66FF4F
FE920053
00EB0145
00B1FFF6
01820074
FFF2FE92
FEDD0034
0024FF57
0046004A
FF6C00BC
FF73004F
FF1AFF9F
FFF6FFF9
0078FF4D
00080048
FF52FFFD
001600F8
FF2B0089
FF22009D
0051FF96
FF6600E0
000E0065
FF53FF7B
FEAB00EE
003900DF
FEC5FF85
FF1B0021
FF7B008B
006BFFC6
0081FFA5
0092011B
FFF8FFA5
FF7AFF89
010E0061
FFE6FFF5
0078FECB
004E0063
01350044
FFED00B1
FEF8FE4D
00A6005A
022D0077
01430109
009D00D7
FF6B001D
00E500C4
00BFFF4B
002F0124
FFF0FEBE
0131FFB5
FF6EFFC3
006D0057
004CFFC5
FEED004C
FEF40095
00E400E2
FFD3FFC5
00CDFFF7
FFAFFFCD
FFC4FFBC
006EFEE2
FEA300BF
00F0FFF8
FFD7FFFC
FED3FFA3
015000F5
FF30FFEA
00AB001B
00C5FF34
00B90022
FF4200CE
FF6E0100
0228FE84
006DFFE9
004B0032
00D0FFB1
0209FF09
FF9E00A7
FFF6FE9F
FFB80099
017701BA
FEBAFF02
01EFFF63
FFC70011
FF4FFFEB
0010FF48
FF9800D6
00B800B5
FF880043
001CFF8F
FF890056
FE2CFED2
FF490142
FEFDFED1
FF8EFF89
FFDBFF97
00800050
FEBBFF7E
00DAFF83
0076FFCA
FECC002B
0045001A
00A6FEF3
FFC5009A
FF17FF36
007E0042
FFBCFF71
FF57FEBD
00F6FFE5
019300AB
00590097
00D3FF99
001001DC
000FFFBC
002DFF49
00F000C9
FED7FF55
FF78000E
FFFAFE0E
011300A6
01C0FFEC
005100C5
00840071
FEF20085
FFFB002F
009F0139
008FFE57
0067007F
008DFFF3
FEF80038
FFCB002B
00A100A4
FE3DFF45
00A5002A
FFC6FFF4
00230078
0047FECF
FF8D019C
00820026
FFA4FF4A
00B40028
012700B3
FFDA00B9
004D0182
FF840064
FE8D0132
017C0095
FE1FFDC2
FF8E0084
FF80006C
FE7D0023
0063FF5B
00110021
00B8006D
FFB3007B
FFEBFFAF
FFE4FF3C
007CFF6D
FF90FF5D
FEFDFFFD
010FFF62
0047FF67
016BFE7F
FFA90000
FFD5FF47
007AFFEC
00E80094
0049006F
FF13FFF9
01120092
FFC2017F
FF1A00E2
0046FF6E
002AFFEB
0080FFF1
FFB8FFC1
FECEFFED
006FFFB3
FF4901BE
00A6008B
FFCDFF71
0000FF95
FF5BFFB6
00660050
008CFFBF
FEC30074
FF61FFFC
00DE00ED
002CFFE2
FF24007D
007000BD
0010FFEE
FEEB00E4
FF9500EA
FF8EFFE6
015700B6
017DFF4A
012B0077
0023FF7D
010CFF35
FF8C0037
00BAFF60
FFC10196
004A0023
0021007B
FF3CFF69
FF74FF78
007B007F
009FFFC1
006CFF7D
FF37FFCD
00CBFFB1
0076FED0
006DFFFF
0060FFB4
FED800B0
00BE0034
018C017D
FEE1FF34
FEE40047
008BFF7F
00D10168
FEC8FFDB
FF7700B0
00B10045
0129FE9D
00C9008C
FFCA0047
0079FFB4
FFBF0070
FFF20035
00A4014B
FE1A00CC
0005FED4
000EFF9A
0078003A
FF8C0004
00AF006D
000BFD88
FF4000C6
00A9FEAB
FFA9FF4F
FF4FFEA1
FFAA006B
00B1FECB
00BE0025
00040172
FF87FF97
011E0003
005E007A
FFD7FF2E
00880054
01B4FFD7
FF3EFFCC
FEC0FEDD
FE3601DF
FF50004A
FFE1002F
FF740055
001B0208
FE8F00CF
FF9EFFC5
00FEFFB9
FF7B008F
002300E1
0074006E
FF4900B3
002F009B
FEC600DC
FEADFFDF
FFF30264
00B3FE7B
00320046
01200032
0076FF21
00EAFFA2
FFED01B5
00A00138
003CFF93
0017FFB3
FFAFFFDE
0104FE6E
001A002E
009400D1
FFB2006E
0125008F
0066FF02
FFC1FFEA
FFA4FFAF
003CFF9F
FF5E018E
0004FFD3
0141FE1C
00FAFF5F
FFDE00B5
FFEDFFD0
001BFFE4
0173FF0F
00C7002C
00EE0089
001000F8
FFD4FF8A
FF5C0025
0105009E
00EA0030
002B0051
FE95005A
FFED00E7
FF09FF46
0147FE33
FDA80030
FFAEFF91
00140009
FFA00037
FEBDFF84
01DAFFF6
00A7FFB9
0055FFC0
000BFF91
00AA0033
FFF10000
0059FF73
00440056
0022009D
003E002F
FF420103
FF92FF9C
FEFCFF20
0142FF78
0049FE37
0018FFEF
FF4D00AC
0049FFEA
0127FF5B
0046FE4C
FEF3FF15
012700FE
015A0056
01450115
0019FF00
FFF2FF56
00F3017E
012B00A9
FF3CFFF7
0102FF93
FF3CFE9C
0084FFD9
01790150
FF2FFFA0
FEF90295
00D7013C
FF05001C
FF87FEB7
00CC00DD
00FDFF3E
012C001F
00C70017
FF4AFF86
FEE60001
FF51FFB8
0126FF8A
013100FD
FFD6FFC5
0068FF4D
0049FF99
0023FF26
002B00F5
FF7300FB
00C8FEF6
002BFFC9
008500AA
014600B9
007A0128
0125FFAE
FE950093
FF73FFE3
FF32FF46
FF67FFF3
00AFFF0C
FFD4FFB6
FF6B017F
016EFDC5
FFFC0117
FECAFF84
0097002C
FF6F0087
FFA8FF46
006E00B6
00AF00CD
0173FFC9
000AFF92
00ADFE73
00DBFF85
FF2BFF42
FF5CFE64
0010FF73
01170089
00A400AC
FF2F0020
FFC8FFD9
FE7000CA
003BFFBA
00EA00A3
0023007A
00C80063
017B010D
0078006D
0053FF40
00DAFE6F
0091006F
FF880046
FF3CFF4F
00F5FF15
0040FEE2
0140FFC5
0127FFED
00E6FFBA
FF500148
00BF0093
FD89FFB5
FF7E00AD
FFDCFFC2
FE6100A6
00B500E4
FFA60071
FDD5FFA4
0066FFF4
00010063
FFD9FF1C
0059FF8A
FFFFFFF9
FF2F0163
0126008F
0098FFA5
00D40000
0083FFFC
0119FEEB
001D0085
00BAFFB3
FF32FFFC
00C40056
0078FF66
0085FEC5
0021FFEB
01480013
FFA000C7
0085FFE8
000FFE3E
0028FFCA
0084FEF7
00E8FEC8
011DFF8E
FF160016
0085FE2B
00900175
007700AC
001EFF37
0068004D
00090025
FF44FFFE
0081FE78
01EFFFCD
015B0073
0011FFEE
FEEF0023
00E4FF58
0179FF75
01090036
00440081
007BFF26
00A50049
000A003E
00A9FEB0
011800C5
00C6FE33
FF96008A
00A6FF4C
FF28FF66
0001FFAC
00D70075
008F0068
FFF7FF81
FFD40053
FFBAFF78
00C500BA
0084FE91
FEF00045
01B70062
001600AD
FF340036
FF83FF2D
00CBFF29
00ACFFB7
FFFFFF6C
FFBB0022
0073FFD7
006D0151
FE0AFFBA
FF9EFF96
010CFE81
000EFF8B
FF17001C
0026FFE4
FFCA00FC
FFE2010D
FF1FFF0B
0068FFD0
FFD700CA
FF8AFF62
FF8EFF73
00910021
0042013F
FFE7FF2C
FF35FFAD
00FF00C9
FED600E3
FF6A0135
FF15FF2A
FF7CFF99
FF97012F
FF3F0034
FF4400A9
001BFF2C
00010004
FF81FECE
FFD0009C
FFBA0099
FEE80023
005E00C2
0134FFE5
00FB0033
FFE4FF91
FE3F01F3
FF530038
013B007A
01B5FEE9
FFE6FF44
0064FFA0
0105FE9F
FFFFFEBD
FE69FFE0
FF82FF5A
0062FEE9
FF4A006C
FF18FF8D
FFDC0066
FFAB003F
00BD0059
0116FFB5
FF48012A
010FFF4E
FFE9004E
FF29001B
FFA500B9
000700E1
004AFF93
000100ED
FF790060
FF03FF50
005A008A
007000DE
FFB1002F
01FEFF9D
FFFBFF7F
FED700E8
FF7FFF80
FEF40004
0066FFFF
FF5200AB
FFB70064
000F00AC
FF790043
FE26019F
FF4EFFC6
FFD5003E
0091FFEF
01320000
FE12019E
FE9E0074
0032FFAE
FFAC0107
011E009A
FF66010F
00CBFFB4
FE6201AF
FFA90023
FF6DFE6E
FF570105
00240014
FFB10012
0026FF77
005300A8
00A100C0
FF54FF2F
016FFEC5
00DB011E
FE85001E
01680142
FFF8FF45
FF600037
FF58FFBD
0126008F
FF64FF19
FEA40129
0079002F
00E50010
FF37000E
FE9F0009
01C5004D
00550126
01490039
FE81FFA9
0006006B
FF1BFF7B
FEFDFF69
0055FF1F
01C0FFFD
FF640052
018A0109
FFED00A1
FFF5001C
FF3000D5
FF7E00CB
FF74FFF7
0045FF1E
009700EC
00B7004A
FFFDFF8D
0186FEF0
00B90083
009DFED9
FF60FE68
0012FF8A
FED60033
0099FF90
FE9BFF64
FF4DFF6C
FEFBFFE4
FFEEFEED
FF04FF61
0019FFE4
FF570122
FF0200D0
00A9FE36
FFE90113
FEC7FE78
00760042
00B9FF11
000C01C9
FF560018
00890016
006DFFC1
FE5C0197
FF37FF79
FF41FF5E
00DA002E
FEFB0070
004BFFD4
FFACFF5B
FF40009D
FF14FF95
010D0126
FF94FF9E
FFC3FE91
006CFF50
FFD5FF86
012D0009
005AFFE6
000C0087
FEE90006
FEFF01CD
00F10153
FF550006
FF04FF39
FFB1FFC1
FF68FE33
0040FF5A
FF4100C9
FF6B0008
FFBBFEBF
FFFEFEBF
FFF2FFB7
FF460084
0176FE74
0072015A
004F00D9
FF3D00B5
FE310012
FF6AFEFC
FFF00010
FF15FF45
FFF40084
FF1DFF12
FF9FFF5D
FFA0003F
00A30025
FF5DFFE8
FF4200F4
FF3300BD
FFEB0176
003600FC
FF92FFA1
FF9C0043
FF000114
00BEFF7E
FF0700B0
FFB5016B
FFF1FF64
FF84FF2D
FF4D01A6
0126FF76
01F5FEA7
FFA2FFEA
0019FF26
FFFDFFFD
0107FF21
0077FE4D
005DFE3A
FF5AFFCE
FFDBFFAC
FFCD0054
014E0028
006B00DA
00F4FFB5
0018018E
0007FF9F
00F80102
FFDAFFA4
FFD6FEF9
0131FF42
005CFE4A
FF7EFFBD
FEAB0046
FFC30005
FFC3FF0D
006CFF3D
00F300EE
FFD4006C
FE7FFF69
001D0080
FEB4FF4B
0018FFE1
000A0141
FFC3009D
FE9900BD
FEAA0057
0012FF89
FFE6FF59
006EFFF7
00660127
FFFEFFEB
FEBEFFCF
0062FFBC
FF72FEE2
FE6DFE3E
000DFFE8
01A1FFB9
00C1FFBA
007BFFBA
FF4300D8
FF120046
00A2004B
0124FFE3
0056FFDE
002E0052
014B0156
FFC00135
FEDAFFD4
011D002C
011E009F
00BA00C4
FF72FF64
FFA8FF2D
FE4D0003
01A700BE
003A00F2
FFC3FFB9
FF58FF28
FF1AFEEB
00330046
00D3FF52
FF790018
FE73FFCC
FF29FF4B
0048FFF9
FF0FFFB9
0044FF4E
00C9000A
FFFE005B
00520053
0133FF5A
FEAD0058
00D700B0
FF8800F8
FFDEFFF9
00F400BC
FE30FEEC
FFD4FF2D
FE2B00D7
FFA101B2
FE6BFF5B
FF00FEEF
014F0057
0096FFA9
FFFC0025
FF0BFF5C
FFF5FF55
FFB7FF8E
00F6FFAF
00BCFF85
013BFFF0
004CFFB6
00940043
008AFFF6
FF8BFFD9
FFE1005B
FF14FF6F
FF7D004D
00DFFED5
FFAAFF21
FF6F005D
FFDFFFE3
FF94FF3D
001400CC
002DFF96
00A7FFE6
0077FFDD
FFF500F1
FF8C0034
0142FF8A
002E0071
01D2FFEF
FECBFFB2
FE6A001B
FE74006E
005D001B
00CBFE58
020DFE46
FF65015C
00F5FF11
FFF9FF79
0115FF76
FFBD002E
FF0D0020
010C0130
FF9BFF07
007CFF42
FFA801AB
FEEB0036
00A800A5
01300013
FE780038
FFF8FF4A
00C4FFCF
003B0051
00E4FFED
005600D5
01E9FFEE
0048FFAA
017DFF4B
FFED0005
01A300A5
00E6FFD3
FF9B005B
00FBFF77
0083FE70
FF4900C4
00E7FF76
FE00FEE4
00D3FEB9
FED1007D
FF1B0001
007F00A8
FF3CFFF0
0057004F
0076FF51
FEB5005F
003200D7
FF79004A
00A700C2
FF54FF5C
FFF1004F
001D0099
003D004C
FF59003D
FFC70082
FEABFDE0
FFDF0022
FFE0028D
FF7F0098
FE340071
FFC3001D
0122FFC2
0048008C
FF2A0035
FFEEFFFF
FF8E009C
FE92FFDE
008F0085
FFD00006
FFDE0096
0104FF54
007F001E
FF1F0118
0056FF95
FEF7001F
01740064
0090FF58
0184005A
FF67FE9E
0068FF8D
0123FFFE
FE1F003D
006AFF2F
FF3DFE92
007000E4
FF2CFF79
0115FFF4
00F90184
0061FF8D
FFD4FF66
FF66015A
001FFF06
FFC20165
002E004D
FF5FFF85
0116FF39
FF7FFFCF
FF2CFFFC
0059FF93
0007FFC7
FFC00019
FF770095
FF450046
0000FFD5
FFB30105
FF75FE32
FFEB0063
FF4900C2
FF82FFAE
0065003E
FFDEFFBA
0162FFC7
01A6FEE0
0085FFFD
FF6F0076
00090059
00A9FF99
000EFFED
00BAFEEA
0055FFA2
00C8FF9C
0001FFBA
005AFFAD
0161FEDE
0068FF89
00A5006D
FF94FEFD
0045FEE0
FF9BFEAC
015DFFB9
FF68FF51
00F400A2
004D0012
FF6200D3
00C3FFEE
FF90FF77
001800A5
FF8FFEDD
FF92FF95
FF9BFFFA
FFD5FFBC
008FFF06
FFD2FFD4
000DFF2D
FFED0046
009C0123
003BFF9E
008E00EE
00B4FF61
FF7C0016
FFFC00CE
FF8B0077
0047FFEE
01A600E8
011EFE9A
FEEA0033
FEE7FFD0
FFEFFFF1
FFBEFE5D
FFC80092
FFFDFFF6
FE690076
010F004C
0068007A
FFA300AA
00E1FFAD
0207FF7A
FF6E0009
00210022
FF05FF6C
FF38FFE6
00F8FF9B
0006FF44
00DB0121
FFE500CE
FFF600A5
FF4CFF81
008FFF48
FF7CFFFC
FF68FF80
FF21FFFE
0076FFFD
01C0FFFA
FE69009C
FEDC0003
0030FF7C
FFEBFF82
FFF4FF3F
FF9CFE81
0036FF67
0046FEA9
0009FF56
00A2FF2F
FF44FF9B
00430042
FFF6004E
01400091
FF8B009E
FF9CFF8A
FF4CFF65
FFBA0024
01330115
FFAFFE7D
01270021
FFC100DA
0058FFE3
002D00A9
014C0014
0118FF00
00D4FF88
0053FFE6
0050FFC8
004DFF7C
001D0063
FFCF0085
0029005D
0068FE65
FF66004C
0094FFD6
001E008C
FFCFFEF4
000101A5
0011012B
FEC1FF69
003B0058
FF250075
FF89FF93
FEFFFEE9
00D4FF69
00A0FF54
FDFA004A
008DFE73
FEB300CE
FF0C001C
00BD00EB
017B0120
FFBC0062
008B0068
FF52006D
011BFFD5
015A006D
0082FF8F
00710165
0074FE57
FF1E0051
FFB1FFB7
FF53FF3B
004E017A
FF380206
007DFF11
00470139
0090FF4B
0077FF75
006600E7
FEA10163
FFBF0017
FFE6FEBC
FF78FFC9
FE8C004B
FF67FEF6
FF390060
FFB2FFEE
FF08019D
FF32FF22
FFF5FE85
FFB3FE71
FF7DFFC1
009B005E
FF31FFC9
FF640002
016101A6
009C006F
FF4AFF73
FFE8014A
FFB9FFF1
FF13FF46
001700A3
FFB7FE37
FE6DFFE1
FE76FEEE
0054FFDB
010A0192
0005FF24
FF65FF48
00B100B7
00BCFEAA
FE6F013F
004BFFCF
FFCEFFD8
FFC60018
FEB2FF40
00B9008C
FF2A0083
FEED0023
FFE00013
0094FFBA
01570022
00BD00BE
0003FFCA
FFA0005C
012DFEF7
FFECFFF5
FF5300DC
00B0015E
00B6003C
FFE80046
0125001E
0096003A
00C20057
00FCFEF8
FFAB0079
FEDE0006
FEBAFF89
FE4CFFED
FEBC004E
FF73FFC8
FF4F0086
00690007
FECB011A
FFF2FFC3
00B3000E
021A0028
0034FF72
0019012E
FF7BFFCD
FE57FF42
FFC90080
0022007B
001700E2
009E014B
FF71FF71
FF7EFF59
FDD0FF3A
FFA50038
004500F1
FF250143
FFB20088
001C0044
009B0077
FF780043
FF2AFFAD
009CFDF3
FFEF0137
0015FF83
FF03FF0F
0169FFD3
00470058
FF7A0050
FF27FFEF
FF2DFF62
FF7C00CD
0069FE21
FEF40105
018FFFE2
FF8BFFFC
008E011A
001601EE
FF4C00E1
FFCD00DD
0084002F
0168FF16
0146FF7E
0000FFFE
006BFFE5
00850042
013000C7
008E0001
FF3F0059
FFCE0128
010F0116
FF63FFF6
FFA1008C
0090FFE4
005C0092
FF8DFF47
006BFFFF
FEA9FFBC
001B00BE
FF7000C8
00D6003F
FFFAFEF8
FFB80091
FF6EFF19
009AFE70
00A701EA
FF76FE99
FFDFFF1C
00640169
0002FFFF
FEB5FE9A
FFC8FF89
00E8FF7E
00D8FF37
FFABFFAF
00A700A8
FFF30097
FE8400F6
00D20032
0135008E
0097FF86
00480083
FF3A004B
FF67FFDB
FE7CFE0A
00D90011
FFB7FF92
0067FF87
FF18FF6B
FF040168
003300D3
00B7FF07
FF48FFD9
0017010B
FFE60081
FFEB0028
FEE5001D
FFF8FF2E
0085FEA0
FFB6008C
000100F6
006C0122
01D6FF71
0185FFF0
007F0080
00C4FFE1
FF520156
0008FFF5
00E9FF1B
0024FF7E
FEF7002B
00D8FEB9
00EEFDEF
0169008F
0145003A
0047FF79
005200BD
FE91FFA9
00C2FF58
FFA30003
FF9DFEB3
0017FF7C
0091FF92
FEBB0072
0013FFE7
00E1003F
017400B2
003E00B9
FE23FF6E
0097FFDD
FE94FF99
00510038
008C00A8
FFFEFFB9
002AFFCB
FF680057
FFB2FFD6
0136FFBA
FFB9FFCC
0034FF8C
0001FF77
FF9CFFCB
FF4EFFA2
00A20083
FF610089
FEA90066
011B00B9
003C0105
FE04FF08
FF230064
FF8F005F
FF18FFB5
FE78FF9A
00BE00D1
FE180037
FEFEFF3A
00280103
FF82FFB2
00BDFF8B
FFDB015E
00A8FF8C
016700B2
005AFFB6
00AFFFEB
FF25002E
FFCBFEA2
006CFFCF
FF9800F4
0079FEB8
00F1FFA8
00B60068
FF4F00A5
00B8FF7F
0028FF98
00920014
FE57FF39
FE9B007A
012E009D
005A0093
010BFF4B
013FFF9D
00550024
01CAFF12
FF84FF85
00E30151
0041FF84
01E30035
FF8EFFD9
00DA0071
FF2B00DA
FF620028
FFD3FF8A
FFF5FFA1
FFFE006A
FF4F0003
001900A1
01B2FFC6
FED60026
006D0089
FF8D005B
FFBAFFD9
FEC4014A
0044008A
FE1BFEF2
008D00DA
FECAFF64
FDE700B6
FFE9FF35
009C0046
0139FE9A
FF5AFECB
FFB4FFA3
0092FF79
FF2F003F
010F023F
0089FFD5
0038004A
FFFE005D
FFADFF0C
FF70FFCA
00090000
FE84FFBF
00700069
00AB0085
FEC001A0
FFF60159
001A0012
000CFDFF
0143FFBD
FEA8FEB6
FFD6FF45
0156FFED
002F005C
FFFCFFD7
01E9FF09
0149FEC7
FFDBFFE8
FFB70017
FF6A0143
005200D7
FED1FFCC
001E0078
FF03FFA3
FF89FF72
00530045
FFE9FED6
FFDA020C
FFAA0096
FEB8FFA9
FF0B00BA
FFC5FF75
FF8E013B
01430025
FF9D00DF
FEB50020
FFBAFFD5
00A1005F
006500DD
0013004B
012CFFA5
00D3006A
FFA5FEBF
018D0139
001A0027
FEF5FECC
00DD008F
FFDF00A5
00760014
00FE0003
FEC90149
FFE0000A
0018FF3A
FEFD015D
FEFA006F
002E0080
00D4FFBD
004BFFAF
00C0FEFF
FF9F00B8
00ABFFA3
0008FF0A
FFB40073
0087FF92
01B2FFF8
FF8600A9
FECAFF58
FE05FEFF
008BFF5C
FF460056
00320076
FF93FF1E
FEDDFF0F
FFB3FFE5
013B0043
0002010A
FFDEFF49
FFB50010
FFA1004C
0135FF8C
FFF1FEB0
0052FED1
FF8601F4
FFF601E4
00280125
FF71FF3E
FFD8FFC3
FEA600E6
0023FFB0
00B901C9
0046FEF7
FF56FFC3
01250086
FF100009
FE8DFF09
FE1E0026
011D0090
FF9C008D
FF58FEDE
005D00E5
FF1200DA
026700DC
FFB0003A
FED6FFBA
00CBFF81
00B6FF05
00F0008A
00DB0123
013400FA
FE97FEED
FFED00B8
007500FD
009A0103
FFAAFF37
FE3CFDBE
01320025
016EFF56
000400A8
FF900093
FFC300D8
005BFFC6
007BFF8D
FFB8FEE1
FEDA0076
01830068
0108FF23
FF970006
FEA200E7
FF8D0182
00300058
FF2CFFB8
FE6800D5
00970096
0041FFC4
006EFE71
FF4A0042
FF2AFE96
006B0039
FEC80020
0049FFA8
007A002B
FF280011
FF7D0126
FF670018
00580011
00370034
FFACFE7B
FF56FF51
FE380074
FF8500E6
FF44FED5
0062FF94
0065008F
0098FFE3
FF33FFD0
017300A4
0126002F
0134FFC6
FF8300AB
000600A5
012E00C5
FF4B0021
FFA4FEDF
FFA5FFA5
FF69FFAF
004B0045
FF430109
000000C8
00CE00AA
00600200
FF0DFF6B
FF1B00CF
FFEBFE02
FF36FF47
FF010169
01000112
FEEC0000
FFCFFFDB
FF570040
00E7FEEF
00CA014C
00310024
FFD6001B
00D5FFCD
FFCDFE5E
FE93005C
00A70030
00CC001D
00DAFECD
FFF1002B
FFB200A6
0117006A
003D0105
0057FF32
FF820076
FF1B0029
FF9D005F
01B100AC
FFA60069
00B4FF96
012E00B4
FFDA0053
0071FFED
00C2007F
FF87006F
FE6CFFC5
FF80016D
007300BC
0038010F
00CE0016
00A500CC
003800CA
00DA014D
FE3100D4
FFC70011
FEEDFFA0
FEFF0091
0091FE32
FF640005
FE59015A
0085FFC5
00A9FF94
FE96FF0C
0085001E
FF4A005C
00500110
0074FF75
FF8001E5
00600028
002DFF6D
006800A9
FF86FFE2
0077007D
FF6B014D
FF4D001E
0025FF80
00640006
0025FF78
00E5FF6C
002F00A4
0024017C
016AFF76
005DFE91
FE71FEFF
00260004
00D600FF
FF62FFD4
0062FF8E
FFC60154
0110FF22
FFD2FFCC
008400F0
009EFF4C
004B002A
FF92FF3C
01200087
FF3AFFCA
019500A9
0018004F
FEA4FE63
FFCB002F
00C7FEDA
FF8EFFD2
FFC7003E
009AFF70
005FFFE4
0074006C
FF90FFF6
FFAC0056
FFCA0123
FF34FF6A
007CFF24
00BF00AC
0168009C
FFFC01ED
FF60FE8C
FFA4FFBD
FEDE0117
0108FFED
FEBF005E
FE1CFF06
0057FE39
FE4AFF37
004BFF7C
FE620032
FF14FFE6
FF5E0092
00DD0109
000CFFD1
0165FF03
FFAFFFA6
FEAFFFBF
FE8D0018
011E0050
0001FFFD
FFF9010F
00C0008C
FFE00098
00B100AC
0085FFE3
00F90130
FE80FF86
FFB7FFB1
002BFF4D
00D10082
FF0A013D
FF97FF3A
FF1BFF7D
FF760023
000D0038
FF2B0081
FFBF0031
FF2300F3
FFEF0080
FFD50133
00F6FFB1
002FFEF2
FF2DFFDD
00670097
FF8DFE99
00C0003F
FFE0003B
0058FF13
0007FF06
008901B0
FF6CFFBA
0037FFB0
00CCFF7E
FFB10080
FFB5FF66
FEDD0043
0102FF82
003A0009
FEE7FF9C
FE72FF37
017B00F3
FF82FF69
000BFFAB
0083FE42
FF5EFFB5
FFD8FE5E
FEE80058
FF490148
002600F1
FE8E0023
0083FF0D
006B0013
00BF0204
004FFF8B
FFE10019
FF7D0043
0028017B
007FFF3D
00F00044
FEC2000D
FFE4FF47
0009FF49
FEB0FFD7
FF9A0063
FED2FFEA
FF8200EB
0050FE81
FF6901FB
00B0FFF6
FE8AFFFF
FE36001E
0004FFE2
00120183
0007FF8F
022DFF7D
FF4BFF1A
FF410017
00B0FF2D
01140000
00FBFF91
FF93FF69
FF130047
FF8000F1
00A8FEA5
FEFCFEC2
0067000D
003AFFE5
00CCFF58
FF50FFC7
00ADFFC0
FDAC0083
0040FF9B
017BFF11
010A00A4
01580078
0020FFD7
FFCCFFB3
FFE2FF03
FECCFE92
0021011D
00410120
FF41FF8A
FF4D0034
FFAEFF5D
FE99FFF7
00A8FE7B
FEF4FF8B
FE1FFF1B
00DF00B2
0061FF80
FE8C0027
0085002E
FF5200FC
FE2B015E
FF8500B5
000AFF01
00EA00B6
FF780087
0053FF43
FEFC002E
FFC00081
FE81FF57
009E0125
FFCD009B
00E5FF65
0061FE90
FE84FF87
FFC100DB
0063FF65
FF81003C
002F0087
FFDCFF6C
00E4FF6D
FFA600F2
FFF30000
FF7BFFE9
00C900FE
007200A9
001600EE
0032009A
010A00D5
00C60127
003F006F
0085003A
FEA4FF9A
018300A6
0026000B
00F50088
FF5AFEDF
FFA0FEBD
FF810039
00B9000F
FFA000CD
00D9FF1E
00B1FFF5
001400A1
0064FF64
0002FF71
FE5FFE56
0048FF3E
FF76FFD5
FF1E0000
FDC5FF8F
0010FF40
00C6FF70
00D10094
FF050134
00AF0077
011D01BC
0140FFDC
FF3DFF41
0047FFF5
00310188
FF9CFE46
FF6EFF3F
01AB00BA
0013FF7A
FFA9FFB8
009C00E0
FFF40058
FFD1FFD7
FFBFFF6E
FFACFF50
FF0D00BA
FFC00046
006C00E3
0015000F
0056FE73
FF3600BE
FF4100B5
FFB9FF56
FF9CFFFF
FFDDFE52
00CAFFD2
00B2006F
FF31FEFC
00FC0054
000DFF9F
0041FF46
FFC4FEF5
FF85FF0B
FF42FE95
FFD9007D
0134FF2F
0103000B
FEDC0004
010DFDF5
FF71003F
FF91FF9A
00C2FDA4
FF2DFFED
FF57FF4B
00B3FF81
00680073
0031009B
FF980073
0160FFD8
006FFF85
FFC9FF27
00E60060
FF70006E
0031FDE1
0044FF88
0053FFB6
00D200E8
FF4700D1
000DFFA1
0001FEEA
FFA9FF64
FF800079
000EFFD7
00040070
FFF3FDEA
FEA90081
FEDF00A8
FFAE0043
FF910075
0049008D
0017FF39
FF6E0095
FFF20063
00CF0103
00570196
FF86FFED
00F2FF1C
FE7F001F
00590061
FFE9FFF4
FED0FFC3
FF52FEDC
FEF5FE37
FF5DFFE0
FEE2FE2B
FFC1FF62
FFABFFE9
0034FF74
FEA4FF80
00FE0039
FFBC0047
FEB2FFEE
FF00FFD0
FF5AFED2
FFD1FF9B
00B10010
0057FF67
FFF9FF6C
FEF5FFDA
00BCFFF3
FFA0FF12
FF8E0064
00BAFFB8
FED3013B
00E601CF
00BD00C5
FF3E0066
FFC200EA
00030049
FFB5FFBC
FFB3013F
FF82FF78
FF63FF89
0025FF83
011500A5
FEC000CE
FF39FF29
FF8BFEB8
00E6018A
00250091
004200CD
FF47FE9E
0099018C
00FD001B
FF71FF7A
FFDDFEFF
FF88015B
FFAA00E2
FF1AFFC8
00690030
005FFFE5
FFC60077
0165FEFA
01CC007D
FF14FF9E
019900B7
0005FFD3
00B1FF09
FFC401B9
FF8F0043
FFEFFE07
FF15FF8C
00500023
01BF01EA
FFBD00A5
FEE8FFC6
FFDC0063
FF900023
FF48FFAC
0086FFE6
0075FFDD
FF5EFFEE
00B9002F
000D0014
01B4FF3E
FF60FFCD
00F1FFA5
0051FEAE
FEE6FF7B
0012FF34
FFCBFF0B
FE68FFA6
FF7B009B
FF19FF8B
0089FFF6
FE97FF0C
0167FFE7
FE860084
00AFFF12
00160121
0026FE96
FE5E0119
006BFF35
FF01FFEE
FFF5FFF9
00A20118
0044FFD2
FF77FFAE
0029004F
002B005B
FF2A00B0
0048FFE7
0146FFED
FF440074
0030FEF4
001F0171
FF3F002F
013A021A
FF66005E
FF3100C5
019FFF87
003100D2
01490013
0080FEB5
FFC6004D
00D9FF3A
FFACFF68
00F200DE
FF9800C8
0043009C
FF4BFFC4
007EFF2B
FF980100
FE7D00B9
FF38FFDC
01D10015
FF980003
0111FF28
00BDFF1D
FFE1FF82
FF9B0094
FF30FF80
022700D2
00D2016D
FEC9FFAF
000D0034
FFD2007F
FF1FFF59
00260079
FF8F0073
FE46FF63
000BFFEF
006A000C
00AB0004
0006FF51
FFB700E1
FF9E005F
006700A1
0264008A
00D2FED3
0005FFC5
000EFF63
FF1BFFCB
FFDBFFB9
FF1DFEA3
00040021
00E80089
008500E4
FED400BE
FF92FF07
FEF0FFEC
FF6500B3
009B0075
0088FF6B
FF14FF2A
FF850065
0028FE43
FFA8FF4D
00FFFEB4
FEEE0011
FEF5FF92
FF54FE6C
00FBFFFE
00C8FFEF
FF200036
0097FEA7
FF81FF76
004C0135
00F4FFC8
002AFFAA
0153FF22
FF90FED8
010DFE73
FFF8FFCD
FFC9000A
FF73FEBC
0052FE2A
FF840088
FF26FF52
FF930062
001C0071
FFAAFFDC
FE7DFEC8
008D0069
000AFFC0
FE99FE6F
01230036
FFF0FFF9
FF2D005A
FF52FF3B
FE6BFFEF
FEDFFE4D
FF68FF49
009FFF2D
0010FFF5
FEF5FEBF
000F00C1
00ABFFCE
0037FFB0
FF0701C9
FF90FFCA
00B30107
02370067
FF1C0110
FF58FFBD
FF03FF0F
FEC7009F
FF47FFB5
FF31FF75
FFEC006A
FF2C0024
FF7A0084
FF5F0037
000A0165
FF47002C
FF32003F
012F00C0
0087FFD7
FF630080
FEE80073
0050FF6B
FFB40003
FECFFF6D
00D00040
FFB200E3
0047FF54
0023009E
003F00BD
00740077
0006018F
FF7CFFDE
FEC60037
0058FF9F
FFB200FF
FE77FF5F
FE8AFFE4
00B5002A
FFE9FFA8
001A0090
005E00E7
0109FF85
FFE7FF39
003300B5
FFB30181
FF6FFEBF
0054008E
FE36FFC4
FF230044
001C0073
004501DF
FF4F00E1
0024FF35
FD760075
011EFF8B
FFE400A1
0015FF91
FFCB0097
FF43005F
00F1FFF0
FF3D00E3
FF7FFFA7
FFA4FF20
003A0115
FEECFFAF
00A5FF06
01D10012
0081FFBE
FEAA0069
FECE0013
0017FFE8
0038FF41
FFDCFFB6
FED30107
001C015B
FFF1FF28
FE2D0080
002DFF62
005B0019
FED80006
0072FF1D
FFD4FEC0
007C01E7
FFD4019E
FEEB00DA
FFAD00D7
0010FF50
0084FEA1
01FBFF73
0145003B
FFD5FF69
FEAF0093
FF4B0019
00CC005D
FFF500A4
FFD0FF7F
013CFF8E
00D0FFEF
00E7008E
00650183
014600AF
FF8900A0
FEF3FF12
FF56FF2F
FFA1FFE4
FF4A01CC
0017023C
007D003F
000A0036
0081000A
00250007
00D8FECA
00D9FF42
0161FFE4
00830113
FF1CFFA6
FFB20035
FF8F00E3
FFE10082
FE6A0168
007EFF51
00FE008D
005D0179
FE8300B2
00220039
007FFFA7
0163FFB3
0001FEF8
FF7CFFDE
FFBFFF81
FFE600F6
000000CC
01890023
FFBBFFF9
FFD3018A
FFE50006
0135FE82
FFC1FF98
00AA012B
0031FFBF
006800E5
008D0096
00DCFFEF
FDDC0043
FEDE008B
FF1300D6
FE220095
FF93FE99
005C0024
004CFFF7
00B9FFAD
FDEA004A
00C2FF31
005EFFB6
FFF9FF7C
00EBFFB9
01420031
FFCCFF84
0018FFE5
FFC9008A
FEBAFF52
FFBD00FF
0043FE7A
FF45FEF8
FFF6FFEF
FEF60005
FECC0145
010D00BD
006EFED9
FF1EFFCB
00C000AB
004800A0
FEC40192
000AFF00
012900E6
00EAFF88
FF5FFE90
0055011F
FFCC0037
00F4018A
00F80055
FF56FEF6
FEC6017B
FF93FF46
00A9FFC3
0043006E
000E001A
0073011D
FFB2FF2F
FFAEFFCE
FF56FF5B
0173FFCF
00E70048
00A6013E
FFF00024
FFE50095
00AE0027
FF38004A
FF12FF43
0105FFE6
00F90132
00790128
0061FFDC
FF00FFD8
FE830055
005FFFEA
00130070
006700A9
00F3FECB
FFCF00D2
01060111
007DFFC2
FE7AFECE
FFEA01BE
FFFFFEEC
00AE00C6
0038FF4B
FF3B00D0
00D2019D
0017FFCD
006500F4
FF51FFA8
FF5BFF9F
FE71000E
0012FFA0
0077FFF2
00A900AE
FE3AFEFE
FF0F01C7
FF96FF4D
004301BF
FF98FF75
009DFFFC
FF98FEDD
00880005
FFDC00D0
00020027
FF4F014D
FFBBFFDD
FF85015A
00F4FFD2
00500058
FFE900D9
004CFEFA
004BFFCB
0058FEE3
019100A1
0002013E
0180FFB7
002C01AA
008D008D
FEA50054
FFB2FFDC
FF0200DE
FF520056
0075FE1C
0048004C
FF040143
00430103
003D004C
FF67FF14
008A00D1
FFED0031
FFE0FFD2
FFE3FE84
FFB40102
FFA9006E
FFF4005A
FFB1FF7A
FF76FFE2
0056FE07
00460041
FFEBFFC0
FFEB027E
FF2AFFEB
FF29FF9F
0195FEEF
FF9AFF63
00E6000C
FF66FE71
FF7BFFCF
002CFF7F
00790013
FE7400FF
FEF8FFF4
0060FED2
FFF20165
FEEBFFD0
FFF101BE
0071FF41
0038009C
009D004F
FF450089
FF31FF83
FF0EFF00
FEBF0054
FEB8004F
010100B5
FF70012D
FFF0FF63
0004FFA2
009BFFA2
009EFF4A
003E003F
FF83FFC5
00F20104
0024FEE5
009C00E7
FFC0FF51
0024FFF3
FF5400D0
008C0050
FF51FE8D
010300F3
FEE70047
005CFE38
FF98FFBA
00E4004A
FE370015
FF7A0137
FEE0FED3
00EE0140
FFA2FFB1
0037FEC8
00D3FF60
002B0076
00380028
FF7000F0
FEE80029
FFAF0057
FF01FF1C
FF54FF39
00D100AE
FF6B00CA
0002FFFD
0051FF8F
005F0024
FFDBFFD2
FE970031
00A5FF21
00A700A2
FF8EFFE0
FFA2FF67
0041FF49
FF4CFF07
010100F9
0070FEDB
FFABFF51
FFCFFED0
FE34FDE9
00FE00EB
FFDDFED0
FFD3FFD1
FEDEFFF8
FF790037
FF290049
01EB0095
FF74FF89
FF010018
FFDBFE64
0020FF59
FFC80041
FFD2005C
00AAFEFB
FF90FFE6
FF9FFF06
FFD900BF
FF98FFBF
FFAF0011
01B4FFAF
003FFFD0
018CFED2
0030FFF3
FF92FFC8
FE8F0018
FFF7FFCD
007D0010
013AFF30
FF260013
008BFF87
00610014
FFB30028
FE6700D2
0159FFE5
0054FFEC
FF9B0059
FFD9FFFC
022600C7
007F001D
FF1DFF91
000FFF44
FFD8FF86
00CAFFD9
FF7B0176
002B00A3
0037004E
0031FE87
0126FF10
00860084
006CFFDE
FF7BFF41
FF1F0069
FE79000A
008D0065
00510065
008D00C7
007800AF
FF290000
007AFFF2
FEA8FF69
FF9EFE91
002DFFED
005D0055
017C00F4
FF56FF66
0129FEF5
FF8EFF9C
FED9FE9A
00C60032
FFFBFFC3
016A0054
0158FF88
FEFB009B
0006008A
FFE00036
010DFFDF
FF360036
0064FED9
FFE8FFB9
0016FF7C
00D3FFBB
007F0035
0020FF62
010F0092
FE54FFEB
FE73FECF
FF71FF73
FFD60049
FF8D002A
FFAA0117
FFB0FF6F
FF83FFA3
00A8FF20
012CFFB2
FF8A01C1
012300A2
FFB500C9
FF84FF00
0005FF06
00FB008E
005EFFD6
FF55FEFC
00020067
00D30090
005AFF5B
FF0BFFF9
FF77FF4B
FFBC002A
0102FFA8
0012FFA0
00460026
FE8C00DC
0132FF01
FE910113
FE27FF2D
0099FFAB
000AFFF2
01520099
0144FFCE
FF8DFFAF
FE21FF5F
015EFFD9
FF2800A3
0064011D
FF29FF62
00AFFEEA
01090046
FFEB00F2
0089FEB4
FF0100AC
000F012D
0103026B
FF950009
0033FFCF
0046FFC0
FFD7FF0B
FF80FE8F
FFE900EA
00960129
FF990001
FF6EFFB4
008000CD
0027FFCE
FFDDFF9E
0086FEFC
FF81FF18
FFB7000B
FF2800C0
006301A5
FF5F0030
FF39FEDE
002AFFE1
0007FFBE
0061FF4A
003FFFB6
0082FFE6
003DFFFE
002BFF64
FFF7FF8D
001C002C
0105FF49
FF0FFFBC
01A0FF19
FF9C00A1
FFC8FF3E
01000096
FEFBFF8F
FF430132
00C60191
0029006E
00B7FF5F
FEFDFF64
FFD3FFA2
FF83FFBE
0015FFDE
00C5010B
FFAE00E6
01220034
0056FE24
FFFF008D
00D500E1
FF3EFFD5
007A0053
010FFF16
FFC3FF85
FEE60113
FEEFFFA7
FF5DFF3E
0095FF02
00D10090
FF51011D
FF11FF6B
FEB000CB
FFB50014
00AD0049
FFF0FE79
FF6D0047
00D8002F
FE00FFE7
0125FF57
FFA8FDF3
FF04FFA6
FFDEFFA2
0092FF58
0066FDFF
FFED0087
005B0059
00E4FF83
FEE600E4
01310136
010E00B5
0026FF24
0000FFDE
FFC5FFCC
002601A0
0115FFC3
00AC0127
01EA018C
00C3001F
FFE5002B
004FFF6B
FFE700C6
FF84008C
FE690014
0010007C
0017FF77
00A100AF
016700C8
000AFFAE
0133FF7E
FFEE0009
0092FEC0
00790063
FF10FFC7
FFCD0076
FED1012D
FFA4FF85
FF6CFF42
0164FF6F
008C00EA
FF670057
FF870022
0074009B
01640053
0012FF7D
017E00A1
FF430189
01350051
000DFFCF
0077FF94
FF4401CA
0149FFC6
FFB300D5
0008FFE0
0099004A
FF69FF85
FFAAFEB6
FFBBFEE0
FF940027
FF38FFD9
FF76FE29
0008FFE1
FF68FECA
FFA600F8
00C3FE51
FF9C0021
001FFFBB
008100DB
FE70012E
00E3FEF2
00FFFE72
00AE0069
FF3DFFC8
FFDDFFE5
FFE90086
0099FFA8
0054FFD3
00790058
0023FFF4
01B00027
FFF40111
00C6FFFC
0040FEFC
01070058
FF85FF7F
FFB80191
01E1FFD3
0018001C
FEA0FEA4
00B1002E
FE85FE9B
0049007F
000CFFC8
0114FFEA
00330045
00B7002A
0037FFF3
009D013C
FF24FE95
01F2FF69
FF0AFFE2
FF71000E
010FFF8E
007700E8
FF3DFFA2
FEE9FFDF
FF710153
FFAA0109
009E008A
FE65FF28
FF7CFF7D
00380131
FEBC00B4
0019FFB5
00CB0040
FFD4FF71
FFB4012D
009DFF7C
005AFFD4
FFDCFF5C
00C20201
FFD3019F
FFBE0005
00080111
01210094
011600F7
FF2CFE81
00EB00D8
FFBAFF6F
004BFFFE
00BC0091
017B0000
FFDE00C0
FFF3FFD1
006C00B8
0001002E
FFC3FEED
FFE90105
FF18FFD4
00B00031
FF8AFFD7
FF3EFEE9
FF040037
FF0300CF
0035FE68
00A00139
00D5FEA1
FEF2008B
00B10026
FF7EFF87
0040FF15
00000044
FEC20004
00180014
0032FF02
009D0107
FF22FFAA
0070FF4E
0103FF70
FF08FF24
00B6FFC6
00FCFFDA
FFB601C2
0057001A
014800D0
00B5FF12
FFF3FF25
00D300E0
FF9DFFA9
FFD0FFEA
FF4AFF64
019FFF92
FFAB004D
FF7EFF21
FF82009F
0071FFB1
00030027
FE79FF82
015EFEB1
FF3AFF97
006FFF18
0012FE40
00060126
0008FFBD
FFD5FF93
001BFFCB
00F8008D
FF2A00FF
0023FEB4
FFF5FE7B
00080165
0057FFFB
FEF701A8
FEC7FF68
FF800036
FF64015A
00AA006A
FFEFFFB9
0118FE9C
FFBB00DC
FED9FF87
FFECFE27
FEE600EA
005700DC
007200F5
00FD0180
FFBF00E9
00B2FE7E
00930042
0076FF57
002AFE9F
FFE200C7
01680093
FEE9FF3B
0013FF58
0108FFF6
0038FF84
FF2B0039
01730186
FFCE0009
0012FFE2
01B600A4
00DBFF3B
FF7AFF74
FF9FFFEA
00320043
FFF8FE80
FF8500CC
016F0011
007900B0
FFD7018D
FF9500D1
