FF76FF2C
FE40FF37
FEB70073
002CFF26
0067FED5
FF6AFF0E
008FFCE5
008DFF10
FF8D005E
0026FF12
0110FFE5
00ACFF26
FF48FF2D
006F0011
FF680100
FF520067
FF5FFF3D
00140128
FEEEFF8C
00DBFFD7
FFB90032
0076FF2F
FFA20020
0058FED5
FF170077
017D004C
0060FEC3
00BBFECC
FE58002D
012FFF39
FF97FF3B
0023FFF2
FF1CFFEF
FF8AFF54
FDF1FF64
FFD3FFFC
FEF0FF80
0127FFB5
0114FF70
FFE50057
00C8001F
0079FEFA
FF50FEB7
FF7BFFE1
FEEAFFF0
0239FE89
01360096
0025007A
FF6AFF21
FF55FF46
FF9A005E
00C90100
00D8FF6E
FF3FFF9C
00B9FFC8
FED30018
00EBFEF9
00210042
FF52003B
FFEB00CB
00B30039
010F00CC
00A4FE9F
FFC100C4
00E50073
01E7FFA6
FEAB00B7
0019006F
013CFF3D
00A8FEEB
013BFFD3
FFBF0112
FED0FFA9
01270065
FE85FFE6
FFF00097
FEB7FEFF
00530041
FF5E002D
FF86FF1D
007DFFD9
008F0034
0036FFA3
FEB30010
FED900A4
001FFFA5
009E0038
FFD50040
0034FFD3
0115FEB8
00E7FF22
00DE0100
FF3E021B
0120002E
FF4500B8
FF810034
FF49FF98
016B00B4
FFC0FF7B
001C00D3
005EFFF1
0032001D
FFBA0082
FFF7FFAA
FF2F009B
FE77FF23
FFA5FF7B
000CFF0D
FF46FF79
FEF1FEED
003A014A
0044FF36
FF350002
00910089
FFFD0002
0005FF8A
FF3AFEBC
003AFF18
FFABFE51
0079FFD2
FF16FFAE
FF58001F
FFD7FF7F
FF850131
0034FEA4
00A1003F
004AFF9D
006B0096
00F300E8
FF0D0058
010AFFE2
00470019
00A5FFF7
FFA000C6
009BFF9E
FFD9FF0E
0015003E
013A00E5
003DFF67
FE240006
FE7E0077
003C00D8
FFC800D7
FF53019A
0045006C
0043FF6B
FFE80079
018BFFF4
004C0199
FEDFFF3F
0097FFBB
FF54FEF0
0024013F
00480022
FFF10009
006F006B
FFA5FFE3
FED70044
004C0000
FFD6FFDE
FFFF0061
FFC3FE9A
FFBBFFF4
FFF9FDED
005C008E
FFE10003
FF7F00FD
FFA1FFB0
0105FEEB
00770039
FFEE003D
01B10026
FFBAFED5
00E1006B
005000DC
FF0F0098
FF1F0144
007E003C
0019FF83
FF58FFC0
FEC500AC
00790085
00880060
0052004C
0168002F
001CFEA1
00150042
00260157
FEED0056
009BFF22
0086FF18
FFB8FF55
FF7EFFA5
013100A8
FEA70024
00F9FFFD
009000AA
01E100C1
0178FFE7
FF610023
0040FF7A
00090113
FF91009B
0117FF39
FFA0014F
007A01D9
00360018
0001FF63
FDCDFF1D
00DDFFB0
00F8FFBF
FF9AFEE2
0036FF1E
00DF00C3
001FFFF9
FECA0004
FFEC0059
FFB2FF27
01EB0129
017A00AB
00B60085
0044FFE5
004BFE7F
001F0166
002FFF54
FF18FEDF
00D1FE74
FFF0FFB4
FF76FE6F
00C000B6
00EC011A
FFC2FF5A
000AFF5E
00FF005F
002000D3
FF43FF82
00090071
FE89FEFA
FF41004F
FFB0008B
FF150003
0053FFC9
FE8C011A
FF61011D
FF5F0045
00500046
FFD1FFC7
001AFFA6
0106016A
FF16FF7A
FEDDFF1F
00FC00A5
00630031
FF0C001E
FF87FEEC
00AEFFA4
FFAAFDA0
0041013F
FF4F009C
FF74FF83
FF0DFF19
002AFFDD
00FCFF5B
009C0048
FEDDFF72
FEF3FFB5
008A006C
FEE7FF77
00FEFEF6
00ADFF7C
009B0080
FF2F0077
003CFF3A
00BBFF78
FF6901A2
FECD0016
020EFEC1
FF1201CC
00FA016C
00CBFFC0
0158FE4B
FE05003D
FF3EFEB6
010900E9
FF71006E
0060FFFD
FF0C00A0
FF59FFB2
FEE2001E
FFCB000C
00E9FF88
00B10050
FF9CFFAA
FE27FFFF
FFBFFFCB
00130068
004E0164
00A70014
FE090022
007D006D
FFEA0082
0013FFC9
00EBFEF4
FF04FFC6
FF730000
FF4BFE9E
011A000F
0032FF3C
00BCFF81
00C300E5
0043004B
FFDB01D8
00E200FF
FED90049
0031FFAE
FF8200D5
018F0010
0003FF6F
FEEA012D
FFDBFFA4
0060FFB1
FF9CFF68
00410082
FFB90030
FFBA002E
FF1CFFDD
00E3FF33
FFBA00E9
002F0043
01A7FF26
00D5002F
FE1400D7
FF8BFF94
00200084
004F0101
004AFEF3
00A8FFD1
FFCC0031
FD9BFF74
FFBCFF9E
FF410150
FF11FF43
FFB80132
0033014B
0128FFCC
FF94FFCF
0021FFB2
0153000D
FF660090
FFCC0102
01E1FE9F
FF4B005F
FF59FF75
0105004C
0041FFC6
FF630188
011CFF21
00C0FF80
005D006D
000600C1
FF8EFF30
00A10040
FF39FFB6
0096FFBD
FF480084
0078FEF0
00DCFEFB
00C80039
00F9FFC9
013B0043
00DE0074
FEACFFE0
00DDFF62
00A7FE7D
FF6CFF83
00A0FE69
0019FEFA
FFFEFFD3
FF55012A
FFEFFFB9
FF880050
00E1FF98
007FFFC9
00E20072
006300B7
FF8EFEF5
001900A0
0018FF4E
FFD70016
FFCDFF44
FFC700F7
0064FFE3
FFFFFFFE
FE4CFE3A
00DAFF77
FF21016E
01FD000D
007EFF9D
0057FFF3
008D0196
FF49FE84
017EFEBF
01020150
00240186
FEFB0050
FFCB00FD
0035FF1A
00A1FFC7
005FFEFB
0065003E
007500A7
FFC6FF95
004E00BE
FF4B00BC
FF29FFA9
000DFFC2
0050FF83
FF1AFE99
FFFE00B7
FF5FFF0F
0001FF0B
00CC0061
004AFF2A
00810163
016EFFF9
FFF4FECF
00240096
00B0FFC2
FFC90070
00A2FFF9
00930015
FF990091
0003FF28
FF0501D0
FE8000FA
FEB20075
FE7DFF79
FEF70039
006D0088
00E10043
FF6B0263
01DBFF70
FFB60003
0139FFDA
FEBBFF46
0015FDFA
0049019F
FF60FF4A
0132FFE6
FDE801B7
0088FF32
0057FEFE
FF19013C
FE76FF43
01A0FDEB
0091002A
001C00B4
FF49FF68
00260003
FF5C0129
00E1FFAB
FEC4FF16
FF18FFA7
012E012D
00C6FF58
01250011
007AFF10
FF510003
FFB0FF0D
00400177
FF090091
FED80175
0061003A
FF4C0043
FF9B0069
0050FFFE
FE77FF22
FFAAFFD3
FFC9005E
01D20066
FFA2FF14
FFE10105
008B0162
00A20125
003B0057
FFAAFF45
FF5CFF8D
00BCFEFF
0024FF4A
00E2FF4A
FE840034
0120FF51
FEC7002D
FFFD002A
FF0E00A4
008B008D
FFE8004F
FDF800C5
FEE500FB
001EFE6D
FFA1FFFC
FF29FFFE
FEFAFF66
FEF80087
006CFFED
01B7FF93
0077FF7B
FE580044
FF9100FE
FFBF00C5
FFCD0071
006CFFEE
FF87FF9A
FFCBFF02
01ABFFF5
00ABFF38
FFCEFFA2
007FFF9F
FFDBFEE7
FF93FF88
01C7014B
000EFF81
0032FE20
FE210094
FF5CFEFB
FED6FFC8
FF69FFC3
0093FF92
001E009D
01ADFF08
FFED0070
0078009E
FF2900E1
00950015
FEF6FF42
FEA50082
FF2AFFAB
0021006D
000DFF10
FECD0198
00100119
FF8BFF34
00A4FEDD
FFA80048
FFBBFF3A
FE7AFFF5
0050FFFE
FF610129
FF52FF93
005E0059
01440022
FFF0FFAC
FEF00032
FF6F00C1
FF6F011E
00170074
01740066
01540049
FFF000C4
0014FF60
00D20096
FF72FED9
FF5EFFC7
00700055
FFAAFF63
0039000A
FF75FFDF
FF9E0027
FF53003A
008D0026
01090051
FEDC0037
FF38FFD3
00F7FF75
FF7BFE5B
FF7400CA
0108FF9A
FFE3FF49
002AFF4B
FF5BFF57
FFFB0027
00E70022
0036007E
003B0074
0145FFFD
01C40001
0127FE52
00FD00D4
FF7A006B
008E004B
FFCF0083
FFE60048
FFB4FF76
00690114
FED7FFBB
FFA5FFC6
FEBB001F
FE55FFB4
0147013C
0063FF89
0027FFF0
FFB5FFF3
FE1CFF30
FF8E0035
004DFFF0
FFF9FEF6
001BFECB
007CFFA7
FEEAFF5A
FF2C00A0
005B0020
00E3FFF6
0042FF9A
009A0052
00130099
0151FFDD
FFE4014F
00CBFFF9
0024FE43
FE130014
FF6801AE
0000FF95
01000185
0059000A
FF8600A1
FF3100C9
FFA8FFC3
008F009B
FDDF0080
0075001E
FFB000C1
0068FEC5
000D00B2
0098FF75
FF9CFFEC
FE8D006C
007C0033
00B8FF6C
0016FF6C
FFD1FF9E
FF7CFE6C
FF050064
0157FF52
FF16FF80
FFCAFFC7
FF85FF92
0182007C
FFFCFFDB
01E3FF2C
008F0095
FFAD0101
FF0AFEC9
FFF20138
002EFF09
FFAB006E
0135FF22
00C7FF2F
0045FEAB
FF19FEF1
FFA900FA
FE6F004E
FF59001A
FF7B0025
00C5FF31
FF3800D4
00790085
FF28FFB4
0107FF6F
00AD00A3
FFF2FE94
FFF200F7
FF8D006D
02390082
FED0FF39
0026FFD1
FF6EFEC2
FF840140
FF97006D
002DFFBE
0114017E
FFBE0039
FF250107
01B60093
0040FFD5
FF520021
007201A2
0025000F
0102FF69
0023FFC1
FF85001A
FF96FFD8
FFFB014F
006CFFC6
0086FFF5
018D0048
00A3FE52
007B0016
000AFF80
001FFEFB
FF27FF67
00880062
00B6FFD1
FFA3FFD1
0029FFCB
005B00BA
FF9E0056
FFCEFECF
FFDB009E
FFD4009E
FF9EFF30
00460119
010B00B2
FFD7FF19
00C9FFD9
017AFFFD
004B01B5
00B8FF8D
FF4F0053
00D0FEF4
00B30015
FF3E0102
00B800FD
00B7003C
00460024
00BB0048
FDDCFFE5
FEB7FFE5
00C4FFB1
0052FEFD
FF7CFFF9
0119FF30
0110FF83
0103005D
008B0072
FF77FFB1
017E0038
00350157
0148FE8E
00AF0027
00BCFF63
00DF0067
FF0C013A
00E90042
00BDFEE3
FE8BFE48
006D004F
003C0037
00390021
0023FFF5
FFE0FFCB
FFAB0060
00FAFFD9
FF2FFFBE
FFD5FFAF
FF49FFE2
FFF6000D
FE140071
01820138
01D00207
007EFF41
0060FEB8
0087FEC0
FF940048
0086FFFC
FE66FEDC
FF96FFD6
FF5300BE
00320119
0017FE63
0018FFB0
0099001F
FEEAFFBB
0069002F
FF97FE92
002800FE
FFB60157
0032FF00
0010FFC1
0026FF7C
00FF00D0
004BFFAE
002801A4
FFB6FF90
FF3300C2
FFC4FEE0
FE1D0039
FF7B0122
FF62FF79
001CFFC2
FFE2FF4C
FEB0FFF4
001DFF08
FF1800A1
FF8BFFCC
0030FFB1
00DFFFFA
003D0027
00B7FF66
0114FED4
00CCFFA8
00660091
000BFFC5
015BFFA4
FFB40079
000400B7
FFDCFED6
FEC10076
FF070076
FFE2FFF9
FEE400B2
00EEFF1A
FFC5FEF9
001000F0
FFD1FFF6
00EDFE8A
FFB80067
FFE1FEF7
FF97FFA3
FD890029
FFD3FF69
0073002A
FE03FDD1
003700B2
004400B5
00D0FF97
FF3A00E6
FFB5011D
007AFFC3
FF2FFFE3
000400A2
FF2D0011
FF2BFFE3
0000FFD0
FED00026
0005FF6A
023CFFAC
FF52010F
001B00AB
FF31FF94
0026FFAA
FEF9FFC9
FF61FFF1
0058FECC
0083FFCB
00F3FF87
012A01A0
005A0060
FF8CFF36
FFEAFE81
0036FEA7
012CFF68
FF480072
FF34FE9F
00230113
00D60056
FF95011B
FF5CFFFF
FFB3FFA6
FEB2FF9F
FF630291
0128004A
001C003A
014BFE86
FE8CFF84
0026FEE4
008B00AB
FFE10077
FFED0031
0015FE81
008F006D
FECEFFE0
FFEAFEFC
FFCCFF47
FF4B0055
0007FF2A
00AC0004
00A2FFDB
FFAC005D
FEA20075
FF010071
00CA01D3
FF5801C8
FFF4FF65
FF3E0073
FFEC0177
FF7FFF3B
FE8F00B8
0025FF61
00340013
007600F8
00930036
006BFF9F
FF68FE99
00D5FF91
00ABFFE3
0034026B
FEE40180
FEA200C3
FF3DFF6E
FF69FF0E
FF8A000D
0135007F
00B3FF79
007B00BF
FFBEFF4C
FFA9FE99
FF6C00C5
FFE9FF6D
FF2DFFFA
00310035
0070FEE2
FF29FF7D
FF97FF83
01C8002A
FFEDFEDE
00BDFFD1
00CB0098
FF37FE9B
FFA4FFCD
0086FFE0
FFBF00AF
0160FF9A
0087019B
007F0112
FFEF0071
0069006B
FFA10121
0060FF9D
01C40082
FF5FFFCE
FFFE00AE
FF8EFF1F
FFD30086
02230059
FF64005C
FFCCFFD9
00260033
FEAFFF92
015F0085
002E00D8
00080003
005BFF66
021A00D7
009C0007
0015FF3B
FF98FFAA
000500AD
014AFEFF
0102FE86
0095FE55
FF5BFFB0
FF8DFF87
FF83FFE4
00A2FF0F
000C0073
FF6500A3
002D0121
01B8FFAE
FFB7FFA3
FF60006B
00D000E1
01A6FEE1
005D0001
001B00D0
FFC40070
0017FE9E
FFD8000D
00EF0052
FFA2010D
FF680093
002701C8
FF69FFC1
FFD700A7
FF3B015A
0096006D
0090FF75
FEE4FF88
FE44023A
002DFE69
FF23FF96
FF30FF45
FE5B0131
01900022
FF4CFFD6
FFC4000C
FFDAFF58
FFACFF95
FFF20092
FE8AFFC7
0183FFF9
009FFFF9
007C0098
0093012B
FF800022
00020036
FFB0FF46
FFD3FFB7
001BFD84
FF3BFF2A
FFE8FE58
FEE5FFAA
0040FFCA
FFDD00B7
FE7CFFD8
0087FE6E
00B5FFEF
FEF601D0
FF4EFE6F
FEDE00E6
FF43FF6C
FF1801B6
FFB20090
FF5AFFB6
00FDFFD6
00BA0051
FF30FFC3
005C009B
FFD9FF3C
000BFE57
00D6FFB0
FD8EFFDD
FF7400A5
FE4DFF3A
00560015
FF99FF99
FE94FF84
00930007
00A50149
00CDFECD
0122FEFA
FFEFFEB4
FF6DFF8F
0030FFD4
FFA7FF80
FF6201AD
FE46FFE3
0020FF84
001DFF87
001DFEE5
0007FF80
0038016B
0070FF85
006E00DC
FF9B002F
FF89000A
FF7C0066
009D00D8
015E0048
00BDFF5C
014000BF
0163FF80
00A9FF08
0147015F
FF6C0059
FE79FEE1
FFE300E5
0126FF6E
00EE00B0
FEAF00DE
FEB40110
016F004E
FFE4003D
0089FFC3
FFA60056
00F8FF0F
00D3FE1E
00080068
FFEB00DE
FE39FF8E
0028001A
010B0022
FE2EFFE1
00490036
00A40114
FF76FF8E
005BFF6E
FF930121
FF2AFF1E
FF55FFFC
FF7BFF30
FEC800A2
FE6C0068
FF4D0023
FFFAFF9D
FFB3FEDB
FF7CFEA4
0086FF83
FFEC0048
01E30024
0066017A
00B6FF36
003AFF7D
FF5501C8
FFACFF9B
FFDE0138
00E5FFFA
00EA0124
FF4700FD
FED600B9
FE45007E
000F000A
0031FF33
FF41FFA0
FFF600DB
002C0007
FF0301B2
0016FFBF
FFBDFFC0
FFD1006B
FF0D0031
FFEC003E
0009FFB8
0025FFC4
004A000D
FE2701A9
FF490028
0058FF33
FF5EFF05
00C6FEEB
FF0E00F3
011F00F4
003A020F
FF74FF4F
0025FFDE
FF7601A3
FF90FF70
FE62018D
00D9FF1C
FFFE005D
FF7E0039
FF9CFF71
FF8E0028
008BFF90
FF950136
FFB3001B
0074FFA3
FFF10188
00090053
0076FF9A
FFD90079
FF78FF14
014D0029
0047FF54
00080062
FFAE012B
007D00A4
FF90FFDD
005F0073
003CFFC6
010800CD
FF86FD74
FF0D010A
FFADFE67
00740040
004AFF60
FEC901A1
00E1FF7D
00D5FFD0
006FFF26
FEDDFEDC
FFD400C1
FFB90005
FEB3FF2E
FF58002E
0027FE22
0014FF12
FFD900EA
00EB006D
FEBB013D
0166007F
010AFFB7
FF41FF4F
00EDFE9D
0044FFF9
0079012F
FFFB0009
0065FF68
00810025
FFF00027
00C5FFE6
017EFFAA
00E4FFDE
020900E9
FFBAFF18
01BFFFBB
FFC2FF68
003FFFCD
0053FF33
00F4FF5E
00C9005C
FF03FE56
FF3BFE5C
00EA0003
00F2FFB9
00F1FFBB
0061006D
FFE5FFF5
0032FEA0
FFE7FEC2
00420163
FFF0FFDC
FFBEFF79
FF48FF0D
00B5FF5E
00C0FF4C
FF80FF8D
FE5B00EB
FF640020
FF1DFF6A
013A01AB
FF2EFF42
00410098
00900077
FFDEFFBD
0003001B
008A018E
000300E2
FEBBFEF3
FEF7FFCE
FFA6015A
006000E8
FFCCFFA0
006BFFCB
008DFF77
0003FFD9
0070FF93
004F00AD
FF4F0035
00E7FF95
009301DA
01BB00FA
00A40076
FEBAFECF
FF63FF5D
00840017
00C700A8
003AFEC7
FE43FFAA
FFFE00CB
004DFF78
0017FFEC
0106007C
0178000D
013000F9
FEECFEA5
0016FE47
0044FF62
FF6500B0
FF5C0178
FFDD019F
01540091
0182019D
FFD60121
0177FF74
00D0FEBB
FFFA00B0
0083006B
FD920179
00CA0002
FF9AFFB0
FF93FF7E
00EBFF7E
010A00AA
FFEEFFCD
002DFFFC
FF69FF3E
FFA801C7
012DFEDB
00500083
FF2BFFCD
FED8005E
00CEFEE3
FFC70111
FFC90038
00E9FFAB
008FFED0
FFB0FF71
0000FF56
00660046
FE8CFF80
00910095
00840054
FF3A0037
FFE3FF5D
FFA1FF65
FEA6FFB2
FFD3FFB9
FFFF016B
000EFEBF
FEA000CC
009000D1
001B001C
008EFF87
0011FFC8
FFF70070
FFAD00B1
00AC0092
0051FEB1
FFE900AF
008AFF33
FF770038
FE40FEF1
FFE800A7
005B0016
FFBF0004
00240094
FE4B0009
01100051
007EFEE7
FF04FF57
FF79FE3C
0064FEFF
FF520127
FEA20192
001DFFED
000800B4
006CFFED
FF70019D
0063FFA3
FFAAFEB9
FF6AFFC9
011300F5
FF75004B
015A0112
FFFFFF56
FF46FFF6
009B00DE
FFA20095
0063FF79
00DE002F
FEF8FF37
00B60038
0143FF1C
00EF007D
FFD0FF85
0078002E
FFEDFF71
FFF9FF60
0054012E
FECAFFB9
00F50047
0010FF8F
FE8AFFAE
0017FF6F
FFDC007D
FFFF006D
003FFE64
FFE801EA
0002FFF7
FF49FF1D
FFAA0031
FFAB00D6
FEA000A6
FEE1FF5A
00720028
007AFFD3
FFF50121
00C6FF27
00A00085
FFBDFFBF
FF940007
FF580018
00FA0063
0069018B
00370120
01B50038
FFF600C7
FFD1017D
001E010B
008B007A
00850003
FFDBFFD5
018900EC
00D4003B
FF740136
FFAA0011
FEE8FF2C
FF4CFF55
0001FFB6
005AFF6A
FF9DFFE0
FF4301ED
FF6F0024
FF5D00F9
FF7FFF25
00E5FEF6
FFE7FF89
FFEA025E
FEE5FFD6
FF4B0099
003A010B
FFABFFFF
0097FF30
00F701D0
FEDAFF08
0016FEC5
FEB80082
016D00B9
FFB4008A
00B50156
FF050070
FF4CFFD4
00120053
01AA006A
0088FF5A
FFFC008E
FFBEFF98
020C006F
FFF0FF2C
0084FF73
00B10030
0056FEC8
FE72FF4C
FF57001F
FF5DFEA5
017B0061
FF4CFFE4
FFF00077
00A400E4
008E006E
00B8021E
001AFF1C
0026FECF
00BC0098
FFAE010D
01D5001E
FE2CFFC9
FEC2012C
FF5EFE95
FF3BFFFF
FF8E000A
FF270082
FF01FF02
02480045
0072FFBD
FF9200F4
0219FFDD
00CD00B5
000700C5
FEF3006E
00440112
0076FFAD
011A00E4
FF87009D
00A5006B
007CFFF4
0016014C
015D00CE
00ADFF71
FFF6FF77
007BFF9A
00A6FFAA
FEBF0129
FFE800CB
FF67FF4E
FF340077
00CC00B6
0033FFE7
FECBFFAF
003CFF69
0037FF2F
012400E1
FF22FF7D
FFC10056
FF9FFFAA
007A0133
009AFEF2
FE4BFFC8
014AFECB
00E00210
FFB6000D
003CFFBF
014401CB
FFFDFF69
0081FF8A
0012FF40
00AAFF87
008D00BE
FF4D004B
FF7AFF8F
FFFFFE76
01060167
0130FF32
0108FFD5
FF45FEEE
0025FFAE
FF12FFF9
FEDA0122
FFE3003B
0068FF1A
005600B6
FE5AFFC6
FFBF0068
00CD00AD
005CFF5E
FF47010C
00E80011
FF73FFAA
00F6FF1A
FFBDFFCB
FF530003
00E801A0
004AFF7E
000E00D5
FF96FFE0
FF13FFDD
0059FEF5
0115FF08
004C0144
0044006B
004DFFA7
0155FFCF
00B700AA
FF2BFEAB
FF080155
00660001
FFEC000B
00490066
0171FED4
FFF90045
00F30017
00C10060
FE5801A2
0098002B
FFBD0027
FF3BFFF3
007C0050
0005FEFC
FEF8FEB9
01B4018A
FF16FF2B
FEF500C3
00CC013D
FF98FE8C
FFEAFF75
FFBDFE8C
FF1A00E3
00C4FF3A
FF8E00DC
FF07FF82
0017FFC9
FFBA0068
0094FFD7
FF95FE89
00580063
FE36FF87
FFE0FFF3
004100E5
FFD900DF
FEBB009D
FFAD006D
008E0118
FFDC00EC
FF5B0086
FFE20125
FFAC0018
FFD0FEDF
00DAFFEE
00A500D0
01BBFED2
0050FFC6
FEB50228
00530070
001E0023
FFD5FFEB
FF7C008F
FEF30044
FFD000A6
FFB6015F
004EFF0F
0006006E
00A900C4
014EFFD1
FFECFEFC
015E009E
FEA40022
001BFF56
FEBA00E2
FF5F008E
006600E0
FF5B0045
FF3B0105
FF360069
00B9FF78
FFA3001F
FFB6FFCB
FFFA0086
0060015B
00BD0114
FFE10087
0017FECC
FF7A0015
0084FF19
FEF1FF23
FF2200E2
00A00101
FFFB00A8
00F0FFC7
009EFF56
FF42FF8D
00EE0060
FE8D00EE
FFBF0040
FFEFFEBA
FE5BFF76
FFEB00BA
FFC4FFA5
FE9FFEDC
002EFFE5
FF7C00AD
01150013
007000AF
FFD6FEA9
0101001A
FF90FE9A
004DFF82
FF68FFCE
00040210
FF99000A
FF3301B9
FEEFFEE5
0048FF2A
FF87016E
00C6FFB6
FEABFF54
FF2EFFB9
FED8FFD6
FF650097
FF350132
FF500137
0171FF41
009B0093
FF8C0007
FE270086
00510121
FED100E5
002B01C5
000000BA
0049FF6C
006E0214
FFA30030
FFF2FFD7
FFA90089
FFF700FC
003200DE
0078FECC
005DFF8F
FF39007D
006EFFAE
01040138
FEBEFFE3
FF16FF76
FF2700A7
FFCB00E9
00C7004C
FEABFFFC
FFD60044
004EFF61
FF54FEE8
FF9E0064
014D009C
00C000C4
FFF9FFF0
FFB6FDC3
0038FF16
00B8FFCC
FFA40118
FF0D00F8
0152FFB6
FEE5FF1A
FFF700A5
FFDA0077
FEAF0031
01530023
0164004E
FF49FFDB
FF11FF74
FF7600B3
004D0085
004D0104
FF8C0001
FE23FFEF
FF8300B4
007E005B
008EFEC6
FFC200D7
0092FF6C
0028FF9A
00B0FEF2
00C70003
FF1400E0
0022FF54
00B6FE82
0082007E
FE68FFA2
0127FF18
009DFF0E
0060FFE2
FFA9017C
FF47005B
FF95FFA5
FF500033
FEC600C9
FFE90037
00A3FFBF
FEF800A4
00E0007B
008900B0
006000B7
0004FF19
FFCB0035
004DFF56
008C0072
FFA1FF60
FFFE004D
006F00AD
006FFFCC
FEBB011A
FFE6FF5D
FF8CFF89
FFCC011A
FF890012
0055027B
006BFEC3
FFA8FFEC
00EEFE4B
0170FF4B
FFCCFEEC
015EFFEB
FF7F008C
FFCD00AC
00700038
FFF901E2
00EEFED8
FFA40087
00A600B2
0066FFE5
002AFFF7
FFA3002A
015DFF33
004AFF8C
000C0092
FE64FF62
FFFDFEF5
0009017B
FFFEFF90
FFE40052
FFBCFFF3
FF230074
004000FF
00180143
FF250051
FF36FE14
0077FFB9
0018FF76
FF34FEF9
0056FF55
FFBBFFDA
FFDD011A
FFAE0018
000FFFB0
0043FFDA
0181007B
0121FEBB
FF99003B
0078FF9D
00790114
002A007C
00E9FFC7
FFF9008E
FF430063
FDB7009B
FF89FFB5
FF95FF21
007C00DA
002801A2
FFBFFF63
FFE000E8
FFFB0164
000B01A7
FE89000A
FFADFFF8
005FFF8D
FF9A00D9
FEF7FF5F
0067FFDC
014AFECC
010701CD
FFA2001C
00EEFF8D
00660013
0149FE9C
FF40FE77
01CB004B
FF23FE22
FEA1FFD7
00CDFECD
FFBAFF7C
FF220129
FF1FFFD5
FFF8002F
0124FEF0
FFF80102
00C5FF6D
FF0301D5
FFEA0040
0065003F
FFA2FEF5
FF6DFF9C
000EFF4F
003AFFBE
FF0BFEDB
FF39017D
FFA8FFB1
00A2000D
00B0FEFA
002500D6
FEFF0149
00850066
FF5D00D0
008F00F9
FFAE00D1
FFFA0148
001100A2
005BFF95
00390138
FF92FF75
FFE0FF1A
FF51FF84
FF68FFD9
00500140
FFBDFF01
029E006F
FF980013
01680099
FE670034
FEF8FF95
00140031
FEDBFF45
FF6BFFF9
FFB8003D
FEF1FFC3
FEC90103
00E1FF33
FF5EFF18
009F00E5
00CD006D
FFDFFFCD
FED6FF98
004E008F
FF9B009D
FF55000E
FF8500B1
FF46004D
FECF00A0
0047FFCD
FEC700D0
00C7FF5A
FF31001D
FFA8FEF4
004A00AE
009A003C
FF50FF74
00730032
FE8AFE99
00BCFFE8
003FFFD0
011201D4
0051FED0
0014FFD1
FF55FF6D
FFC10019
005CFFF5
FFC7FE10
0068FF63
018EFF45
004D0066
0052FFD3
0056008D
01300114
00320094
FE9D00CE
0068FFF7
001EFFCA
004D0074
008EFF07
0091007D
FF4FFFE3
0049FFF3
00140172
FF86FFB6
FFE100A4
01CFFF8C
00A3FFDF
0096FE91
0039004A
FF7BFFB0
FDBB00C8
FFD800DD
0003FFE9
FF37FF8F
FFDD00EB
0093008D
FEEF0086
FFD3FFE3
FFEC0146
00ABFFBA
FFF70057
FFDD0053
0028FEEE
FFF2FFB6
FF4001BE
01EEFFCC
0096009F
0026FFAA
00F3FFD8
009500D1
0027FFEA
FEF1FF53
00FC0177
00CB003E
007CFFFA
0018FF5F
FFA5FEFE
FFE9FF09
004F003F
FFAF0169
02110057
FF7901A4
FFF50103
FF5F0053
FFC1FF6E
FF9C001D
0094FEBB
0016FEF8
0019004C
FF49FFBC
FFF90130
005EFFE3
FF4B00A3
FFC30053
FF9A004D
FF3201DF
0007000D
00E1FFCD
002AFFF2
00B8FE5D
0053FFB6
FFE30050
FF62FFD5
008FFF72
FF29FFCB
FFA3FFFD
FDE10164
FD80FFAC
000AFECC
FFD20054
005CFFFC
0023FF86
0013FFEE
00A4FEFD
FF6AFE53
000D0101
00380011
FEE60054
FF04FF29
FF91FF3D
0022FF49
FFE9FF32
009F00F2
0077004D
00D5FF32
0071FEF4
0038FF8F
FF9E0115
FEC60062
00910073
0063009E
0007FE9A
0045FED2
006D013A
00A10038
FED8FF2B
0024FFCB
FED70030
FED2FE37
FFA1FEE2
FDD1FE04
00B8FEE6
019AFF12
005A0006
00FD00B7
0109FFC2
FEDD01CE
FFB2FF44
FF8D0086
FDD3FED5
010CFF6B
FECBFFE4
FFCFFF69
0006FF2F
FF1F0028
FFB6005E
00DF0083
00380016
FFD3FFE6
0101004A
0026010C
FEB8FF7F
011F0096
FF9A0035
FF0901A7
FF13009C
FFA0FF78
FFBEFF5E
00A0010C
0014FEBF
FF67FF5B
FF86FFBD
00D100E7
FDA3007C
009C0017
00A80099
00FBFF97
003AFFDE
FF3400A8
FED7005A
002800EB
FF900068
002400D4
0081004B
005AFEC3
00B10046
FE60000E
0155FFE1
001A0085
006AFEB4
014501E8
FF36FDF9
FFD400B2
FFF9FFE4
01D7FF13
FF4100CC
FE64FF57
FF8400F0
0035FFAD
0022FFDC
FFC500DD
01100049
00A4FF98
FFE4011E
FF2C00AC
0072003A
FFA2FED5
007A0072
0068FFC1
FFCCFED5
FF0EFF43
00B40069
FF32FFAC
00280134
FFE4FF17
007F0104
FF83FFED
FE6B0048
FFDEFFEA
FDF2FFD6
00C20174
FFB40082
01270047
FF110198
00F80026
FF78FEDE
00EAFF4B
FE7F00D5
FF3DFFFD
00B9FE36
0078FFC4
FF96FF58
FF9700B3
00CBFFFE
FE6AFF11
0026FF65
0112FDF0
001E0015
00A3FF59
007E0043
004D00FB
FF5D007A
00B9FF82
01890098
0088FF60
FFE70145
00C7FF2C
FEF9FEAA
000FFF92
00960045
FF4B0032
0081000F
FF810092
008C016F
FF960022
FF820042
FF70FF29
FF7DFFFF
FFA2003E
FFF6007C
0042FF06
003CFFBB
017500EF
FFD900FA
007B006C
00C700B3
00800084
00E5FFB2
00C7017B
FE6BFF5F
01E60100
009B0152
FF62FDED
00B8003C
0078018E
00030049
FF2DFFE0
000A0050
FFD8FDF7
FF53001C
0021005F
FFB10014
FEB9FED6
FED500B3
FFDF0011
000D0076
FEE7FF54
FF44FF0D
FF3EFFB7
FF9B003C
FF1FFF74
00C4FF63
FFBCFFE9
000DFFA6
FFA8FECD
FE0E0039
00E90076
00490092
00E6008C
0113FEEF
FFB1012C
01AA00C3
0102FFF7
FF730015
FF850051
00DD0026
0184FE63
FFD5FFC6
0132FF89
00270032
FF09FF40
01B4FF3D
FFE9FF2A
FF890119
FEFFFFBA
FFE2FFB1
013EFEEE
FF70FED6
00590056
FE45009C
FE4A006E
0158FF45
00420065
FFE6FF5C
FF0CFFAD
00D80037
FEE20053
FFF20170
0008FFAB
FF990115
FF6E00A3
003DFF6E
FF74FE75
00A700E0
00EA008E
FEC6008B
017DFFFC
001B00E7
00BE0027
00260111
FF5E004B
011FFFDC
0190FF93
0016FF97
01D3FF7E
00D1FEBA
00FBFF43
FF4E017D
FF460126
FFA30055
006BFFCD
FF0B005F
00F0FF44
00430004
FF1F0048
011A016D
00CAFF48
000FFFDB
FF9C000F
FF2F0185
0140FEBF
FE37FF2E
FFACFF2E
FFAD00AF
0003FFB3
00340006
FFB600FD
FFDE00B7
FF9FFFB6
0018FFA2
00A0004A
FFABFFAE
FECCFEDA
006C007D
0027FFCA
0075FF5F
0128FED5
FF79FF24
0004FEE2
01640076
FE33FF2C
00C700E0
00D4FF78
FF69FF9A
003901A1
FFF2FE41
FF7CFF71
0046FDF3
FF75FFD2
00CDFF36
004B0027
FF49FF90
FEC9002A
0065008D
FFC900FD
FE7F01DF
00680044
0061FF22
FF74009B
FF8C01B5
00E5FF83
0047003B
FFFD001D
0009FFEB
FF5F004B
01A1FE88
FFDEFFDC
FE21FFB2
FFFFFF9B
00C90080
FFA7003B
FF5F0188
000BFEF5
019AFF88
FF7BFDD5
0123FFBC
00A5FFD0
FEF8002D
005A013A
008CFF47
FF37FFC2
00B1FFCD
FE0F0056
FF66FFBD
00300195
00030045
FF450070
FFE2FF6B
00BEFF7C
0112FF48
FFE001A8
FEBF0123
FED7FDC6
007700BF
001CFF92
000CFED5
FFE5001C
0022005F
FEA2003A
FFB5FF61
0029FFE7
FF610066
004901AD
FEEBFF47
FE3AFFBD
FFA10072
000700EA
00E9003F
FFB0FEFE
FF71FEAE
00F401FA
012EFF95
0119FF2C
00570056
0080FFBF
FF56FF9F
FFE800FB
002700F0
01690012
0001FF9C
FFF9009F
FF09002C
0018FFCE
00F9FF91
020D0059
0053011F
FFC0FF09
FF37FF46
0117FFD0
00B8FF89
0066FF53
FFE000B8
FFF6FF72
013C0005
0036FFE1
FF9E0049
FFA0FF86
00CEFF0C
002CFF37
FFA5FE91
0025FF6D
00800082
FF42000E
006E007F
FF80FFDC
00AE004F
FFD1FF41
FFF9FECF
017E008C
FFD00022
FF62FE68
FF37FFC3
00C50144
00DBFF3F
FED8FFBA
0126FE85
0013010A
FEFA021F
0072001B
013100D7
006D0033
FF93FF9A
FF3D0050
0029008E
01790051
FE37FF40
001EFFB7
011800B7
FFD50001
00B2FF55
FFBBFEA5
FF700012
FFE8FF5F
009B0024
00CC000B
FF86FF16
FFAA0017
FF40FFBA
FF6C0126
002A0019
FEA40075
FF3300F3
0092FFE3
004CFFED
FF8C00A3
0108FF9C
FF09FFE7
00F300D1
FFF8FFE7
FF49FF79
FF9FFEA4
015DFF3F
FF5FFFD2
FECBFE0F
FEBFFFCE
FF68009F
005A00B2
FF83007C
FF09FFD4
0061FF0A
FEDFFFDA
005DFF78
FF35018C
FEB0FFA9
0011000C
005BFF98
FEAF00CA
0110FFB0
00740154
00F8FF3E
FEEBFF2E
00DB006D
0002FE57
0087FFDE
FFCCFEEB
00350074
003E0052
0103FF9A
FFE1FF9B
FF6BFF5E
FFDEFF7E
FF080059
FF6E0041
0092FF4E
00BD0009
0129FF9C
FF2601EC
004500A2
00AFFFB8
0153FFBE
007A0078
00340146
001E0055
0040FF46
FF75FE27
FF50FFD9
005CFF5E
0135FF65
FF67FFA9
00A2014D
018CFF2C
00F9FF6A
FE6CFF2A
FF860043
FF06FEB7
FECBFF9A
007E0144
FF6E00A7
FFCAFFB9
FF490083
006B0031
FFC3FF99
FFE3FD6C
FEFAFFC0
00C7FE5B
009CFF7C
00ECFF30
02F5FF9C
008EFEBE
FFD4FFCE
0046FF8F
0039FF78
FF9EFF0A
00E40089
FF7700B8
FE5400C5
0066FFFD
FE4BFFAF
00F500CC
0047FF28
FF46FF6F
00EE0193
FE45FFA3
014FFFA3
00A7001D
00730106
FF9E00DA
FF7AFFFC
015C00A0
00CEFF1D
00E20067
FF43FFE3
FF770004
FF080064
FF64019E
0058FF13
00E6003C
FF23FF40
FFAB0014
FFCEFFF0
00A30015
FF7701F8
004700BB
00DCFF3F
00A100F1
0149FF75
0089FF86
FF580045
FEB70106
002A003B
0004FF64
FEF10140
00600078
FEACFF1F
014C00F6
0054FF26
014CFFC4
FFA5FF03
00A7FF9B
FF30018E
FF7FFF6B
006400BF
00C90068
FFC20087
FFE20076
00900010
014B0051
0158FEC0
010E00CE
0028003B
FED90015
FFCD00BE
011F003C
FEB3FF1D
FF2BFFC5
0112008C
008EFF8C
FECA0012
FF9F0122
00C70055
0004012E
FF9BFFF9
00C201CE
00C1FDF6
000AFF77
FFFBFE7D
0031FFFA
00BC0069
006E0046
FF540033
FFBE0052
FF44005C
FFAAFF50
FFD50018
FFFBFEA8
FE7B002B
0009FF14
009E00A2
FF6CFFEF
0094FFB2
FF95FF24
FED80123
00A1FECE
FFA10035
FF19FF63
FF8D00CA
009AFF89
00AFFF5C
FFEDFF5C
006600E3
0148FF58
FD62FF46
00130094
01030189
FF97FECF
FFDFFEE5
0022FE6C
0159FF33
007A000A
001F0017
FFCAFF9F
FF4B002C
FEBA0062
00C100B2
FEE600C4
00A0FF72
00A4FEC5
0081FFFD
FEEB001B
00A3FF9D
FF76FF74
013D00A6
FEEE0008
001C0011
00BAFF21
FFAA0155
0021FFFB
FFBD0016
FF57FF4D
FF98FFD2
00E500F4
FFCE005D
FFEA0064
0081FFFF
FFA30005
FF81FEBE
0046FF17
FFD6FF04
FFA4FFB5
FF72FF4C
00100093
FFA2FF89
FF9B00BB
FFB5FFD6
0015FFC5
FFF50055
FF83FFEE
FF44FEB9
FF5AFEE1
FF19002C
0037FFE1
FFB3FEB1
004B00B4
004B007A
FEB601A6
FF78002F
FE27FF8E
003F001D
FF2700B7
00A0FF1A
FFFEFF0C
0165FEAA
00BFFE91
FF5000E9
01080002
FF380097
FF960193
01AEFEBA
FF4B0054
FFC40074
FF470058
FEF4FFF5
004BFFF8
FF23FF58
00F4FF43
FFC50015
FEDAFF79
00F8FE53
FF5A001B
FE020077
0047FF5E
FF04FEF3
FEFB0007
FF7EFFD5
FFE60130
FF03026F
014EFFE0
008BFFDA
FEAF00EF
FF20FFA9
FF3D0094
00170158
0111FFC9
FFE2002F
0077009B
0090FFBB
00B3FFD7
FF530027
FF050066
007FFFBE
01A900BE
FF24FFAB
0178FFFC
00B20012
FF4E00A3
FE710098
FF05FFB3
011AFF3D
006B00CE
FF52FF92
001CFEDA
FF9CFF72
00D5FF83
00000004
0041FF9E
008BFF9F
FFAFFEF6
0084FFD0
0089FFC8
00380023
FF57FFD4
FF16FF61
FE9EFF8A
004F005E
FFC9FEBA
FF0CFF83
FF0BFFC0
FE71FF7C
005E00BB
00E4FFE1
00DE0085
002EFFEF
FE7F0023
00E1FFE0
000D0077
FEB9FFD5
0038003F
FF83004E
FFA3006E
0176001D
011DFF5B
FF63FFDF
FFD6FF76
0090007F
006F00D6
00D300AA
01370161
FF40FF9A
FF8100F6
FEE4FFDB
FF4A003A
FFBCFF3C
FED7FE88
007A005B
0175FFC3
014A0110
0023FFE4
FFE4004F
008400B5
FEDCFFD3
FF7DFEB7
FFFDFF26
0068FFAC
00D70068
00E4FF20
FFEBFEC3
FEFA01AB
FFEFFFB3
00BF0075
009C014D
0076FF61
FF7EFFF4
FF7F0013
002DFFC9
00A9FE3D
FEAFFFE1
0012FF3A
FFE3FFB8
00D300E0
FF9CFF1C
002CFF87
FF840015
FFC9FF9F
013700B7
FF37FEF5
0015FF80
006300C4
FF680128
00FF01FC
0104014B
FE730004
0011FF7A
FF7F0164
FEE900F8
002BFFAC
FEA2FF60
FFDDFF56
0094FFCA
FFF2FF58
007EFF3E
0054FECA
FF68FF67
016BFF84
00C20044
00500031
01130044
FF44FFFC
FFCEFFDA
FF62FFF1
FFBF003B
FF93001C
FFD8000A
0048004A
FFF6FFA4
0067FE88
FE82FFC1
FFE5FED8
FF470173
FE3E0186
FE35005C
FFD1FF4A
FEABFEEC
01E5FFD2
FF87FFB9
FF37FEDD
00F00133
016C0054
FFE9004E
00AAFEF1
FFC6FF4F
FF0DFFED
FE7D0108
00A0012F
FFEF0088
FFBAFF77
FFA4FFC0
00D0FE64
0038FF3D
FF4D0077
009D019D
0024006E
024CFFD6
FFABFE14
00A3002C
000EFF9C
01680106
007A0005
00C900E0
FE42FFA1
FED90022
FF9DFF55
00C00089
01230064
013600BE
00300088
FFB5FF7E
FDD8012B
0038FFE5
FFD4FFC4
011B0066
0089010D
FF0FFFE4
002C02CD
0038006C
FFCE00AC
00030040
007EFFC3
002DFF34
FEDC00DB
FD41FF29
00CEFF18
001F015A
FF99FF58
FF8C00FF
FECF019B
000C0013
005600CE
00560077
00BD000F
00AD0134
FF5EFFF7
0061FEF8
00ACFEE9
FFC3009D
013800A8
FF7A0050
FF940109
00CD00D7
0040FFE6
FF73FF93
FF8D00C8
0003FEC9
021F0017
FE6DFEDF
FF63FF3C
008500EB
FE0EFFD5
003DFFB0
FF77FFB5
FECF00AA
0054007C
FF43FEB4
FFF0FF53
FFB4FE6C
FF8C009F
019E01F5
FFD9FF0E
FFEF009F
FFDBFE52
FF500001
FFEC0091
0056FF19
01CD000C
0107014C
FFF6FEFB
0136FF41
008A00DE
00500001
006F0087
0032FF12
00C800F5
FFBC006A
FF340077
FF85FFBC
003BFFD9
FF4BFF73
FFCDFF18
00CFFFE3
00C9FFBA
FF470083
FFF1FFF1
007CFFA6
FEA60038
00D6FF8C
00B2FF58
019C0118
008000C6
FFA500D1
0029008D
FFCC01B6
001E00E4
0144FFA2
FFBA0068
018DFF2C
014D00C4
0055FF7B
FF6C0086
FFE2FF8A
FDA4FFFB
FED601A2
000100A7
0091009D
FEC600FB
FF5400A9
010A0146
FF030094
0133010C
00ABFF43
00CB010E
013000AB
FFB900BF
004FFEE9
00210008
00A80159
FECB0143
00570179
FEB5FDF3
FF360035
00A1015D
0013FEFB
002E0169
00F1002F
01DFFFF4
0039FF44
FF25FF01
FFF60015
FF50FFF8
FDFD010F
FF46FDF7
00B400F2
FFAC0057
0007FF0A
005C0064
0081003B
0015FF66
FF75FF46
FF61FFFC
FFF4FFA0
FFAAFFAB
FFE9FFEF
014FFF6A
FF49FFDE
0093FF68
FF4601C0
0121FF83
FF48FF97
0090FF82
0146008B
00700008
FF1C00C3
FF4601C3
0113FF59
007AFFBE
FE4B00AC
FFB90170
000E0011
0038FF2B
00DBFFBA
0081FFF8
0092FF9D
010DFFDB
00010012
FEB5FF55
015F0004
FF50FFE2
01A2FE96
FF32009C
005C0120
FED9FFD3
00E50127
0079FE92
00B1007E
FF850040
FFC30013
FF9BFF5B
FE3CFFB9
00AA0000
0002FFE9
00700062
000EFFC4
FEF40091
FF88FFB5
FFC2FEA0
00D2FF60
FF9DFFC4
008D00EA
FF7F016E
021DFECF
0044FF83
006FFFAB
00270055
0026001C
0054FFE8
001B00EE
001DFF76
00A3FFDA
00CE004E
FFCDFF68
005AFF55
FF6C000E
FF5200D9
FEC8FFAC
019AFEDE
FF81FFC7
00620052
0024005E
FF20FF1C
0022FEF5
0061000F
FFFB000B
0019FF33
0031007C
01B1019D
FFA400BE
FFD3FE2B
0004000D
FF67FF63
010AFF7F
004400CC
00770026
FF62FE91
007C00C2
FFB3FFFE
FFFB00D0
00160132
00B8FF0A
FF76FF7F
FFB4FF5F
FFFBFFD4
00B600EE
FF52FF86
00A1FEDD
FF9E00A4
019AFF2B
FEF90016
00B80046
013FFF57
0009FFE0
0195FFEE
FFEFFF80
FF990040
FFCF0063
FFD90087
FF10010E
FF650073
FF5CFF96
FFAAFF4E
00EE0077
00DFFF9D
FF140036
006F0023
FF3F0075
FF320163
FFADFFA2
FE87FF3C
013FFF84
01970005
FEE700DC
0023FF65
FF03FFA8
FFEF00B4
015FFEB1
005300B2
FFE9019C
008FFFB1
00B3FFFB
012300AA
00710109
FF50FFAD
FF4EFF6B
005FFF3B
FFEBFF35
FF0700E1
020F0015
FEE3006C
00F3FFAB
FFA601BE
FEA7FF75
FF0AFEC3
FF68FEAE
003AFF5A
FEE3FEBF
00180030
0067FF43
FFA700B0
0013FFC0
FECBFF38
005AFEF0
FFF50081
FFE8FF98
FE710063
00350012
01070063
FFF8029C
FF24FF50
FF73FFEA
FE85FF45
00A3008B
00640104
FFFE0050
0079FFA8
0117017C
FEFBFF6D
00ACFF43
FF81004F
FEA7FF42
0248FFCB
FF8BFDFC
010BFFD3
00A7FE60
FFCCFED8
0142FF85
00F40042
FFF0FFAD
FFFCFF0C
008D00C3
FEF200A4
002900D7
FFEEFF2B
0070FFDB
FEF7004E
009AFF7E
001DFEB1
FEE0FEDB
018000A7
FFB5002F
00EEFF31
0109FF54
FEF30078
0047FFF7
FF5D00CA
FFF4000B
0006FF6A
FF2EFEF9
002AFFBC
00C3FFDC
00970018
0028FF1F
0014FFEF
FF9DFFCD
FE9F003A
00AFFFDC
018700BF
FF6DFD7D
FF6700E0
017AFFED
000BFFB1
FFCE0039
00F3FF37
FFB4FFF1
FF9E007E
0027FFEA
0041FFD0
FFD4FFB1
FEC301C8
0138001D
00890146
0018009B
00010078
FFB9001C
FEF2002E
0045FFB5
0149FFF8
00710016
00500026
FDFA0099
FF94FEFC
0049005B
001BFF91
0026FF10
01150013
0048FF60
0077FF75
00560035
011500B1
FFA7FF8A
FF6D0067
FF470001
007CFEC2
FFFFFF95
FFB5FEEE
006F003C
FEC4FFEF
FF2CFF6F
00A30156
FEA4FEFE
FFF50181
FEA9FF19
FFB60018
FF5A0044
FF920018
FEBFFE46
FF77FFFC
FF2600AF
FF89FF30
FF9B000F
FFE3FFBA
FF790078
FF89FFB8
001CFF3A
FF61FFD0
0100FDDB
FFF60015
FFC2FF58
0122FF09
00040013
005FFF8C
FFAD00E8
FE15FFE1
011BFFC3
008E0057
FF2E0134
FFE3012D
FFB6FEEB
FFE8009B
0066FF30
014E00BA
007BFF6C
00D8FF65
0080FF52
FEB7FEF5
FFF1FFBB
FFDE00C3
00E4FFB0
FFE2FF61
FF1300EC
FFBAFF5C
000701B8
FF07FF3C
FF36011B
FEFDFF7A
006EFFB0
FF0F0041
0004FEE6
FF1D013F
FEEEFF06
FF03FEC4
00240075
FEF9000B
005CFFA6
FE91FFAA
FF690054
001B0058
005900C4
001AFF58
00E200BA
0165004D
FE98007B
0089007B
FFC40050
FF22FFB7
FFCE001A
FF7700E5
FF530011
0133001C
FF290096
000BFE04
000B011B
018F0050
FEA8FF9C
FF9C000F
00B30112
00C600BC
00B7FF2C
FF900051
FEE30098
FFAC003C
FF85FF25
001C0087
FFB4FFED
0007FFC3
FF7A0102
FF57FFF8
FE3EFF65
00110088
0106FF15
FFC100DF
0044FF8F
006300EA
FFBBFFDE
FFC00061
FFE301EB
FFF5FF8D
FED300B4
FEBDFEC6
00E4FF09
001C0051
FF12FFB6
FF8DFE2E
FF760075
FFDE002C
011BFEEA
00D1FF6B
003E00BE
001100B5
FF89FE09
FF5EFF78
FF260096
FFDFFED6
FE91FFAE
FFCCFE80
FF980008
007A0198
FFD1FF01
FF8801FE
0043FFA3
FF540166
002EFF97
00F40059
00850190
00D60010
FF260025
FFB0FF90
0075FEEE
FF2AFF63
00C70058
0026FFAF
0004FF6A
FF74FF67
FF49FE45
01B2FF72
FF83FFBA
FF33FFF1
FF830081
FFCBFFC4
00F400AF
01620017
0001FFA4
FF4400A8
FFB6FEA9
006B00E1
FFA80007
002FFEC4
FF8A00FE
0016FE47
005D00DD
00EFFF2A
FF3A003E
0142FF5E
000E0198
FE5800EB
FF8F0031
FFBAFEA3
00BDFFB3
00ECFF21
0073001F
00400014
0018FF26
0038FFF3
00E9FEB0
FF2000A7
FF7D001D
FF16001F
FFF70002
0010FE97
003F0156
0077009A
0047FEE1
FF58FDC6
0051019E
FFADFFCF
00D9FF8B
FFA6008C
FFB7FFC9
FE790060
FFE8001F
01300046
FFCB0049
0176FF61
FF65FFF5
FE89011A
FE58005E
002EFFB9
FF3AFF5F
FFE40049
FE63FF10
FF310019
FE65005B
00680112
FFC4FEF6
00180087
FF75FF74
0091009A
FFB9FF9A
FF8F0067
0109FF9E
01B5FE6C
FFA100B8
01020144
FFCEFF99
FFF00124
003FFF68
FEF9FFF5
FFB3FFE7
00F2FFBF
FF72FF28
FF8F013E
FFB1006F
FE4F0015
00EAFF55
FF5C007F
FFBE00DE
FF59FF91
FF3D002A
FE7A0135
FFD000B6
FEEDFE77
FF48FFAB
FF5E017C
0056FFC2
FFF9019B
FF5D0048
FFDB0095
000200CD
FF60FFD2
FE46FFF0
FF9C000D
FFA20000
FF9400F7
011600E8
001400CB
FFDEFF2A
00400097
FF8E0081
00F1FFEE
FF31FFF7
005E0152
FF5F0036
009602AF
FFD4FFF6
00C50013
003BFF86
009B0073
FF5F0052
FFAB0047
004FFFDF
FFAC00BE
003C00C6
FF79FFC0
FFD400BF
0007FF95
FFA300B7
002EFFE1
FFFD024D
002D00BA
FFEFFF9B
FF8AFF8E
00E1FF9A
FFF80012
013500FC
FF5DFF17
000CFF62
FF6700C4
0054FF8A
01020121
0075FF64
FF96FF17
FF74001B
FF3D0092
009AFF88
012D0162
0055FE79
019C004F
00FF00B8
FDF3004C
000DFFA3
FFD60070
FF18FFA8
FEBEFF10
FF660015
FF4BFFCF
0081FFBD
FF73FF65
00D70089
008DFF6F
FF7600C3
005C00C6
0052FFC2
FDFEFF5E
0016FF93
01380044
004B015E
FFF500A6
002A0087
00DEFF49
FEA4FFDA
00ADFF92
011A0003
008200CE
004100A0
00640016
008BFFD9
FDC400B9
0103FEC6
FF54FEEC
FF440025
FF9EFF73
FF7DFEFE
006A0056
01C5FF08
FFD10199
001D00B0
01550045
FFA5FFFB
FED80034
FDD6FFD0
009EFEA6
0078FF6E
0050FEC3
002E002A
FF8301C8
00300071
FFB8005E
000D006E
00B7FF7B
00A1FF2F
FF150079
0027FF47
FF63003A
FF740187
FF0C002B
0083FFBE
FFD10075
FFD2FEE8
000F0075
FFEDFF72
FFD4FFF0
006C004E
0020FFB0
00A80094
FF08004C
FF18FF73
FFD9FFD1
006D00C1
010D0014
FFECFFBE
FE29FF39
FFB9FFD6
00D70071
00880128
007AFEAA
00CD002A
FFD000A6
0000FFB3
FF7900E0
FFEA005A
00A10015
0073001D
FF8E00C8
FFF1FF4B
005AFFDD
0002016D
00C8007C
FFB1FFD5
0199FFBF
FF99FF69
003CFF73
FF30FFFD
FFE7FF75
000B006F
FFC8FFB7
015D0120
FEDD001F
000F000B
0061FFAC
0061FE96
FF8FFFB8
FE6500E3
FF69009C
00E1FF74
0018FF26
FF780083
00FA005B
0030008F
FEDBFFB8
0031005C
FFDF0081
FFA5FFD1
FEF4FE93
FEF6FFAB
FEFBFF9F
FEF4008A
00990034
FF43009C
00F6FFE2
006BFF4C
0059FF96
002F005F
FFAC00D5
FF93FE5A
FFE3FFD0
00980067
0058014A
01640141
FE0200DF
01840025
005500D0
001A00EE
004E009A
0102FFF3
FFA1FF9B
FF4BFF56
FFDDFFF2
FF5DFE0D
FF68000A
FFF0016E
FF010050
00B1001F
008CFF98
FFDCFFBC
FFA7FF14
005FFEAC
0018018A
FFDDFEE1
0084FFED
0111FF88
002BFF23
FFE1FF5F
004BFFB0
FFDC0079
00600056
FEC0FFED
0000FFE9
FF6FFF10
FF7A0131
FFD20091
00D9011C
FF95005D
FF520043
007B02ED
FE920025
00D00195
FF270009
FF9FFEF8
0012FFF4
FFB4FFFD
0026FF1D
002AFFFF
00A5FF0F
01700017
FFAEFF96
001E00B2
FFDBFFAB
FE7EFFA6
FFA8FF53
FF8DFFA1
009FFF96
FFF8FFC1
FE85007A
FFE60051
00FE00EA
003CFE7F
FE51001B
FFFEFF73
0037005E
004C0141
01080096
FF41FF69
FFBD00B0
00DFFF13
FFCAFFB8
003FFFBC
FF89FFDE
00F60157
FEFB0070
004C00C3
0025FF77
00B60058
00CDFF3F
009100BC
FDA5FFE1
FFC001AA
FFD800B8
FEC30001
FFD1FF4D
FF0600BD
FDF600EF
0005000F
0019FF55
00340081
0002008D
FF9E007A
0106012B
FF6400C2
008C009E
0070000D
01E3FFC3
FF45FFBE
FFA300ED
FFC0002D
0017FFC1
004400AE
FFFBFEE0
007D0090
FFBFFFF4
007B004A
FF13FF49
FEA400AE
00AF014A
0109FF31
00690045
FF8800FD
010DFECA
FF5D0041
001A013B
000FFECF
0033FF0C
00FE01D2
FFCFFFE0
006A01E3
01D102C0
FF74FF3A
0002FFAC
001F00AA
00C90024
00B40064
FFE3FFC0
FFEBFF98
0025FF9D
0175FE47
00790002
0005FECA
019FFF0F
FEF80249
00690090
FF88FF08
FF590179
0117FFF8
012A0005
FF85FEDD
FF830092
01040043
0067FF9C
FF76FF36
FFCDFF61
00C6FEA3
FE93007C
00190019
FF550094
FF88012F
FE87FF49
FF910151
FF8CFE78
FE52FF37
FEE2FE1E
FE97FED4
002F0049
FFBD006F
00EBFEB7
0004FFE8
FF250109
FF440025
FEFCFF4F
FF6E00F3
01EAFEFC
FF10FF48
FF5C002E
FFA0FEFF
FF37006F
FEC1000F
001CFFB7
FF9000BE
FF4A000C
FF650104
006700FE
FF8400BC
018700BF
FF440032
FF0AFF56
FF40FFAA
0058017A
FF120080
FEDDFF40
FF91FFCA
0144005F
00B3FF88
FFADFF47
00090082
027CFE61
FF660051
0096FFD9
FEF40127
01260002
01A000B1
0085FE60
FFEC0062
0035FF7B
FF9CFFE5
FD7401EF
FFA6FF5F
FE9C0058
0072FF78
FF5DFEE2
00B800C3
0070FE02
FFE10013
0055FE9D
FEEB0030
FF7FFF2F
FE2EFFD9
FFF1FFB7
0014FFB0
FEE6FEF6
FF6C00B4
FF1000B2
011BFEB3
FFBCFF28
FEFF0071
0216FFB7
00920040
00DC0016
0039000C
FF980092
0085FF59
007B00E7
FFEE0038
FF510007
FF12FF8B
0095FFF0
0046003C
00AAFF90
FFEBFFD2
FF840159
FF5CFE65
FFDA000D
FF5AFEC9
FF07FF16
0098FDF2
FFEE01AC
0079004F
004DFFEB
0164FFF0
FF7F00F9
00D50116
002CFFE6
0134006C
0146FFBF
FF1DFF5E
FE9600C7
FF95FEC0
00C00000
003CFF57
003C0052
FECBFEBC
00690068
FE440036
FFBAFEA2
00280162
01BCFFB4
FEE000B1
015600E2
00D50043
FF91FF2F
FFCBFFAA
001AFFC5
009C0040
014F00BC
013600DD
0040FFE4
00E70059
FF980080
FE0E0126
00310006
004EFE2F
FFD800BA
0103005E
FF1BFF5A
FED200D9
0091FF5C
FFF8FFB6
FF530058
FFDAFFF7
0036008E
009BFE39
FF9D0034
FFC0FF87
FF3100BC
00810046
FF52FFAC
0019FF3D
00F70081
FF5DFFBF
003C0029
0090005D
024B0106
0032FFAE
0198FFA2
01BCFF86
FE7DFF8B
FFEB0032
00E6007B
00CBFFD2
026CFEE2
003A00C1
FF600034
FFEAFFD1
FF44007A
011A0061
01D40088
000EFF69
FFA6FFA6
00DEFFE7
006B011F
01A6FF9E
FF94FFC7
FFF5FFC1
0046FFEA
FFDC0029
0040FFED
FF500029
000000F2
FF77FF67
FFBCFFE9
FF8F0113
FFFBFFAA
FFB3FF92
0175FFA5
FF3AFFB5
FF5DFFB3
00CE004E
002EFF24
01040001
FFA5FF2F
0010FF38
FFA1015E
FFC30043
01B8FF9E
FF58FF1D
FF45FF81
001A00C0
0153FEF8
FFBA0065
001100D8
FDD600CB
FFF1FFFB
FF6DFED5
00330097
FF6EFEEB
FFAAFFE1
004FFF3D
FF610046
FF80FF0B
015001F4
0054FF62
00A5FF5D
0013FF93
012500EC
005701E8
008E007E
0038FFF4
FF96FEB1
005F0078
003A0020
006EFE9E
01ACFEFA
01030056
FF97FFC6
FF7A0064
FF5F008B
0031FFC6
00020031
FFB80115
00DAFF42
FFC1FEEE
FF0600E8
FED4FEBD
FF2E0049
FEF7FE5D
FF4DFFF0
FFFE00AA
FEE4FEC7
01430021
FFD00031
FFB402AA
017A004F
006EFFDC
FFEB001D
FF080009
FFF9FFB1
FFFDFFC3
FFB20068
FEC0FF82
FEEFFFC9
007EFFFC
00A700B2
FFF20101
FF0D0089
003C015E
FFA400DC
FF17FF9A
004FFEC8
FF300024
0011FFB4
FFE8FE19
00150113
FFF10091
FFB7FED9
FFFFFEF1
00D40092
FF2BFFA2
0005FF18
FF380161
0029003F
000100C8
00B8FFF5
FFB70001
FFF3FF55
00CE0132
00770016
FF92FFCE
00CA010B
FF1800B9
01F40007
013EFFBE
0066FE8B
0069FFA3
FF500118
00BA0026
FF66FFAF
00850069
004FFF8A
FF37FF3C
004001DF
FFE5002D
002000C2
FFAA00D4
FF7FFFE6
FF750076
FFC5FF54
FE26004D
FED5FED0
FFE801E9
FFBBFEBF
00330011
00BFFEBF
001600FD
005DFF67
FFC6FFDF
FF8BFFA9
0052FE6C
FEB00041
00FAFFB2
002AFF6A
FFB300B0
007200DA
00B50072
FFF4FF6A
00770050
FF710010
005100A5
00A6003E
FFDE0061
FF94007D
FF62FF2D
FFE9FF77
001701DF
FFF50055
00A1FFE6
FF92FF0E
FF45FFDC
FF88FFC7
001100AA
00C3006E
0065FF1F
00780131
FFD8FF47
0066FF2B
FF26FF42
FFD500E0
0003FF30
001D003A
FF180266
FFEEFFB0
001000A6
FF2AFFD9
003C0140
013DFF77
00BAFE95
FF7FFF07
003F00C1
FFFF0044
FEC4FF96
0051FF39
00AEFFB5
FF6E00D0
FFD4FF6A
00230052
00E0FFCE
0022FF24
00D50242
00A2FF98
028FFFE1
00BCFFE2
0003010B
FFBDFF6F
FF210064
0071FEC1
00ACFFC3
008500DD
00B1FFF3
FF14005E
00220069
0082FEF5
FE02FFC0
FFB201C3
00970087
0106003E
FFB8001B
017B010F
0085FEF7
0150002A
FF370254
0016003B
007C0024
001D002B
FFECFFE7
01F5FE2C
FFF5FF80
FE59FF29
FEAAFFF9
00A40156
FEA10060
FF04FECB
015F00DF
FF93FF92
FEEE0054
003DFF78
00B4FFA0
FEF9FFED
FF7F002B
00F8004B
FFA6FEE2
FFEBFFC1
0083FFC7
0192FED2
0000000A
0058FFE6
009E005A
00980063
FF3600BD
FF7D010E
001500B6
01B4006A
FF99FFE0
00E100A8
0074FEF3
005F00B9
00E400D7
FFE0FFAF
FF8BFF18
00E7FF8E
0070FF3A
FF9CFFE4
0264FF33
00800139
00D70026
FFFC0051
FF63FFC1
FFABFDEC
01330088
002C0003
0010FFD2
FE8000FB
FEA90179
010EFFBD
FFEF005F
000E0073
0060FF48
FF5900B6
FFCFFF37
FF910024
FF95FFAC
0146FF4B
0125006A
FFF90142
FF14009F
00CFFFF0
FF92FFCC
00ECFF8A
003BFFA0
005F01FA
0141FFCF
00290065
FF80FF38
00DCFF64
FEC1FF83
FFA6FEBF
006B000A
FF31FFC4
0036FFCA
0052008C
FFC60007
FFDDFF1F
FF9EFEA0
014F0067
010EFFFD
FECAFEE6
FE320017
FEF90001
FF83FF4D
FF2EFFDB
0153001F
0011FF62
0038FEF9
FF51FFA1
0039FFE1
FFF60022
00130082
0208FF90
FFEA00A3
FF5B0180
00B4FFC2
0069FE56
0002FFA9
FFF7FEC4
0104FF0D
0149FECB
00F10077
FFBCFFD2
00ADFFB3
FF40FF43
00820029
00FCFFD0
00F0FF8F
FF9C006C
FDF9FFFE
FFF2FF6D
0114FF37
000EFE2B
FE64FEF6
FFF3FF81
FF020048
00BF01E3
002500C7
FF2B0169
0050FE9A
FFFBFEB4
006900DE
FF9CFF36
0137FFF7
FF1DFF43
0038FFFA
FF90008E
FE0FFFCA
011E0093
01FE0086
FE4DFFE3
FEDEFF10
0154FED3
00290029
FF390061
FF26FFB8
00540079
003500D7
009900BD
0083FFF4
0043FF16
FFD1FFCB
FF1000B8
FFCDFFFE
FEA6FFFA
003400C2
FF8D0036
0079FF13
00C50054
FFC10078
028F0044
FF9B0079
00630054
00100104
FF590058
FFE80146
0012FFA7
015F00A5
FF7FFF92
011EFEFC
01B4FF30
FEB40073
00E1004D
01160024
0124FF2F
0114FECE
FEC7FFAA
00DF009F
00F3FF83
00EB00B5
002FFF8E
FF3AFE95
010D0013
FF5EFFFD
0025FF64
00DBFF44
FFA50020
FEB4FF90
FF9300F5
0111FEF1
0001002B
001B0055
0035FD84
0077FEF6
FF87010B
FE3FFFDE
0016FFF6
0051FF39
0179FF0F
FF0DFFB2
FFD8006E
FEE70022
00490139
00C6FFB4
003FFF31
00E6FFC2
FF4DFEC3
017FFF0E
00E20011
FFF50058
0146FF74
0183FEF1
FFC6FFC4
00C8FF14
FFCE003E
0033FFC4
003900D2
FEA90042
FF67FE8C
FECFFFC0
FFFF0037
FFF8011C
00A7FFE0
00B1005D
00AE0144
FFE3017F
0007FFDF
FEE500C1
FFBD009F
FF69FF4A
FEAC002E
0052FF49
0086FF99
00FBFF3F
00530086
FFFC0182
FF16FFE1
0074014D
00BC00D1
0040FFA2
FF0FFFF2
FFB5FFCF
FFD90191
FF270040
01DC0083
00D6FF2B
00520051
004C003A
00170088
0087FEF9
FE9E0036
00A10190
0054FF5A
FEDB00A5
0078003B
0262001F
00B4FFB7
FE8E0065
0160010E
00DC001E
001C0039
00B30150
01B0FF2D
004DFF57
FEF9FF45
00900183
017DFE66
003DFFD9
00B1004E
0040FF5E
00F800FC
FEBD0025
00BBFFF8
00100133
00950024
FE86FFF2
021BFF5B
007AFFC2
FFA5005F
FF44011B
00E50048
FF4200EE
008D0076
FFB60109
00F50050
009B0043
0092FFF4
00790141
FFE40142
FFDEFF73
007600BB
0024FFB5
00AB00DA
FF65FFC4
005AFF9F
0090FF5E
00F10040
FFD2FFC1
008DFF27
FFE60021
FF78FF02
FF2800F4
FF70FF16
012E00C3
FEE8FFCC
00B2FFFF
009DFF34
0069FEFF
FF0C01D6
FF1100E6
0027004E
FEE200E0
FF44FFC1
FF5EFEF7
003BFE9D
FFD7FF9D
003FFFFB
FF2E001B
005F0087
FEFCFF3E
005B0017
FEB0FF9A
003EFF26
FED8FFFC
0048FF2A
00B2FFDA
FFB90045
002700E4
FF44FF9A
000D00F2
FE94FF97
019AFF5A
FFFA00C6
0017FFF9
01F8FF8B
003F008E
004DFFA2
00DC001D
FED6006B
FF5BFF83
00FA0157
0142FEB9
013EFF55
00D40091
01320007
FE39FFCF
FF0F0008
FF670081
FFA9FF5B
FF89006C
008AFF0D
FEFAFF61
0167FFD4
FF67FFF3
FF9EFF4B
FE5E0040
01B2FED8
FF4E00D8
FE460048
01B0FFA1
FEA8FFE0
FF9DFFFA
FFE800CA
FF9DFEA1
0092FFD1
00E8FF0C
008AFFC4
FF03FF4D
FF6EFE3B
00260078
FF7F00C3
FEEAFED9
007B0148
FF65FF9A
00A3FFF5
FF13FE7E
00F00072
FEF90022
FFB7002A
FFBEFF8D
FF0600D5
FF5AFF92
FF00008D
003DFFD2
0014FF8F
FFF0FF24
00EA0134
FF71FF77
00660011
00650147
0078FF8D
FFBF00F4
FF7A00AF
004BFE93
00FCFF4E
FEE8000D
FFED0135
FFA9FFFF
FF1F0063
0134FECE
00350087
FEC1FEF8
FF59FFCC
00C500DD
006600A4
008701C3
0013FEF4
FFDFFFD4
FE640117
0081FFB6
004AFF6B
FF68FF7A
0062FEF0
00B5FFA9
00EAFF94
00C100AC
003DFF83
008F00B4
01A8FFDD
FF80FEC2
FF730043
00A500D5
0025027F
FF5AFFFA
FFAAFED2
FED5FF1F
FF1101F9
FF58FFB0
FF78FF69
FFC8FFAB
000F003A
FF5AFFA2
001200DE
00F000C2
FF67FFF9
0061FF5B
002EFF5D
FE9CFFFA
00C6015E
FE89FF93
00C40064
FFC0FF5F
FE76013B
FFD900DD
0137012E
FF6EFF54
FF44FF4F
009A009F
014800A6
002A00F9
FFBB0183
01C60007
0037007C
FEC00048
FFCCFFC9
004BFFDC
FF52FE43
FFC20112
FFB700A7
FF680154
FF37FF24
FF75012C
000701DB
001C000C
00B5FFA4
00130033
00300036
00F3FE33
FFF500F3
FF20FF66
FF5FFF74
00F5FE09
003400DC
FDDDFF9A
FF2000A8
000100B9
FF93FFDF
FFFCFF84
001BFF7B
FFE90089
FFEEFF0B
FE9700F4
0095FF9F
FF74007C
001EFF84
FF6FFF2A
001A001A
00000125
007A0137
0054FF97
FFB5007A
FF8700F1
0142FEC3
001B00FC
FF4400C0
FF33FF2E
00880004
FF58011B
FF57000D
003AFFE5
FF3B000B
FEDAFFE2
FED200CF
004DFFC9
FFABFF32
FF76FF97
0011FEF0
00F700D4
FEA6FEE0
FEF100C1
FF16FEC4
005EFFEC
FF0CFF42
0176FF0E
FF24FF6D
FFA70077
FF8B0018
0005FF6A
FFCA0076
FF680068
FFCEFE90
00A5018A
FF56FF4E
00EA005E
FFF800A5
FF2A0148
FF08FF28
0046FF98
00D60084
0143FFBA
0140FF7F
FF95FF88
01B4FFCE
00680102
FF690057
FF98006A
FF6E0032
FE9200A4
0076FEEC
01900021
00A20136
00DB003D
FFE0FF7C
003A0078
FEE60025
FF8D0119
012F00F3
FFC500CF
FFC6FFBF
0156FFEB
FF1E0089
026A0006
FF1DFEB9
00450018
FED0FF3A
FF6DFF6D
FF3A0100
FFCF00D5
FE62FF61
00710008
FFD6011C
FF5700C4
FF7AFF52
00E3FFA5
005A0116
00C0FFB2
FF440008
01E5FF26
00AF0005
FF80FF31
0134FFA0
02BC007A
00BEFFF0
01C2FEC9
0165FE7D
013A00AB
FFCBFF3F
FF8B0100
FF580082
0002009F
0131FF2D
007BFF24
FF22FEE0
FF6AFF44
FFF8FF6B
01ADFF86
00A4FFEF
FFD9FFCE
00160198
01C9FFA8
FEA80191
FFE60125
FFB2000E
0212FE92
FFF0003D
00070074
FF32FF3D
FFAFFFD6
FF17FFCA
FFA001B7
FF5CFFD3
FF830028
FFFE0102
0143FF71
0048FE9E
0026FFD0
00D2FF46
00880017
0207FF7B
FF70FFDA
FFC4FEDB
FF28FFA6
00C8FFEF
0030019B
0100FF7D
00EBFFD5
FE930015
FFAD0051
FFA80015
FF15FF37
FFC7004C
FF9F0096
0001002E
00970096
FF22FFB3
02A8FFDA
FF6FFED1
FEEE0039
0023FFA2
FFC3FFC9
0072FF98
FEAC005F
01440121
0021FF32
00ECFFF9
FFF9FFD7
01D5FF84
FFCBFF84
01DE011E
FF1200E1
FF15FFFB
00ABFF93
01000004
000E0057
FF9600C9
00B7FF65
006B003F
000D00D0
00E9FF1F
0154FFDC
0003000C
006EFF9F
01550100
0015007C
FEED0061
FF1F0098
FF7BFFD1
00540082
00580024
00EFFF40
FF710051
00E600AD
00BBFFE6
00F4FDFD
FF3F0141
01110125
007FFF8D
FF950190
FFA9FF4A
FFEFFFED
00B3FF92
FEB5FFF5
FFE9FF77
00C2FEC0
01080016
FFF3005C
FF63FF76
FE0EFED9
00610060
FE1500B9
FF64003F
FF35FF76
FFD000CA
00D6013F
FEE9FEA2
00C1FEFF
00470088
FF090125
00C500B7
00A40035
FFD0FFFF
FFB7FF39
01BCFFB7
FF8F0169
0070FF98
00B1FF7A
FF74FFBE
011EFFBD
FF63006E
0133FF9E
0013FF47
001DFF38
00BE0001
FFF900D3
012B001C
0144FF92
011700AF
FFFE008C
FFFE00B8
01BAFFC1
FF6200B1
FEE10073
004500B4
FF4BFFA0
FF240016
00470065
FFC20089
004D00D5
FE5400EE
FF2AFF7E
FFA8FFD0
0082FF8D
FF440015
0068FF6D
0131FEF3
0086FF7E
00DCFF70
010D0082
FF00005F
00970151
FFA60009
002CFFF7
FFE4FEE2
00E20088
00D5FF77
0103FF77
FEF1002B
00140095
FFCBFFD8
0122FF61
FFBDFFF5
FF05FF87
01AFFFF6
FF240069
008C0002
00AAFF5E
FFF7FFA7
002A003B
FF2CFF31
01AC004D
007D0008
00B8FFBC
FFA1FFFB
FF3600A5
FFD5FF28
FF28FFD3
0008FF25
0110FF71
007500F3
FF5C0058
FFAF0183
FF59FF8A
FF560163
FFB2FF86
FE94013D
007E0057
FF26FFE5
FFE2005D
FF1E00C6
0001004C
011100D3
FF45FEB9
00350097
FF3A0022
015BFF6F
FF7B0066
001D00E9
004DFE85
0062004E
00050057
01B20121
003F0058
00720044
FF1BFF52
FEF8FF7A
FFC00079
005FFF6A
0057FF00
FF45008A
00D7FEC0
0074005D
01D3FE49
00BEFF04
0025FEE6
015900C8
FFDB009E
0095FF21
0073FF41
005DFEA9
0064000C
0067FFA9
0121FE9B
FF23005E
FE8CFFCC
00420180
007CFEF6
FE95FF1D
00DCFFD9
FF8F00BD
004200C2
FE40FFCF
FE6B00DD
FE8DFF8A
FE6BFF60
FF59009A
009500E1
FE8700B1
FF7001E9
001D001E
0037FF3C
FEB6FFFE
FFA2FFDE
FEC900E2
FFA80082
00DA0090
009400B1
01AE0076
01100058
0033FFCB
0035FEAA
0143002E
FF6FFF4B
00A000F3
FF1A010A
FEDD0070
FFE6FF91
FF6F0019
FE96FF53
FFC8FFB5
FFA200C6
FF2900FB
00C3001E
00DA0056
FFBF000A
FFB8FFA5
FFF3FFEC
FFB200A4
01D0FEE8
010300C1
006200A6
FF590000
00E3FF75
0083FFDB
0087FF83
0189FEF7
FF7300D3
016C0000
FF2E003B
0035FF1C
005CFFC4
FFB900C1
FF87000F
00FF0117
00C10143
00A1003D
00F301B4
002B0028
FF5E002D
FF160260
FF13FFC3
FF9D0148
009E0026
FE4EFF9D
FF870091
006BFF7E
FF99009B
FFC1FF59
FFACFF1F
00C9002D
FFBD009E
00E101BC
FFA7FED9
FFE2FFD4
FFEA00A9
FED5012F
FF7BFFD2
FFF2005F
FEF6FF39
00DDFF6F
0071013A
0013013C
004A007B
005C0025
0132FF9B
FFA4FF98
009100A7
FE9DFF91
