0224
09F5
FDC9
0892
038C
FC7B
FE78
FD5A
00B8
0184
FC58
FFB7
FC2E
F831
FDDC
FD6F
06BF
0273
0080
04EC
FC79
FC69
01E0
016A
0477
F7B8
FA68
F3EC
FB88
F781
FF9C
03F1
FE5A
05A6
FADB
FEFA
FE0D
03C9
02B7
FD9F
F92C
04D8
04A8
0834
FBF9
FF95
F0AA
0C92
FFE3
0571
073A
0647
FA55
00E3
0127
FBF2
0154
0649
012E
FEAC
FEE6
04A2
FEDE
FBB5
014D
0196
F956
F790
FF8E
FA50
F3B1
FF58
0401
03FA
FB49
F8E9
042A
0045
008A
F593
0160
FB4F
FE53
FD78
0B60
04FE
F36A
FDC8
0205
03DB
0722
F816
02F0
0216
FF7F
050C
FEA0
0B5F
0455
0135
FFE2
097A
F9C1
175A
06F7
0111
FA70
0807
FD4F
0A1A
FDAD
0B89
0122
FABE
FF04
F856
FB84
0478
FDAE
FA91
FF34
FD28
0084
1463
00D3
FF5A
031F
FD3B
FD42
FAD5
FFD6
F980
015B
FCEC
0140
F938
0353
0179
FFC1
0527
03BD
00C0
FAF7
FFD8
00DD
FDC0
FFED
00D4
009F
FDF9
FEFB
F659
0176
FA2B
0178
005F
F738
FBAD
FF0E
05A5
0594
FBE7
FB87
0285
FD2A
03C3
033F
0208
FF9B
047E
008D
FF5E
FE63
FF9A
FF2B
FCEC
FFC6
FE50
0120
FFF5
FD2D
0189
024B
0A33
FAAC
0527
FEF8
FE48
0D51
0E35
F1FF
F948
00F7
FD83
FCB1
04C3
FFFF
FDDF
FCED
F974
FE71
0023
FE5C
FC03
FBAA
088D
0350
0411
005B
FA66
020A
FF62
F5C9
FE41
FCC0
FFE5
F828
076A
FF1A
01DE
FE82
F820
FFBA
0508
FEAB
1094
F2F0
062C
00D0
F95B
FF0D
F857
03F1
024C
F6A0
02EE
0226
0669
01E7
01BD
003F
03A1
FF6A
FAE0
08A1
FFDC
08A7
0075
0258
0540
FEA9
049F
00F9
FE0F
FD71
0079
0318
FEDE
0106
FB29
FCE0
FFB7
0614
FF1A
0634
0175
FD3D
0288
FF5F
FD93
0330
FC45
0078
FEB9
FA9C
FA0C
FFBE
0C77
F55D
FD41
036A
FFF8
F8D4
FA70
0483
FF1E
FB20
F7B9
FDD0
FF8F
F298
0464
0198
FCAB
FD25
F75B
062B
FA5D
FF43
009D
0288
FCB6
0197
F7B0
FF38
0551
04D6
FE3C
FA25
0768
06B0
FF7E
0252
FB40
FD43
FDBD
06F4
0363
FC8D
0460
FFC7
132E
01F1
F997
FB22
FBDC
01C5
F14B
0506
02C1
0181
047E
FDA0
FB2B
FD76
04EB
FA11
0156
FF07
16BB
F609
F8C6
FD3E
019E
0080
065B
FB15
0454
022D
0789
F712
091F
06D0
FA69
FDD4
FF2D
07E3
FB85
FB17
022B
FE25
F993
FD1E
FCB4
0799
027D
01FC
0A17
039A
FA99
FB9A
085E
01BA
01C9
FEA9
0441
F6C7
FA22
FEF1
FCB7
0297
FA1A
F8F3
03BF
035E
FE8B
0324
09AD
FA2C
FFC6
0108
FA89
FF64
FDCE
FD43
0050
FA7F
06AE
0A41
0B12
F9C2
0140
FEDA
FE67
00C3
FA02
027E
FE37
F9E0
FBDD
FF99
F9DA
F1F7
FC22
FD9A
FB24
FA4E
01CF
FF51
F5A1
0397
FE2D
FCA3
04FF
0388
00A1
FA16
F37D
06A0
FA91
027A
023A
08CA
05A4
0640
0551
FA35
FF0D
00F8
F953
FE5B
009E
059C
FDBB
FF61
FB41
FAA3
04C3
037A
011A
FA0B
FAA6
F7C4
FAFE
08EA
FEDB
0471
FDFA
0265
0664
0378
FA77
FDA9
058B
F9C2
FF0F
01B2
009A
FD79
112D
FCE9
038B
F4A8
02D0
02D7
FFE0
0A1A
07F2
0593
00C5
020C
081E
03FD
1177
FA63
04AF
FA28
FE26
017F
00D5
FF26
006A
02DD
F7F9
F5B3
075A
F749
FCDE
FD73
FBC4
FB7F
FE63
054C
025E
0D90
0288
FBF0
F910
01C2
FBA9
0307
06BA
034D
FD20
FE23
0280
0407
0716
FED3
FFE2
00AF
0344
FCF4
0BEF
FA68
F994
FD37
063A
076C
FCC7
F7E7
01E3
0145
0343
0364
11D5
FA65
0C40
F80E
FE89
FA11
FC37
F89C
02DD
0022
F9FD
046F
007D
FBFB
04EF
FFCC
F794
FACF
06F1
FCF8
0288
0F12
0868
011B
F8F5
FD5C
072F
F637
F9DA
FF16
0427
FEC7
FE4B
06D6
05DB
00F5
0225
016F
F5B6
FCEC
02A4
FF9E
FCB9
FDF5
FBA8
00E3
069F
FC86
FB74
0ABA
FF45
FE40
FD6B
FD4D
FE68
FD8B
F81D
FCA6
018C
FE65
07E5
FF18
F900
F92B
0A45
