FE0C
0019
020B
FFBA
00C0
FE61
FCD9
010C
00C7
FFE4
FEFB
0074
FD96
FCD8
006D
FE46
013C
FE45
FC66
0035
0139
FDEB
FFA7
FF32
0313
02DE
013A
00E1
01FD
FECD
FED4
0207
0285
FCEE
005E
02F5
FFCB
01C1
FFB7
FF00
0302
00E8
0120
00BA
FF57
00C7
00BC
0167
01EF
FE61
FDD9
0273
0218
FFFA
0074
FF19
FF85
00DD
0058
FDCD
022A
FF03
FFEA
FEF2
FD26
035B
01BB
0176
02D5
00DF
0033
FE5B
FCA9
FFF4
FF17
FF05
000A
00F1
04D6
FDF2
FE13
FED9
FD31
FD59
FFE9
0305
012C
005C
FEBD
FE2A
00A8
FD73
FF02
FEE7
0238
FF3C
00C8
FF9D
017C
FE97
FF28
FED1
00BB
FFFB
0161
0104
FE90
FF8F
FEC4
01B3
00D2
FF40
00B2
FE85
FF2E
FE5D
010C
FFA0
FC90
FFE3
FE55
FFA9
0229
FDDF
027A
FF5B
FF66
018B
0199
00B0
FFDA
FD5F
FF49
0175
020F
0056
FE17
0040
FFE0
0045
01AA
FE65
FEED
00EB
00EA
01DD
01C9
FFD4
FFA8
00A8
FDF4
FF2D
FEBA
0266
FEEA
FE96
0272
0017
0117
0147
00AC
00EB
0069
0086
0252
FE9B
FF2B
01AE
008E
FEC0
0047
00B7
FF47
FFC7
0186
00CA
FF8F
FE6A
005B
00C9
FDE8
FF6A
FF2B
FFF4
0020
FF25
0103
FF63
FE52
00B4
FD7F
FEA8
FF48
FE3A
FF9F
0066
01CB
FD5C
FE32
FF46
05B5
0233
0479
FDBA
FFBE
FE27
04D2
0121
FF49
015D
FC38
FEDF
02F1
0338
0292
FFA6
FE4C
FB65
003C
FDB6
006E
02FE
00DC
FC16
014E
FCB2
0102
FDE0
024E
FFF1
00C6
030A
FD88
0145
0278
0036
FFC9
FF38
0193
02E6
008B
FFF6
FF35
FF35
FDD1
FFF0
00EC
04F7
FB2D
0139
03B0
00DE
0222
FCD0
0026
0210
0064
01B5
0240
04A8
0024
FB11
FD80
0192
0216
FE11
FF56
FCC4
0378
032B
FEF9
0715
01F1
04A9
0389
0333
FFB7
FE92
F92C
065E
0798
0066
020F
FDB3
001C
02F0
FB4C
FE8A
FDCC
055E
FDAA
0452
FE35
02F7
FEF2
FFB1
FE43
FC73
FE66
FA7D
0209
FF43
009E
FF08
FE7B
012D
01A8
017A
023C
FF6B
FE7D
FF25
025A
FFCE
FDEE
00D4
FCC1
0149
0109
FC74
FF98
FE2A
0188
0178
FD4C
0183
FF61
FFA6
01B4
FE7D
FF49
FE36
FF4A
FEB5
FF9E
018F
FFE2
04C3
FF8F
04C2
02FD
FF76
013B
005F
0152
00E5
00DA
01E5
FECC
FECA
0076
0050
01A9
00E9
FCBD
03C6
0006
0065
0084
026F
02AE
FEDB
00A7
FF34
00F5
027F
FF6A
00E3
022B
FF91
0142
FF0D
FEF2
FEEE
0075
FED8
FF0F
0017
00C6
FC33
00FF
006C
FF76
0080
0225
00E2
FFE9
FFC7
FF93
FDDE
0158
FE08
0680
FF5D
02BC
0347
008B
0368
0220
009D
0315
0101
0493
FC04
018D
029D
0AAC
01A0
FDC8
01CD
FBC6
FEF1
034E
FFDA
0094
0374
FED0
0060
02DD
FD59
FE96
FF19
FF8B
F7AC
FF55
FD61
FF04
0126
FFD8
05E1
02CB
05A9
FCB9
0367
FBBD
FCB0
FD38
0310
FDFE
0072
FCDF
0389
FF2A
0362
FB12
FE7E
FF87
0247
FEC6
0761
00C5
FC08
0245
FBCB
FE0C
FE3A
FAB8
0034
03EE
FF7D
FF22
0069
0059
03EB
01F0
FCDD
FAC3
FF43
04F9
FEA2
FFF7
04FA
06A9
05BC
FF65
014A
F9BE
009B
FC43
02D4
FFAA
FE1A
0324
0301
0398
FEAF
FD67
032D
FEAF
0053
0351
035F
FD55
0191
040F
0147
F96B
0142
FE65
0258
04D5
0258
FC15
FCED
0343
0346
FCFA
FB76
FE65
026E
00AC
0356
FE9E
0157
0528
FA6F
FABA
FB24
00B7
F623
0056
02D0
022F
02AE
FB24
F9FF
FE48
FFAB
FE89
01F0
FC0D
0456
FF2B
0389
01A8
FBD3
FE8A
009B
FE8D
FEBD
FD2B
06C9
08C8
015B
010B
0465
01A9
054B
0369
0755
FE52
FCAF
0328
FDAA
F916
085D
F9A5
F8D1
FCBA
FFE5
0203
0055
0217
FB6E
02EE
068C
FC26
0589
0651
FBBD
FE8E
0920
FC37
FEA4
05AB
FB12
FF60
FC5A
F89E
09D6
0266
FE92
FFF9
000B
05BE
0148
FE1A
F95F
0232
FCF6
0218
0007
FA86
FF3D
FA9A
FFF9
0015
00A5
0551
0113
03A3
038A
0680
FB8A
068B
031E
01AC
F763
F950
01E3
FB3C
FC7A
0B0C
FF0D
050D
03A0
FBF0
0225
FD34
FAC7
FD75
06FA
0649
FF2C
FBDA
FD20
FFE5
04EF
FC31
FED8
02DF
FD8F
FE2B
F9FB
00AE
F8AE
FCFB
0157
086F
075E
FCD7
024A
FE60
FB90
FC08
FBE5
023F
FDFD
F9EC
00FB
0426
FC8C
0394
FFFD
FFDC
04C7
FE8A
046F
05FD
FD97
FB76
FDFC
F938
0379
0345
FB1D
FC47
F95F
FED7
04FA
042B
FF91
0293
0106
032E
03AC
FC3F
F950
01EA
0355
03C4
05ED
09A2
0204
FFB5
0511
FC92
008C
04B0
0202
0045
058D
FECA
05E4
FD2F
0431
FB9B
FB53
FD77
010B
FD33
FF95
FDEA
01EC
02A4
FF5C
0074
FDC6
FE2E
FCB8
FC5D
03BE
0427
FF9F
034F
0086
FE16
FD5A
FF4E
FFAB
014B
0128
FDD8
FD08
0598
FFBD
FACC
003A
0088
FFE4
FD1D
FF09
FF84
FCE7
FE61
FC1E
FEDE
03F0
F82A
0139
F9B2
FF74
FF14
017C
FEE7
0312
0074
0300
00F3
000F
FF6C
FFC3
02F2
01CE
02DB
FF52
004A
05D1
FCA9
FFC3
FFF9
FE2A
0036
015D
FFA0
FF97
0018
0098
FA8F
FE73
009A
032A
FDBF
FCA5
FE11
0276
0293
FD9A
0032
FD58
FFAE
00AF
FDD0
FEB9
011E
0228
FF48
00AB
0236
FE12
FEBE
FFED
FE22
FED0
FC4A
FCB3
FF6B
FB46
02EE
010A
0050
01C2
039D
0308
FF90
FE3A
FC73
04A0
0017
042A
022C
0121
FF24
FEF5
FEB5
02B5
0019
00FB
FDD4
F705
F9C6
015B
0218
00E4
FE3D
FCC6
01DF
FE8E
0134
022E
02DA
087A
0032
048C
FEAF
0158
01F0
0001
FDFE
FBCD
0143
FDD1
0139
FF3D
FF43
FD93
FC8E
FF98
0170
02A7
02C4
FF47
0236
02B6
FBA6
FE66
FE93
FEF4
FFD0
FDAE
FDC5
FA74
FA80
026B
00EF
FFD5
FE5B
FE12
00A9
FE5C
0401
0798
FE25
FE93
FF92
0234
FE82
00E7
04E0
05BB
0162
013B
0223
FFAD
06C1
FEDC
01B1
01E1
0250
0144
040F
033C
0586
042F
FCBC
00B9
FE73
FE6C
026D
007B
F859
0220
FF55
FBAB
02DE
0137
04E0
0861
FE8E
09A3
005A
00C1
F910
0289
0683
FE9A
FD4B
FFEE
FFEC
005E
F9BA
0574
0445
08A1
FE45
0026
FEA6
058E
FC6D
FC8E
FDEF
062C
0139
FA6D
02EA
FE10
FB8F
F79F
0175
0660
0296
0426
0732
FF1E
04D1
0014
F95D
02DA
05C9
0762
FD4D
FDAF
03B0
0374
F7D5
0043
F782
0447
F9ED
00BE
0067
05D6
03CC
000A
04B4
03D6
FAA7
0210
FA8D
FD3B
F805
00B0
FC7B
FAD1
0169
FB2D
FF9D
F9BF
009B
036F
0972
FB89
04EA
0624
05DD
FF52
F9B8
015B
065F
0382
FF6B
068F
069C
07C4
FC2C
FC70
F508
FE82
02C6
071F
FB88
FE04
FC36
0228
FD06
FD62
FE37
00A5
FF07
FFA0
015D
01DB
FD76
FD7E
FF15
FCF7
03CA
028B
FD7C
FF25
020D
009C
0124
0236
FF2E
0171
0174
FF6F
FEE7
FB72
0118
0444
01ED
014C
FCCF
017E
0030
0107
FE6B
FD11
0236
FE4A
008C
0122
0176
01DD
FFFA
021D
012B
FD16
FEBD
023C
FC59
00C7
0161
FEBC
FEF4
FD9A
0026
0152
01DD
02EA
004B
FDD3
00CE
02BC
004A
01E0
00FD
0060
0022
FFBE
FE2C
FF06
FD9C
FD6A
0179
00BE
0498
FFDB
FC5E
FDC7
FDFD
FD07
FEA9
FD85
0298
0090
FBF8
FF3A
013F
FDA1
FE60
FD1D
0003
FD5E
FE50
027C
01CB
FD11
FFA0
00A0
0142
00CC
00B2
FE3D
FFFD
FD79
0228
00BC
0069
0230
00DC
FE4D
002B
FFEF
0206
0043
FE98
0013
0274
017C
021E
00FB
FF1B
00D1
0189
FDEB
FFCF
FF06
0118
FE1C
00CE
002C
FEEE
00CE
00D2
FEFD
FFFA
FFB0
0042
FE5A
FF06
00ED
0137
0005
FF32
0075
FE17
FE61
00D0
0195
FF37
010E
010E
0185
FE2B
FF49
FDFF
0237
00B9
FEF6
008C
FD88
FF32
0102
FE4E
FF46
0090
00BE
FF8D
FF3B
FF97
FFEB
FFB5
FFF1
FE7A
0175
01D2
024D
0133
FF82
0182
FFC0
FE40
0026
FFD0
FFB7
FFC0
001C
FFB3
FFD5
0212
FDD7
FEC8
FD12
00BF
01E5
0158
FE5E
FE9F
FDBB
FF31
FFCF
004B
FE93
FEB5
03AF
0270
FDF7
00F8
00E1
FDA3
FD2D
0154
FDA5
02D6
FE37
FAC7
FF6E
FEA3
FD32
FD62
018E
FF39
0157
FF73
FE42
0283
009C
0139
000F
01E7
0179
FD6B
01AE
FF7D
FD68
FE51
FE33
030E
FFB7
00CE
0116
016C
01B1
01E6
011A
03BB
0027
FD3F
FF5A
FF03
0339
FF04
FEB7
01D3
FE0A
FFEB
FF0D
0193
0201
FF00
FCA2
FF88
0072
0035
FE12
0188
0020
FFAD
FEF7
004A
FDDC
FEE4
FD5D
01A4
FE0A
011E
FDF3
FFBD
FF4B
009F
FEC9
FF03
0106
0354
0039
FE82
FEE5
0539
FC96
FC44
FC7E
FFA9
FF48
FEB6
01A9
0039
FF94
FFB0
FF74
FED2
00FB
FF15
00A8
FCF6
FE0A
FEDD
00BB
009B
0163
FFED
FEA9
FF07
FE97
0153
0160
FD87
0066
006F
FFB1
FE4B
00BA
0096
FF97
FE64
0040
FEDF
FE11
FF9D
0068
FFC1
0021
FF4F
FFEB
0167
FE88
0084
FE7B
FFD9
0072
0079
FD6D
FE46
FF10
0259
FF0C
0024
01E7
FDA0
0174
0008
FFBD
0184
FE68
014A
017C
0096
FFF4
FE06
0094
FE69
0128
FFCE
00AE
00B0
01BB
FDDA
FEB9
0220
00F4
014B
023F
FE33
00E0
FE9A
017D
01FD
FF53
0169
FFE7
015E
FEF3
007B
00FB
017A
0257
FD46
019F
008B
FD13
FFCB
0060
012C
FFCE
00D3
004E
FDEB
FE2C
0178
0035
FE6D
FDEC
FB10
010E
FDDA
0116
0022
FFB5
0091
FF7C
FFFC
FC20
00E8
FCCC
FD2D
FE78
0146
0174
FF15
FEB6
FDBA
FAAA
015F
0095
FDD9
010E
01ED
03A5
FD7A
019F
003F
FDAC
033A
008F
003E
FB4A
FDD5
025C
0152
00C5
FE6B
013E
FF8C
00CF
00B9
02BB
0240
FF2E
FFE2
FDB4
FE7C
FFF9
0051
012F
FF78
007D
FE6C
00B6
00EC
01DE
026D
003E
007E
006D
FFB9
0128
030E
0047
00C3
FE94
013F
FD07
FEDA
FEC4
FF37
FF34
F955
FBEE
026E
FEC8
FF13
FF16
0133
025C
FF90
FE0F
FB7A
0749
FACD
0008
FB13
011F
012D
FE16
0174
0308
FDE9
FC98
0091
FF0C
023A
00BF
FDE2
0389
FF52
FAD0
03F1
FD6F
014E
042D
0125
0508
FCE0
FE23
FE08
FFBD
FF07
FE3E
0536
FB09
FFD3
0227
FF81
FF87
00D9
FD4E
016D
FFF0
0165
FDE0
00A0
04E4
FEE7
FD4D
0070
0531
02C6
F812
04F0
01DA
0015
00FC
FB87
0054
0552
008F
FB8F
FBC5
FE6A
011F
0277
FEAF
06BC
0113
036C
FA69
0475
FB76
0139
FC9A
00E5
FDB2
FB23
FD7C
0596
FD43
042F
0323
046F
FFDE
0308
01F8
0132
0301
FF79
0378
FEB3
FD4A
FBD5
0067
FD3F
FDD6
FCA9
FF07
0532
FD38
FDCD
FF26
01D6
FB37
FB77
FB96
FF61
0241
0736
0342
FCFC
FC0E
FBFD
00B7
FDA1
FF09
FCD4
FDBE
FD9E
0128
0279
FD97
FF6E
0309
FEEF
02BF
FED9
025B
027F
FDC5
FC4D
FF2F
0345
FF28
FFD8
0209
0307
0006
FED9
0003
0277
FD25
025F
029A
0228
FF3C
FEDF
016B
FD02
FF2E
0290
FB01
028A
FF43
FE86
FDAC
01C8
01B8
016A
FFDA
0053
FF47
0096
0119
FE62
01FF
FF13
0225
0078
0022
FCF6
0186
FF89
FDF3
0245
FFFE
FFB0
0229
00B9
017E
032F
FE24
FE2B
FEEE
00F8
FFF9
FEEA
FB55
FFF3
01B6
0040
FFC6
FF29
FF4B
FCCB
0066
00F5
013E
FEB1
FFDC
0013
FDC5
045C
FF2C
FEFC
FF16
02A6
013A
01FD
0007
FF40
00DC
FDE3
FFA3
FF5E
01EB
FE8D
FEA8
0117
0417
003E
00C6
FF0C
00AA
00B8
00C0
FD99
00C9
028D
01F9
FEDF
FF40
011C
024C
0006
02CC
0045
FF47
02FB
FD16
00D6
0067
01A6
00C7
FE7D
FE03
FC9D
0214
0005
FEEE
0184
029D
FFD8
FD5B
01A8
001F
01CE
FFCB
FF10
FC76
FE4D
FEBB
0091
02FC
0055
FF69
FFF0
FDC5
0047
00B8
020C
02B9
FF98
FFC6
FFE0
0184
0011
015D
FF9E
FF36
FCE9
0042
01C1
0035
01FC
00C9
FFF0
FEAC
FE85
01E1
FEF0
019D
0161
015F
FE3C
0081
FF18
01F5
FE51
FEE4
FF66
005B
FED0
FD90
FFE9
FFE5
FE83
00F8
FF0E
0239
FCC0
FF29
FEB3
FBC1
0046
FD79
02A2
FF49
055A
01E9
FF7D
03D3
FDC0
0317
FE93
009A
00B6
0740
FDA5
FBB0
0671
FA23
FD38
FCCE
0180
0072
FE35
FE79
FBF8
FA94
01D2
018E
01F7
0802
FF81
07A6
FD4A
0059
0442
FFCD
FE0D
FC06
007E
FE97
0100
FF37
0148
F94C
FF58
04C1
FC94
03B0
FD7B
02F1
F911
FFF4
050D
FEF8
FE26
02AE
FF67
01DF
00DC
FC84
015C
090E
FF21
0484
FE9B
0007
0203
FFA5
00A2
06E6
0602
FCF7
00BE
F98A
0267
FD93
FF43
07A8
01EB
04AE
0123
04FF
FA0D
01E1
010E
015D
0448
FFF3
FFB3
0010
00FC
011C
FD6F
FF1C
FDF9
FA29
0238
FA28
070E
04B5
FF6F
FAED
FE4C
0101
0144
02EE
FF3C
037D
010A
02ED
007C
051A
FFE9
FBBB
FFB6
FE9C
FDC5
F9C3
FEDD
019B
0556
0914
F8B5
FC62
009F
00A8
00BB
FEE5
FF45
00E3
00E8
03FF
013D
FD25
FDC8
01F2
0116
FF81
0170
0374
0821
FDDD
FC9D
04D1
0041
03D5
02EE
03E6
00C8
FE75
04BE
0190
F754
03F2
FAFF
FADC
0190
0262
FFA0
FEA0
00BD
FB18
03D9
0628
FE39
04CA
039B
FDD9
FCDA
031A
FB8C
00AE
012A
FB99
FD11
FC8E
001E
0295
03E9
FEFF
0218
0352
0403
FDBD
FF55
FDD1
0365
FDD9
0121
00BD
FB28
0044
FDC5
018F
05A5
011F
0446
FF1F
FE8D
FF17
FF4D
03F6
00F0
FDD5
0392
0182
FF6F
0209
FF55
017C
016B
04F2
FF29
02DD
FF24
FF91
00DC
FB07
0267
FDCA
FC27
0376
016A
FFFB
FDF6
FC89
FFC9
0095
FAB6
FE10
FE18
074C
FD2B
FBE2
FF66
037E
019B
FC6C
03B6
FEBD
04E5
FEA5
FEC1
FC21
FE8D
04B9
FFEF
FFBF
02F4
0138
FBCE
035A
FC12
FFCE
0127
FFBE
026B
0471
00B4
0112
FE9E
0305
001A
FF20
01A0
FEA3
FFEF
0203
F95D
04E3
0110
FE6B
022A
026E
04B5
0403
FF6C
0202
FEB7
01F0
0327
0110
FCF6
015D
0424
0179
FFE4
FC59
028B
FDA2
FC67
FD64
007B
FFB6
02D9
02ED
0127
F914
FFF1
02D9
FBCF
FDBE
02C0
FC77
0117
004C
FB15
03A6
FC0E
024A
0455
FABF
034D
033E
FED4
FBDD
0362
FD29
F9EB
0689
0154
FED0
0262
FC43
002C
012E
FF2E
FFC9
F8F4
05F1
0084
FE2E
00BC
0091
FCB6
FE02
FD48
06BF
FE4A
FE2A
0534
0242
0339
01AA
FC83
029D
0273
04CA
0643
FCBB
FE83
038A
FBB9
00A3
F816
06FB
FAE1
00E7
FE36
FCD4
0044
FDD3
03C1
02F8
F829
002D
FD17
FE42
00D7
0163
007F
FC95
FEED
FAFF
FEF2
FE3F
FDF9
FBE4
0167
FB15
0031
0271
045E
0233
F94B
0120
0280
FE5A
0088
0415
03E2
037C
FA41
FB5A
F558
FA64
01FF
03FE
0016
FCD4
00EF
FE1B
03EF
0318
FE10
F8C4
FE47
0019
FD42
FFF8
FFE6
FFCD
0818
02A0
FEA7
070F
0396
FDAA
0071
0279
038A
FBA9
003E
FF79
00B0
04DC
FA16
FF98
FD2E
F844
0023
00FB
01C7
FFCA
0075
058E
01EB
0577
FD4D
FFF3
019E
0219
032C
FD54
0332
029F
009E
01D3
FFDA
FEAE
FD9A
FB46
0067
01C5
FFDD
00D8
02E4
0113
FEF5
FA35
FCE2
0075
FE34
00A1
FD2B
0127
0373
01A7
018E
FFF7
FC8E
FCEF
FD50
05CC
001C
02D7
FC60
FF89
FF4B
FD57
FEBF
0195
FAA7
01EF
FE95
0137
03DF
FC8F
FD43
034C
FBAF
0123
FC33
041F
FC87
0328
FE6F
02F8
00FB
04A5
FDE5
FDE4
04FD
0703
020B
FDD6
FD5B
0083
0165
FF2E
FC2A
0469
0415
FA15
FF53
006C
FDBA
01A6
FDDE
01EA
05B9
00FF
FDCE
FCBD
F9B5
0655
FB02
FF63
0186
FEAA
FF0E
01B2
0269
FCCA
FAA6
05EE
FD7A
FBA5
FA4B
0454
FE76
0465
FE9D
FD35
FD76
0432
025A
0375
FDB3
FCAE
06AD
FF24
FE9B
01FC
00DC
F93D
03A6
F962
0256
03E5
0576
FF54
0335
0263
029D
0280
0135
FBD4
FD11
031E
FA4E
FEB6
02E3
0119
04D0
FBC5
FF14
0442
01D0
FDED
FF95
0232
03DF
0088
00B2
FB1E
0340
0424
056F
0493
F7A4
01A3
FFF8
FD1B
0726
FC90
02B5
00AB
0371
FE57
FDDB
FE2E
02D9
01CD
FDC3
0144
007E
FE59
0552
0351
FD57
0297
03C7
01A5
FEE3
0146
FD75
FE13
FA48
0137
FE4A
03B6
0041
02A2
01C7
0245
FC32
00FD
0134
007D
F991
FDE1
007D
02E2
FF81
FF60
00B3
FFFD
030A
01B5
FD31
FB99
028C
FFA4
029F
0233
FFD5
011A
FE47
074F
F823
FEA4
0076
FF4E
FDC5
FF3A
FDB6
00CF
00BC
FDBC
FE72
0638
043A
017A
0039
009D
025D
FBE3
008C
0380
FAFC
FE80
FEF7
FFAC
FFB4
FF96
008A
FD23
0138
02E2
00DF
FEA5
F860
FF3E
0160
FCFA
FCFB
0261
0050
0055
0346
FD94
01E2
FB05
0549
FFFD
0438
FC57
FF3E
02E9
0134
FCE6
0116
FFEB
0424
0147
FCE0
03B8
014A
FCAD
0233
02A6
FDEB
0036
F9FA
FDE7
08A9
F9C4
FEA9
FFBF
FF38
00C5
FE36
FDB4
0399
0399
FD2C
FB52
0005
0032
FB75
006A
02BE
0242
FE3D
0223
01C5
02FC
0454
FE83
00C0
0269
006D
FCE1
FCA1
0118
0164
FD36
0569
FFDB
FF3F
05DD
0190
020F
FFA6
0118
FEEA
FD4E
027D
00B0
FD7B
FBEF
0027
FED5
0005
029A
0420
FE28
FCA8
FDCF
FFC6
0005
0124
FB1B
0144
026D
FFF3
FC65
021C
FFF1
04AB
04D7
FDE9
FB03
FF2E
FC20
FFA1
FF75
0500
00B5
03E6
03AB
0287
FF1F
FB20
FFE3
FF24
02BD
02D1
007F
FF0C
FFEC
009F
FCF6
0069
FF9F
01CF
010F
FDBA
FFE3
003D
02BA
046C
FE35
FF6C
0144
FE6A
00FA
FBD4
FED9
FDA9
0147
FFCF
FFFB
FD71
FE17
FF23
00B7
FF5C
FB01
00E9
FC3E
FE14
FB92
FF06
0115
FE51
00FC
014C
02C5
0033
01DF
FF51
FDE3
03FF
FC04
FCA3
0097
0059
FFB4
0284
0093
FE26
0219
FEA3
FBEE
FE27
FE7C
FD74
002D
FE5F
005A
FF41
FEB1
FFA9
FE48
FB3B
FD1A
FF40
FE10
FD2D
0361
0214
FD1A
01B7
FB4D
FCEC
0157
0098
FDAC
FC32
0096
00EE
FCE8
FDA6
008C
FFA6
FFF0
F9EF
FE0B
FECC
00E7
FFC8
FED4
FE32
FE58
011B
01CA
01BA
FD7F
004F
0038
04E9
FE1B
005D
0307
FDD1
02BA
001B
FCA0
02D1
FF24
0339
035F
02B7
FFCF
03B9
0063
FF89
FFD5
FEE3
FB2C
FF29
0272
FEF1
01E7
FF16
00B7
FCBF
FF8A
FF99
FF90
0263
01EF
FD46
0150
F942
04A7
F86A
FE52
FEC5
03BB
0098
FD10
FD98
FED0
00C1
01F4
FED7
FFC3
021B
01CB
FE8E
FE58
FEB6
FFEC
FC62
FD4B
022C
FF26
FECA
02B4
0122
FE3C
FDBB
FE55
00C8
006F
00E4
FE96
00EF
FCD1
0107
00ED
0262
FE68
FF55
FEE2
016F
019C
FEE0
FEA5
FF5E
FF35
FC0A
006D
01DC
0244
FDC7
0164
0292
013D
FD40
FD69
FAD4
F829
FF1D
024C
015D
0379
003C
0229
F88C
F716
03D2
FCDA
00CD
058C
04C7
FF5B
017F
01FE
0380
0489
032A
0143
0002
F690
FA58
047E
005B
FDA7
FEAB
FE52
FEFE
03CD
FE2B
FE20
036F
FFA8
FFD3
01BF
FF28
FCDC
038C
FF3B
01EC
FED9
FBAA
FFAD
0252
0364
01F3
FD8A
0716
FFB1
F9BF
037D
039C
F91C
010B
0139
F8A3
018A
FD6E
0748
FF96
FE0A
FE52
0028
03DA
FE51
0547
0409
FB40
FCDB
0395
FFD4
FCA4
FE66
F7C6
07F6
FDB3
FC0E
FB13
FF82
FCD0
FEE0
FD82
FEF6
003F
03E2
F7EC
FF1C
FEAA
FA95
00C1
00E1
037E
02B5
FF72
015E
0325
FDC8
FEC2
0087
0254
FC03
0025
FE7C
00B1
FDBB
020D
018B
FF88
0074
FB11
01E6
FE5C
FC57
F846
FE84
063B
F6FD
021E
00EE
FA9D
0279
FB64
045D
01E1
0056
FD94
FEC5
FB9F
0331
FE38
FC46
01B3
0206
0081
0174
FF94
01A1
FC0D
FFE7
FF18
FCAB
022F
0002
03DB
015E
01D5
046F
FC41
FEE3
04E7
050A
FF16
FEF0
01F2
012F
FC2D
FFDC
FEC8
F879
F949
FF35
FBCF
022C
04FA
002E
04DC
025E
FA8D
0378
0301
FAD3
FB19
01E1
FD1F
FFD7
01B7
FFCD
FD7F
FB53
FE9A
074A
04AD
FED9
0011
0150
03E2
FDC3
FC21
FE7B
0284
04E5
0137
01AE
FF86
02C9
FE79
0268
04F5
01F6
FDFB
01A6
FFFF
FC81
FA6E
00EE
FCBD
FFC5
FD13
00FF
03EB
FDC7
01C6
01DE
004B
0034
00FB
FF1B
FFFC
FE4D
FAAB
FFE8
037F
FDC6
031D
0053
0176
016F
FF57
FF9A
0197
FE85
FC86
0189
0108
0114
FF70
02D4
057C
FC7E
FF09
027A
02E8
FC68
FCDC
009C
FF91
FF82
06DC
02FC
0000
FF2F
00D5
FEF7
0154
040C
01FC
01EA
FD65
FB6D
FD01
FDB8
0066
0210
004B
FD4F
0094
FD95
001C
0307
0946
FF1A
FF74
FDEE
0021
00BD
0122
00D6
01E8
FF61
FCBC
FE94
FFAD
FFD1
007A
FE49
0276
02BF
00EF
FC6D
FAEF
04B6
021B
00C5
FB2E
FC56
FEC7
FD4D
FE33
024C
00D2
FE13
FC75
0164
FB59
0094
00B3
02AD
FECD
FB07
005F
FCEA
027B
0581
FD8F
022A
FDE7
FD8B
FE05
0091
FF52
FEDA
00AE
FE1B
01D9
FEEC
0179
FFBC
FBF9
FE42
FE8F
FFED
0235
010C
FF3A
0814
00B9
FCE6
0178
0046
FE84
FBB4
FEE3
006C
FD39
01C2
FC38
FF41
0078
0296
FEA9
0237
FEC1
FFDB
03E0
FC17
03E7
0045
01C2
FB9A
FF80
FEE9
0202
FF76
02E4
0182
FEC9
FDFA
0200
014B
0590
0036
0206
019D
FEFB
0173
044E
030F
013E
FF63
FCBA
0312
00AF
0106
FD7A
FF2E
0231
0281
005E
FF0C
FF91
FD43
014E
FE92
FE9C
FF02
FF9D
FE9F
03A7
0016
FF57
005D
0084
FD29
00ED
0225
FD9F
F958
0117
FF31
00A2
FB27
021D
0017
FD4B
FE4D
FE30
0467
000C
01E3
01DD
01D1
FCA8
FFB8
036D
0412
FE1A
057F
00F9
0116
FE39
01F3
0214
FEFF
0195
0027
02F6
024F
FC34
0266
0007
FEA3
0489
0606
0460
023E
006B
FE87
FB04
FD94
0018
00DB
FD96
0245
FF0F
FD25
0296
01AA
FDBA
01EA
F9CA
FEEA
0333
FBD9
0113
00DF
0472
01DC
FE0D
021A
0032
FC75
FD3C
007F
FB43
04D0
FD92
FA75
08C4
0291
FFC7
05B3
0110
0080
02FC
0280
FBD1
FF4A
FF34
0297
013C
02DC
FDA9
FEAD
FF8C
004A
0056
037D
FF72
F95C
FF2B
0259
05DE
FDE5
FFB3
FED4
FFCF
02B3
00ED
0062
FCC4
0265
FB0D
FB30
0256
FF8D
FE78
FEF6
FBC1
FDBF
0164
F954
FB6A
FEA3
FD8A
FB42
03B7
FECE
FE3B
00C6
017F
FD85
009E
FB04
FF2C
FE79
FEF3
FFB6
FF90
0801
FABA
FFFC
FFF8
FD83
018A
02C9
04AC
04B5
FE0F
027D
FEB1
0106
04E9
FD07
FF3C
01BA
FBB8
030F
FEEC
FDE8
F8E1
03E1
FECA
FA22
00F3
0038
00B3
03E9
FADE
FFF4
036F
FF35
FF06
0382
0034
020E
FFE5
FBA3
FFC2
0198
F954
FD5E
FFE8
FEC6
FD74
037E
FF41
04CB
FC2A
FE21
01FF
FAE1
039E
000D
02DA
01FE
FD3D
0434
00B5
0104
FEAD
FF1B
FFC7
FFDB
00EC
0102
002E
00F5
FF75
FF93
FDFE
FFA7
FF43
015A
0167
00B0
FF41
FE2D
FEA3
01BC
FF5D
035B
01DD
0149
FE88
FF64
0162
01B8
015C
FDAD
FEA1
0407
FE83
FBD8
002C
00D2
027F
FE8E
0204
034C
FC44
FE91
0158
0087
01EF
FFEE
FE78
FE5A
FC16
FD84
FEB7
FF43
FE27
05A6
FCD3
0291
0317
015E
0382
FEBD
FECF
FD18
01E3
FFE6
FE99
FF70
FF9A
00B4
0015
00E4
FB03
FD9A
FD1A
00DF
FB1F
FE9B
FCFE
FCF3
00F1
032D
FF09
FEA3
FDA2
0133
0252
0108
0055
FE43
00A7
0458
FF79
FE4A
FB9F
FDFF
FFBB
014C
015C
028E
FEEB
0104
02F2
044B
0223
0277
0161
FEE3
0006
00AC
0123
007D
00BF
021D
00A0
FE6E
0173
00B8
FF24
0166
00C6
013C
02A0
FF61
FD6F
FDFC
01DC
FED3
014F
FE6D
030A
0017
023D
FE31
0142
01A2
FEF0
0250
FDB3
FF90
0000
FB75
FEC4
FC11
FFB2
FD13
FFB8
0133
FE8F
FDF5
FE9E
0244
FF2A
FF52
0214
009E
FF59
005E
FF08
FEF4
FEDC
FF15
FDEB
001E
0117
FF10
FD7D
008C
FE4D
FE05
FEFE
008D
0111
001E
FEE7
FF98
01FB
005C
0169
0036
FD6C
0146
FF01
0152
FF3C
0180
012D
FFFD
FF90
009B
0073
00DE
01F3
FEB1
FFB4
00F2
FFB7
01BB
FFFD
0204
FFF4
FDD2
0072
004E
04C7
0054
0050
FE95
FD9F
FCF8
04A3
00BE
032E
000B
FE39
FD17
036B
FEA9
0052
0165
FE59
FE30
FEFB
FE2B
022C
F9E2
00EC
FF56
015B
00DC
FE0B
FC0A
FD3C
FFEB
0272
FDD6
FF0B
FFC6
0076
FE57
FBB2
0024
FCAD
02BF
00BE
FDFB
FD75
03C4
0023
0047
0364
FEA7
FE8A
025F
FD7C
FD5C
0088
0391
064D
FC91
0018
0337
FDE0
023B
00DD
004E
FEF6
00E1
0165
03BC
FF29
0078
0182
FD4B
FE38
FFD1
F96D
FFFD
0215
FCF7
006E
FE2E
FC75
FF33
FEFA
0130
FF4F
01BA
002E
FFAF
FE2B
0539
0331
FF41
FDCF
FDE3
02A1
018F
FE7E
FF77
FDA8
FF5D
0030
0117
FF63
0257
01DA
FB8F
05A5
039B
02FD
03A5
FB7F
0244
0089
FD29
0125
FE4E
0397
0117
FD93
FD3F
02C3
FF33
FD8F
0056
03D6
00F4
020F
FB0F
FA37
042A
FB25
FBEE
FB48
00CC
FF28
F971
031A
FD6C
FBB8
065B
F67F
071E
F885
043C
0206
06D6
0620
FFD2
FA18
0426
03A2
FF4F
059F
FB4E
02EB
0691
0123
031E
FD1B
01A1
F9AB
FF96
012D
FDFC
01EE
FFBB
04F7
02E0
FC69
017C
FD42
FC4E
00AC
05A4
FDF9
FFC4
FFED
FE7D
0218
FCB0
FEB9
FB40
FEEC
FCBF
FEE3
0251
FFB4
0167
FBC3
FE32
02CD
FEFD
0170
01B5
07C8
0594
FB6D
F7A9
FB09
F70B
006F
023C
01E2
FE1E
0185
FD3D
0166
FE82
FE29
02E6
00D3
017F
FEB1
FE43
FEDB
0110
0207
0073
FCC1
FF30
01E5
FE50
0034
015E
011D
FD78
0089
0158
FD68
FBF8
FE8A
009D
01AD
FFA2
FE27
FE96
0120
0099
01FF
01C9
FF16
0080
FD78
0142
009F
0002
FD27
FDDA
FED0
0002
0178
0033
000D
FE90
012A
FD9D
FF3F
FECD
FEDB
FF3B
FFF9
01B7
FDA9
0081
FC76
01C6
00A9
FFA8
00D4
FFC2
01CA
006C
FE7C
0196
FDF4
00D1
014D
0216
FEAC
FFB1
024B
FE02
FFCC
01B6
0028
005A
0001
0340
0033
FFDB
FE9C
0098
FF9F
01FF
FE08
FFDC
FF6B
FFE7
FE68
FE7B
004C
FD55
FC00
0163
FEC7
FB84
02CA
0044
0169
02ED
FBBD
01E8
0166
0057
FB26
00ED
0127
FFBF
FF36
FF11
0150
0159
FEEC
0077
01FE
0173
FB84
FCE2
FC7A
004F
FE89
FC22
0016
006C
FF8D
FDBB
045A
FDCF
FDE8
0225
FD8E
02A5
FDB8
0357
0040
00D4
0043
FB71
FDE9
FFE9
0386
03E6
013F
FE86
0117
03B5
0015
0478
FD0C
FDED
FEA7
FD27
0251
010A
02F0
FC3E
0069
0026
FD47
007A
0023
FDBB
FD47
0130
FC58
FF96
024C
FDF4
02EF
FD0B
FE10
00E8
026A
FF76
0204
0104
038C
FB9C
FF02
FF63
0049
02FF
0063
FFFC
0043
04C5
000E
FF2F
FDA3
FC8E
0009
01A9
03AA
FC25
010C
FEF0
FE5F
FE9A
0438
0148
FCAD
00D3
FEFA
0219
00C0
0212
FD72
02F3
FD13
FD32
002A
FF5C
FCDB
030D
00BC
FF32
006B
FA2F
0267
FA2A
FDE6
FDA0
FE27
00FD
FDD7
FE90
02E8
FF26
00E6
FEAF
01F0
01B3
003D
0464
0012
FE02
FE96
FDD8
028D
0147
FB29
04F0
02CF
FFBF
04C1
FA23
FC45
022F
FD70
00A4
FE69
04D0
FECE
FA20
FE86
043B
01F0
01AA
FEDE
FFB3
000F
04CA
04FB
04AE
03DE
0226
021C
FFF4
FF8A
0116
FB0C
0AFE
05F1
002C
01BB
025D
FC61
02B4
00AE
FF31
FB07
055E
FF21
055E
022D
02CC
FFEA
FE08
FD29
FCDE
02BC
01CD
FE5B
0480
FF7A
FB93
03CD
00EB
04AD
037B
FEE0
05D5
02C2
FE7D
FC39
02D3
0154
01D1
FF60
FE46
037D
FCC1
FEDB
035C
FFEA
037B
FC88
FD68
FF21
0017
FF77
FC8B
FF8B
01AB
FCB6
FF53
0426
0014
FEF6
FE92
00F3
FFC1
FD45
02C5
0524
01F1
02E4
FD35
FEF4
03CA
0499
012E
02B5
FDF3
0269
00A5
FC1F
01EA
FEDF
FBC0
FF38
0114
03C9
0266
00A7
FC42
02E9
02F8
FEC7
0377
00E4
FD9D
FD1B
FFE6
FDFC
FF51
0384
FD63
01AE
FEAF
FEE8
003C
0566
FD99
057A
038E
0251
FBA7
FD94
FD37
017B
0263
0130
043D
03A9
00F4
FEA9
004F
FAF5
004B
02AD
01C4
02AF
0099
FDF4
FC88
01B7
0130
0622
FFE0
024B
FFE8
0301
FFC3
0276
FE8F
FE52
0129
FEF1
0118
0241
FC06
00CE
00F7
0114
0199
009C
FF58
FF6C
FFEC
FE82
007C
00ED
FA13
015F
FFBE
01FD
FED3
02A3
0231
FE17
03B8
0388
0293
FDFE
FF31
FDB1
FBB1
FE87
FEED
FC11
FD1D
0052
FC9A
004E
021A
042E
03AE
0026
0191
04B4
0061
FF5A
FEF2
FD4A
05A7
00CF
FD3D
FB67
011A
FA58
031A
00C3
FE18
026F
0051
0102
0568
010C
FD22
FC87
02F0
FED8
00F6
0244
01B4
0160
FDCD
FD42
002B
008D
01B4
FA7B
FF6F
FB18
0049
FFAF
0112
00BB
FC6C
FF12
00DC
0489
0395
FB4C
FD8C
FF4F
FFC9
0063
FA57
FDD2
0130
00C6
087A
04E3
FDC2
0095
0351
FBA2
FA5D
0252
FF4D
FE70
0263
FF94
FDED
024E
FFA5
01E6
FC7C
0363
0232
F7BF
06A0
0259
04DE
0185
FB29
0085
FBE8
FEDB
FDFC
003D
00A9
0376
FF9A
FD24
02B9
000D
0213
00E7
FFC5
0398
FFD3
FFAC
FE44
FF95
016D
FA4A
028B
FF26
FFF4
00E9
FB5E
00AD
000D
FEAC
FEDC
FBB6
FEAB
08C5
FCF8
01EB
0082
FF30
FBD8
0034
FBF7
FD5B
0131
FFEC
0155
006E
FE4C
00B0
FF42
FFC6
0129
FC2D
FD75
0102
FCB5
0076
0229
FE73
FDDF
FDC7
FB02
F9ED
0141
0302
01AB
0290
003F
FF52
FF88
FB6E
FD99
0042
FE73
00FD
FD4B
0163
FAED
007A
0108
03A8
003A
FE2B
0215
00E7
0073
0191
04C9
01CA
FE42
FD0A
0211
0191
FAE4
FFDD
FEE9
FE80
FFA8
FE12
0358
FD68
FE0A
0218
FBAE
00F0
FE8F
05E7
FCF4
FEC5
FC5B
FD3E
FCD7
0170
FF67
FC08
FE60
0037
FF48
FF07
005C
FF5C
FF69
02D7
FE0E
00B8
FEBB
0072
0367
FFD8
FD56
02DC
FC8C
FD39
FB58
FFFE
FE02
FEB3
FFDB
FF12
FAD1
FF1D
01F9
FC97
01FC
FECE
0269
FBC4
0586
FADB
0195
02E3
FCE5
008B
043F
0232
FF97
FE99
036C
F8E2
0583
FD3A
FE24
030C
FD13
01B0
FDED
01E4
0401
FB65
FCEF
00D4
FF6F
0052
FBEF
FD66
0291
003A
07AB
FEE5
0087
0516
01E1
FC95
F995
FF6C
FD43
FF25
04A4
FFC9
0280
FB68
FD08
FF08
00FC
FE00
FFE5
F6E3
0686
FD8E
02FF
02DA
F8B0
FFB7
FEC4
FE02
FED9
0185
0223
02EC
FFD5
0082
00AE
FDAC
0390
02A8
05DB
0291
FC3A
02A4
FF1D
FA36
01C8
F91E
0173
F9DD
FCA6
0147
0261
FDF9
00B8
039E
015F
FBE5
FF6D
01AE
F9ED
00B3
00DE
FD8A
F696
0347
FEC0
FF5A
FCE1
FFE5
FEC0
05A5
FE25
FF31
FE85
05DE
0271
FDA5
FDC9
03AB
04B8
024C
01CF
FEEA
0048
F8C4
FB30
F8D1
FB30
04FE
0967
FE83
FE8D
FED2
FD03
026B
0086
FEF9
0237
01C6
0147
FE2C
002C
0023
FF21
02B7
FF32
FFFB
01CB
01E7
FF8A
0049
FF6B
0012
FE62
FDD1
FD2B
00E3
01C9
FF2D
0163
0148
0080
0132
FDFB
0104
FEAF
FF4F
0157
FFAD
00D8
FEF1
018B
0158
FD8E
FD44
FE40
FF80
0163
000A
0160
FFA4
00C5
0000
FE56
004E
0075
0112
00FA
00DC
FEB0
FEEE
FD71
00D5
0056
FEEE
FFB7
FE4E
00BE
0055
021F
FECD
0204
0079
FF95
01AF
00FA
FF37
FE06
0132
0128
004F
FEE9
FE1A
FF44
0068
FF7E
0048
00F8
FF26
00C6
0070
00D4
FEE3
00E7
FFF4
FFFD
0085
FFD4
FEA0
FF97
FE00
034A
FCA3
FB46
028E
0250
0097
0067
FDC2
0326
0296
FFE9
FF66
01E7
01D6
FD8B
FDEE
FE45
027C
00E5
FCBE
031E
01B3
01AC
FEA7
FC08
FE8D
02B4
FEB3
FC8A
FE0E
0236
FECB
005F
00C7
FEFD
FD9D
0179
FF47
01CF
FF2F
00AE
007C
02E8
FFA1
00C2
FD9E
03C8
00ED
00CD
0123
FD2E
FFB7
031F
FF5A
0081
FCC2
FEB1
FDF0
FBA2
01CB
FF60
0038
FE3F
0312
00C9
FF8E
0232
0085
FC7D
FDFE
033C
0061
FF2B
007E
FDB1
030A
FEF1
FEA3
004C
0165
FDE2
0218
00E1
0444
FFFD
FD88
FF2E
005F
0045
03BD
03A0
FECC
047F
FE36
FF92
FE1F
FD39
0245
00FB
FB1D
F6A4
0043
FF9A
FD64
FDD7
FAD5
04AA
FF1B
FEBF
01C2
012A
FDB8
FFE0
FE31
0167
0577
FCC8
FB8F
FF5F
0691
FA3B
FC34
01C1
FFA7
03AB
014B
FF6E
0355
01F2
FD8E
0119
045B
0075
FECD
03E2
FFB3
FF13
FAC9
FAA8
00D0
FC69
013F
044A
017F
0172
FD43
05B9
03A1
011B
FA96
FEB8
FD87
06DD
00E4
FC1B
FDB8
FDD6
FC9B
0113
031D
FEFF
0260
FBF2
0020
027E
0679
FE02
0495
F993
FC10
FFD8
FCB2
FCF1
FD60
F696
01D1
000B
0136
FE7F
FF08
FC47
FE48
FD1A
03DB
FDCB
033B
0118
FDAE
FFC4
0934
FACA
0124
FF57
01FE
FF01
FEEC
0440
0118
FB48
F822
01A4
02A1
FB0B
01DF
0514
0425
FE00
FC49
012F
03A1
0014
0022
08B4
FC87
0077
FD26
FD0E
02DC
01EA
FCD6
FCFC
01FB
0294
FE17
0006
0074
05D0
FAC2
FC38
0203
FF91
FF30
004E
06AF
0150
FF8D
FEF2
FFA8
0253
01EC
02D4
FFD1
01CA
FCA3
F700
FD52
038F
FF3D
FC75
04E7
FDCD
02F3
00FD
05D2
002C
01C8
031E
00AA
FB59
08CA
035F
0118
FD27
0029
004C
037B
03B8
0161
0093
02A9
FECF
FDF5
FEE1
0212
FBEC
01CD
013C
FE0B
F99A
0039
FF71
0530
01BD
007D
FE09
0117
FB91
001A
007B
0675
00F0
FF2B
03C1
0298
0197
FFB9
00CB
FFB1
FFD7
FDDA
FF70
FCBC
0021
0012
FFF4
FDBD
FDE0
FFD3
FFA7
FF97
FE0E
0071
FF70
FE71
FDD6
0110
0097
FEEF
0127
01B6
FE17
FFA9
01B2
03C6
023F
FECA
004D
FF5B
FC7D
FEC0
03B5
02DF
00DB
0024
01F6
FF6A
00B4
FF5E
FE53
0040
FD16
FE78
026B
FE85
025D
FF34
02DF
02F4
FED3
FF8E
FF6E
01D4
0172
00EF
00D7
FEBB
0114
0145
FFEB
009F
FFDC
0051
FD1D
FB9A
01F4
021E
FF1F
0160
0103
FFFC
FD86
01A1
00F2
0062
FFE4
FFA1
FFC8
0229
FD3E
FCF1
FFC8
FDE7
FF77
FDEC
0172
0092
FE10
FD8F
FD1C
0432
FE36
FD02
01EA
0143
00C1
00D3
00E4
FF94
FD13
FE85
FDDD
005B
0156
FE32
0116
FF1A
0074
FEB1
FF46
FE46
FE60
FE89
FF48
FDB0
022D
00E0
FEDF
FDFA
026A
FFF8
00D4
FE05
FF5B
0138
0230
00F4
00BE
FF9F
01DD
FF32
FE19
017C
0214
FF35
006D
FFF7
FEDA
0021
FEF6
024A
FE56
009B
FE5F
00CD
FFEF
01AD
FD5D
FDDD
FE6F
FDDF
0190
FF06
FDE4
01AB
FF80
0256
015F
00B8
0084
0046
FF75
0141
022D
0193
00C5
0265
FF7C
0034
FEA5
002F
0002
01F3
0004
0143
01EB
0261
007C
FE47
0022
FE45
0234
FFF0
FD67
009F
FDCD
FFE9
FE5E
FD9D
0045
0045
FEE1
0129
002D
FFBB
0264
00C0
FF01
FF85
0098
03C3
FD32
FD58
FADC
023D
00A0
01CB
0159
00CE
02F4
FFE5
03AC
FD0F
033B
FF54
0293
FDE5
0088
013A
FF7A
FA97
002A
FD58
0087
0126
F9D2
FD5B
01A2
FD22
0156
FE7D
FD48
FE25
FFD0
044C
FEB8
0064
FD0D
FFAC
030C
FF04
FFE5
00C8
FEE0
03D9
0166
01D8
0987
FDF7
016A
0244
006C
0581
F77E
FF10
F9F2
0189
0330
008E
0799
FEB2
FF19
0147
0129
03FD
F92C
FF3A
0225
FEF4
FC3B
FC57
0321
0522
FE60
0275
042D
FE2D
0009
F9D6
FFBC
FCA4
001E
01C6
FEA6
0883
01E3
FBDA
010B
FA72
029F
FE30
010A
FEF6
0254
FED2
0051
00DE
FEE9
0320
0150
0305
01AC
004A
FB79
000E
027F
029E
0529
FEE6
026B
FEF2
FE24
0462
0453
FD58
0110
F8E9
0048
0201
F9A8
FD4B
FDE0
02F1
00A8
FED8
FBB8
FF0B
0365
FE93
FD7E
00CF
FE99
0047
FB93
0453
FE0E
FEBB
06A1
0114
FF8C
0246
FFE8
FEF1
0205
FBAB
FDC8
0035
041B
FE97
FD65
08F9
FE4A
0175
0384
010F
017D
FFE2
0312
0271
FEE6
048E
FCDF
0275
FC4D
00EE
021A
FEEA
042B
019B
FF6B
01AF
0211
FE2E
03C5
FF5E
F9DA
02AA
FDA8
FF2A
F959
FDF7
FEE9
03D3
0283
0106
00B7
0048
FE7A
0142
F9DA
03F9
0229
FF6D
0400
FF11
FD72
0463
FF05
FC95
FB1F
FE48
012B
FF69
FECF
FE10
001A
FC66
FE7C
0414
00DD
01DC
FF31
FF3E
FCDD
FF8B
FFE8
03CA
007F
FC6B
015E
00BE
FC3F
FF25
024F
0187
FE2C
FE52
FEFC
03CA
FEE4
FD56
022D
FE58
00A1
FCEB
0121
FFA0
014F
FE41
FDAE
00DF
FDD3
FEB6
FFA7
FEC5
01E3
FFCF
FF39
0262
FFFB
FD3E
FE52
FE36
0201
FFAA
0192
007C
FE9C
01A9
FD48
026C
0230
0135
FCBB
FE69
FFB3
FEEA
FE4D
003A
FEED
0109
0057
FE3B
FF9A
FF2A
FE4C
0176
FFD2
01C3
FF1A
FE52
0142
FB4E
FF61
FFCF
FF44
0116
0252
0026
FC5B
0078
FD46
FEF9
FFA3
0171
FED0
0004
0016
FFD0
FEB5
0012
FD5B
FF14
0232
0132
FE76
011A
FF5C
0249
FF55
0045
01A5
FF07
FF8B
0219
FF53
023D
FF6D
FDC3
0066
FEE0
0077
FED9
FFCF
0064
FEF8
0275
00D8
0068
0006
0194
0175
FFB3
022C
FDBD
FF11
FEA7
0007
0215
FEB4
FFC9
001A
FEDB
FECA
FEDB
0149
02B8
FCDE
001A
01D5
FEB9
0339
FFC0
FF24
0153
FEEC
0099
00D1
FEC2
00F5
0205
FF09
0014
022D
019F
FD87
FFA6
FDEA
005D
00C9
FF05
FEB9
FEF5
FF91
01A7
0185
FF36
FFC1
FF78
0212
000E
FF94
FEF1
FDAA
FDE5
FE21
007D
0154
FF26
FF09
FD90
FE87
FE3A
FD01
011E
022D
0193
02AC
01C4
010B
0542
FB5E
0277
FF5C
FD17
01CF
015F
032A
FE8D
02BE
0098
FDC0
01AD
0173
FEF7
0539
FD6B
FDD3
FD93
FE0B
FB1E
03A5
045F
FC6B
FFE8
FDC4
02B5
FCEE
FEE8
00B0
0568
FDEF
FEA5
0134
FB9E
00A3
00F1
FC01
0402
FE98
FCFD
0431
0071
FE61
0030
FF07
FCB5
FC6C
FE0E
055B
0151
0019
03E2
FFA7
FADC
0261
FAC2
038D
00B8
0289
FFEE
F8F8
0024
0432
03AB
FD82
F966
FC8F
03A9
FDEC
0364
01E9
02FB
FF0C
0083
FDC9
FDFF
03B1
FC2D
0561
055F
0064
FEBB
029C
F90B
026E
FF4D
00FA
FFCF
015D
0345
054F
051B
035A
FDDB
FD6C
014C
FAC6
00DD
0372
02AB
00FE
0041
FB73
0140
02DE
0046
03D0
FDDA
0451
037D
FB4D
F9B9
0314
022F
FB6C
FE94
005C
FF3E
FC11
FEE6
00AD
FF20
01E1
F93C
FDEF
FBB6
03B6
FD2C
FD8B
02EA
FD51
FF88
FB75
0108
FDF1
FCE8
057A
FCEE
02CB
FBB5
02E4
01BE
037C
074C
0056
0090
0255
018D
0204
FFE9
FD6C
011C
0023
F9CD
0524
007D
F73F
FAB6
FDC6
0356
04A1
0541
FB84
03E1
0324
FB49
044F
01BE
FE9D
F7A2
05B4
0009
0015
FF7C
FDA2
0366
F9FE
FC53
0133
FF40
FEFF
0555
0489
0426
FAED
FCA8
FE47
0077
FD91
0475
0232
0328
03C9
FDD7
019E
040D
010C
0075
FDFB
018D
FD7C
FC50
FE78
002B
00A4
0172
01D6
FE18
FF6F
FF70
FDF3
042F
FC17
0AED
03C8
FFAE
FFB8
FCEA
F8FE
FD5D
0229
03C8
FDC5
FDBA
FF1A
020D
FDCC
025A
010A
0632
02CC
FF83
FF2C
FF2F
FD77
0179
FBC3
01AB
FD4C
0030
FE17
FF94
FE1F
FCBF
FCA6
0048
FFB5
FCB2
0292
FEDC
FF7A
FCF5
FF93
FEBA
0006
FE64
02F9
FE58
02F5
02EC
0008
0433
044F
0446
008C
FC8C
FC6E
FAB1
FF96
FEC5
0815
FDF1
FA7C
01CE
FCE5
FCF1
00BB
FFAC
012B
03CB
FF98
00E5
0373
00E0
003D
003A
FDE1
0064
06D0
038C
0172
FC5D
0340
FD9C
0234
FC88
FC67
004B
FD62
0363
02A7
FCCF
FE53
0320
030D
00F5
FBC5
FEE4
02C4
FFC0
02BA
FA55
034A
0518
FD0A
FF62
FC69
00E0
FDCD
FFB5
0185
029A
039D
FB48
FE41
FB86
FFC1
FCE5
003D
FFDF
035A
00AB
056D
0410
F8B3
FD1A
00EA
FCC4
FE70
FE4C
032F
03CF
00AE
0058
0067
FED9
03D3
0226
082E
FFBF
008D
05DE
FF36
FA22
02B2
FD98
FC60
FE79
FD44
0353
02E2
0212
0095
014F
03D9
00B9
025B
0314
FDA6
FF71
0262
FD0F
FC2B
0498
0149
FFCE
FB7A
FF99
025F
070A
FC82
FFD2
014B
089E
027E
FE4C
FE25
0222
026E
FF93
036B
FC37
FFD1
FDDD
FECB
0184
001A
0820
01D5
04EE
FF33
FECC
FDE3
0059
008D
FDDB
0439
FC54
045F
FA3B
FEBA
0434
00CF
01F6
FFB6
FDF3
FCAF
015D
FDCB
0096
02C9
FF73
FE8E
021C
FCEB
00AB
FFFC
0259
011E
00F1
0456
FEDC
0084
0233
FFB0
0096
FC7D
0307
0189
FDB8
00CA
002C
FE45
01A9
FED2
01DC
06BC
F9E1
0180
01A4
0335
0271
FE36
FBC6
FE87
FFB1
016B
0232
05F6
FFAF
FD19
FEE0
0114
01DE
FDD1
0014
FD75
03BC
023A
01E3
0193
02C0
03FC
02B9
000A
009F
FFE3
FB7C
034A
0683
023E
0026
FF34
FEA2
031B
FD88
FE07
FF37
0341
FF6E
05F5
01F6
03BC
012F
FFF1
0020
FB3F
00EF
F9D4
FFD0
025C
FED7
FF5B
FEC3
03D8
0335
050D
FCB9
0086
000A
FDA6
006F
02B0
0109
FE4F
FCD8
0000
FF68
FF3D
FFCC
FD2F
0151
02BF
FE5E
FE60
FC9C
005C
007A
FC55
FF38
017C
FEC5
FEC2
02C4
014B
FD98
004D
01E1
03CF
03D7
02FA
00FA
0172
0112
FE34
0073
FF8B
FFEC
00F3
0261
018C
02DA
0031
FEAB
0008
00B5
02FB
FD9C
00E7
01EF
00EA
002B
FC5C
023F
03A2
FD51
01D4
FF60
FF04
0085
01BC
FDF7
019D
FDD9
FB86
0316
FF9E
FE1E
FD4F
FF33
FEF6
0229
01B6
0113
FD3D
FE07
FD31
FFBC
FF4E
02A2
FE88
0339
0002
0159
FE8E
FD9A
FEE1
01D8
0059
05B6
0156
05CC
FCDD
029B
055D
041A
FB7B
FED6
0467
FBFA
FFB7
0426
0415
FE51
008E
FCD6
0457
FE80
FD94
FDB4
028D
02E5
FBC5
FD8A
FB87
FDAD
00C2
FDB8
0081
01E1
FFCF
FDC9
FB7C
0386
FB4E
FE8D
FEBB
04CA
083A
FF53
029E
FE16
FE55
FCF9
FCE2
0560
03AB
F9DA
0435
00FE
FF0E
0481
FD63
F9CF
001C
0093
042F
04B6
0442
FAF4
FB6A
FCA4
00E5
FE30
FB4A
FE08
FC4E
FFBF
008B
0209
02F6
0666
0180
014A
020A
FC4E
FE32
FA03
025D
08B3
02C7
03E7
0223
FE53
01C3
0197
FE0F
FC61
036A
FDEA
0454
FDB9
04F0
0115
0171
FF2B
FEFB
FD8C
029B
FECB
0297
FFF6
FCAB
0362
00AE
0024
FE21
FFAC
02A3
02EB
03EF
FE77
03C7
0235
FEBD
00DD
FD7A
00CE
0083
FF2B
0212
FFEE
06AA
FDE9
0157
FE7C
00A6
0029
FDE7
FD90
00C7
FF32
023C
03C4
0193
FCC0
FC16
FFC7
013B
0159
0105
049C
FF38
02E9
FE29
FC9D
02D6
0408
018B
FE99
FE09
0153
FFB6
FB14
0053
FC8F
FFAA
FFC6
FD05
FF2C
0274
01E3
FEC5
01F9
0269
FF2E
023D
0025
FEE6
FEBC
FF1A
FC45
FE42
03A5
FC40
FE20
FC00
FD62
0659
04DD
FE58
0057
0227
01B6
00B1
FF78
FD73
00C6
0325
027C
0398
FFE0
02BE
0042
FDDC
FDE7
FDAF
034E
0161
053E
040F
FFE2
FFF1
00A7
0085
036C
FD76
FDCD
0199
FDE1
FB76
0078
06BE
03D5
FE46
0106
FE08
021A
FBFF
008A
024B
FF80
0096
01E8
FA3D
FDA1
F9D9
0171
FBF8
FF31
0245
025D
0127
015D
FE47
FE3F
FEEA
0227
0661
02E9
00F5
FEBD
FC9C
01AC
FBF6
01D1
046D
FB77
04E4
0425
01E2
048D
FB15
0127
FF71
01B1
0287
005D
05C6
FE82
FC90
FCA4
03B0
FCEA
00A1
00EA
FEBF
0340
0302
FE59
05B1
049D
054A
0418
039B
0065
FE73
FB1E
041D
06DD
FFF2
01FF
022C
FDC2
FDC2
F925
FCA8
011E
0387
FE04
0496
FDC0
0438
033D
FD48
FD16
FCC3
018A
FA01
FFD8
FFC1
00E0
FEE2
000D
02B5
FD1E
04D0
FCA6
00E6
FE02
007F
04D6
0307
008E
FE59
FC4D
FFE1
FBD1
F995
FE62
FCD7
FE1E
FF3D
037F
FB17
FFC9
FEFD
0294
FDA7
018F
FF18
FEE7
FE41
FE6A
FFED
FF05
0385
FF57
0544
009E
0245
FFF7
FF19
022F
0347
027D
0348
0000
0198
015B
02B0
FF6D
01A9
0065
03AE
011D
00D2
0011
049A
0194
FC8D
023A
FE8A
FE23
0006
FF0C
FF57
0205
0167
FEF0
03B9
0252
0350
FE2D
FC7C
FF86
001E
FBCF
FEBE
FBF8
FE26
00E8
00BB
FFBD
FFBA
FE72
FBD6
FFC1
F8DA
035B
FE6C
07ED
001F
FE62
FF71
007B
02A3
017B
FE3B
0194
FDC1
FE3C
007F
FC0E
FBBB
FFCE
02DF
01B1
FF17
0195
008F
FE83
FED8
FF26
FAFE
00F1
FFE9
FC26
0360
FEF7
FE21
FDE3
FF56
01F3
007B
FD49
025D
0077
FBAF
FF4B
01F4
02B2
FDF7
005D
015E
05FD
FF8C
FC73
FFC8
FF59
0018
FE06
FDD9
FF3D
FF5A
026C
FFE1
0005
FEE9
01FA
03B0
027B
050C
03DB
FE46
FE92
011F
FCDB
FE92
FD0B
0033
0091
FDB4
0166
FF15
0214
02EE
061A
0112
010D
FDC7
00B6
0181
FF7E
01C2
0247
011E
FFC3
FDC0
0147
0099
018A
0067
FDD9
023C
FF14
FFC3
FC4B
FE25
03C4
FF54
FD18
0011
FFFC
FE1C
FFFE
0009
00AB
FE42
FCF3
FF5E
0237
006D
0015
FF8F
FFEA
00CA
FE7D
FD91
FF1F
FED3
FF5F
0104
0031
FE4F
03FA
01FF
FD03
0283
0299
00AC
0059
021D
FDE4
FDB5
FD5F
01CC
FF94
FDEE
FF49
01BD
0269
01FB
01FC
0026
FFCA
FF3E
0011
01EC
00F8
020B
016B
FDEE
021A
0158
00D1
FEDA
0083
FEAF
FFA6
02ED
FF16
FD3B
01F2
00C1
0287
FD5F
0008
00EA
0088
00F8
FF28
02D1
FF6C
01C6
0219
FE69
FFF3
FFE9
FE73
FFFC
FDCD
FE4D
0040
02DA
FF63
FD9F
02F5
0232
019E
0136
FED0
00AE
00B2
00A4
02E4
001A
FEB6
0200
FF4A
FD36
014D
FFA0
00D3
0196
009F
0142
012F
FE23
FA17
FCA4
FC1A
0180
FC24
FF64
FD02
00B1
021E
FE17
001C
0261
FE95
FF22
FD16
FDBD
049A
00DB
FF37
0029
036A
0160
FEA7
02A7
0245
00B2
FF41
FF27
0356
FB7E
FE60
034D
0049
01B4
FF73
0331
0146
0016
FEA4
FB94
0124
001E
FFE8
047B
0326
007E
FE58
017C
0386
0045
FCBC
000C
FF3A
015E
FEF6
025E
FFE8
008B
FC00
0177
0020
0079
FE2A
FEEB
FF98
FD30
007E
0070
03AC
FD6A
FE80
FFF1
FB70
02C5
00C4
FCFA
FE82
FE81
048D
FEA4
FD2E
FDE2
FE06
FFA9
FF55
FCFE
FE4F
0245
FF06
FC85
0398
FDA9
018C
016F
017D
FDCB
FE5B
024C
FF1B
FD8B
0008
FE5D
0251
01BB
FDFD
FFFE
FEB9
045D
0129
0251
025A
0108
008D
007E
024D
FF1C
FEA7
FFA2
FEDE
00BE
FED6
0128
01DD
018E
FDDA
FE30
02BB
00F7
FFE3
FD98
00F2
FF78
00CD
FBFA
0059
0225
FF3F
FCE1
02C3
0447
01BE
FE70
FFF0
01B1
FF83
0091
FF79
00D0
FF88
FF7C
FF59
007F
FD84
01F8
FF7C
FEAC
0024
0043
0014
FFCF
00A3
001F
01C6
FDA9
FF07
01E9
FEE1
005C
0031
015E
FD27
FFC5
00A9
FEF8
FF07
008D
FE43
0078
FE65
FE13
FF99
0183
0165
FEEF
FDEF
FD09
016A
016D
0004
FE95
FE1D
01DE
04D5
007A
004A
FC7C
FEC8
0184
0013
001B
00AF
FEC2
FECD
0072
FFE5
FF9E
FF57
013F
01B3
0088
FDB2
0046
FFC4
021E
0237
005C
0047
00C5
FE8F
FC2F
04E8
0111
FE94
015F
02C7
FFB5
015E
FF71
01AD
FC2A
FFFE
00CE
016D
FEEA
0052
012A
FB19
FE62
FFD1
FBE0
0005
FEA1
FE19
FDCB
FEA1
FF40
01F7
025E
030F
017A
FE86
01FB
FE4A
000B
FEB4
FE97
FF31
FEAC
FC45
04B0
00E5
FEE3
FF53
FED2
FE23
FFDB
FFD4
FF6D
0150
FF81
FEC1
0169
018D
00D4
008A
FF14
0085
0084
FFEF
FBF5
FFBA
0142
FF18
FFBB
009F
027F
FDA9
FF67
FF4E
014D
0220
001C
01B6
FECF
0301
FCB5
02C8
FE3C
0284
FF94
FFDB
FD04
001F
022F
0091
FC08
FE5A
027F
0162
FF2A
01BC
0122
0027
FD01
0160
00EC
FDF0
0110
FD4A
00DF
0088
00EB
FDE7
0365
0280
0219
002F
00AD
02DE
0123
01DD
FE15
00DA
FD4C
FDDE
0274
FFB3
FED4
0281
0111
00F8
0104
0028
FF25
0100
FF33
00B9
FCEB
00C2
FEAD
FF55
02B3
FDE2
FDE1
0093
FFAE
FFF9
03F4
01CE
0122
014E
0073
FD02
FEE5
00D7
FD56
FFAD
FE45
FF39
0326
0058
FF03
00C2
021C
FFFB
00E1
FEC3
FEF1
FF83
FE6B
FDEE
02BF
FDFF
0124
FCD4
FD20
FEC1
00D9
FE5C
0049
FDB3
FFB2
0117
0012
FF6D
FE8D
FDB5
005F
FD74
FD88
FFC3
FF10
FEC8
019A
FFAB
FF8B
03C9
019C
FBF5
01B6
FE13
FE29
0624
FFF9
0479
0167
FFF0
FE8F
00DB
FC86
FCDB
0309
0069
FBE8
FC20
FD96
0213
FFA8
FC70
0136
05CA
00C4
FD8E
FBC6
009F
FDF7
FF3B
FEED
FEED
FE28
FEB0
0159
0114
FEB2
FB6F
FCA2
FD2F
FDA5
FF84
03CD
FD8E
0034
0076
FD5D
005D
03B8
FEE7
0285
FF19
03ED
0023
FF73
FE13
00F3
0443
0102
FC72
FDC5
F91B
0081
FCD4
082F
0119
F8B9
FF7A
FFC8
018E
0102
01CA
015C
02FA
003E
FFAA
059D
02D9
0390
01A7
053F
047F
0587
0173
031A
FD93
0442
FF2D
03F9
FF34
FD51
FECE
00DB
0191
04E9
FBF0
FE14
023F
0099
0228
FEFC
FDA1
FF0D
01D3
FD4E
FC30
01E2
FFDD
FB98
FF95
0058
FEDE
00A0
FD7B
00FC
010F
07E3
FB61
FF7C
00B5
0324
FDDA
00CE
0056
04BE
FFEE
0299
029E
FD2B
FF2D
FD97
0292
FAE9
0103
04AB
03DC
019B
00BD
FED3
FCD6
00BE
02B5
0392
0073
0056
02F6
0093
FB51
024E
FE60
FDBB
0087
FD46
017A
0483
0146
0004
FF8C
0323
FEC1
0381
05EA
FC80
FFEE
FFF0
FBAA
FAD3
0759
FE2F
FF9F
FCC1
FF74
0209
0422
FE16
FF35
0166
0576
0028
FE46
FDD5
FFAB
0461
FEF8
024D
FE47
00A9
FD5C
FEEB
00FB
018C
03FF
03D5
01D1
01D9
FECA
FE5F
FF7F
FCB5
0170
017C
009E
FE7A
FFDF
FDF1
FFCE
0209
FF35
FE5E
0019
016B
FF92
015C
FFDD
FF63
FF2B
FF86
0250
01DE
021A
026F
0389
0065
FEE6
010D
022B
00E1
0107
028A
FE0B
FCBD
FD3A
01C9
0012
0185
FCE3
FF12
0087
0312
FFC9
02AF
0355
0212
00A9
01F2
FD3E
FF3C
FF64
FFB1
FB94
FFA4
FF4A
015F
0272
017C
02D3
FF7B
002A
0302
FFDE
0186
0556
FCE3
00B1
FE8A
00D7
012C
0277
00E5
01B0
01A8
FBD8
FD1C
FEE9
FF9D
FDFA
FD78
0102
00AF
FF17
FCE3
0016
FFD2
0007
FEB1
FE39
0108
0461
FF9B
FF28
038D
0213
FFA0
0162
FF22
FE95
026B
0040
FEDC
FF4C
00FF
02E0
000F
FF3F
023B
FC9C
FE7B
FF52
012F
0157
FE48
FC57
012E
FEE6
0032
FF5A
FFCA
FF8E
01E7
FF8D
FDC7
FF2D
0152
FFEF
FD8C
0114
01BF
FE02
FEA8
00D0
FD77
01C7
FF14
FF19
00A7
01E3
FD8A
00A3
FDB4
0126
FD2F
0173
FF50
FEA8
0086
FD7D
FE20
FFB1
FE6B
0227
0189
0228
025C
01BF
FFC9
FEF0
FD99
FEC8
009D
02A9
00FB
FECE
FE45
0045
FE24
FEE0
01B4
010C
00B3
FF58
FF4E
FFCC
FF69
FEB9
01CA
FFE0
FED3
00A5
013A
00D5
FEE8
FED3
00F1
FDCC
0083
FE79
FD73
00D8
FDF6
012E
00F8
FF23
01C1
0012
029E
04B7
0059
0389
023C
0178
FF6B
FCD6
FFB9
00B8
FD05
0402
01C7
FF6F
036E
FD86
FF6B
FE28
0021
FE31
0216
010B
FE2B
FC9E
FD50
015C
0443
FD58
02BA
FE96
018B
FC3C
005D
0217
FE74
0003
FB68
04DB
FEAA
FF62
003B
0090
FFC7
FB9E
FC37
02E1
02B2
006C
FE40
FFE8
FF95
0252
00DB
FF39
0440
FE21
0221
0116
FF29
FBDE
FCC9
FB62
FE6A
0440
FDA1
FFBD
FE40
FE4A
0003
007F
010B
FE2E
01C1
0334
01F8
FEE1
FC54
01AD
016D
FFF7
01ED
04E8
FFD2
02A4
01F7
FE0D
FA9E
069B
0372
00CD
00F8
FFC5
FFF0
FD51
0315
FE0A
FF83
FEF5
FFC7
FAC8
038C
FF6B
FEA5
0315
0123
0212
FDE0
FAFD
02CA
01F8
0361
FFB6
00CD
0396
FF6C
FD10
FB3C
0215
008F
FCA0
0251
027A
FCE6
034B
FC3F
FF43
013D
FB88
FB90
FBAB
0313
FD7C
FBE4
001C
FCE7
FBE5
FED1
FF51
FFB7
FEC0
0162
0240
0485
0095
FEC6
FB1F
00D0
0190
019C
03AE
FB92
02EE
0484
0230
02F0
FB0C
03A5
FB51
FE48
039E
FDC4
013F
00AD
00B4
020D
FB80
02C7
0126
FCE4
00BF
040A
FD30
FF1F
01B9
FCCE
02FB
FECA
FC9E
FE80
01FD
FC09
00FF
0375
013E
007F
FA3C
FD6F
0354
0290
0095
047E
0018
04F3
FB0E
FB51
FDF7
FF48
0014
044C
FF4F
0130
027F
FF82
FF92
00F0
FDE2
0128
FD29
06D4
0391
FE0F
018A
01A8
FFE1
FF39
FE31
FE33
FF27
F82A
FF4E
FF8B
00F7
0016
01CE
FF75
019B
010D
FE7B
027E
0303
FF1B
030B
FB8A
0159
0076
FECB
FFAA
FFD5
FD85
021C
0129
FCC5
FE28
FC9F
0209
0987
0323
FEFA
00ED
00CB
01C2
FE7B
018B
027B
FFEC
FC78
0497
FAF3
005A
FE03
039C
0374
02BE
00AE
FC3D
044C
FFDC
FBF2
FFE6
00B6
016C
FA5B
FEC3
02FE
04CC
FDF0
0185
00DD
FC3B
FBF1
FF6E
026C
043A
FFA2
FF7A
0055
FAA1
02D7
FD56
0227
FF4B
0247
0330
0079
FD37
FFB6
FF15
FA8D
00F5
FEE3
01E3
010D
FFA4
0665
0302
0157
02D5
FC45
0325
027B
02FB
FE8D
036F
0891
FEBD
014A
FD1D
FFF0
0117
FFA0
0516
03C5
02B3
FE85
FFFD
FDDE
0228
FBCB
00C2
FB18
03BF
FE0A
FB23
03FC
FFF8
F95D
014D
FA2C
0A40
FABC
02D7
030B
01E5
00D6
0083
FA91
01B8
034C
0379
FFEE
FD68
043F
01B4
FDE6
0034
FA61
FECC
FC5C
FC3E
FF1E
0021
028C
0091
02CB
0095
FE6E
0023
01C0
FF53
023C
FF37
FD69
F883
001E
0169
00BD
FB11
0196
FB34
00A7
FBD3
FFE6
00DD
02E2
FE0D
FA47
FECB
0333
043C
0196
05BB
05B3
0393
FB00
F88E
F9EF
F9AA
02A3
04C6
FDBA
FD8A
FB1A
0227
FD9B
00A7
FD54
0006
02AB
FC9C
026A
0223
FC08
FB6F
001F
FE18
01E9
FF91
FEA5
0169
0092
FE67
00D7
0029
00CD
02AC
FF14
FFFB
028F
0132
FBF1
019A
0318
013E
FF47
0213
0373
0091
01B7
FDC9
00E8
FCB1
0049
0316
0048
02F7
00C5
0078
01DD
FFF3
0263
010D
FE95
02CB
049D
FFA7
0074
FDB1
FDA5
FE0F
FFB4
0093
0294
FEF2
012A
FFF1
02F2
0352
0328
00B8
FC8A
FB5F
FC1D
0018
FEB3
0298
00D5
00BA
00D9
FFB7
FBD5
001E
FEAB
FFC4
FEAA
FE15
FE2D
0135
FCE4
012E
0210
004F
FEC2
FD70
0288
FCBB
FD46
0221
02F9
FE43
FEA4
00FF
FDC5
FD6D
FEDB
FF7B
0056
FCCC
0055
FEE3
0174
04F4
FECD
02CA
FE9D
FDDA
00B7
FCE2
035C
FFA7
FFC5
0054
FFEE
FFF8
FF0A
FE19
01BF
011C
0034
0191
005F
01F5
002C
03EF
0261
FDFF
0089
FC2D
0209
FDC8
0276
0267
0239
FF2E
FCAF
FEEA
0208
02D9
01CB
00A8
0273
0118
0001
00DE
00D4
002C
005D
FE57
0038
FD1D
005B
00B2
01BA
005C
FE2E
0034
00E2
FF63
03EE
002F
008D
00F8
FEFB
00E6
0513
FFD2
FE68
012C
FDBD
0229
0084
FE41
0301
0125
01AA
0062
01DF
FD4C
FEDF
FE5C
0108
FE8F
FC85
FE36
FF29
FE6E
FE91
01FE
0061
FFE8
FE4D
FC7A
FED4
FF34
001D
FE86
FEF9
003A
FFC1
0115
FEAE
0176
FEEC
04B5
FDFA
0096
FFD1
FFE3
FDD1
0262
054E
FFA7
FC9F
02CD
005B
FDA8
FF58
FE53
FF48
0243
FB55
003C
FFA5
FDA0
032A
FDB8
FF2D
01A9
FE8C
FDBC
001A
01B3
00D7
0175
0103
FD2F
0236
FEFA
00FA
FF0C
016A
00E6
016F
FF37
FE70
004F
0073
FF52
FFF0
0222
FFD8
FD48
FCB4
FC4C
FF93
0234
0412
0132
FFC1
034C
0132
0153
010C
01DD
00CD
FBBE
007F
017A
FF21
FF80
00E3
FEE7
0123
FD6F
FF53
02B4
0253
FDD5
FCFD
FE22
0204
FEF8
FE6A
FF70
FEB3
FBF7
0043
0097
FE78
01FD
FE91
01D7
FFCB
FE98
00F7
0196
FE63
FF8B
FFD2
0102
01B1
044E
FC56
01CF
FF87
FFF9
FFB0
0159
0077
FF8C
02DF
FFAA
FEAF
FEBF
FEF1
002E
0150
003A
FD93
FDF1
0134
FFA7
FF66
02B4
FE2D
0102
00B4
FDF5
0216
FEE5
01A3
0193
0259
FE3A
FD44
FFCF
0050
FE39
01E7
FE81
0220
FFD1
FDEE
FEAD
038C
0113
01DE
FF3F
03B5
00C3
0231
FFD8
0021
FD0C
FC52
FE3B
0169
FEDB
01F7
00AE
FF9A
00B9
0191
FEC7
0360
FF77
011A
FF74
FFF5
00DE
00E5
00E0
025A
FECC
FCDC
FC9F
0297
FE5C
FE2D
011F
0246
FF5C
FFF5
FEE6
01F4
00ED
FED6
01AA
0211
01DD
FED7
FFAC
FF4A
FCF7
FCF4
06BA
005B
FCE7
FE0F
01C7
0033
FFC4
0336
FCFC
FE1E
0101
005D
00CA
FFD0
FFC4
FCD6
FEDF
0184
FCAD
FEB2
0428
FD79
014B
FAF7
01A5
FE5D
FFDA
FDB0
0192
FBCB
FF5A
01B0
FF5E
01F4
017A
FCF9
FCC7
FEB2
00CD
0080
FD2A
FE20
FFDD
0224
00C5
00C6
FA03
FFF5
046E
0268
0205
FF34
FE5B
0149
0075
004E
FFEC
FFE7
044C
FD18
02BB
0037
FF33
019D
FDC4
029C
00C0
FF3A
FD55
FCF7
FF3D
0021
00FC
FF23
0084
013D
03D2
02FA
FEB5
0096
FE26
0068
0346
01AB
042E
0225
FEBC
FCB1
025E
01BF
FF4E
00D7
0181
0128
FF23
030F
FF4F
FFA1
0271
FE7C
0010
FFE0
FC80
034F
009F
FF47
03AC
00F8
00A8
01AE
FFDB
FED1
0164
FDED
FDC8
02BC
FE9D
FE0F
FEA6
01A8
01C0
0051
FC40
03AD
0079
FF6B
FE9E
FF56
02A3
FDA4
FF69
0260
FFD5
030B
FD4D
0175
FE1A
FDD5
FFD0
017F
0039
019E
FD9A
FE73
FDE6
FF9F
02A6
FFD5
FF9E
01C0
FE90
FE5F
FDE8
0240
FF87
FE17
FDA2
FD9F
003F
0076
FDDF
0246
FD2D
03FB
FFBB
027D
FFC1
FF40
00E2
FE9F
FEA0
FE4D
FFEB
FD29
FF2D
FCA8
002E
FF91
FE90
FE27
FDC8
015F
FFAA
FCE1
FCD0
FEA6
FFAB
FFB5
FC66
0077
019A
0236
0329
0102
FE37
0042
FD1E
002D
FF29
FD2C
FEAC
FD8F
FE9E
00D6
FFC7
007F
0242
FD91
FF2D
FD86
FE42
02F4
FE8B
FE65
012C
0145
0090
FD6C
FEBD
019D
0141
0093
0207
02D7
FE7B
0158
020C
001E
FE7E
006F
031A
00A8
0089
FFD4
FF54
01D9
FE46
00A3
00DB
023C
00A8
002D
018F
007A
FFB9
0177
FFF9
FD5C
0215
FFBB
FF91
FEE7
FE9B
0221
FE28
FE34
0212
0056
FC5D
FD03
FE3C
0316
01DA
0236
FD71
0195
FCB4
FD70
FF45
024C
FD3F
0081
0139
FF27
FEEC
FD39
FF23
FF40
FD4F
FF79
01CB
0241
FE0E
FE6D
FE36
027B
FEDB
004A
FF32
020A
FCE5
01C4
0181
0295
FCA9
FF87
00B4
FFC8
015B
FF3D
0111
FD80
FF1E
0037
FD73
0145
FE9B
0002
00DD
FF2B
017A
01F9
FE7A
FD8B
FEC4
0133
FE7B
FD34
FDDF
FE89
FE69
0036
FDC0
FF30
0255
FF74
FD4A
01D8
FE35
FDB9
FFD6
0163
FFA5
FEA3
00A0
01A5
FDD1
FF03
FEDC
FE73
FEF2
0279
FE72
FE99
FEBD
01CB
0285
0048
FFC0
0008
FDB2
FF61
01FC
FF5F
FF3F
01EA
0032
FE8E
0067
0037
FD63
FFFD
FFFF
007C
0273
020B
00F7
011A
0014
FFF4
FF5B
FFB9
02B2
0268
FDF8
FD9C
FEEB
FF69
FF88
FEF1
0161
018A
003E
FEA8
01CF
0033
FCFF
0212
FD05
0253
00E4
FDDB
0083
0015
00EE
FF09
FE3B
FF2F
0014
FE23
FEF7
FDCC
01E6
0198
FFEE
02C5
004C
FFAE
FC7D
FCF4
FA7B
00CA
0060
FAC9
0323
0276
FD4E
FD41
0145
0103
FF94
FFBF
0155
FF20
FD4C
FF7D
02FC
02E4
FF96
003D
0376
031A
FF8C
0002
02A6
01AC
FED8
013B
02FB
0390
0253
024E
02E8
0446
FE23
FEAE
0247
01A3
040A
0212
01A5
FF99
FE62
FF90
FE3C
FFCE
FF33
02B1
FC8F
FDDA
0185
FF4C
038F
0455
FE7C
FD9B
FC8A
FE0D
FEB9
FDC2
0087
02A1
005C
011C
FCAF
FF0C
FFF5
FCF9
FFCB
00A4
013C
00AF
0179
FF94
FF26
036F
FE8E
FEBD
019D
0298
FD5F
FFA5
02D0
0342
FD03
014F
0099
FF74
FEC5
014B
FEB7
FECC
00F1
0247
021E
FF36
00F3
0019
019A
FFF6
00D4
FF6F
FDA2
FEB1
0089
0036
FE62
0288
001A
FF23
00BF
00B1
0204
019C
FF9D
FF8E
FE54
0050
FFA0
FE34
0068
01D6
FFC8
00EA
FD60
FF1F
0057
01AF
FD8F
FFCC
00CB
0054
FE1E
FF6A
00C2
FF6B
FFA9
FFA6
FFE8
FE6B
009A
0017
0035
0083
0068
0116
02DC
FF2D
012E
00EC
FFE5
FF83
FF13
02CA
00FA
00BE
FE9D
0193
FF8E
00DC
00AE
FD4B
FF0B
0256
0318
FF27
FF0F
FE39
00F6
FE94
FDAB
FEA5
FEB9
FED0
FFBB
FF6D
FF48
00ED
FF3E
FE22
FD60
FFCB
FF7E
FE5E
0189
FD16
00A8
FFB4
FF33
0019
FF75
FE78
FE61
FF9E
FF77
FFC2
024D
FD40
FE53
0309
026D
FEDE
0129
FBA7
01E0
00CC
FF6F
FC07
FF10
02B5
03D7
0185
FDE1
0071
FDA0
FEF2
00F3
0167
014D
FEAB
FFB9
0186
0088
0460
FE61
FF51
FE93
FFB3
007A
FF82
006F
0081
00E6
00B2
FF1F
FCCF
FF96
FF60
00D2
FF7D
FDB8
FFFF
FC6C
0082
FDFF
02D0
015A
0388
FEBC
0127
00D1
0000
FF4E
021F
004C
FFF7
01B4
FF7A
FD2C
FDEC
01B4
0091
0063
0224
FFBA
FFE5
FCB5
FDF4
FF1D
FDCB
01B2
0142
FD9E
FF3E
FF2D
0154
FD73
FFA4
FC30
00C2
FE92
0072
0057
0049
FD3B
00FB
FC08
01D8
00F5
FEB0
0074
FD2D
00A6
018C
FF0E
FF15
0048
FCB9
FF84
0315
FF49
049B
FF6F
FCE6
0363
01E9
02BE
0064
006E
023E
0251
FD59
012F
0262
01BD
00C5
001F
0073
FEB3
00AF
031C
FEFD
0067
FD8D
FEE6
FEB1
007A
FE1B
00DD
02B8
0122
FFBB
FE3D
01BF
00FD
FBD3
001F
0026
FEE3
0071
FE77
0065
FF0B
027D
FE9E
FC30
00B3
01E5
FFF0
FEAF
00AB
01A9
0122
FC80
FE61
FDE0
0134
01E3
FE6B
FDF4
03BF
0034
009D
00C4
0030
FF13
0286
FF57
FDE7
FE58
FEE5
01A8
01B1
FE6C
00CE
FEA7
FC5F
015A
00A5
0159
FE88
021E
FF37
FF2D
FD72
FCCD
FFEE
FBF8
020E
FFFC
FDF4
FFE1
03D6
02E0
FE9C
03E2
0113
FF6F
FC0A
00DD
FE16
02F2
017B
FC38
FF19
006C
FE54
009A
FF8C
FFE6
01F6
FE70
0177
0170
FFF2
FDAB
031B
013E
FE7C
FFB1
0155
039A
00B5
FF9D
FC72
025B
FD19
0185
FF0F
FF3C
00EF
FF36
002B
0305
FE28
FF10
0052
0068
0347
FFCE
019D
FD17
FF8C
FF07
FDB0
FFA3
0132
0233
FF65
FF60
01F1
04A7
00E1
04B2
FFBA
FFD8
FE9C
FF4E
00F8
FFA1
FE23
FFFB
FF0C
0258
FC50
FDE1
FD7B
FCD1
0124
0224
FEA9
0180
010B
FC94
FFAB
03C4
00C9
0032
FE77
0249
008F
FD40
02D5
017A
FEDF
FEA9
003C
0199
0197
FE21
025E
FDF9
FDCA
FFAD
FFC3
013F
0047
FEC1
FF05
0018
004A
FFEF
016E
0165
009F
0263
FF76
02B4
029F
FFA7
FF3B
01A6
FFCC
0142
014A
FFFC
026F
01B4
FFF5
FF90
FDA0
00B1
FE30
0160
00B3
FF26
FF9B
FE87
FECC
FEE4
FFD5
003F
FE10
014F
025D
0071
02C3
003B
0140
0056
0115
FEC5
FF27
018E
FEFF
FF51
00AC
0010
FF17
FE67
FE44
0001
FFC0
FFAE
FDA2
FEC7
0201
FE91
016F
0190
FE5A
FF06
FEA6
0099
023D
00E6
0131
0064
0097
FEC3
011D
0251
FF72
FDC8
0123
FE59
01B9
FEA0
FE9C
FE43
FFE3
0197
000A
FF4B
0023
FBA5
0076
FD9C
0114
FF57
0076
FF24
0069
02D6
FE41
0079
FFF4
FE66
FD77
00F0
006E
0447
01D8
FCE9
0103
0395
0078
FCC5
FD56
0026
0277
FF15
FFA0
FF73
FF71
02B1
028D
0258
FE35
FDE2
030E
0216
00A8
FFEC
FE85
01E4
FE86
01B0
028C
022F
FF1D
0182
02B5
041F
FFFA
FD15
01E4
FD40
001B
FED8
FDD4
FE61
FF47
FFE4
00CC
0271
0056
0139
FCF3
FD54
00DA
022E
0260
036C
FEED
FF8D
FD24
FCF9
FFD4
FFB7
FEDA
FF92
FE90
0313
FB7F
0005
FD27
FC78
FCAD
0222
FE38
FEB5
FD0E
FDA1
FF01
0101
FC61
FE0B
0072
0238
FE72
01E6
04F2
020B
FDB2
FE52
FD31
023C
FEA0
FD3C
FF57
FD65
007A
01FA
FF3B
FEAE
FF85
FFE2
01B9
018C
00C7
0014
0210
FE92
0082
FFDB
FDB4
FD93
0280
0139
0188
017F
FF16
02D8
023A
01D0
FFF2
004A
FFB6
0010
007B
00B8
FF9E
012B
FE11
01D9
0179
0128
0097
FEAE
FF91
023E
FD5A
0069
FDD0
FDAA
00BD
018A
00FD
008B
FDE7
0022
FDD2
030A
FEDD
FFEC
0301
FEE5
0185
FFE5
FEF7
0153
FEB8
FF17
FFDA
0043
FE19
FF2D
02A1
0076
0167
FD89
02B3
0145
022A
FFA7
02C2
FF28
FCE4
FFAB
FE56
030A
FED6
0104
FEF8
FD09
FEEC
0177
FEF8
FFF7
025E
03FE
0170
013C
FDAA
FDB7
FCF1
FDEE
018D
FD0C
001A
FFDE
0054
FF91
FCB2
011A
007D
FDCE
FE33
0040
FF7E
0347
00F1
FDFB
004F
0379
FF07
0060
007D
FF62
018A
FF1A
FC4C
FF67
FC4C
FFB1
031D
FFF9
0042
FE1B
FFEA
0235
0040
00A0
0058
023D
FF17
FFE3
FEDC
FF02
0139
0047
02D9
FE47
FDA9
0100
FD3A
FD36
FFEA
FFBF
FE52
01D5
FF94
FF14
FFB2
01D0
0211
0059
FFDC
FED4
01DB
0276
FFAF
01F0
FF44
FDF9
FD63
FF2E
FFB0
FF85
01F5
0299
005A
01EE
002B
FCAB
FE8C
FF18
FFC1
FFDA
FED8
00C9
FD95
FFF1
00B1
0204
FF19
FC36
FEB4
FF7F
0040
FFD1
0001
FF6E
FE82
FFA2
FD92
FFE1
01E2
FF07
0240
00A3
00CB
0207
002A
FEA1
FF97
FCFF
FDB0
02C5
FF4C
02CF
014C
FDE0
02CD
0320
0101
FF19
FD88
0153
FE8A
FFEA
FE64
FF72
FE40
013C
0186
005D
0202
009A
FF43
0152
FF6B
FFCE
00B3
00CA
0061
FD97
0148
020E
FEE8
0239
FFA8
FF30
00B1
0040
008E
01EA
008A
00B3
FD25
FFE7
FD7A
FF12
018C
FE9F
000A
FECC
0203
FDF6
FE3E
01CC
FF77
FE3C
0030
FF0F
018F
0127
FEFA
FEE9
037B
026D
01FF
FF2B
01FB
00DC
025A
FEBD
FFE6
FE72
020B
FFA8
0074
01D3
0105
FEE5
0019
02CB
FEB9
0128
FFA0
0115
FFD7
FF9A
FE13
FE75
FD59
FF22
0014
FDC8
0009
FE51
FFEF
FFE6
015E
012F
FF96
FC56
FEA7
0009
FDE7
F9DC
0074
FB49
01E5
FD43
FF5F
00D6
F8E8
FFAA
01C3
FC56
FD03
00EF
FD04
02FF
02C9
012F
FC5A
FF26
00EF
03A1
046E
FC56
019F
0308
00AC
002C
FE1D
0270
009F
0284
02A1
FFC6
FDE4
031F
FA2E
02B8
0386
03D3
FF73
FCF3
FFE7
FB5F
FB71
017F
0198
049E
FA82
024D
FD99
FF8E
FBB9
0499
005D
01B7
0240
FEEF
017C
0106
FF51
041F
0372
0062
FCD3
FC8C
FEC1
01EE
0050
0066
00C5
02AC
FC39
FA00
01B5
00D7
FED2
018E
FBE9
FF70
FE48
F9F4
FD58
0391
014D
FE4C
FEC2
0066
FF6C
0285
0402
FEF9
FE61
00AB
00A9
024C
FE6B
FE6C
035D
02F7
FF5F
03BE
012F
0029
0344
FED5
01A2
00D7
FC87
FEF7
0014
FD71
004E
FCF8
FBE1
0028
FDA6
FBFC
01F7
037F
FE9E
0062
0921
FC03
02B9
FA41
032D
FF66
FF71
0305
FDFF
FF6F
01FE
01A0
FFFB
FE75
FECB
0337
FF25
023F
0103
0156
FD26
0051
FCF7
0127
008D
0017
FEB0
FF5E
0208
0122
FF50
06ED
0059
0090
00BE
0112
FE43
037C
0286
0631
FE62
FE50
FDC1
FEAD
0210
FF6F
000E
FFD5
FF30
02BB
FF46
0238
00A9
0191
FF69
FFF3
00C2
FD5C
FD40
01FF
FFED
FECC
FFC7
FF52
0242
0753
FB56
FF51
FFF0
0420
FA92
F969
FFC1
FAA3
FDC0
FD96
0353
0281
FFBE
000B
01CE
FDB5
007E
FC2C
015D
FFC5
FD4F
FFB7
005F
00EF
0690
FF0C
0087
02CF
0352
FDC0
0497
FE97
FFD9
037E
0560
0304
0353
005F
0193
0190
FF9E
FFEE
FC6B
FB19
FDDB
03F0
FEC9
0373
0113
024F
021F
FF70
FFAE
FE1C
FE7A
0289
03BC
FF69
FA36
029C
FF69
FFA6
FD20
FB93
FEC7
0169
01BA
FEAC
02F8
FEEA
00CC
FB69
0402
0313
00A9
00D6
0411
FE7F
FD32
FDB9
023F
FDFB
0090
00B5
FC15
FF7F
0010
FEB7
03E3
0123
FF32
FEA1
FFDB
FC88
01AD
00B9
0348
FF4F
0037
02B2
FF97
00F1
02C2
01A7
00DB
FB3A
0154
0264
002B
FA9E
FF21
01C1
F9BE
FEFC
FDCE
008B
00EA
FF2C
04CF
00A8
FB39
009A
FEFC
FCDD
0292
FF73
FBD6
FE4C
032A
00B2
0011
00DC
FFCC
FFBA
0271
FCBB
00CB
FD63
FF8F
00C6
FFA5
0450
0042
FE41
00B0
023D
0246
FED0
FFF2
01C7
00FF
FF52
009C
FF40
FDE8
F929
FD71
00B7
030E
04AE
FFC0
0616
0483
FC03
0555
FEDD
FF75
FC93
0375
FE91
FD2A
0168
FEB0
FE1C
FB33
0069
0569
04EA
FD9F
FFE1
02BD
0283
FF42
FEDE
0056
01C7
04E1
01B2
0315
FF68
00B9
FF1D
FF5B
0164
007D
FED5
0182
FF99
FEDF
0103
FFF4
FFF9
FE35
01A5
FFDD
004A
01B9
0391
FDFF
FD92
024E
FF80
031C
FFA2
019F
01E4
FEE2
FEA6
0234
026E
032B
FF39
FD23
FE71
FE13
011B
0064
034D
02AF
016E
010E
FD2D
00E0
0049
0086
00B6
FECA
FDFF
FFBA
00AE
FDA8
0264
FE71
01B1
FFF8
0019
01F9
0100
FD2A
023E
FE97
FF89
FDCF
FE34
FF8C
FDED
00E2
F9E4
FFEC
FCB1
002D
0182
FF50
0132
0076
01AE
008C
FDA8
0441
FF63
FF43
FE28
00E8
FD0F
FD5A
FB8B
FF3C
006D
046C
0190
01DD
0006
00AF
FE4E
01FD
012F
007E
014C
00D6
0060
001D
FFB4
FF95
FD57
01A3
FCA2
FCB8
FDEF
0468
FF37
FA9C
02B4
028A
01AE
010B
F8B2
029E
022D
00DA
FF6B
03F2
0245
FD1B
F9AE
FB8A
0124
FE3E
FB88
014C
02E5
018B
FE84
FA79
FB60
01DF
FC13
FD47
FE6E
04B1
FBE7
0104
0174
FF92
FD4A
0605
FB25
FF73
FEA1
033E
0596
053D
01BB
FFD9
FE94
033C
0220
0335
0389
FA42
0370
0296
FCC1
0636
FB09
FF39
FCC1
FC86
043F
01C9
025B
FC28
03D3
03C8
FCB3
0301
0435
FF32
FF03
0262
FF4F
FD12
FFBF
FA70
0234
FAA3
FD21
0157
FF67
F9A7
036C
0645
04AE
FD6B
FDF3
FB2D
0398
FE5F
03FD
0240
FF45
0211
FB09
0016
FD53
FE9D
060B
00EC
FCC9
01D8
011E
0060
04A5
0030
03D0
0039
FBE1
0042
03AD
009F
023A
FF57
FF92
FD34
FE43
FAA7
FEFD
FCEB
FF57
FEA2
0112
0006
FE3B
03FE
0401
0116
0189
012D
025D
FE30
0356
0095
0347
FFBB
FE68
FF02
FDA0
0067
00BC
00F2
00D1
FB88
FE97
FF3B
04F4
0068
FDCB
FE3E
FB32
FF4B
02B3
FFAC
0240
FAFF
FE28
00E6
FF3C
0105
00FB
0273
0115
FE9F
FEAC
FB9B
00ED
0235
006B
FF45
000D
0468
FE68
084D
0041
04E6
FBC3
F478
FE36
FF5E
FF81
00A1
FC9D
FBFD
04A4
FF9D
FE78
FDB4
0018
01A1
FDAA
FDFD
FC46
FE4A
0298
F780
FD5B
FDE2
0194
FEB2
FCD4
00BB
00D2
FD32
0033
FF2E
01C8
00AF
FD0D
024E
FF7A
062E
FEC9
FF7C
0100
FDBF
02C4
FFEB
0110
FFCE
FF8A
01A4
03FA
040D
FAC6
008A
FC0F
0416
FC85
FDCE
FD4E
0273
007C
FF71
00CB
FD89
FD84
0107
0017
0214
0137
033B
03C7
FE92
FC5C
FEEB
FED9
00B2
01EF
006B
FFF4
FC59
03F7
0256
FDE8
FF45
FEF7
01AB
0188
FC96
FE68
027C
0164
FECC
02AB
02BD
FD86
029B
F9E0
FE5A
FF4F
02F3
FF6B
FEC3
0032
00C8
FED9
FCE1
029C
FC02
01CD
FD98
01CE
03D6
027C
FC4A
0125
0373
005A
0481
0004
0127
034B
02CA
FEAE
FB5D
FF72
FBE5
03AA
04B7
FE99
0342
04C9
FF0E
0201
01FB
0219
02A0
0056
FE80
FD17
FED6
0038
0093
00EE
FE74
FFAC
FFEC
FFAE
FEB3
00E4
057A
FE9A
FF83
FC22
FDE7
013F
033C
002B
039E
03E8
028A
FE3A
FF60
FF07
FDFA
FAFC
FB53
01E7
00C5
F701
040C
FBDB
01B1
FF5C
00AD
0083
019B
02F4
00E4
0111
FB7E
01C2
0300
FD4F
0388
FA5F
0325
002F
0276
FC3E
FF2E
00B2
FDB8
0129
0028
010B
FE76
01F7
FE9F
0251
FCBA
FA28
FFCA
037F
FF14
003D
FCF3
FF3D
0112
FD3A
0114
04A5
FECE
00EF
03EA
FF93
FD84
06C3
FD34
03D6
0042
03D1
038C
FF46
0352
F70E
FC6E
FEBF
FD71
F7A1
01F9
FF25
FDD7
0249
05A9
0203
0128
FD83
0245
040D
FD00
0008
05F4
FF50
FEF9
FF1B
FCE8
FFE2
FEBE
FFB7
FED2
02A3
01D2
FF07
FC88
0082
04ED
FFDF
F904
0144
0085
FA0E
FE2E
05C4
FE7D
FF84
0575
FF55
FECF
FF96
0415
00FA
0151
0091
FAF0
FC9F
03E0
FF0E
FEAC
015D
FE57
02DB
02E8
03A5
038F
FE1C
00C5
FF8B
F9CC
05A3
029C
FF86
FC0C
FF09
0269
FE56
0399
03F8
FF2E
FD3E
027C
003E
FE32
0478
005C
03E6
016A
FBDD
FE8E
FEE4
FD0E
0504
0240
0243
FE7C
FF57
FE23
00A0
005F
0368
02BF
04C7
0192
FEE5
FCEA
01DF
0168
FEA0
0043
FFC3
FDCA
FDDA
F884
04D5
032B
0139
FCAE
FF39
0123
024A
0031
FCC7
FEED
03E0
0003
FE34
02AF
0227
FD07
00F3
FE61
FE0A
FDFE
FF44
00A3
FFDC
0133
012D
01FA
02AD
0446
FBCF
FEE2
FEF1
0190
FEBF
01A8
FD4C
FE00
FACF
0056
FF24
0222
0117
FEB7
FF6A
037B
FEEA
01A4
03E1
FCA3
02A5
FAD1
FE68
FF9F
FE7E
025D
FEAD
FD99
FE0E
FA31
FE4C
0202
0096
FEE0
FFD4
FAB0
020C
018B
0174
FF9A
FDE4
034A
FF3B
04CF
0362
0306
FD11
FFAF
0225
0048
03B4
0741
F808
FDE8
FB79
FA73
FE0F
03B2
FDE0
FF4A
02DA
FCEC
02C6
03DB
FB8F
FAD4
FFBE
FEF9
04AA
06EC
FFDC
F955
0349
0319
033E
FB04
FDF0
01C3
063D
0403
FC4E
0784
FF76
FC38
009F
FE00
FE9A
0094
FED3
0276
05D4
06AF
F7BB
FC73
FEE1
02DC
FCE7
FC70
FFBC
04B4
0095
05DF
016E
FD96
00CF
FE16
FCF2
F84A
0157
072C
05F7
00AE
0075
FF7D
FF1C
0566
0286
015A
FED7
FE7E
00E3
00B3
FFF0
05ED
FD28
F8E7
0191
FA6A
04F0
0523
FFB4
FA84
0102
024F
FE5C
0372
087D
FDCE
FD62
02B3
0038
FD7D
070B
FE61
FFAC
FF0C
FE18
03E9
03D0
FD82
031E
0514
0112
FB4B
0011
FBAF
02EC
03E0
023D
0351
FAFB
00C0
FEF7
FEC2
0243
FF47
0203
FFD7
00F8
0224
0390
FE3F
FC65
FDD3
FE95
02DD
FDCA
FE96
00B9
FDD6
FEF1
01DF
FEB7
018D
FE2B
02A2
FDED
0066
FF9F
FE63
00D9
FE89
0196
FD76
FF50
0064
02A1
FEF7
FEC1
01B4
018C
0381
FD98
00AF
FB9E
FBF1
0014
02C2
FE19
0423
001B
FFEF
01C7
FFEE
FE66
0209
0292
042B
FD5E
FF5B
FE2D
022E
02B8
017B
00AC
022E
FBA2
0322
FF17
00E8
FEB1
FF71
027A
00F2
FC59
FFE6
0490
FF00
FEA2
FFA4
FF4F
02BF
FD7B
FE9B
0310
00FA
0351
007C
FED5
FD26
000E
FFD4
004C
FEE4
0080
0023
FF31
FD96
015E
FD95
003B
0132
024F
017F
00D4
01AD
FF82
0079
FF3D
FD7C
0191
0271
015A
FE9A
FE7B
01FC
012D
FD7F
00A1
0176
0177
FF3F
028F
00E1
FF3F
0188
FEEA
0330
FF6B
FF53
FE60
FECC
010F
0001
FDE8
002E
004B
019D
0029
00DD
FDE8
FE9A
0074
0240
FEB9
0204
FF23
0066
FF5D
018C
FD1A
FE43
041B
00E6
0178
FDCF
FF3D
FF39
0194
01DE
FF7F
FE48
FFC2
0199
00FD
004D
FD0A
00B4
FE22
FED5
FF18
0077
FF61
0078
00D9
FDEE
FDD5
FEC6
FF79
0148
011A
0108
0053
FEEB
0034
01DF
FDA3
01EE
FE0B
FF50
002C
FF4A
FD66
0059
FF0B
00D4
FE0C
FEBC
011B
FE33
02D9
FF64
FFCE
FCF3
007C
FF22
FFE2
FFAF
0699
FF03
004D
00E3
0095
FF82
061F
FF89
FF0B
04D3
FDD7
FAA4
0023
01AC
02AC
FDC3
0068
FFD7
025F
FF6E
FD3F
FF57
01CF
009D
01AA
FD05
FBA7
FC10
0074
FD45
FEA5
0251
030E
04E0
02F4
00EF
FCCA
FE27
0294
057B
FDDE
017F
FCD5
007F
01BF
FE07
0405
077E
FB0A
058B
0293
FF77
052B
FB68
0132
0091
FE94
FC68
FD27
085E
FFF5
FC68
000A
054C
006D
03A5
0114
0053
02E1
0264
FFF6
0271
0360
0242
045C
00D4
FF79
FFEA
FACC
04FC
0591
04A4
FD48
FD50
FFC5
00ED
FB14
01AA
0099
0331
FC1E
0574
FDDE
04E3
0363
FA92
0335
FCA2
009C
FA6E
0319
FF03
FC4E
00AC
FFF8
FE4E
00AF
FF68
FE58
026A
FD5E
0104
074B
FD1C
00BA
01D9
F85D
FA92
057B
FA88
FE12
FEBC
FD6D
FCFA
01D7
FD1A
0173
0136
00B3
01A6
FEE1
02C0
00B3
FEAA
FF64
FD37
0122
039A
009F
0521
01B1
00C9
021A
00CB
007C
04AF
FE67
0269
0190
FED3
09B4
0070
FEA0
00D6
FBF8
026D
FC4C
06D2
FE77
02A7
00E3
FD30
0011
FC66
01FC
FF76
FB75
FF64
019E
FE13
030D
FF45
FF72
01CB
FF1C
FCB8
FF60
003E
FDD0
FD51
FF6C
FFD1
FFD0
FF90
007E
03F7
FEAC
FE29
0053
FBAC
FE4C
0387
03A6
00FE
FE25
0004
FBFF
FF1E
0266
FED7
FCBC
01D4
0766
FAFF
FD47
012E
FBFA
015F
04BD
02B7
02A7
0242
FC43
FFC0
03C1
02BE
001D
013E
FC98
00E6
0012
FD4D
FE86
FD4F
FF68
01DF
003A
00BF
FE09
FF75
FFB9
029B
FD4B
FC64
FE83
FFC4
03A6
001C
FD51
FD82
0015
003D
0051
FDF8
02D4
0146
06F2
01B0
076E
FE1D
FDB1
020F
FDB7
FD98
03E9
0136
F8D4
0101
F7E6
FE79
FF46
0134
00D1
FEB6
FF66
03F6
011D
FBE3
009C
FFA3
FF32
FC7F
FDE6
00EB
002F
01FB
FC0E
01EC
02CC
FCA7
FDE4
FF01
01DE
04B3
FD29
FBE9
05A8
FAFD
057C
FFBF
027D
FCC1
0272
02B0
00FA
F95C
FEFA
00FD
02D9
F918
001B
00E2
FDB2
FDC4
0497
0134
0391
FED1
FCD1
FFE2
FFE3
000D
04B3
FD48
079C
FD25
FFFF
FC6D
020B
0288
FCBD
049D
053D
FD56
0397
FD67
F93E
03EA
FA75
0068
F9C5
01BA
00C1
FF9D
0329
FC05
F951
02B1
F9DB
0498
F62D
0218
0120
027D
FFB8
03AA
FBE6
03E2
0301
04DF
0180
FC23
049E
0279
FCF7
01E9
FC91
01CB
FCC7
FDA4
FEB9
FCFD
0417
021D
0208
01E3
FA7E
027C
FF76
FC7E
008A
03B0
FAD7
FA93
FE76
FFBA
01A5
FB47
002B
001E
0164
FC71
FFBA
00E4
01EF
023E
FB74
FD33
064A
0106
0013
054C
00A7
040B
FCEF
FB58
FA34
FAA7
02CE
0461
FFB0
FA02
FE75
FFBF
FEC7
FEAD
0029
02CD
0363
007C
0042
02D4
FC17
028F
FEF6
FDAE
FF3D
FFE9
FA6D
00E9
0040
FF2B
FE00
FFDF
FF20
FF7E
0082
FFF9
023A
FE0B
FF7D
007F
0293
FE81
FD45
01B3
FF06
FF11
0056
0000
FF16
0051
FE2A
FFF4
01CC
017C
01A9
0398
034E
00A5
00D0
FFAB
0068
01E7
00A1
FD94
FF7E
FFB1
00AD
FDA5
FE89
01C4
01A4
FF03
FE54
0229
0266
0046
077F
FF7D
FD3E
FC40
012C
01DC
FF59
FED6
FE76
00DC
029A
FD14
FEC6
FD3E
016A
00F8
FD5F
00A2
FF17
FC98
FD57
02A2
058C
FD56
FE52
FE31
017F
004E
01B8
047C
0243
FC5C
FC74
00A5
FFF7
FED8
0050
FE9A
00AE
FDDB
FDF5
0232
0058
FD10
FDF8
018C
00E7
FE28
FFD4
FED4
FEAF
0231
FE52
0267
0021
02B2
012E
00EB
FF28
02CA
FD5F
FFF3
FEEF
FEA8
FFA8
FF55
0362
FF22
FE50
00C6
021E
00A6
FCFF
00AB
FF57
0134
FD88
FFC8
FFA4
FE73
00CA
FFE2
FF11
FEEB
020F
0036
FD92
01EF
0029
00B7
011D
FD10
00AA
0221
0104
FFE5
FF3D
01DF
FFCF
00D4
00DA
FFED
FE7B
FF5B
FE37
FD73
FEA5
FF31
01BD
0112
FF77
FEAB
FF82
00BC
0044
0182
01C7
020B
0189
0265
022B
0025
FED1
001F
FFE4
028E
006E
FD9F
02B4
0078
01A3
FFCB
FE39
F843
FBFA
02F8
FFB3
0181
021D
FCB1
FBD4
01CB
01CD
049A
04B5
FECA
034D
019A
FB4F
FE55
046F
FDE3
0215
FCA3
FE7A
070B
FE83
00A7
FDEA
FD40
FE01
05B0
FF3A
07BB
0320
032D
0093
FF41
0312
01CA
0042
F8CF
FF19
FE0B
FFCE
019A
FFFF
0103
01BE
FE4A
FDCB
FE1C
FFC5
FF7D
057F
FBA6
04CB
0328
FF4B
02E9
035D
02BB
FF39
00DB
FE75
0686
0136
FD2C
08A4
FECB
FD51
0698
FD1A
FD41
04C9
FC00
00C4
FB89
FEC7
FA00
FE48
FF0A
006C
FA8C
0027
00F3
F7C4
FF62
0548
FC07
024B
04F1
FEC6
FFB3
0107
FD81
0045
FC72
FD9C
0314
FE60
FEF3
F9C3
0226
0484
FCD7
FFAE
0463
0103
FEF2
FB9C
FE29
026D
FF3F
FFA7
0521
FCC5
FE29
FF5F
FFCE
004C
0101
0031
FBC8
03C0
FE0D
0074
FF4B
FF26
0465
FA79
F910
06D5
FD1C
FCB1
FEEE
0235
019E
FDF2
07BF
FFF3
FDC7
033B
0129
01D1
0402
009F
FFB0
FFE1
017A
FF99
FF0F
FF58
FEBF
033C
046B
043D
03AB
0320
FE73
038C
FD15
026A
0172
04E0
FE17
0094
0163
0235
053F
0197
0151
FEA5
03FF
0122
0303
FF70
FE34
023F
FE7D
FE07
FEAD
FA0B
FEBA
0410
03D4
FEB4
FD4E
016D
FC26
FF6E
FD85
0315
FF15
FFA2
010F
03BA
022A
0882
0162
FE9F
F8F9
FF22
006B
0016
FE69
FC43
02A0
FCC4
03F3
0158
F9E3
0196
FE62
053B
026C
0091
FDE6
02BD
03CC
FF88
0185
010C
FD1E
FBB9
F86D
0210
FF20
0348
02F1
FC8E
002F
FDA6
03A9
0022
01C6
002A
0170
FF33
FE39
FAC1
0185
0189
FD91
FD50
0220
007A
FF08
005E
038B
003A
0189
FD1C
FEF4
0331
FEDA
0509
00DA
007F
00DA
FE42
FF96
FDF2
F377
FFBD
FF1A
FA50
FF1E
005D
FE35
03D7
FC4A
05AF
FE99
FFA0
FE82
04CD
FBB7
FE50
0186
FD87
00CE
0041
FECD
01DE
011D
FF75
025D
FDD0
FDD4
00C2
0266
0113
FE2E
FC0B
FF54
FF5B
02D0
0251
0114
FFDF
FFAA
FFE7
FF58
FDFC
FE87
0013
0433
02BE
0730
FB87
FE44
FF05
FE46
018B
0113
022E
FB45
0480
031B
F6C3
FE73
FF55
FE86
03AF
0150
013C
0059
FAE9
0244
FC63
FC18
0324
FF00
016E
F641
01FF
01B1
FA96
0633
FC58
0B14
FA6A
0221
FEBB
02F2
0610
04D5
FE0A
FFE8
FF2E
FF1E
FFEE
FE01
0116
0501
FF91
FFC8
00F4
0009
0000
00EA
FDEA
014A
034A
021F
0549
0540
00DD
01C7
FB3F
FDD2
FD03
05E7
FE83
028B
FE0C
01BE
03EB
FB1E
FC80
F9D3
FCDC
0069
FE56
0507
01B3
022D
009A
FF89
051F
FCBE
0584
020B
0333
0401
FEF3
006E
04B0
FC8D
FDB8
FE26
00CE
0054
FDD0
FCC8
FBBC
FE2D
FE98
FF89
020A
0039
FEEE
0074
FFC7
033B
FE42
FEDD
032E
FE85
0075
0186
00C9
0076
FE45
022B
006A
0031
0222
FEDC
0310
FB3D
03A6
03A8
001E
FFD2
FE3C
0233
0343
FF6D
FF20
FE80
0082
FEC4
FC88
FFCE
FFA8
FFAD
01A2
0211
0291
FEA0
0232
FDF6
00F3
01E2
FE96
FF25
01E7
FE3A
FEBB
03A2
FEF8
0001
0285
FF07
FE2A
FE8B
0150
FF6D
03C9
FE26
0024
FE7A
025B
02E4
FE7A
F9D2
00BD
FE18
01FD
FD29
FD23
00F5
FF79
FFA6
012D
FDC7
00AC
FE52
FE0E
00B9
030F
00FC
01F2
011D
00A1
FE10
00B8
FDF6
FF73
FEEA
0109
FE83
FF8C
0007
FEE3
FE2C
FF48
0321
00EF
FF02
FFC2
FFB5
0103
FF4B
FEE6
FFA5
FF98
0197
FFFC
FE07
FF09
FF0A
015A
007E
FDC4
FF2B
0191
FD6A
0189
FF3D
FE5C
014B
0137
FFCD
0139
015C
025C
00A7
0184
FFC4
01D1
FF92
FFD0
FD42
0001
0154
FFBB
FEA1
00F2
FEF1
0133
018C
FD8E
0177
FFA2
FF4A
0034
FF66
023E
0070
FFDB
FF22
FE5F
FF13
0119
0017
0145
01C9
FFD4
00D9
FDB8
FEBA
00B1
FED4
007B
010B
FFA9
FE4D
00EF
FF9F
FD9F
0011
FECB
FF5E
FECD
00ED
005C
FE81
00F1
FE6C
FD47
FE50
01A9
FFF6
00EF
00DD
FEB4
003D
002F
FD11
FF1C
FCD2
FC59
0339
FBDF
FE79
FC66
FEA5
0051
00D6
02D9
02DE
0065
FBD0
015B
FF4C
02A7
FEC4
FD02
01F9
0405
FC06
02E4
FFFD
FE34
0058
FEC8
003E
02CA
FD66
FD4E
047F
019B
0043
FE72
00A4
016D
01B8
FEB2
FCAE
02D4
FF96
0030
0317
01E2
FFA6
02CE
0070
02FD
0099
00B2
FE2F
FEAA
026B
01F4
01C5
0090
FE40
FF80
FDF8
028A
00DC
0336
FD25
FED2
01E2
FF5A
0128
02EA
FD02
003D
FD53
FFBC
0357
FF08
FD60
0110
FEB1
048A
FE9F
FC4E
00C4
FF02
FD4E
0126
FE81
FF6E
007D
FE96
FD52
02BE
FFF5
FFF9
FDF3
01BC
FCF8
012F
00FB
FF2F
FC32
FC19
005C
00B7
007B
FEA7
0082
FF36
0191
FD03
0071
0436
FF51
FBBC
0275
01B5
FF99
024D
FFDF
FF50
00A8
00AE
02E7
02A8
01D5
FCD9
01DD
FF1F
0272
00BD
FBDD
FFA6
0095
FFFA
00C4
0065
FF01
FD9D
FF3E
0244
FF38
FE57
FDB8
000F
003C
00ED
FCBA
001B
FE4E
02FA
00CF
FE6C
FE20
01B8
0249
FD0F
0076
0174
FF0C
FF38
FF75
FEC8
016A
0241
FFC6
0267
FFE9
0008
01F4
FF85
00C2
FBE2
0037
FE2D
FF71
0226
FFB2
025F
FE42
0064
03D8
033A
FE9E
00AD
02D4
01E6
FC10
FEE1
FFAA
FE83
04C8
0295
01E9
0444
033F
FFAA
00BD
FEEB
01D3
00B6
02EE
FEEE
FE55
00DB
0200
FEF8
FC68
FF62
00CB
0010
FFF4
022E
FFBD
002A
004D
FD89
FC42
0315
FE7F
FF11
011E
024D
005F
FF2E
007D
0088
FFD9
015C
FF4E
0176
FF9B
0098
01FA
FF20
FE07
FDF6
0304
0044
FFD4
FFD5
FC5B
004E
FD96
00E5
00F6
FF24
02BA
010D
02BD
03B3
FFC4
0242
00F0
FEF2
FE64
0234
FE22
0086
0009
FEC0
013A
0259
02F2
000C
FF58
FFA8
FF3D
FF83
026E
035F
FD61
FDF3
FFF9
FF9E
010F
0193
FB66
FF7D
0251
02A9
FE31
0012
FD94
FE1F
FCAC
0166
FC15
009F
FCDD
FC8F
FF8F
025F
0019
021C
00F0
00BE
00EA
FEFE
017F
02C0
FE19
FDA7
0033
0191
FE54
002F
FD11
0054
012B
019E
FFAF
FFA5
FFB9
005B
FF46
01E2
0120
02E9
FE65
FC1D
0180
FE40
FFFA
FED9
0096
FED0
FF9D
021F
FF99
FF29
01C4
FEAC
01CB
0008
FDCB
FEB8
FF6B
0029
FD2C
0020
FF45
00FE
FED8
00B4
FFD9
FDAC
0141
FDA5
FE34
0217
FE7F
FDDD
0151
FDC3
FDF3
FDF0
0099
FFBF
0215
FEC5
01C1
FE47
008A
00AF
FDE0
FEF3
0182
FF60
FEC4
FE4D
01C1
012E
FE3D
014F
FF0E
FD93
FF4E
FCFA
FDE3
0070
FE9A
FE27
013C
FEF7
FE34
FF8D
FE0D
FF22
020F
FFC1
FF63
FE59
FFDE
019F
011D
FFD6
FFC8
FEDB
01C8
FEF1
FE7B
031E
016A
02E6
FE11
0868
0162
FFBA
FD73
FB9B
01E1
FC3F
01DB
0C7B
FE16
086F
FDCE
0174
0122
FCDA
FEA1
02B3
01A9
00E8
FFD9
FF9C
02D7
FCC0
04CA
FE95
02E5
FE46
FB81
FF3F
FA41
04C0
F8BB
FF90
FE42
04A8
0855
FEEA
0084
FBA5
FC73
F90A
FC40
06E6
026F
FC91
FD2C
FFD5
0133
01CE
00F8
FF63
0412
0093
0088
056C
FC81
FBB3
FE75
FACC
FE9C
0029
0070
0378
0163
FF1C
065F
05B5
FC22
0044
FAF5
070C
046D
FDD3
F9DD
018E
0187
01DE
03B1
0122
00E6
FBC8
0662
FEAA
FBA4
0AFB
FF90
FC71
0450
F9C8
0012
F861
0222
014E
008E
FB34
F985
FE9E
003C
F841
018C
036A
0141
FCD1
F7B7
01DC
FEA9
FEF2
05B0
031C
FD73
02DA
00F3
FF59
FF21
026B
0297
031D
033C
014B
FDBE
02DB
FF8E
FC98
FF1D
013D
03E2
F9C4
0321
01B4
037D
0171
FAB1
FE4A
025D
FA86
0053
FF77
00E0
FDA6
028B
FDA4
FF65
0265
0291
FDFA
0138
0133
FE19
0284
FD63
FF89
FD01
FD23
0220
FFD6
FD91
0060
FC6A
FE84
0389
0076
002D
0027
FD9B
FF72
FBAF
02B3
014B
FEEF
FCC2
0246
FFCE
01C7
0024
0165
FDF7
0188
00CF
FD24
FE77
0182
0482
00FF
007F
01B3
0206
FD00
018F
F7ED
FD77
FC76
FC85
FE61
FA12
027A
0409
00C2
FF53
039F
FE9E
02C4
011A
FD85
FC63
00F7
003C
017A
0352
0122
FEB6
03FA
FF7C
00BE
02A3
FFF2
FD5B
0379
FF77
FDE0
0003
028B
0220
FEE1
007E
FE79
00B1
FB63
0127
0152
FB69
0031
FD91
0106
01FC
FEA8
FE54
06D6
FBFD
00D4
0145
FF77
FE28
02C1
FDCB
0128
FB33
FE2D
FED0
0389
039A
FF65
006D
FF47
FB9D
0040
FF76
FC01
FFF9
FE20
FFED
FC3C
0242
026A
0133
0074
FED0
0158
FD85
FCCC
FA79
026F
0051
00F1
0050
030D
FD0E
FDF3
FF46
0132
FF71
FCDA
FEDE
FD5B
FFF6
02D5
FFE8
043C
FDB9
FDD6
001D
FF68
0233
02EE
0021
FE93
FC94
FF76
FEDA
FC2F
FE61
01E5
0004
01C4
FF69
FEA4
0041
00CE
012F
FD4A
FFD3
0397
01FA
0239
00C7
012C
042C
FEB5
0092
008C
FDEB
0164
00D0
FDC8
015C
FF26
00B6
FDEA
FE44
00FF
FFF2
FED2
00A2
FFE4
FFB3
FB62
0111
FD0C
01D2
FF64
FF4D
004C
FD14
FE50
FFC0
FF1E
0038
FEA1
FF51
00A2
00D1
FF39
FCC2
FF2F
0282
FF12
00E1
FE9E
0319
0075
035E
FF9F
0102
0237
FF5F
FED6
FF68
FE9B
FCE3
FE0D
0058
01E1
FF33
0347
FF31
00A4
FFE8
FE60
00CC
FDF0
FF26
FF54
FF79
01D9
FFB7
0217
02D9
0162
FF54
FD81
FF9F
015E
FD95
FC25
FB39
FE29
02BD
002C
FECA
01DF
FFC8
0152
03E3
0076
0011
00EB
FFAD
FFCF
FDCF
FFFD
FE66
FEF6
00D7
0037
FEF7
FF7F
FD4F
FE15
FF59
0170
0083
FFFD
00A0
FE1F
FFEB
FEBE
00FE
FF85
0198
00CD
0071
FFD6
0004
FEAB
011A
01DF
00C4
FF66
FEDE
0028
FF72
00F0
FF5C
0380
FFBF
FE35
0200
FE85
006F
FF4F
015D
0134
005B
FF45
00C6
0112
02EC
FFE2
010B
FE7D
FEF6
0216
0107
0093
FF55
014B
0073
FF0F
01D7
FFBC
FFE7
0133
0026
014C
0068
FFEF
FE5C
002A
01D0
FF49
0116
FF89
0141
0061
FFA4
00A1
FE75
FEC9
02E3
0177
FF9B
FE58
012B
00C2
FF38
FE6F
FFAC
FDAA
017E
FEEE
FBA0
04B3
033E
0392
022E
FBCE
0138
03E4
0183
0082
00C4
036B
FFAB
FE1F
FB9A
0202
FFEC
FB37
0035
0456
015F
FC42
FDCD
0094
0498
FCB6
FE10
FD8E
02E7
FC7D
FCA1
0104
FDED
FE4C
02C7
FF10
0254
FE85
008D
006F
012F
02C6
FDDF
FD44
02EA
04AA
027A
0072
FE44
022B
0226
008F
01FC
FDD0
FF5B
FE5A
FCD9
01BD
026F
0156
FDBE
0075
01A4
FF09
0426
013C
FFDC
FD0C
FF0C
FEE2
FD49
018A
FC5E
03ED
FEAE
FCED
0098
03AA
FED4
019B
01A8
00F2
FDEA
FBFF
FD8B
041D
02FF
016C
0317
00D5
0412
FD0E
FEF8
FCD8
FDF7
0278
01CA
00FD
FB7D
FA8D
FF3B
007D
001D
01F3
029E
FBAF
04BB
0176
FBCC
0149
FCF4
FE41
0619
FB46
FD32
FB1B
FDD1
FEC6
0392
020D
FE3D
FC99
FD37
006B
015F
01E0
0276
03DE
0109
FE9A
FF0A
FF4D
FB54
0068
FF41
0142
FC73
FF00
0392
015E
FF5C
FDCA
0017
FA50
00C2
FE70
037A
005F
005D
FCAA
0159
F93A
020B
FA7B
02B1
FC16
0116
FE26
FE90
FFFD
03C7
0581
FF8B
FD90
FBBE
FD4B
0319
FD6F
0998
0114
FF00
FF11
00BE
FFAC
02AD
FF06
FF5E
000E
FFEB
FFD3
04AB
035A
00C5
02E6
03E7
FF99
0462
02EC
0269
FCF2
05FB
FD91
031D
FC9A
FE2A
0136
FF0A
0803
0177
F5BF
FDFC
00BD
022A
FC9B
F826
FF7D
FE3F
0131
0534
FF4C
0318
FDEE
F766
01C6
FC78
FE1C
FE8C
003F
0297
FFB9
0669
F8E9
FFD7
FC85
FF55
01DE
FEC9
006C
FF1F
FFF9
04DA
0159
F8BB
FF6C
02FD
FE25
F66D
FA65
03B6
0292
016C
FC6E
FFD6
00E3
00FC
035E
044B
FD45
FE91
0535
FDE0
FB5F
0637
00D1
F5B8
FDE1
FF2D
0229
015C
0311
FD4D
FF05
0264
011C
0182
08E2
F9FD
FDA3
050C
FEE4
FF80
0AE4
00D1
FCF0
FCF5
FC43
06D3
0150
FF92
FFB5
0083
04FB
01F6
0235
FD12
0081
FEFD
FECB
FE7C
F907
FF8E
FABB
057F
0C4F
00B3
0602
FDF3
05CB
03BA
0215
FCB2
0485
FE3B
FF4C
0312
FF1C
017A
01E8
FDDD
05E4
0010
02E0
00A8
FE37
FD02
0115
FE7F
0235
00E4
0357
FCD8
FC77
FF65
FE03
FEC8
FF4D
FF51
0094
0266
FF29
0091
0411
FE64
FE62
FDA8
0292
FFA9
00C3
0145
FD7D
FD82
00F3
FF4E
02F4
02A4
FEB5
0041
02A1
0061
0092
FC02
FFAA
006C
00F1
0187
0135
0359
FF1B
FCD7
FD43
0224
01D5
0253
FE45
016B
0180
02AA
FE5F
026E
03D6
0057
0451
0112
FE2A
FF08
FD5C
023E
05DB
064E
FFB5
FF52
FF42
0253
FD11
FD0F
00D9
02CA
FF79
04F5
FE4F
062D
0032
00EC
FDC0
FCBE
0247
FB4E
FD65
FFE1
FFCA
FFDA
FEFE
000E
FEA6
02BB
FDDA
01AC
0106
FE3B
FF40
0491
FEE7
01E6
FE93
FD81
FE9B
FCBF
0054
FEB2
0109
0237
FFA0
FFEA
FF0C
00EA
00F5
0060
00D5
0028
00D1
FDDC
0089
0049
FDAD
0236
0194
052A
00D0
FFA1
020F
0172
0068
01B3
009A
FFCC
FFE7
002D
0050
012F
FF40
028D
FD7B
02A1
FEE9
FFAC
FF69
FF6E
006A
FE18
02A3
FEB5
FF79
02FA
008B
0115
FE9B
FF4C
0078
006B
0032
FF92
FF79
FE85
0291
FFDC
FEF7
FC2C
0076
000E
025B
01F3
FFA9
FC41
FE72
FEE7
024D
FC60
0210
FE9D
044D
0000
FE6D
0102
FF31
026D
0250
00D7
FC4E
FFA7
FDEA
FF26
FD62
FC61
FCDC
01F8
02D4
00F4
0117
FEB2
0287
0227
FDF0
FF7A
FFBE
0049
FD6F
004E
0117
00F3
008B
FE8F
00B9
FEDD
0090
FDAC
017D
FC2D
02BF
025F
FEA8
01C7
FEB0
0086
020C
FE6C
FE49
FCD1
00D3
FFC6
006E
015C
FCE7
FEC3
0201
FFE9
FFEA
0082
0176
FE62
0058
017F
FCA1
0327
0036
FF9C
FE06
0162
FE2F
00D0
0376
FE2F
01E8
FF10
01B3
01FC
0406
000A
FBCB
FFA9
0078
02BD
0010
FAEF
013E
FF9E
0236
FDD6
FF21
FE4A
FF71
FFDC
FE49
FFF4
FEB6
FF2D
017D
FD87
043D
FEF5
FE1F
FC7B
FF5E
024E
035B
026A
025A
FE50
FFBF
0055
FF8D
005A
0057
015A
0105
FD85
0083
FF82
0001
FD9F
FE41
FFB6
FEA9
FE66
0255
0267
FEFE
FD9E
FFEA
FDF4
FE08
FFF8
FDFB
FEFD
FE6C
FF1C
016D
0184
FF6C
00BC
0171
01A1
FF40
0134
0097
02BF
0067
FC02
0304
FEEC
FE95
0059
017C
01A9
FEAB
013A
FE21
0188
FF30
0125
0229
FF79
00C0
FF35
0140
FCF0
FEBE
FED9
0059
0169
00E5
FF1A
00DA
01B2
0201
02AE
0219
0194
0047
FF64
FF88
007A
0197
0128
01BB
FFDC
FD76
008A
FFB3
0180
0193
0023
FE7A
FED1
FF5E
FD57
FEFB
017B
02C5
FCD2
FF33
FF33
010C
01A7
0321
FF17
0017
FCBE
FBE7
FE41
01C6
FF82
01F5
FDF1
FE23
FD56
0258
FF10
0183
055D
05C4
035D
0827
FFE3
0304
044B
FD6F
F93D
01C9
FEB0
FF2C
FDA4
0382
049E
FF4F
F746
FE34
065D
FA8F
004C
FF2F
FE08
0698
00CA
0470
FCA1
FD5D
0286
FC66
FD1D
FF89
00F0
017F
FF34
083B
0249
FE03
F9F5
FA56
0385
020F
014E
FF66
FF76
0066
FD83
00E1
FD93
FF31
FE06
025C
FDA4
FF92
FDCC
03B0
0182
01EE
00AD
028D
FF15
FF14
FB81
0230
FEAE
FEF5
020D
0289
FDF1
02CC
015D
0309
00BA
FA8A
0417
FA13
F73E
01ED
008D
034F
0419
00A1
05EB
015C
0061
FC2B
029C
FF3F
F940
F77D
02E0
FCA5
FD08
0631
023A
FF85
FD03
FE5E
01BA
FFB3
05A2
034A
FCE9
04C4
0147
FE90
FC3F
021E
0197
FEE7
01F2
0220
00A3
00FD
FEDF
F766
004D
FF93
00AC
F9BA
054D
FF24
FF17
035C
FB5C
FA68
00B9
FC9F
FEC9
FDC9
0230
02D4
046D
FF1B
FF3F
FEE3
043E
0368
03FE
0119
FBA5
03F9
00C4
03CF
FE9A
FDCB
00B2
FCC5
FBC7
02E9
0053
02E5
0077
0028
0226
FEBC
FFBC
015D
FA24
030C
037C
FE38
FB0F
013B
01A3
0020
FB89
FE86
01A7
0125
FD70
00AE
FFBC
0361
02E3
FBDA
FDCC
028D
02F1
0197
01B9
FC9C
026F
F97A
F9D1
FF36
F9B8
0645
0182
FF8D
FCED
FDD6
FF86
FED5
FD45
FCDF
0266
0422
FEED
0010
FEF9
FE2C
0052
FE2E
00A0
021F
FE73
FDAC
FDD9
03F4
FED5
FE98
FC8C
02C2
00A0
FEDE
FB5D
FFBB
FE5D
FD35
034A
FEFC
007B
FD97
03CE
FE49
017C
FD4A
FC8E
001C
FC20
0004
00BB
0185
FE95
FE12
031F
04BF
FEF9
00FB
0224
FE0D
FF98
001D
FE1F
FECB
FDA1
FE23
0105
0267
01FF
02F8
FDBF
FE57
0084
00F5
01E1
01FA
0050
0082
FFEA
FEE0
0090
0168
FF8A
FF72
028E
02FD
FD46
FED8
FF54
0008
0016
00EF
FDAA
02AE
FE04
FD2A
FFF6
0398
FD30
FE53
FD78
0036
FBDC
FE71
0332
FFB8
007F
FDEC
0027
FFF7
FDB1
FEE6
FDBB
FE68
FFD2
0019
FF4F
018F
FF8E
001E
01E3
FE38
0123
FF3D
013B
003E
01A0
018A
FE64
FDCA
FF52
FEB4
0163
01C0
FDE9
FEAC
FE2D
FFE8
FEC5
FE14
FDD0
FFF3
0257
00F9
01BB
01C3
0197
035B
0109
FFE8
FDE3
025A
001D
FEC2
FDB1
FF62
FEA0
005E
01D5
0039
FE78
02EB
FE77
014D
000A
024E
0146
01A9
0099
FE3A
016F
01F1
FE02
00FB
000A
FDC6
00B4
00CE
01AB
FFF6
00E6
FED4
FF8F
00A6
FFA6
FDCD
FF6B
FE4E
022C
003D
021A
00E2
FEFB
0149
01EF
012F
01AA
000B
FE22
FF8E
018D
0201
FDF5
01DE
FFEE
FDBF
FED0
FF6E
0029
FEE8
FE0F
01C5
0325
FBF4
FEEF
0241
FD66
FEA9
FCC6
0051
0236
FE75
0241
FF63
FF03
FE76
013C
020D
0094
FE26
FF38
0297
031D
0172
FF82
01CB
00ED
FF0A
FEDB
0108
0152
051D
FFCC
01CB
0109
01C7
FC99
FE72
014E
0099
0183
FFCE
003F
FDF2
02A0
FE1B
FEDC
006F
FF52
0018
FE0E
FF7B
FEBD
FFCA
0164
004C
FEC2
FDFE
02A8
FED2
FE83
0004
FF56
01A3
FDFB
00A0
FD71
FFFC
FF91
FE08
FDCC
02C3
0075
FE9D
01E9
0210
FDB1
FF45
0012
FEB3
01D8
FF10
01CC
FF2C
FF2E
0177
FD34
FF6D
0082
0104
FDEC
0026
FF99
0168
0082
02E2
FE1D
FEF8
FD3A
01A0
023B
FF10
FD36
FFD6
0141
026A
FF70
FE2A
01B2
FFC9
0183
00EC
0275
0289
FE8C
FEE4
00CE
FE7F
FF60
FD3B
FD1A
FF22
00AE
003A
FFF3
01D6
FFDD
0197
FFB0
FEF7
FF37
FEEF
012F
FF5B
00E5
FFDE
FEF0
0154
FF0D
0112
0084
02EF
FF2D
FFCA
FE00
FFB4
0177
FE82
016A
FD5F
FED7
02B0
FDC5
00C3
0127
FDE1
0168
FE7F
021B
0099
FD49
0049
FEED
000F
FE4B
FE89
02A9
FF8F
FEC8
001D
FE99
FFA5
01DC
FF7C
FEEF
00C1
FED5
FF6B
017E
FE74
FDA6
FE7C
FDAF
01CB
0044
FDB2
0090
0087
0180
0242
FE0E
FE28
0090
FB7D
FEF8
FF6E
0332
0048
FF82
0243
0108
012F
FFBC
0106
0183
0265
FF99
01C3
0127
0243
00A9
0162
FED5
FF5D
FFFD
0276
FF4F
00F7
FC61
003E
016C
01A5
FF3D
FFB5
FEF9
017D
FF01
FE21
007E
00C4
FF52
FF56
FF9E
02A8
011A
0051
FEF0
0032
0216
01B3
FFB5
FF53
FE53
01A1
0111
00CF
FEF8
014B
001E
FF62
FE69
FE87
FEBA
FEBE
FFF8
FEDA
0142
FEBC
FE00
0050
0018
FFE6
0222
002E
FF68
0226
005A
FFFF
0170
00A0
00F6
00A6
00DC
FFB5
FDE7
FE50
FEF6
01EF
0040
00D9
015E
FEC8
0089
00DE
FE5E
FFA3
FF93
FFA0
FE93
0048
0028
FF3C
0116
008A
0153
01C3
0061
FFAA
0321
0127
FBE8
0429
0279
04BC
0050
FBF0
00E0
0455
005D
FE3A
0304
0187
FCB9
FBF1
FF1F
0341
00D7
FDC2
018C
0447
FE8E
FDF0
FEB9
FF5D
029A
FE75
FBA0
FD30
027F
FDE7
FC9F
00DA
FD94
FEEC
FF7E
FFE5
FFE1
FF91
0376
FFCF
03C0
0060
FD0E
FE31
02A9
03F4
03BA
0168
FB1B
0085
0373
FDD2
037A
FD17
003D
FE96
FE30
020C
0308
0162
FCC3
03A4
0408
0023
009B
FE6C
FD21
FC48
01C8
FEE2
FCAB
0073
FC73
0240
FBEC
FD00
00FB
0366
FC66
00DA
03EA
0331
0022
FCFA
FDD5
049F
FFA8
0406
0538
0136
039D
FD16
FBBA
FFE5
FC48
0448
02B1
FD78
023E
0365
FB1E
039A
0697
FE33
001D
FDAA
0132
FD8B
FD9F
02CD
FDEE
092D
FED5
02A2
026D
FE07
FD0B
FF0F
01BE
FFEB
FF0B
FD9F
0093
FD28
014F
FD9B
FDCA
001A
0155
FB9C
FE39
0296
FCA3
FC2F
03A0
0124
0220
FFE8
FCEF
FBD9
FD21
FB44
00A4
048E
0184
FD81
FD84
FDED
01F1
02A3
02FA
FD73
02DF
005A
FFFE
058C
02B0
FE9C
FE19
0093
FF4F
04BD
FF4A
FEB3
FCC3
008A
025D
00A7
FE1A
FEDA
FEE6
035C
02EB
FB01
FE96
FED9
02C2
FEBD
00C0
0323
013E
027A
0132
FD26
FDAF
03CA
0117
02C3
FBF7
FE6B
0070
FC6B
FF5B
FBD2
FEBE
FB3D
F91C
FEFE
043B
FD62
FD84
0500
00B2
0162
FC3C
010A
02DF
03BC
05AD
FD80
00CD
FF8C
0500
FA26
F957
0887
FC07
016D
FFB2
02EA
FE09
FC4D
FD24
FE81
FF99
00DF
FE3F
FBE6
03FD
FC37
032B
05D5
FD5D
FCF1
FF3B
FBF4
002C
FCE7
001F
0211
0252
FE31
FA9D
FC7B
03DB
02CB
0213
034E
FA89
036B
FE4C
02F3
0057
FF05
0029
FF8F
FB7B
091E
0119
FE9A
FD6C
029C
000A
00F1
FF6E
04C4
FC00
0059
FDA9
FE65
FC87
0700
FA6B
056E
0200
FE7C
FEEC
0387
FF4F
0268
0010
01E1
FE62
FBF7
FCAB
FFCC
0390
0137
00FE
FFB6
0308
FAAA
FC5F
FAEE
FC99
0701
0604
FB9A
FFAF
003B
FF82
FF21
FDCA
FCC3
012C
0014
FEEC
FF09
01E8
FD52
004B
00C1
FF8E
03D9
FE56
FCA3
FEA6
01A0
0094
FECA
01F7
03D4
004B
FF78
FFF7
0241
FC9B
FFD9
016E
FFEB
0038
0186
0300
FFC6
012B
FF8A
FDA2
0150
0013
FE34
FE36
FF22
01F3
00AE
FEBF
04B4
FE7B
FCBE
FF42
FCE7
0253
FFEA
0067
FF05
FF15
FF31
002B
FFD7
FE83
01C9
FE32
FCCE
021A
0197
00F0
021A
FD73
FE37
FCF0
FD80
FE3B
FEFA
FEA1
0081
001B
0355
FCB3
FEF3
000A
FD69
00D2
FEE2
01B9
FF10
FDE1
FCEA
FD1F
02D0
FD34
FD22
FC95
01FD
FF99
0003
0259
0150
FE6C
FEA2
0042
00CE
01CD
010D
FF8B
FE29
FFC8
FF03
FFA4
006A
0063
00BE
00AE
00B7
0051
0369
FEE1
FEDB
0283
FFEE
FF24
FE53
0184
FF9D
FE7C
0012
0169
0184
FDF4
FFDA
FF5D
FE73
007F
0049
00A8
0025
0016
FFF0
011D
FFB5
FF1D
FEB5
FFFC
FEF8
00FF
00A2
FF9C
016B
010C
0013
014C
FD97
FF80
FFF6
FE2E
FF46
02F7
00C8
004C
FD8D
FFEC
FDD7
009D
00C3
FF41
005F
0200
FE8B
009C
FDEC
0010
00AF
FECB
0093
01DF
FEBD
0251
FDB6
014B
FE25
01E9
FDA9
01C2
00B2
FF50
00D9
00D9
FDC4
006E
012A
FE22
FEE7
FD7F
005A
000C
FF1C
0100
01C1
FFB9
0565
00E5
FF34
FDA6
037E
FE04
FF70
014E
015F
042F
FF52
FD36
02FC
00F8
036B
02B6
FFB0
FF2D
02AF
FE71
0158
03C5
0331
FD5F
FE4E
FEAA
0049
FD0C
FFB3
FF6A
FDF6
03BF
001E
FF9D
016C
FE68
FEA7
FE8A
010C
02B6
FC4C
FED6
FF12
FD3A
0054
0000
02A3
0582
FBD7
FE66
0332
014A
FDAD
FDC9
FF16
FF30
054C
FF59
018C
00F8
0028
FF15
FF57
FD31
FDFF
00A2
01EF
FCC8
01F9
006D
01E1
0032
0270
0226
02D9
0143
FE50
012A
FD20
025B
0518
03CD
FCB5
FE20
FFC6
0220
FF4B
FE4A
FDF8
035D
FF42
02FE
00EA
00D1
0120
FEF2
0001
000F
00A7
FB3A
FBC6
02F5
0039
FE79
FF56
FFA4
011B
0619
FE7E
00A7
0160
0132
FD21
0092
FF06
0081
00CD
FDE5
FC34
00FE
FE97
010B
013D
038C
FE9C
FF4E
FF4A
03F1
FD79
FF75
FFFD
FF42
FF53
FD08
0249
01ED
FF04
FFBB
02C3
0106
01F6
01E4
0052
029D
FFFC
FE61
FEF7
01E1
034B
FFFC
FDA5
FDF9
0081
FF3E
FF41
028D
FD32
00DC
FDC9
FEA4
01AF
00FA
0137
FD16
009D
02C3
FF54
011C
FC62
FDDD
FD41
01CB
0097
002A
015F
FEA1
FE2B
FD57
0009
FE0B
0028
FD26
0227
02C7
FF46
FF9D
00CA
FD70
02F7
01D3
003B
FF30
0436
FF5B
012A
0115
FE25
01D6
01A8
00DE
FC0E
01C4
0145
FF2A
FC73
F431
0293
FE2C
01A2
059A
FEBE
FD6C
0056
FF0F
FCC3
01DC
FADC
FD0E
FB30
FB0E
FBD5
00DE
0420
020F
FFC3
FF63
0317
FFDB
0101
0488
FCB4
FE7E
FF58
FCEB
FE4C
FDA1
FEEA
025F
0058
F8E8
00FB
05BC
015C
FCE2
0372
FE3E
FA85
0204
FDF1
FEF7
FBD3
FADB
FDDF
040E
FCC2
FC96
01F9
0310
FA30
0132
048D
0107
FDF3
00DA
FFA4
FEE1
FE59
F9D1
0221
FCA2
05F9
090B
FD4D
0805
004C
0310
03E6
FCC0
FF99
FE89
FF8E
01D2
FF6A
0389
FFD8
0076
0354
0133
FE2B
02E6
02EA
0185
0244
00A3
0156
F938
FE1F
FB82
FDE5
0207
F906
00D9
FF42
FDEA
0372
0050
0150
01A3
FF0F
0470
0617
08B6
F6B3
021E
02B5
FD15
012B
FF60
015E
FE72
FC0F
01D4
FFCF
07B7
F9EF
FEBF
FE8B
0173
FDFC
FB10
FEBB
0456
FBD8
0232
01EE
FDC6
0031
FCE8
FCBB
012A
FDA9
0259
048E
002C
042D
FEB7
FEB1
0263
0675
0622
014A
FC81
003A
00B6
FA84
0351
FCB8
F9E1
FA34
FC56
01AB
052E
031F
FA45
00EF
035D
FBC4
01BC
005D
FFF6
FA85
00DB
FFD7
FB00
00ED
FBF7
0289
FDD7
FDEE
0341
0642
FBA9
03B9
0292
0552
F883
FADA
FD52
02E0
01FD
031E
03BD
068F
049F
FB4A
FE30
FAF8
00AB
0416
01F3
FBB8
FE39
0065
0127
00E5
0137
FFA9
015A
020D
FE68
010F
FFDD
FFBC
FEC7
0079
FE7A
0080
FFD6
0160
FED7
0438
FE19
FEC2
FEF8
0056
0364
FDD4
FEB1
FED1
FDE8
0020
0145
00F9
FE29
FFC6
FF21
FF40
01DF
011C
0033
FCAC
FD80
FE3C
00EE
FE53
002A
0094
FFDA
01A4
FEDD
00EC
02B3
FFBD
FF09
020A
FF82
FBD7
FD16
FFD7
0028
FEBA
0254
0099
01D4
FF44
FE5B
FEE8
FDEF
0021
FEA2
019D
01B6
FE47
0254
FF77
FCF3
FCE9
FFE7
FE4E
FE96
0197
FE1E
FFC1
FED0
FE65
0010
01D5
FF02
FF0B
0046
019A
FEC9
02EB
020B
FE17
012F
FC87
027F
FD5B
FDE5
FF1E
FF4B
0331
000E
0017
0049
FF92
04B2
FEA0
FE6B
024E
FE9B
FB29
044F
0212
FFD0
FFF6
FEF7
0395
02FF
01C6
FCF2
019C
FEC9
0093
FE01
FDFA
012D
008F
FC50
01EB
FE7B
FCC9
FE26
FFF4
FE69
FFEA
0154
FC89
0102
FF2A
014B
0043
FEBB
0217
FDB7
031F
FE8C
00D7
FDF9
FF53
00BA
FE9A
FF82
0234
0138
007B
FD63
02B2
0023
0232
FFE2
0217
FF5E
FEB2
FE58
0040
008C
FE60
0290
FC85
00F1
020D
FFF9
004A
009B
0386
0036
FEDA
FE3D
0155
FEED
01C4
01B4
FFB4
FDC9
FF02
FE0E
005F
0088
00B4
FEBA
FF75
FDED
FE46
FF10
00AF
0115
FD2C
FE4E
FCB1
0163
000F
FFDC
0338
FFF4
FFA8
0301
0019
FFA6
FFD2
FFA4
0451
FC34
064F
FB5D
0308
FF00
FD50
0122
019B
01DD
FE14
02B1
FEA1
0250
0014
04D4
01F4
FCB8
FEF5
00A8
FE9D
0195
02E6
027F
01FF
0000
FF7B
01B6
FF9E
FF80
FD85
FC7C
FF32
00C1
FF1C
FD6D
00A7
FF9C
FE93
03E9
FDD2
03F9
0268
FC06
0197
028F
FFA6
FCC8
FEF9
FEA1
FAED
00F2
FD9D
00B5
0273
01B5
FF99
0155
0111
FE88
0156
FF4E
03BB
F9E9
0040
FD45
0456
01E2
FF52
0194
04C3
FE08
03B5
03BC
FEDE
0206
0949
FE05
FD2F
FFC8
FFF8
0184
FF4A
0014
0389
018D
0140
FF54
0171
0268
0056
FE8D
02BD
0208
FFA5
FFB4
0059
FFD4
00C3
00E9
FF99
FE68
FF5B
FF78
002E
FDD7
01CD
FE19
FD4C
00E6
0146
FDAB
FEA7
FE82
FE71
012D
FE96
FE45
004C
012C
019B
0223
00B4
FD75
00A7
FBEC
FFD0
FFA0
022B
02AE
006A
FF54
FFD6
0110
FF05
0244
0376
01AC
009A
FF2E
020C
025A
FD74
FE60
FCD0
02DF
FC60
FEA4
025F
FE80
0265
009B
0092
FEE9
FDD5
01FE
FF6B
FD05
FF23
0289
FC89
FD12
00B4
FF97
FC8C
FCD1
FD2B
00A1
0277
FD28
FE77
00BA
0304
0221
FCAF
FFDC
02DE
01F7
0161
0201
FDE7
FEBB
FF78
FD3B
FC67
FCD7
0365
044D
FE63
0123
0010
0114
FFE2
011A
FF48
00E4
FDD3
FE6F
00E8
FEC3
FE77
FF3D
01F6
0216
0013
FFAC
FE21
0094
01EA
FE9C
FE0B
FE91
014C
0146
0020
FE40
0142
0024
010F
029B
022D
0068
01DE
0083
0094
FCC3
00B8
FC79
00AF
FE53
FF7C
FD99
000A
0004
FE58
FF29
0247
0015
FB4A
FEAE
00B0
FF84
FF4E
FFB7
FFEB
0142
FFF5
FE62
01C2
FEFC
0133
0050
FEB7
0320
00D7
FC83
013B
FED1
FF51
00A5
FBD1
0049
FFB5
FE31
00BD
01E9
01FE
0002
FEF5
FD98
FF6D
FF5D
0169
FFE3
01E1
FE5B
01D1
FEC8
04DA
FC7F
FEC4
FE68
00ED
FEF0
00F8
0387
FE6F
FF99
0016
001B
0158
FFC2
FFDD
00D8
FF56
FEA5
FEE6
FE73
005B
FF7E
FED5
FEB9
FE70
0132
017C
005D
008C
027B
007D
012B
014E
0019
FF1B
015F
005B
FF45
0069
019B
00A3
FE67
FE47
026A
00E3
0045
027D
00D4
FFFC
FEED
0363
FE31
FDE7
0035
FE2A
FF40
02F5
0190
00B1
FD41
01F0
0093
00DE
FDCE
FEBD
FFE4
0116
0023
01CB
02DE
FEBD
FF69
01AE
FF7C
FDE6
FEAC
00A7
FF2D
FCC9
FF6E
01C5
FDC5
01CB
00D9
FED6
0069
0057
011E
FDDC
FE3F
00B5
002A
FEB7
FE87
FCE1
FDC8
FFA6
00F3
FDEC
FEFE
FD85
FFE6
FF69
FEBA
01C8
FFC0
0229
00C2
FF5E
FF9D
FD76
022C
0032
FE61
FD90
FE66
FF1D
01C6
0170
FE90
0056
011B
FE5E
FC81
FDC8
FE7A
010E
01CE
FE28
0199
03F5
FE59
FD9D
FEF9
0120
02AE
FD98
FFA5
014D
FE9F
FDB5
0390
FFFF
FE30
FCD1
FF26
01D2
FEA4
FD2C
FE6D
03C2
FD95
0181
0192
024B
02B1
FE17
0260
0185
FDF9
FBBA
00DB
FF3C
0139
0056
FE75
FD12
FE3D
FE7B
FCDE
FDF8
0390
FF82
FDB3
FD0B
01B4
0175
02DA
046A
FFED
00CD
FF43
FBC2
FEA3
008B
FEBE
0254
00F3
0170
FD95
FCC9
0022
00E5
FF0B
0013
FDDE
0118
0167
FBD4
FC72
01C1
FE22
FD2F
FE24
004A
FEFD
01B8
02EE
00EE
FDC2
00AA
0014
0164
0033
01E1
0132
0190
FBCE
0049
01D6
0160
032B
FE58
FF8B
0087
015B
00A4
FEF0
FE37
FF1F
0179
0013
FF0E
0293
FE0C
FE9E
FEA3
0012
0020
FF1B
0143
FE76
0076
0119
FEC5
0037
00CC
FDD9
007F
FD0D
0013
00AE
0025
FE39
FEB0
FFA9
004D
00A0
001D
0093
FD59
FF2D
FF9F
FE23
FE18
FF83
011F
FEF0
00E3
FF5D
FED4
0182
004B
00D9
FE28
FEBF
FE59
00FF
00FE
FFF0
FF5A
FEE7
FFA8
FDF3
FFB4
00FA
0165
017A
01EC
01AB
0192
00E1
0046
FEF1
FFCB
01ED
013C
015A
0272
0142
007C
FF00
FC38
FE5B
01B1
009B
00AE
00F3
FF60
0131
FFE0
0368
03CB
FE96
00B1
0038
FE44
0101
FC4F
0154
00AF
FFB4
015D
0032
078E
039E
0084
FE0D
03BA
FC9B
FDC4
FD60
FC75
FF76
FEC4
0007
FC32
0269
FFBA
00F2
013D
00FE
0058
056A
0A2F
FFE7
01E0
065D
FB22
FE6C
02D0
FDC9
FD53
FE7D
01EF
FEA0
03BC
0213
FDE2
FEAB
01C0
FC86
025C
FE97
0184
010D
00A8
0198
011B
FE4F
FDD4
03DA
FE91
FC6A
0560
039C
FCDB
FDCD
FD36
F9F5
FD4B
043F
FC40
00A3
0371
FFF3
FC9F
0017
0064
0153
0021
0419
FFF0
0208
014E
0182
0103
02D8
FB06
0441
FCF8
FE67
FED8
FEBB
FF83
FC58
FDD8
00F1
039B
FCCF
019D
02CE
FBD4
FD05
043A
02E8
026E
FE6D
FCF8
0468
FD5A
03C1
00F3
FD6B
0767
FD51
FDA3
FBBA
02E0
0078
FB7F
045B
029E
FCF7
025B
FFE9
FB5C
0371
FBE6
00E1
F834
047D
FE6A
FF87
020D
FF1C
FB70
FFCF
FDC3
0323
FE52
FFD8
FFF3
01A1
01DC
0222
FE35
00E1
0412
04CB
034C
FB6B
02FE
0101
F977
FFA6
FB9F
016C
FB8B
FFEE
FD58
FFB5
019C
01EE
0635
0112
FACD
FF93
FE23
FB5A
FF74
0327
FC3F
FC73
FF0E
0086
FE54
FBC2
FE68
FEA4
04B2
FD05
FDDA
02F0
0331
0140
FB17
01AB
03C2
01D9
019D
03A7
0217
03C5
FBAB
FC1B
FC36
FA3A
051F
0477
FC1A
002B
FD09
FF09
FD65
FDED
FFFF
0313
0276
FFDE
0244
02BF
FE09
FC49
FFA0
FC1A
03F8
011B
FC24
FF24
027D
FF1B
006E
FEC1
0202
01B2
01CE
02DE
021C
FC75
FEBC
03ED
0287
01BE
FB81
03BE
025F
FF44
00F4
FF68
053D
FE92
00C6
0261
0210
032E
00DB
02DF
0356
FF88
FDD9
0044
FF17
02F0
FE15
FFAE
0188
FF89
FD5C
FC7A
0128
01D4
025D
0029
FD9D
FE39
00BB
00AF
FFC9
009F
FF0E
FCF5
FEBD
0071
FD74
FFE9
024B
0152
FF7C
FC4B
FCEA
FF10
FCE2
FE62
FF4F
FFD5
0031
00DA
FEF8
FE71
03E5
FEC3
FD47
FFDF
007B
FDC9
FF23
035C
020D
FDC0
FD93
00AE
FC99
0023
0273
0222
0077
FE2D
FD8C
01E1
0061
FE16
FEFE
0178
FF1B
FDC2
FFC1
0208
FD2C
024C
013A
019A
FF83
02FF
FF4F
FDC1
0136
FF51
01AA
FF95
FFFE
FDC7
FF69
FFD1
FF19
FD70
0078
FFAE
FE87
00AE
FEE1
008C
FE68
FE89
FE1A
FE1A
0111
015E
01D4
01AB
014F
FED1
FEF9
FF28
FFEA
022D
FF0C
FE83
01F1
FD0A
FED1
00D5
00F8
FE58
FFE5
0266
FE5E
00D2
FE24
FD5B
FDF6
FF55
0085
FE3B
02AC
014E
001F
00C2
FF58
FDD0
FEC1
0126
002C
FE24
FF66
021D
FDE0
FEDC
00F5
0107
0080
FF62
FD65
0202
015E
FEE5
0230
00D7
01C0
FF0F
FBED
FEB2
033F
0077
00A7
FC94
FD6E
FF00
039C
FFC2
02C2
FF6A
FD38
001D
048F
FF26
029B
FFE0
FD7D
015B
02C1
FECC
FECA
FF69
0203
038C
FDE0
FE2E
FFAA
FC89
FC31
00E4
0310
FC61
FDF5
0238
014D
FF30
FE9D
FE58
FD88
FFD7
FF95
0344
FFEE
001E
03B3
0257
0282
FC9D
FBAE
0044
FE60
0265
FF02
FEC9
FFC2
FFFB
FE96
FE4F
FF08
FE8C
011E
02D4
FF1A
01CA
0113
030F
01CF
0116
FD83
FE6B
FD62
FDBD
FEED
FE34
0396
0012
01A2
FC40
FF57
00E0
FD24
FF28
FCF3
FFA9
0098
FE0E
00C5
004A
0359
FCF2
01DA
FE08
020D
035B
003E
023D
023F
FB3E
FCEC
FFC1
019E
0111
0190
FE89
FE19
FE86
0027
FEBE
FFF0
FF22
FF6D
0083
FF45
FED3
0083
FE51
FFB9
FFF2
0178
0095
FFA8
00F1
0140
006B
0162
FF02
0034
008F
0039
FFCE
FEF7
FF64
FF09
0170
010B
FE93
014A
013C
FE80
013E
FF39
FE2F
FEBB
FF6D
FEC4
FEEE
0125
FE11
FE7A
0072
FFD0
01FC
FEF8
FF37
0085
022A
FF70
012D
FFDB
0163
0135
00F4
0255
00AD
00D4
00AA
00B0
FF11
FEAB
FE29
01A2
0061
0006
02C6
FFAB
FEE8
01F3
FFAC
00CC
0233
FD8F
FDE7
0152
FFA4
FF81
FF97
00AA
FFF0
FEE9
FE36
FDD3
FD93
FF89
0050
FCB3
FE33
FFE5
0289
FDEB
FE9F
FDEF
FCDE
01D2
026B
01BE
0046
005A
023B
FFF3
FEAF
00AF
FDBA
01BB
FE26
0174
FD94
01D9
FF6E
FE22
FFC0
FD19
01F2
02D8
FEA0
FEBE
FE6B
00DB
052D
FE50
015C
01E4
01A0
FEBA
00F1
015D
FDFC
037D
00DB
FED6
0103
00FA
0200
FF1A
FFAD
FCFE
0050
03C1
00BA
FB3D
FFD2
FD54
FF83
FD4D
0001
040D
0028
034E
0091
0040
FEB2
0139
FCEA
FB6F
0342
0289
FEE0
FF8A
FDF0
FEA0
FFEE
FEC2
FE84
FF35
FDEF
027B
FE2C
FCD2
FF77
00E3
FFDA
0097
FD18
0215
0076
010F
FE82
01A1
FF4A
02DF
0067
FECD
039A
FE6A
FFDC
FE73
FD6E
0242
00A9
0024
01C3
FF1B
FE99
FF99
FEBB
FE5D
FBDA
FD98
004C
FE25
030C
00D9
FF7B
02C8
FF78
FF64
FBEF
0201
FDD3
01AB
FF8F
FE1B
FED9
FFE5
FD41
00F6
FE7D
00F2
0196
FC46
FEA8
FF49
0217
00F4
FEB2
000D
00AD
FE5C
FF2A
038F
00DC
FFB6
008D
FF1E
0098
FEEB
FF27
FEE7
0218
00B0
0076
0190
FEA2
00FC
00A2
FDF5
0449
FE0A
FEDE
0278
FEF2
FF25
FF0D
0004
FF7D
FFE1
0105
0061
FDA5
0180
FDBB
0007
FFB7
0258
00E9
0042
FFB4
FF71
FFE4
FEEF
FE97
0100
FED2
0222
FFCE
003D
0132
0192
014B
FE86
0000
FCDE
FEE0
00BF
FDE0
FF9A
FEB0
024F
FD9C
0583
02CD
00E0
FF64
02C3
014D
0026
03BC
FE64
01AA
FC9F
FF8B
055E
0186
0044
01B1
FCB5
FD61
FFDF
FEFA
FE3E
03E8
0112
FEAB
FE6A
FE5B
FCC2
FD53
FFEB
019D
003C
044E
0025
FF6E
0321
FFBC
01D1
FE2F
01F1
01E3
FFCC
00AC
FE27
FDCC
FD73
FB0C
0264
0332
FAEC
FE28
02D9
026F
0125
FD74
FEA6
01D2
017E
011F
0054
0429
FBE2
FB91
FFC1
FF81
033E
FF92
FF0D
FECB
0356
0204
00CF
00A6
0314
FF58
0456
011F
FE0D
0111
FC15
031F
057D
0380
01DF
FFA4
FE56
0579
FC50
FE20
FED3
0136
FD3C
06B3
0039
00E3
FF42
03BF
FC37
FC43
FDA1
FA7E
FB6C
FFA1
01F1
0152
FFBD
FFEE
0100
03C1
01E4
0256
021C
FEDC
0086
00D2
FFDC
01F5
FD13
0071
0282
FCC7
0011
0010
0094
0198
FEA2
FE3A
FE4C
0021
FF5B
FF3A
FDC6
0265
0289
FED9
00AB
00E1
0098
014D
002C
0506
02D9
FF6E
FF48
0134
FEF2
FE13
FEFB
FF83
FED8
0107
00C0
FDB3
0233
FF23
FD23
FE83
0055
01CE
FEA7
0053
0023
FC94
FE34
FD68
009A
0038
00AA
0045
0106
01D1
002F
0273
017A
FDBB
0183
FE0A
0153
00CA
FF6A
FB58
00F7
FFF7
FE86
01C7
FF50
0037
FFA6
012C
01B9
FDD6
FFC4
00E9
058F
0163
FF33
FEC5
FD96
0154
00A3
FFC9
03CA
005F
0320
FFDF
0689
02C0
01D2
FC70
FD63
FF65
FA24
000D
0298
FEC6
FFF2
0169
0007
05BB
F9B7
FA8A
FED4
024D
FF2D
0117
FE65
014F
FF9C
03B5
FF7E
FE6B
FCFE
FCA1
01D4
00CB
01EC
FD60
0296
FFAE
03E8
0355
0503
02A4
FEDE
FF9E
FF36
FF7A
0503
0251
00A2
FD5D
005E
FFB0
FE51
0342
007E
0261
01CC
025E
099D
FEDE
FE4F
FAA6
FDF5
0154
0020
FC90
FC52
FF96
05E8
003E
FDB5
FEE4
FDC9
0334
010A
01D1
FCFA
FFE0
FD69
FD53
01CF
FDF4
0774
0031
073E
0194
FFDD
F99D
00DA
FF48
FF59
FFFA
FA28
FFB3
FE6E
02F5
FD25
02C1
FB75
FFB2
FFCB
01EA
FA51
FFA5
03BD
01BC
FE51
F98B
0066
000C
035A
0838
0328
0147
0120
0217
FB0B
FB48
03C2
FD26
FF97
0088
0111
FEBB
0218
FC44
FEE7
0080
FFD9
0262
F6C4
0447
01A8
FF10
02BA
F7DE
FDC4
0133
FE76
007B
FEDC
0223
0133
0108
FC83
FEE5
FF4B
02AF
0148
FED8
FFFE
FE2F
0533
018F
03C0
0201
FF38
0106
FEC3
FB29
048F
FBD9
FFA8
00C2
00AC
01D8
FEAB
0083
08D3
FC1E
03FC
00C4
001E
FB6F
0609
FED2
0190
FFE3
FDC1
FEE9
0222
FEB4
FE57
0006
0104
01AC
FD67
FD1A
FFD3
004C
020E
0380
F9CB
FF87
FCB3
FA6C
FBAD
FE02
0628
02EF
FE89
FF06
FFEA
00C2
FEEE
0063
FCE8
03BD
FF2B
FD97
002D
0250
FE76
FADF
FFF6
FDE5
0219
FE34
F9CD
031B
00D1
FD5A
FEEB
009C
00CD
016A
01D7
FF84
007B
FD45
FCED
04AB
0332
FEF0
FEFE
FFE0
0122
02A3
008C
FFC7
007C
010D
FF80
03E7
01CC
0239
04DB
0394
00E4
FFF4
FF90
FFCE
FDB7
0345
02DE
FE21
FE3C
FFD8
FC5F
0094
0189
0268
024E
FE98
FEC2
FF56
FFEF
0123
053C
FDD1
0072
0189
FD9E
01D9
FCB7
FFAA
FF90
01EF
01C1
FCAA
FDF2
FCEE
FFD8
FC29
FFF6
FF87
02F9
FDCA
FBDD
FFCA
031A
FCE1
010B
01CD
FE95
FC24
FEA8
007A
00B5
FAB8
FDEB
FF37
01EF
FD93
02F3
029B
01E6
FF66
FEE5
018B
035E
FFC6
FEE1
00A9
0249
FFCD
FF39
FD52
0059
0259
FEE4
0306
02BF
01AE
FDC0
0258
00D0
0031
FE41
002F
FF42
002A
FF77
FD68
FF6C
0211
0069
FDDE
FF64
00A1
FC20
017B
FE8D
0269
0267
FDBA
FEAE
FE9E
022D
FEC0
0093
FF28
FF77
0045
FF01
FEF4
FFA5
FC5D
FE9A
FEF9
026E
00EC
0143
FF67
FFF8
FF7C
FE02
0186
0364
0097
FE5C
0131
FDA3
FE21
01E9
0117
00A1
0097
011E
0000
013E
FE52
02D8
0071
00C0
00A5
FE84
0176
014D
034A
0003
011C
FE7A
FF42
0186
0125
FFDC
010A
00E8
02BC
F787
FEB9
0518
FE61
FFBC
FCAE
FDCF
0046
00F6
FED3
FF8A
0088
000E
02D9
0274
0233
0335
02A2
FECB
FCEC
04A8
FC20
FEDF
05DF
FDCD
00AD
02BC
FEBF
0118
013D
011C
0AD8
04B4
0277
FEF5
0271
0239
FD97
FFFA
F8A5
03E3
FE50
0420
004E
001F
FF40
00C3
0208
0063
034C
FF91
FEEC
FC4D
0188
FF4A
002E
FD43
FDEF
FB87
0300
00AB
FE99
FE95
FD89
FDF6
0488
032B
FFD6
08AF
0113
0284
FE60
FC19
0161
FE92
FDC2
03FE
0274
0452
FA85
0091
FD43
FC8E
FE4C
F85F
0179
0858
F803
FEE3
FA35
04C0
FF40
057D
FCAA
0275
0275
FFD2
0346
001D
FE12
F800
03EA
026C
FB79
03E9
0211
017B
008F
FC8A
03EB
0485
003E
F6C7
04ED
009D
FE73
01D1
FC84
FED1
01AE
FA87
0046
0206
05E1
FA44
FEB8
01E4
01AE
FFB9
FB8D
02CD
020B
FEB8
00C0
0511
FE13
FDF3
FBDC
035D
FAE1
0199
0347
05A5
FF9F
0307
FBCD
FAC0
000E
03DB
0136
FEFC
FEFA
0152
0281
0155
00C3
FC86
FE34
FE44
FDCD
0481
0A72
021E
FCF4
031D
0464
FE9D
0613
FF86
FE56
F89B
0112
FEFC
FD41
0286
FBF3
005E
FBD0
FC54
0500
0417
0018
03AF
03B9
017B
F9AE
FD00
FE6B
0071
02C9
0154
00B7
0215
0460
FC61
FFD8
FEAC
0349
003C
01BA
FF31
FF61
FF44
FCA5
00B7
019D
01B4
FFCC
FC1D
FEF5
01E6
FD8C
FF64
FE41
FCC3
FDC0
03E8
FD89
FF20
0339
FF60
003E
004C
0180
00A3
FD8D
0265
FD12
0101
FFF6
FB00
001F
00F6
0301
FFC8
00DF
FB93
0487
FF7D
F8EF
00F7
FE61
FD7A
FF4C
00D0
007E
0121
0BFB
0354
FE53
02C3
0192
00AC
FEF2
00B9
FDE3
FD6A
FDDB
FE31
02C2
FF9A
0496
02D8
003A
010E
FF74
0118
029E
03D4
FC8E
FA14
FEDE
FEE0
02E6
FDA0
0772
004C
02DC
FB22
0060
FCCF
0100
FE7A
FD59
FF63
FCCD
FD5F
0229
F866
0076
FD48
019C
FFD7
FD4A
01A8
FC1E
0093
011A
FF27
FC3C
004A
FE92
0341
FEBD
004E
FFE4
02B2
01FC
FF4D
0025
00EA
FB66
038D
04F9
FE72
04B3
FCA8
FEF1
050C
FDFD
FE1A
FE83
FE53
FEDA
012D
00C5
0020
012F
01C3
FCD1
0331
FF03
FF83
F7A0
FFD2
FFE3
0274
0566
FEFE
030A
02CB
00C2
FEB6
FF9E
03B5
F9D2
FF8E
025D
FE23
FC00
06FD
0099
FC88
03F1
02CA
0087
FFC5
044F
FF11
FF21
06B6
FF80
FD63
FB80
FEAB
FE65
0090
01C5
0305
01D4
FEE4
FF4F
01C7
02C3
FE30
F9DF
0413
0211
FED5
F70B
FEBB
FDBF
033B
02D2
FE3F
FA76
FED9
FE9A
FE49
FEF0
029D
FF5C
09F7
02AB
000F
008A
FF35
0005
FCED
FF5B
01A3
FE2D
FD0E
FEE1
FFA8
0236
0002
01DA
03CE
FEB1
03E6
009B
0364
FF4F
0066
01F2
FFF6
FEAF
FF21
FD96
018E
FC09
FFFC
FE6C
0120
FDB9
FDC7
FB2A
00F1
FCA1
003B
023D
0084
FE83
01BC
FEF9
FE3C
FF26
0293
FE01
0178
00C0
FC63
0145
FEE6
0218
02B2
024A
0324
FFFE
FF2E
FF8F
0002
FC10
0398
FCA3
016D
016F
FDF1
FE32
0003
FFE0
0077
FF37
FA6F
003A
01DE
01F5
009D
0194
000F
FD31
FF2E
FFF0
037B
014E
01BB
0073
FD85
FD8F
FEFC
00A2
0169
014C
00C6
01BC
0278
FD0A
FE74
0080
0574
021C
FCB9
FE57
0357
FEEC
0146
01E7
0263
00E8
FD71
FE9F
FDE8
01B6
0119
0062
0023
FE17
FFEE
FE73
0081
02D6
0155
FDB3
FFB7
012C
FF79
FEAA
FE25
FDDB
FE43
FF64
FF1D
0111
FEE5
01C7
FE99
000C
00F9
FF33
FD44
FF63
0079
FF39
0237
FFC6
FDB5
01AD
FFE5
FE94
FFFF
FD6E
026C
FFFD
025D
011E
0182
01CF
FF99
FFD8
0226
00D9
0282
FE28
0011
FFE8
0004
00CE
FDF1
FFF7
0136
0094
FFB2
FE53
0158
FF34
FF39
FEFD
FF02
FF74
0063
FEDF
017E
00FD
0093
FF82
FE3A
0088
0069
FFC7
0154
FE11
01FF
FDC7
FF09
0296
FF26
FECA
FE4C
0013
FD7A
FF99
002F
0159
002E
012F
0460
01C2
0124
0126
FED7
FF2C
FFF2
FE08
FB6F
01E2
FF84
00F0
FEAC
001F
02E0
F7C5
FF75
02A3
FEC7
006F
0154
02D3
0091
FE7F
FE32
FF1A
FD56
FF62
FD23
000D
0252
01AE
FC8F
012C
0236
0279
026C
00FA
0047
004C
FF31
FF55
01C3
04AE
0177
FF3F
02AD
FCA2
00ED
00AB
FC73
FBC7
0061
0155
00C3
FEF5
0371
FFB1
01EC
FCDA
FFEA
019B
010C
072D
FEDF
03EC
01A4
0174
0176
01F2
FE8C
012A
FF6D
FD71
04B1
FFE8
FEEE
025B
0311
02C3
02C1
02C0
00E1
02C2
FDAF
FE01
0189
025D
FF4C
00FB
0246
037C
FD6A
02B7
02F6
01FF
02D1
FC3C
FCB0
0222
FBB3
FD1A
FFB3
04AD
FE60
01F6
FF2F
FDFA
030D
0652
FFEE
02DA
FA3C
FECA
006E
03B4
FE42
FEFE
0663
F7F2
FD42
01A0
FCCB
FE8C
FD12
01A1
0360
FDBB
FFE3
FCDD
F927
04D1
FEA5
FD0A
FE74
FEA2
FE5B
FCE3
00D5
FD1D
FD6F
0402
FA3B
0014
F735
036A
01B0
0378
0680
0055
FE84
00D0
0422
02D4
FEFE
FE02
0548
04CE
02A3
0465
FC94
FD24
FAF2
FFE1
0039
0104
0501
0160
04AA
0456
FC0F
0373
0077
FB85
FD61
083A
FAB5
FEE9
FDB1
FE22
FE8E
F8D3
F972
0325
0117
FE76
03DA
04F9
028D
FD32
FC26
FC43
04F8
FDF2
019D
032D
03E4
0137
FD43
FEFA
06B3
FC5C
020C
002F
0575
0407
0183
FF1D
03D3
FFF2
FC29
FEC3
028E
0573
0088
FF3F
053B
0128
01FF
00FE
FF9C
FE0D
0162
FEB0
0117
0195
FEA7
FBCB
025D
0008
FDA3
FCBD
FFC4
03D8
FD36
049C
FE84
FDD7
043B
01F6
FCB2
0272
02EB
02D6
FCCA
00B5
FBDA
FED9
FCCA
0054
0A6F
07F6
F9AB
0082
04A1
03D3
04F8
FF7A
02AA
01FD
03E2
FFC8
FF84
0390
FEAC
FF75
FED5
05AF
FCA4
FC54
FFB5
FC64
05B1
FC0B
FD3F
FF4A
036C
007B
0212
0680
03BE
FCED
0014
0291
0531
013C
0284
01B8
FA8A
028A
FDEF
FC18
FC22
0454
FD01
03FD
003D
00CC
FEA9
FE8A
FE12
00D7
0045
FA0F
028B
FC0A
FE43
0324
005E
0282
FF53
0535
FD9C
FD1C
FD65
FB37
068A
FF53
FD9A
032F
0081
FFFD
FF67
007B
01F0
FE6E
FD97
FADE
032B
0179
FDD0
FDF4
017A
0078
004E
FB6A
0100
FA78
FC86
0041
FF76
09B9
FB38
070C
FC0F
FF54
FE87
01FF
014F
015C
FF72
FE9C
FDBB
FEC7
01ED
01F0
FFE7
029E
0024
FEC2
0180
0437
019B
01BE
004A
FDF9
00B8
01B6
FDF7
FD1C
0097
FD7F
FEA0
021F
018E
FFDD
0179
018A
FF2E
0299
054B
FF60
00B6
F9B3
FB83
004A
FD55
FE21
FD11
0352
028A
FF57
FE56
FBAB
0121
FDE6
0310
FEA7
00C5
0161
01E2
001E
FBEC
FF6E
008D
FFCC
FE2D
0002
FEC4
005F
02C2
0041
0173
0173
FF84
0015
0101
FF99
0329
FF23
01C0
FFA7
FFF8
FE1C
FDA6
FF1A
01F8
FFFD
FEF8
FFC0
FD81
0227
0017
029A
FF5E
FE03
00DD
FFD1
FEFF
FE50
031D
FFF9
01F5
003D
0085
001D
00CB
FE53
FF1F
FCD8
FE73
0132
014E
019A
FE00
0125
0017
FFA9
FE89
FE71
00F2
01F6
FF9D
00FA
00E2
FF0F
FF94
003F
FF4B
00F9
001C
00C8
FF70
011E
FE7B
00CD
016D
017A
0052
FFA5
00CA
0237
00E5
017F
FF42
0232
00CA
FF67
0038
FF97
00B5
FD3B
0194
01F4
0037
FFE4
0296
001E
01E6
FE7E
01B0
01CE
FE83
FED2
FECB
00EA
FCD8
FBBD
0236
01D0
0375
FECB
FB71
02B1
009A
01B7
0100
030C
0055
FEBC
FC0B
FDBB
02F3
FD81
FBB9
0055
024F
FF51
FD5C
FE62
FCEF
01BB
FCA0
FB3F
FF2F
029D
FD49
FD36
0111
FEFF
FD15
0208
FF66
FF7E
FED8
04B4
0436
0218
0283
0002
FE85
012B
02BF
010F
0460
FCC5
007F
0266
00F1
011E
FD5A
FCB3
FD41
FB9A
02DE
01D8
04F6
FDCA
04B7
044B
FD2E
0205
019D
005A
FD26
03CC
FC25
FF25
03B4
FDC5
02CA
FBEC
FD66
FECD
00C3
FEB3
0247
03FF
01A3
FE9B
FE1A
FD11
03A4
01DF
044B
00B6
01DD
04EE
FDF6
FE5D
FF5E
FE9C
02C1
02EB
FD66
003D
FDFE
0013
FB7F
FFF7
0064
00C6
01CF
FFA8
0193
FE37
FD9D
FEC6
FF8D
FD25
033A
016E
FB37
FFF8
0322
02F6
FF1C
FCB2
0296
02DF
FCEF
FEE1
0189
FF35
FD5E
0729
FF71
0126
FE2E
0012
0292
FE7B
0250
002B
01D0
FE36
0239
008F
FF59
FF1A
0250
0365
0120
FFC9
0086
FC5C
00BF
032D
0030
FF94
FD7A
FD9A
FD65
FEC1
01E9
00F4
031E
FD2C
031E
0084
033B
014F
0251
FE25
FFC3
FFA2
FEDC
00F4
010B
FD1E
0003
FE11
FF04
FF29
FCBD
0095
FCFE
005D
FE9B
0094
FF8B
FEAC
FDE1
FD95
0346
01C4
FD55
FDFF
0336
FF0B
00D9
0257
03F2
FCAF
FE29
FFFF
FE52
FF5A
FEC7
0172
FF47
FF7C
003A
027B
FEEE
FFA7
FD8D
FF8E
0004
011D
00B8
FFE3
FC59
FEE3
0204
FEB6
00BF
000C
FE2F
FDB1
FD6B
01E6
000F
014E
FEE9
FE29
FF05
0225
002A
FF8E
FEDB
009C
0046
002F
FE7A
003F
FFB5
0321
003B
02E2
0091
FE2D
FF24
FF5C
FD36
000D
01E3
FFDB
FF34
009B
FFDC
FF02
FFAF
013E
00A0
FF14
0253
01DE
0226
FEBF
01AA
00FE
003D
FF02
FED3
FF3D
FE6D
0023
FFB0
0140
FF68
0058
0154
002F
FFC8
FF45
00F4
00B0
0224
0043
00A7
0306
FED0
00D0
00A8
FDE0
0122
FFD9
FFD3
FDF9
03C0
FF27
0259
FF82
03D9
02A3
FD04
FEBD
01EE
009A
FFA5
F739
FDC8
0129
FF10
03A8
023A
01BD
0859
0038
00B0
06B1
066D
01F6
FC25
02CA
01AF
FD69
01E6
FE60
FE09
FF9A
FB59
0231
FFBC
F98D
FECD
FD16
0357
FF4D
FECF
06A3
0170
04DC
FB71
00EA
0425
0420
00A6
FD79
0487
FD82
FC16
0246
FEE5
047E
0177
FAD7
04C8
012B
01FB
029B
0244
027F
FE3B
FC51
0011
034E
00D6
FFF7
010C
FFB9
FFBF
027D
086F
0489
FE18
0216
FF9A
021E
0103
FA8D
F85A
0297
FE07
FE5C
FF21
055A
FE92
FFB3
F991
FBB9
025B
FD4E
F9B7
01A4
FEE5
03EB
0065
FED2
01E0
FEFE
FC16
03AA
0498
0047
0097
FF46
02D4
023D
0159
FFA8
FCF8
0097
0186
FEF9
FE21
0455
013B
FF4B
FE25
0105
0336
FF07
FF43
00B5
02D1
01A8
FD27
FEDE
FCC5
01BB
FA46
FD9C
0001
FFC3
FE6C
03BD
03F1
FD2E
FDC1
048E
F6FB
005D
F84D
03C7
FF95
02FF
03CE
FEBE
FEC7
03E2
0191
013C
021D
FD9C
0463
02A1
0005
023A
FF00
FC0E
FD9F
FC7B
013B
009D
0253
00C6
0087
045E
FCF3
0174
023F
FD88
FF76
04A3
FF44
FFD8
FFE4
0151
0467
FC74
FC5E
FD1A
014C
FD87
0347
0365
FFF2
FEAA
FCD0
FD4B
026E
FFB3
02F2
00E5
0319
017A
FFDF
FC35
0052
FA64
02A9
FF9D
FF32
F8DF
FAE4
FDFD
FE25
FD1B
FC1D
0132
0340
FFFA
FD1F
FF7D
04C4
0339
0262
FF02
0025
0231
010A
FC63
03DC
0452
007C
0099
FF2C
0225
FE7A
01B4
0206
FBEC
057B
FFE0
FFC4
FE2B
0099
FC3F
01F3
FD4B
01D9
FE3E
FDBF
0189
FD54
FC9F
0199
039C
03D2
FFFF
FD9B
004D
FD17
00ED
FD7E
FFF8
010D
FF72
FFD6
03F8
00AF
0216
021E
FC4D
003D
0463
F992
0182
02DB
02E9
0212
04DA
024E
0192
FDA6
0295
FF11
FD0A
0363
FEEA
0150
FF63
0080
00AF
001C
0230
0377
0213
FF96
016D
FFD3
01A0
FEF0
036E
0333
FE25
0115
0213
FF20
FF4F
FF2B
FB1B
001D
0166
F950
FE6E
0466
0010
FFF4
FD37
FEC5
FFCA
FF41
0079
030D
FF82
0423
FCA8
FE0C
FE42
02FB
FFA1
FFE4
04F2
03C9
FF97
000D
FD82
F9FB
02A9
FED3
FEBE
FB28
022A
FE02
FFD0
00C5
FB2E
FB66
FF50
FE38
FE52
FC8F
0053
0289
02BD
FD6A
FE9C
FE88
01F2
0353
02DD
FF4B
FCDB
02B5
00C6
FEAC
0063
FBA5
FF33
FA9D
FD01
00D8
012D
035C
FFA6
0399
0209
FE4C
FFFA
009B
FBDB
FE4A
0230
FE9F
FAC5
0376
FF1B
FF74
FDFB
FFB9
03FE
063E
FCAE
FDEB
007F
019A
0478
FD16
FF00
0353
023D
FFCD
0466
FC7F
024A
FC53
FC15
0004
FAA6
02EC
035A
FE88
FD72
0167
FF99
0168
FD84
FF22
02AD
FF33
0110
025E
FFC1
FE68
007E
0138
FFCB
009C
00E6
013A
00B3
009A
FDE3
FFB4
FF1F
00AB
FF15
008A
FCA0
02D2
FE20
FF2F
FFF2
0209
017F
008D
FF9C
FF29
FE05
FD98
FF6F
000B
025E
FFF8
032E
0042
0126
0053
0158
03ED
0287
FE10
FEA6
02E8
FEA5
001C
FEF9
FE42
FFAD
FFA2
0216
00FF
0154
007D
FF38
00F3
01CF
02F2
FFF1
FF9B
0081
FF75
FE91
00A7
0105
FFC8
FFEE
FFDA
FED9
FF45
FD36
FF57
FE08
FEC3
FE1C
FEE2
008E
01AF
FE72
FD14
FF69
00B6
FE80
0177
FDDA
01E0
FF81
0289
01DB
02AB
0118
FC55
FED8
02AD
FE1F
FF72
FF7A
0145
0156
014B
FE9C
0174
FF1D
0031
03B8
FF0B
FC79
00FE
0104
0070
023E
0074
FEF1
0232
01FD
009F
FFA5
FD2C
0071
FCE9
FD0A
FE06
008B
FE85
FE4A
FFE1
FE4A
FE8D
015C
FE16
FD6F
01B6
01FF
FFB0
007E
FEF5
FC49
009F
00AF
FF85
014A
0265
0081
0148
013F
03C7
FEF1
014F
FE99
0292
00CA
01A6
00C8
0176
FFBE
021B
0094
02A0
0059
0063
00F4
FDCE
0280
FD1C
FE77
01D4
0192
0346
00BD
FD5D
013F
0042
FDA5
00F1
FF89
0055
0006
0103
FFCA
012E
FDFD
01D2
FE96
021A
0008
FEF8
FF23
FF26
FF07
01D9
FE62
FAC1
FDCF
FCCF
FEC6
FD2D
0477
02FB
FF5B
FD35
02EB
FC35
01CC
FF65
FDDF
0083
FEA0
01B4
02EA
FD49
FB7A
FC6B
0119
000F
06BF
FDA3
008A
FB25
0103
FC7E
006E
FE82
FF4A
FC91
0151
FDE6
005A
023E
FCB2
FC94
FEF2
018B
FCD9
01CC
006A
FC46
0088
00CE
053F
FC6D
03D0
FEA7
FBAC
FD05
0006
FF65
0404
FDA6
001A
0861
FCF3
FFDD
00DE
FFDF
FFF3
FF98
FF26
01B4
FCB7
007C
FFE8
03AE
0481
FC60
0088
02E6
FB19
FD99
FE3C
02F6
01FF
FADC
0288
0042
0660
029C
010E
04E9
016D
02D7
0286
FE3D
FBA5
FE1B
0242
FECD
FF95
FC47
FF36
FAC1
F432
01D6
0306
FE0F
0057
00D4
0233
0343
FE76
FFDC
0407
00D1
060C
02E1
0304
0361
01C3
FF62
FBA2
0084
0187
FD8F
02A3
02C4
0300
0055
FCF1
0007
0197
FD11
FE2D
FB38
0586
FEED
0055
0476
FC1A
FCD2
FC8C
FF52
0410
02E3
009B
00E7
03CE
FDF7
FB6C
FA23
0340
02C9
0219
0176
FE65
032F
01C5
FB90
FE16
FC27
0322
FED9
FC44
0295
FF30
FDE2
001C
0149
0314
FCF3
FF05
FEBE
FE62
011E
FFFB
FE74
FB4C
FFA7
FD40
FEDB
FDAF
008A
F822
03E4
FC24
02D0
0089
03DE
FE84
FE12
FF39
025E
035E
016F
0658
0024
01D0
FE5C
FA67
F873
FD5A
0125
0608
