0081
FBB4
078E
0273
F61E
0201
0026
02B3
0008
0B6F
074A
F556
0385
0176
075A
06C5
FB25
FE5F
FAF6
02FF
FFE8
FDA5
FFB4
01AE
010A
016C
FBB2
0133
06F2
FE20
FE7D
065E
0296
0202
009F
FEC3
0032
009F
FD9F
FC12
037D
FEC5
FEAF
FFFA
03A4
FF37
0287
015D
FFAF
064B
0152
FE7F
F936
F8B7
F8A4
FF62
FA29
F422
0415
047B
079A
FFE8
0335
027F
0730
FF26
FFB4
F84D
0245
0111
0B60
015C
FE0C
008D
0603
00D4
0019
F7C0
FF45
025C
FE83
02D0
075F
0356
0229
FEF2
FD8B
F7FF
038D
F93E
0745
00DE
06DE
F611
0013
02BB
FFCA
066D
FF32
F735
FFE8
FB82
044F
0594
F922
0288
035B
049F
0256
065D
0347
F4EF
041E
FC26
033D
000F
FE90
FE51
029E
FEC7
058D
FB36
0418
FE71
F892
FF9B
03AE
00C2
0614
F899
F89B
0404
F7A7
017B
0443
02C7
F6B3
01F6
FA88
FBAA
014B
03D6
0210
0348
036D
02EC
02CE
0365
01B6
0044
03B1
FDF0
FE46
FD44
FCFF
03D1
FA71
F931
FD36
04D4
026A
0200
0012
0061
0A1A
FFE5
FEE5
FB6D
FCD5
0036
FC30
027C
0313
FDEC
FBE0
012E
FE35
FF24
025F
00C3
03A2
0147
FF17
FDA1
03D9
026C
FAD0
FB06
0057
F86E
0251
FF2F
038D
FC33
FD79
FDD1
F35E
002C
02FD
FF01
0200
FCF2
0378
01E7
FCC3
00D8
FF75
01C3
0259
033D
012A
F9BE
04D7
FC4F
FF6E
FE4B
FFFE
FF65
0483
01D1
02F5
FC0E
03E0
FEFE
FBBC
02AC
02F0
02A2
0221
FCD5
0002
032C
FA75
FD5D
FE6E
02F1
FB65
02B5
FFD0
FCA9
FEBD
FE08
00BB
FF85
FDAD
FE44
FF0E
0428
FF00
FF1C
02F0
0611
01AE
0050
00B8
FFB3
FDA2
FD7B
0186
0391
022B
FFE9
0026
0283
058E
0425
0042
FD61
FDB7
027D
F832
0261
FE51
0240
FBB2
0303
FCF1
035E
FF0B
FE81
00C3
0106
FD79
032A
007E
0263
FD8D
FDDC
FC72
FD8B
002D
034B
018B
FF2B
0357
0056
F9F0
FE7C
FF57
01C7
