FF7F
0116
00A7
01E6
FF9A
00C5
00D9
0145
FF83
FFA1
01E0
FF80
FF9D
FE57
0055
FFCD
01C3
0054
0021
00FE
0004
FFA4
FFBB
01AA
0194
FEAD
FF7B
0151
FE43
004D
0046
00B4
FFED
013A
010D
FFDE
FE15
FEC2
01CA
FFE3
FEF1
FFAC
FF33
0007
0105
00DA
FF34
01E3
FFC0
FFC3
0070
FEA2
005A
FFA4
0028
FF59
0172
FE60
FECD
FFAD
017B
003C
0046
012C
00AD
01DE
FEF6
0071
0021
0127
00D5
FFD9
0050
00A3
014A
01C7
FFF4
00DF
FEA7
FF1E
0165
009C
FE1A
FF2B
0081
010E
FFFD
007F
018E
FFE5
FF27
0037
0072
01E7
0174
FE15
FE4D
0137
FE7C
0103
FFB5
0179
00A3
0007
FFBC
FF3F
FE40
FF6F
FE81
FEED
008D
00BB
0126
0022
00B3
FE80
006C
00AE
FE68
FF73
FF9F
015A
00B6
0039
011D
01B0
0035
FE4C
0160
FF08
00C5
0047
FE78
FFB5
FFDB
0024
FF39
0060
FFDE
FFA6
FF9C
004A
00B8
FF0B
0190
FE3D
01D7
FE1A
00DB
FE75
01AB
018E
FEC9
FEF9
FFB4
FF90
00F6
00EA
FF1B
FF8C
01D7
FE81
013C
004E
0125
01D4
0089
FF9A
FE18
FF6B
FFDA
00B0
FEF0
0041
0127
FEC9
00BC
00B6
00F8
FE1B
FE89
00A2
01C3
01F1
0159
0086
FF71
0127
FEC2
FF73
FF28
0055
FEEC
0159
FFCE
FFA4
FF30
01B1
FF99
00F3
FE91
FEB5
FF74
FEE6
0021
FE6B
FF4D
FE82
008A
0103
01CC
FE8F
FF85
0134
FE68
FFC1
0126
FF54
0027
00D8
0122
FEE7
FE8C
001F
003B
0003
FEF3
FE67
0191
FF9A
FEB6
FF0F
0032
00C3
FF90
0042
FE17
0037
FEC4
FE4D
FF6D
FF13
FFDE
FF22
00B8
FE9D
FE0F
FE89
FE2F
0012
0014
0090
001D
015A
0177
FF3E
00B1
005F
01A8
FF89
0098
FF05
015D
FFD1
FF6E
FF3C
FFAF
FECC
FEBC
019F
FF6D
FF95
00C8
FEBE
FFB8
0001
FECA
0076
FF78
004B
00A8
FF77
FF2A
0151
FE67
FE3E
004B
0131
FE20
00BD
005A
FE5A
FEA8
010F
FEF6
0053
FE74
00C8
0051
FF8C
FF4A
FE82
007B
FEEC
FF35
0066
FF51
00E7
FEFB
011D
00FA
FE47
FEE4
00F1
FE31
FEAA
FE77
FEE8
FF24
0159
00EF
FE86
FFE4
0057
01BD
009B
FFE7
009E
FFFE
01EF
00AA
FFA9
FFFD
FE89
010B
013C
FFE4
01F1
019E
FE75
FF9D
FF3B
005F
01DA
FED4
FEDD
FF22
011A
01A3
001B
0001
FFBE
FFE5
0021
0108
00F9
FEE1
019E
0118
0022
013F
FEAE
FED3
FF66
01D0
FEB4
0147
FFDD
FF3E
0129
FF14
018A
FFC6
FFC1
FFE1
0053
01DC
FE39
011B
FFAD
FEEE
FFEB
FE91
FF9E
0007
FEC6
FE16
0127
004D
FFD8
0143
FE4B
00F1
FE7E
FE53
0039
018A
0032
FFFC
FED6
00F7
007D
0177
01CA
FF2D
FEA8
FF1A
FE33
FEDE
FFAD
FFD2
FF36
0103
FF8B
FF5F
FEB7
01E7
0156
FFA7
014C
FFE1
018A
00BF
01EB
00E4
FFCD
FFE1
0185
FE71
FFCE
FF30
FE64
FEB3
FEDC
01B4
0132
FF67
FE4E
0116
01AC
FE15
01C3
FF7F
00B9
FF97
0133
FE2B
FF12
FE50
FFE6
FEDE
00CE
0087
FEC1
FF92
013A
016F
01A6
FF25
012A
FEF7
FF1D
FFA0
FF9B
0094
FF6C
00D2
0026
010E
FE12
FFEF
FEA9
0171
FEA5
FE65
FE24
0038
FE59
FF1E
01CF
01B4
0119
FF2C
FFF7
00C4
FEAA
000B
0169
FE6B
FEC7
FFA1
FF1F
0123
FF4D
0156
015B
00F2
FEC5
001D
009A
0144
FEEB
FE83
00F0
015C
FE27
008A
FFAC
FEFE
00AB
FFDA
FE37
FEC9
012B
FF4F
FFA1
FE20
FF1E
01E9
00F0
FF08
FFE7
FF6E
FFAA
0108
FFB2
FF4D
011C
FEBE
FF83
01D5
FE27
01E0
FFA3
FF9C
FFCC
FEB1
01DB
FE79
FF5A
0137
013E
0098
FE61
FE5E
01B6
00D7
FF74
002F
FEBD
FEC7
0101
0135
FFDC
00D5
00FE
01CF
0192
FEEB
FEAD
0061
0106
FE61
FF30
0106
019A
0045
FED7
FE70
FFB9
0019
FFE7
FE50
014C
01D0
FE47
01C3
011C
FFCA
005F
FF82
0108
00F1
FED5
FF15
FEEC
0143
FEE8
FFFE
01D6
00DD
FE1C
FE82
FE1F
FEF2
FEFB
0109
0094
FF7F
0060
