FA41
1034
09CE
EDDA
FA7C
0F9D
FF10
FFB1
FE06
001E
FB81
FD65
F793
032E
0B6C
F9FD
007C
045A
0053
FE1E
00C4
FD59
FDC0
FFA0
FF92
FFC4
024A
0404
FC7A
FE05
021E
0875
FBAA
05F9
01B9
03CB
FF06
FAB6
014B
00E7
FB4A
FD0A
F0C6
FAA9
14F3
0586
00FD
F969
01BE
FF99
0293
014B
0022
002D
FF77
FE44
0272
F8EF
00D4
FBD1
FDE8
0157
FC73
FD44
F230
0314
0042
FAA9
033A
0978
0A7D
EE69
F43F
0369
F98A
FAB6
FEE4
07C6
FBC7
FAC8
FE19
04C8
F88C
0564
FE7B
FBE8
FD6C
04EC
0744
F2CC
FDA6
0193
FB35
FC2D
0556
055C
0793
FD76
FC44
FC57
F990
09C5
02DD
FAE1
FE35
FFB5
FA44
FE6D
0415
F3C3
F8EC
0526
F2AB
FFEA
FF2C
F9D4
FC52
F8A2
F97B
07A7
0166
F9DA
016E
0182
FD8D
FD8F
FEE4
FC9A
FFA7
FE7E
FE74
F959
0338
FC69
FBD8
008A
FF2F
0108
F981
F260
F51B
015E
F4B6
FCBA
FCBD
00D6
FDC5
FA83
F637
021A
0060
FD30
FCB0
01DA
FFA2
0277
FB56
0972
01CA
0E86
07F3
FABC
013C
FDB5
FF8E
FF78
FD7C
0043
01EB
FA78
FFC0
04EE
FD38
02DA
FBC2
FADB
05F4
FED2
FCB0
0485
FE41
F9E3
0023
0174
03D2
FF20
0018
FCDC
FDFE
FD64
FCFB
F6BC
011D
FC58
0322
00C9
F9C6
0505
F8CA
130F
0A5D
00F8
00ED
F3E0
FEAD
023C
FD9A
FDAA
FB72
012E
FF6A
0364
0346
00BA
02EE
020A
01FC
FEAA
FF8F
0028
0064
FB0C
EFA2
FF93
093A
09D3
00C9
ED4B
F7DF
0212
0357
11F5
FEC0
F550
F5A4
FC89
0EFE
F56E
0868
F2AD
FA8F
0568
03A0
16A0
FB61
F66E
04F5
0197
F680
0324
FC4D
0122
022C
0016
FED3
FE33
FDBD
FC71
009A
00F4
FE11
042C
FE03
FF06
F5AA
02F4
0F6F
01E5
F9DF
FCE2
FE92
FAFC
FBE2
FF37
F8E1
0508
0048
FAB9
0042
FCD6
FFEC
FD8A
0378
0332
00B4
FEB3
006C
FF36
FFDF
FFE5
000C
FD0E
0017
FA75
FE2C
02EE
01F5
FC82
01C6
FAF6
01D0
FF0A
FBC0
0109
FBE9
FED1
02A4
FD58
FFEB
FFE4
FD7D
FD45
FF5C
047A
FD26
04C0
016B
FEC2
FD59
FD45
0447
FB08
FD6C
FF82
F7A2
F922
0AA7
F35F
FCD2
0171
00A2
0766
030A
FD33
FA3E
05B1
00FF
FE65
01C7
FE8F
007A
FBED
FEC9
0F3A
F86F
F850
FD56
0D6B
0062
FD46
0C13
FE65
FFC1
F6C1
0133
0648
FA6E
00A9
F9D6
049C
00D7
FFBF
FE05
FE43
FB58
02A5
FA07
FEB1
FCA0
FEAB
F99E
FFD7
FE1F
04C2
FE57
0013
030D
00A6
FBBF
FAC1
04CB
FECE
FC5B
016E
FD2F
FEDF
0467
0265
FE05
FD3F
0040
FE69
03D9
FDE3
FFB3
0062
00A0
FCF2
058B
FB38
0267
FAA4
FED5
016E
0176
FF18
FD03
0176
FF51
0617
FBFB
FF1A
EE17
0A31
FC3A
FDA0
0678
FF72
FDC4
018F
F990
0334
0454
FDBA
00AD
FF47
00AD
0961
FBCD
FEDF
076F
00E9
FE21
FFB8
027F
FD8E
FE7E
FCC8
FF45
FD6A
FCE9
FE4D
FF34
F613
FC5C
FF04
0204
FBE1
FA25
FE2F
0184
FA94
FC4C
FE42
F9EA
FD53
FAC4
02B9
0375
048C
F84D
FF42
FEFD
0093
00D5
00DA
034B
FCDC
0144
036C
0237
F66D
FD65
04E1
F717
0BE1
0984
00F5
FE82
F236
FB2A
011B
FF5D
FAB4
001C
F39F
03FD
FF68
FFE0
FD14
FF1B
FD0E
FFB9
FFB1
0237
F9FA
F9BE
0033
0111
FE05
021D
FA74
FC64
0379
000E
FF58
035A
FB2F
FE88
0013
FBA2
FF45
044B
F79A
FAB3
080C
01A7
FB2B
0357
FE8D
FE3A
F9EF
028C
0318
FE31
FE94
FA2C
051D
FF49
FA59
0186
FF24
FFF7
FDA4
FBBB
FC80
F9CC
F8FB
FAF8
0060
FF90
01EE
0173
FE49
FCD2
0424
01E9
FC82
FEE5
FD4B
0085
FB1D
F35F
F5FF
1660
F87D
0303
FB64
FD9F
F96A
021D
FE6A
FDC7
FDBD
0550
FDDF
0315
0219
FFFB
FA82
084E
F4AE
FA92
09E1
0142
FB6A
01A0
F26F
F59A
EE6A
FFDE
F7C2
FD7A
FAD8
011B
0A6B
FDA1
F959
005F
0232
FD73
FECB
FFFB
FAED
FB19
FA81
FF6B
F672
FD03
F680
