FD90
00FF
0081
FFE5
0138
011F
0334
00DD
FF99
FE14
FF15
01AB
FE49
FFD5
0077
00C7
002B
03BC
01D4
FEB8
00F3
FF46
FEDE
0122
FE5D
FE5E
031E
FDB0
FF41
FFA0
FF87
0027
FF89
0110
FF44
0153
00A8
0287
FFCC
0604
0327
FF7D
00C5
FE79
FE06
FE2C
0232
01C3
0310
FF85
0113
FE2B
0005
FF82
FFA0
FFD5
FFBA
FFBE
0425
FFB0
FE92
0020
FFA9
0309
00FF
FF24
0287
FE92
0095
0031
FED8
02A3
021F
FF99
FFC4
013A
FFA3
0238
FF8D
FF84
0226
FE25
0037
FF8D
FFEC
FE52
0093
0294
01EE
01FF
013B
020C
0115
FF64
FF53
FF9E
024C
001E
FD56
0270
