FCBB
FFA2
FC6D
03E2
02FE
05C5
042E
FE67
FB4A
0220
FF5B
FFE9
010C
FDE2
052F
FDB9
FFC8
F96B
FB3F
FDF6
03CE
0496
038E
FFBF
FD76
0533
0031
02EC
FF40
046A
FD4C
FE36
FEEC
FD06
02DF
04DD
FCF4
FC22
01E8
0178
FE57
FC62
FC70
FE34
0043
038A
03C1
0166
0306
FFF4
FD07
025F
FE9C
F9FA
0326
FEC0
F9A7
019C
FFC0
FA6A
0318
0642
FEFE
021F
00DA
039A
FA92
02C9
02DF
FE8D
FCEA
FF41
FF53
01ED
F7BE
0470
FD10
028C
FD0B
FAFF
0230
FE5E
044C
02C7
0143
FF1A
FDAD
02BD
FD5A
045E
04D0
FC5C
FBCF
02B1
0448
FCB7
FF2D
060E
FE9A
02C4
0303
0229
FDD0
0533
FF98
FFDD
F730
FE1B
FD71
FC53
02A4
020E
009A
FF16
00E2
000B
002D
FC2D
FCBB
F981
FEEE
FB26
02E9
028F
04CC
064F
0292
04E6
FC84
00B6
FF63
0427
FCC9
042C
04C5
02D5
00EE
01AF
0178
06ED
FC76
02FD
0248
FFBB
FBE4
01CD
018A
002F
040E
0A06
046A
0198
FAA9
0217
050C
FF96
0427
04D2
FCFD
02D4
033D
FF9E
FF05
081B
0133
0306
FE1E
0709
FE3F
01D7
FE02
FA27
F1C2
F8EC
FB12
FD58
01FF
FF6E
FE0A
021C
02FC
FBFD
02CC
01AC
06D3
FAE0
FBA1
01D6
04B2
FCF6
FDAD
0183
FE6D
0345
FAEE
014B
FD86
0729
0437
0459
0132
050F
FF78
FB92
FD3D
05BA
F8DC
FF02
FD29
05F2
04AE
04C2
FF1E
0034
0071
FCB6
FC7D
0012
FE84
F9D2
F75B
0650
02E5
FFC6
FF28
04C9
026F
FAF3
0483
02A4
FF41
FF4E
FD9A
FEF8
FA8A
005E
FC1D
FE30
FA15
00DA
FC0E
01DC
032D
FD36
FBDB
FC82
03AD
042F
FD7A
01B2
FCE7
FD0F
FE8C
FE79
0103
0458
0099
FB44
0304
0512
0152
04BF
FF0E
0156
FC76
030C
01BE
00C7
FD75
030D
FFB9
0420
007F
02AB
040A
06ED
00BE
03C8
FEA9
FFE4
FE41
01D6
03E0
034A
0149
FFCF
FF4E
0459
FEF2
0516
FE23
01F1
FD1F
066E
FF15
03C3
016F
0459
02D2
07E6
014B
02F6
FCA3
03D0
FFBF
0629
01DB
FDCF
0080
FF1A
0825
02F0
02D3
04B6
FE75
FEF6
FF82
0496
024E
FD75
FD1E
FD8D
0224
FABA
FDAB
0170
02C7
FF99
FD23
F66B
0010
04E3
FC83
FFEF
FC28
055C
FED6
01B4
02F4
06CB
0385
01CC
0100
05FD
FE80
FCF8
037D
0865
03BE
05F1
FEE9
01D3
01C5
0205
0463
FEB8
0566
FE8E
0781
005F
0249
FFE4
0515
05DF
040E
FCAC
FE45
0260
0317
0635
F917
FADD
040E
FCE3
FF65
FBA0
0470
FBE2
040B
FFE3
FDFC
0169
0191
0111
FC53
FE25
FA44
FDC5
F72D
0B7B
01C0
02E3
FF20
06C1
FB11
FF45
01F8
0445
01D8
FC56
01F3
058B
0159
FC56
FF69
FDD3
039F
F6FB
007F
05D0
FB43
FADC
0143
0A6F
0496
0128
FD56
FC52
FA8E
0103
01D3
FC8D
FF2C
033C
04B9
05D3
0451
008D
FCED
037A
FBF6
FCC1
FE19
001B
0452
010F
02EE
F5F1
0318
0331
FFDC
02EC
01F1
004A
0501
FAF9
011C
03FF
0369
F946
00CF
FEE1
002B
FA89
04A8
0A09
0126
FC75
00BF
0301
014E
FC9B
03A8
FFC7
FFB0
05B9
05EB
0451
FFBF
FAAA
FE36
0229
0690
FF6D
FD5B
FCD4
FF07
01B0
04BA
04D8
FD58
0089
03DB
FC76
03AD
F934
FC8E
FD21
FEB3
FBC1
0010
02DF
FF20
01AA
F82F
050A
056F
0376
FC55
FE0C
0298
FD42
003F
FF5A
FD34
FE95
FFFD
0185
0058
06CF
FE09
FC53
015D
FCFD
027B
016D
0325
FEBE
FF2A
0400
041F
01D4
010F
064F
0093
03FC
F885
027C
FCBA
FC15
FEFD
FD4C
01B9
FF2D
FE04
0165
04FA
0314
0356
06A9
FB84
FC44
021C
FD11
0767
07A3
018F
059D
FFC3
05EE
034F
FFDE
0272
0128
FF1B
0356
02CB
F2B4
FC6A
FABB
02E8
FE08
01E6
FED4
FE0C
FAAE
FEF1
FB4D
0363
FD7D
FDAF
044A
00F7
04CF
FA73
0638
05C6
0030
0266
FE52
01BF
FB8F
03F4
0366
017D
FF4D
0430
0277
FA3B
00B2
FC2A
01A6
FB1E
0494
FFB2
FE89
0475
0095
092D
F70A
