FC9C0124
0078FF26
FF780095
07EA0233
FC83F9BB
FED7FD47
FA1AFFC6
FD78FD18
FC5600D8
FFB002AE
FED9FD4E
FE6A002A
026DFBFA
0089FDED
03DCFE8E
009E0449
FFBE00CD
F8420254
FD8501C9
0141FB74
002F0165
01D0FFF3
0197FEF3
013C002F
FE67013F
FBF5FEF3
FFFEFF94
03F2FB62
008CFD39
013306E2
08F903D6
00690316
F875FFE3
FC9000FB
F7A10014
FBF70020
0184FFC1
FFCF0679
FEBAFF34
FD86FABE
0094FFE7
FB28015C
FE2EFF90
FC2E02E8
FFC50297
009D0062
070C00D3
0185FCD0
040E01CE
FBB9087B
0266FFD0
FA660115
017202E4
FF14013F
FF530092
FED80403
FF91FD8E
03EFF960
03A20636
FDFF0122
019F037C
FF93FE1F
024D0131
FC8EFF1D
FD6C0259
FB8EFDBD
0792FEDC
012DFCB2
009BFC83
FDFAFF06
0641FEB4
00E0FFB1
0737FF30
01BF00F4
00CEFDBF
0151FFEE
FA89F9D0
03E3FF71
017D02D2
FF12FE83
FF52029C
FADA005B
FF1A040E
FE12005F
028DFF5E
00DEFFDF
004BFEEE
FB9C0328
FF4FFCE3
FD9A0360
01830021
FF000360
005A0164
0174FBB1
01C60327
04B20017
FC1CFEE5
FDC10451
FE72FBE5
022F004C
06140149
FF04FFE7
FDDF0377
009D0170
FC680553
00CDFE77
0096FFE1
04FEFE03
0274FC5E
00A1FF77
054802E9
018E00DA
FE81017D
00030380
FC8D001E
FE50FF2B
0171FC27
FDFCF844
FDF9FDFF
FED2FD79
FDA3016D
006600B9
FEB4FFFE
FFC0FEFC
FE7B04A0
03DE045D
011CFE16
FDC2FC2C
039103B7
017303FD
02E5FB6B
FF1F00BB
FFE1FBBC
0053FEC2
FD160094
01F0010F
FAFD0242
FEF0076C
FF20FD83
FF6E044D
FF070312
025D007C
01C800F4
023CFD85
034001A4
0648032C
FEB00296
02DEFC09
FF4101A4
FD79013A
002D03BA
FBAEFFBA
02BD0188
FC1CFC05
FCC2002D
FFBFFC4B
0326FBBE
FFEAFDB0
0346FE20
FF6E003B
0259043C
016AFFD6
FFF4FF0B
013F042E
035FFF94
FEB6FF22
0566FEF7
00B7FE3E
0360FD87
FEF40461
FC0C02D2
FD89FDB2
FF39FD06
02480197
00C7FF78
FD5F01A2
FFDA016E
0028FF36
005B0530
0251FC97
FEA5F720
FE72009A
FF60FA26
04AAFAEC
0329029C
FDC400CC
FC590311
FE5FFF00
FD12FDDD
FB37006C
FFC60162
06820028
0093FE49
FED1FFF5
FEFDFF16
017E01A7
00AA00EC
031EFE7C
0010026E
FD55FDEA
043E0117
FDDF0151
FBFB055A
040A0014
FD86022D
0167FCB2
FE97004D
FF620023
01A4F83E
FDD20347
028203BE
FEF0033C
FD0A0190
01170104
00270138
02C2FEAA
FE2DFB92
00F3FBCF
FC20FF0B
FD1CFF53
FE12013F
01B9FBC3
FEAAFE14
01A6FFCC
FB810024
0081043D
021700E7
FCE2FCB4
FF34017F
022C0517
FD4EFA1E
02B5013F
029CFD9F
00170129
026D0160
0240033A
FFC40329
FED9025E
034CFF0E
006F01E7
041A0370
FCBC00DF
0185033C
0177F8E1
02F403BB
06860412
FCA20330
FF36FAE3
019802D4
FCD802FC
FE10008C
00BD0152
0175016B
032E01A1
01E30173
00E9FF45
005DFDB4
008500DD
018700F0
0084023A
FE2B0012
0058022C
01B4015F
00F700BD
FFE200A8
005CFEF8
02140054
FEEEFFDE
000701D2
FF2DFE22
FFB302E4
007A0255
FF34FF9C
01C4FFD3
00880072
01A3FF76
002EFEB7
00440013
019DFEF0
FFDFFD98
025A02EF
01780032
FE8A0249
FDE3FDE2
FDAD0150
FFDD03D4
025A0109
FF65FF8B
FFE500E1
FED401F1
0103FD13
005FFDBE
0026FF8D
020C0163
FEEFFEDE
00830109
016FFEDD
FF9B0193
FE5D0113
FE81003E
01B5FF05
00F90881
FE1E0000
05220149
0162FEBC
FB730540
0445FB4D
00D0F903
FDEB0680
03510311
0930FBD8
087FF8FF
0295FEE8
FD040054
00C20663
FE38022F
0611FF53
F739FA3A
01230265
FD9703BD
0619FFB8
04D8040E
0709F96C
0152FCF9
02FD051C
FB58FC75
F9EEFFB1
067BFBBE
0678F7A1
FD19F927
01A00582
F82FFD33
FE470450
F92300AE
F773FF2E
FEB403A4
FD96FF3B
020BFBBB
FE36FC2C
0012FB83
FE55FCC2
FE540530
02F6FE64
FDC9046C
028E0196
FB3200F4
FE56FD60
FE0E0678
FE23FB0F
04BF0041
02F802C5
FA5F0529
FEAD0076
FFCC0192
01460136
FE1000FE
00E6FD52
01BF0158
065D02D8
FF160289
0228FF54
0285FE70
00D2028E
FE420307
FA3A0170
FFCAFE8B
0307FF36
030B0062
FEB3FCB8
FE51038D
031BFF93
FF45FE74
0300004F
FF6EFFD1
012602EA
008DFD9A
FC8501BA
00D3FD37
0321002B
FDC5FD95
0249027F
FD1FFF7A
FB520271
025A00E0
03E5FF37
007401E7
01890355
0045FF5B
FDCEFF9F
03C8FDE7
0127FE4E
06D6044A
02FE0089
FD0AFEEA
022E018A
00B10061
00B3FF69
FF1B018C
012CFD76
013204D3
FCE50210
0199FFAF
0201FF71
055503F1
014B03B4
016CFD5D
0367FDA6
00CB040D
01D0FE5E
03E3027A
02260449
FC4D0191
FD5200FE
0103FF8F
0068FF12
FD0AFF22
01A7000F
FEA3FFED
02C4039F
FEEFFF03
FF8B0366
00CA01BB
FF9E00CF
0193FF21
FFCDFD7D
FFBEFE5E
FFFBFF31
0204FEF3
FD7AFF1E
01FCFE98
017003C6
0144009C
FCBD0645
F9E4FC10
FD4F01CA
FE9A0214
001C03FB
006F0003
01270068
FF8AFEAB
FC61FF4A
FE5DFEE7
00F1FEE8
02D803BF
0081FF0C
FDB60539
FF9BFE99
FE9F01FD
FFA101DC
0003FE79
034CFEA2
FFAC0008
FF3E0281
0022021C
FF27FDB5
00EA0069
01C8FF8F
0076FE6F
0168FC56
FF7C0167
045000B3
0129FE03
00FFFF52
FDA3006B
FF1802CB
FC7602F8
0327FE7E
0074FBA5
05A6FF56
001F01E4
FF95FE8F
034BFEB0
01BA015D
0083008D
FFA6024E
FF82FBEE
0017FBEE
FFE3001F
0184FF9A
FEF0FE0B
FFA7022B
FF43FE33
0517048A
018BFE45
FB69016D
FF36FF4A
FC78FFD0
FC8604A4
FE38FDD7
00CD00CE
FFCA0231
FD8B01A5
00BD011C
FF34FB82
00DB05C4
0424FF38
FBA403C5
01820210
FEB20037
FD8AFDF2
FFD501A3
014A025A
FDBB00FA
001E006D
FF6EFF4E
00760067
FC7BFE0C
0015011C
035BFE76
0243022F
047802B9
FF1D0178
FD20FF48
FFF80130
FF43002A
006D0134
FF2BFFE8
FE5CFF33
FEE500F2
FECBFF7D
FF250283
FED1FFF3
01660032
FFD601AE
FD9C0281
01180059
FCC3FE51
00A4FC29
009EFA10
0178028D
017AFEE7
008DFE56
03C800AD
04B20022
FEBF0065
01050376
011A0390
02BB0094
016EFF0E
014F01E1
01F7FE1E
FEE6FFA0
027DFFCF
0056FFED
FF9EFFA8
FEB903F0
00B90385
FBCEFEF6
FFD70087
FD9300BC
FF76015F
02D10358
0384033D
FFD1FF7F
FCC3017B
0113FF67
FF90FDE0
0215FFA2
03F1FE6D
FFF200FA
0180042B
05970109
FDD6FE9B
011D036A
00D4FF70
02870185
FD9BFD8F
FF89FFF8
FAC30294
FC25FEA5
FD4102D0
FDE2007B
FEF70083
01A2014A
FCDD01F9
025102A5
0170FFE0
FF3AFC63
FFDD023C
01A2051A
00C6FF18
0388FD61
FC9500FC
0181FF2E
008B019F
FE3D0057
05C003AE
FC8BFF1E
044AFF7B
FEA1025D
0256FFAF
0016FF0F
01ABFF9F
0387FC6D
00BD0223
013A063E
02AB0311
FEDAFD70
FEE00228
FFCD04EB
0587FF1F
FDF2FF74
01270093
F454FE2A
FEEB0099
FDD50144
0041012B
0018FFFD
03900048
FD17FC91
FDB40058
02B2FDE0
FE0C0094
FB2405AA
004F0119
FF10017C
012AFE1E
06F501AA
FB84FE5E
FF94F714
0106FE15
FF8AFDCF
02D6000A
FC8FFFC2
00E506E2
00C0014F
023602B9
FF690429
05360525
FC5502FF
01FDFC2A
FC7FFC79
FF7DFEFC
03BFFF85
0357FD15
0155FD9E
FE7BFF0F
FC980075
FB580052
04E1FDFA
01A70240
007C0155
02E200F7
010903A2
03D90257
FD27FE7F
FE160052
FDB40125
FDEFFD11
FE630069
025F026D
FCEBFECE
FE990355
055B0307
FE0E034D
FECCFE96
02570004
0103039A
0132FB36
009DFE68
0159013A
FBEE0007
FE9802D9
00D103D7
00A90145
FD4EFEE1
0182FEE0
00D5FFE0
01850084
FE5C008C
FD9700D4
FF5EFEE6
FF0EFF7F
FF7AFF5F
003200DC
0000FFFF
00C1FEDC
0151FFCA
00830134
FF880031
FDC20051
020200A8
0306FF98
FB09FB45
FE3A0110
029AFF64
FD0D0139
FDC9024E
FFDA017D
FF5E0428
FBCF01B5
FF68FEE2
024900F9
036200D2
01C50277
021101BE
F93500E3
0300FF8C
FE700153
FF84FEBB
03DEFEBD
FF350024
FFF601A9
FFED004F
FB8EFD86
FD64028F
FF850021
FEF400EA
031B00AD
FEC3015E
FEE9FF9D
02B3FF59
FFDCFCC1
FBED02D7
00780388
FED7015C
FE08FBBF
FFD6FC8B
FD5FFD5F
FDF7FE1A
01D1FD0B
FFECFD24
013EFE2A
FEE10003
00FD03AB
FF2702BA
FDF1FBF7
01F0FB87
079DFECA
FD660241
01210052
FFD9FF8E
FDB1FC3B
0377FED2
FF17FECE
016DFFDD
0082FE79
FFB0FEEF
FE520038
01FB02FB
00EA034A
000C03F7
00EA0135
FFF8FD4C
026907B9
FDEA0171
FEE00280
FEF40198
FDCCFC06
009C0147
021A015E
011C0054
00F4000C
FF7CFE62
FFAC0456
0457016F
011C0074
FF8700E4
05B3FF5B
FFAFFD83
FE03046F
05F400A8
FF780443
00640402
FF62036B
FFA90031
0357009B
04A7FFF8
FEDC03A1
FBBD0079
007F00F2
059001BB
FF1202A2
FDF00164
FBF3043D
030E01AD
01D5FC37
FC20023C
0247FC95
00C0FE3C
FE060131
02D6FBFA
0416F9D8
01B8FC01
0294006E
014D008F
00960154
FBD702A8
FFB8000D
FD46051C
06D0FF94
0071FF78
019FFF2E
0178FB43
FEEA01CB
030A058D
FD920217
FDA900CD
FDA4FFB1
0157FBB0
02DA0012
0542FEBA
FE71020E
FF8AFB4D
002C043C
FDAEFB0C
FB98FD15
FFDB0581
01E9FBBF
0302FF4F
FF4801EC
FDF8034E
F850FDF2
030CFF6C
02A4FF58
0426FEC3
FD05FF8B
008FFEA3
FA110283
FFD4FBD6
FAE003CB
01BFFED8
FB25FDEE
FEDBFE8D
F9F801EE
01F7020F
007602BC
FAAAFCDA
041CFD7D
017102AD
0779FC08
02660195
FFD2FC20
02C7FF9D
FF0F0131
00A4053A
017A01D2
FFDBFC54
03CC0023
FEAF0265
01500058
FAC8FCEF
026300E0
012F00CC
00F102AC
F60C0107
0472043E
FCA6FD40
007005E1
FAB40013
026AFDF5
0385FD9B
FDEC0105
FEACFBE3
FEC00204
01C600AA
0001FFCB
0157FB8E
06F2FF69
FC09FD34
FB08074D
040A02FE
FC39FAF2
FFF2098B
0732FF29
F9FEFFE8
01A6002B
0560009A
0472FCDB
FE730376
03B00155
01E401D3
FEF90180
016A054D
FE4D043D
01180025
043FFB64
FC28021F
FDB8FDA1
001AFE98
F96E0193
004FFD7E
0461FBD4
02D2FB3A
05BF015A
FD650026
FF970297
FA92FC24
0005FC75
FAF3FF7D
01CBFFAA
F6530105
0147FEE5
01340290
FF820176
FD7E0346
F5DFFF71
FC060301
FE82FE95
04B3FB02
03B7020E
00DE0041
018A0364
F8FAFC79
FDA30271
00B9FE39
FFECFF5A
FFE501EE
FFA0FB72
FECC00E6
FAB4037B
FFCC00C1
F9220079
00810577
FF76002F
FF0F019C
009BFDB5
00B700D4
FEDE0053
FE69FC20
FA690279
FF6EFD73
FF1100CD
FEC001A5
FF6301F6
02440465
02F90203
0105FD3C
00AA062E
01F50291
00DCFA2F
FFA3FEB7
FC81FEB6
0440FD33
03E20029
018D0216
02B100F0
FBE6FA8E
FE9AFFEB
0247004B
0178034E
FED8FED7
02C2010E
00C00344
01AA00C0
FBD50021
00B802D7
04090147
0065026E
FBAD04E6
FFF502C8
FF6AFF7C
FE9A0122
034502D6
FE8002C1
001CFDF4
039600D2
03FE0037
FFFCFD0A
016EFF8D
02ABFFC0
0095FF92
00F40084
02020119
FFC2FDFA
015FFD89
01D7FF71
FE0801C0
026D01ED
0247FEE5
FD6F019E
03110021
0059FE4A
00AAFE4C
FF8A00C7
FEE800A9
FF88FEE5
FFEAFD23
00D0FBD2
022DFE3A
0297FF5B
FEF201EE
FA2501F2
FBE5FB0D
FB8E00CB
001E02AD
FE2A0141
01F600BE
FFD903CB
FFF4FDA6
FC55FDC5
0189FFF4
00FA0144
01B802BA
014B0068
FD2502F8
01E1FF4A
0232025A
020601C5
FD3AFCE9
05C3FE4B
FEAB0092
F8CB03ED
0328030B
FDE9FF2B
00CC0261
025DFF72
FED1FC45
03780659
FDD1FD76
FEB9038C
0003003E
FECEFDD6
01360235
07370334
05DE01C9
0089FB79
02A9F96A
000C014F
FB8C0175
0433FF03
06BEFF20
0198F74B
0180FF50
FA57FA76
FCC8FFBB
F96AFF7B
FFC2FB5D
00CCF786
FF8EFEC1
FBD90189
01F3FCE4
FCB80109
FF70F79A
FE600154
FAE300FC
FD4F006C
002E0205
032DFD7F
FD84010F
045F039B
FEE5033C
02C401A3
FEC1FB30
01AFFBA7
00B903BA
05FF04D5
FD98FEC4
FD86FF71
0107041A
04EB008A
FD19FED3
01940377
FD4AFC2F
FE180080
FF13FDA9
FB19FFAE
019F03AF
01A5FC30
0076FF7A
FF8601DE
FF600189
FF11FF5E
FFCB00B5
008BFB91
012B0071
FD39FC73
003501C8
FD5AFF56
00190128
FE0201F3
FC5CFDB5
FDC3011C
00840367
FC1D086A
01C4050D
00D2FF4D
FB7CFFBA
0477030F
00140339
03F0F8DD
01D501B1
0117FC75
06DDFF31
FFA300BB
031001EB
0369036E
FD41011E
FED50113
00F00368
01960290
04CFFF0E
018200D3
0170F906
00610387
019603B8
01D40523
FE49FAE0
007B02FD
FEE1041A
01D6034D
FE0B000C
013C0402
0201FFC1
FEF20406
0019FD24
0315FC78
FE0C01A8
02C9FC8F
00580005
FF1803BF
0007026A
F9FD02C1
039900F9
03EE0120
017FFE23
0159FE31
034DFFAA
FE47034F
FD78FF4B
FC140332
FE60FCD9
FC5CFDBC
FEB4FDFF
FD21FF0A
027100C1
00E40296
FE07FC32
02A40120
02D2FE1D
FB07F7FA
02C6017E
0931FDE9
FF18FCBE
02DDFE20
FF880361
FD1C02F3
FEA7FF73
02DFFF4B
FFEA0359
00D8015B
021BFEA9
FFFFFF0D
012FFC72
02E70054
00EC0512
FFD604B5
FEA5FAE0
FC8402B3
01F0FAE9
FED201B6
02C20084
01FF0018
FF4FFBDC
00340294
017EFE3A
FB9B0012
02AE0200
00A4FAF2
01940120
04000168
FE610034
FCB6FF99
01F50108
0165FD1C
0509011C
FD11005D
FE9101AA
00B5021B
00BCFD5E
FBDC01C9
FF4801C6
FD3C0142
0174060C
FCB80122
00A603D1
FFDFFF77
FD6FFDB3
FE22FFD8
01C8051E
0710FAC1
01E2011C
FCF10136
047D005B
FF3900DD
03B0028F
034B03B1
00FF000A
01160204
FEF3FF24
0155FED1
0297FF09
FFDFFFCF
0250FF61
00920251
0043033C
00320145
FD78FE5F
0475041D
FB9F0682
013C00DC
FC2E011A
FFF00476
FB88FC13
FDB6FE76
003EFD99
036A0035
03E7FBE6
FF490163
FD1D0254
085E0054
01F7FCF8
032AFD7D
FA080058
FDA50121
FCD4FE43
05C1FEBF
FC76F9AA
05C5FF05
003B0189
FF9DFD22
FE18001F
0293FD21
FEF90398
0098025D
FEDF00E9
FF190055
00A0FBE5
FFF400C5
FD23003A
FEC9FDA0
FD410002
0418FC05
0273FE84
FED004DB
0221FEFC
FDC40190
FC5D08D8
FCDCFC17
003CFF3E
004100C8
FCC000F4
FF5B03BF
FD7300C8
FF83FDD9
02E4FE30
F8D7020A
02020169
FEE2FEE1
FDD4FD76
0754FCF8
0038031E
000101FC
FC4EFFFB
00C6023A
03300191
0157FE17
FF60013E
01A2FCF9
0122FF8C
00750286
031E01B7
FE7503D7
01630044
FFA501C3
0125FDED
0410FF9D
030BFBDE
FEB4004D
FD6DFCC0
018F0195
03E000F6
FFAAFE7D
00EBFDC9
000EFFA1
005102CA
FF3EFFF3
FACA03DD
0239FEFE
00E7FF07
0155FD0A
0181FE8D
FDC6FCA0
057AFD77
FD4EFFDF
01C6FED2
FE29029E
FD7CFF1E
FD91FE36
01BE03BC
0395FEF0
004C039E
FFF1FF31
038CFAF8
006A0067
FFDC03E0
027D01CF
FCB4FF1F
FBCD003C
FF720027
01FD0288
FE9A01CE
003300E1
FD56FEBA
FF2001F4
0104FFFA
008C014A
012C00DD
00CFFCF9
FD00FF85
00400090
FC41FF8A
FDF20019
007405D2
0261FCA5
011500B1
001BFE18
027101E6
FE3B02C4
FF18FF1F
FF67017E
0086FFE0
014A00A0
FDDF01CF
FDDDFECB
FF3901AB
014F001D
FEA8FEE0
00860063
012E02AD
01EAFDB1
009D011C
FD0DFDDC
0533FDCE
00E0FF31
007E0108
01D2039C
FD0103D6
005DFED0
0263FEB3
FF5AFE84
006DFDC4
02B9FFBB
0142FFA3
0177FE26
FE340123
03790135
FF8EFFF9
0270020B
FFB80015
FB72034A
01BBFE36
FDECFE24
FCE6FACA
01150690
FDF9F97A
FCD400E6
FFE00795
FB65F92A
02A30178
013BFDE3
FAD00052
F9EF01F2
026FFBAD
FEF8FB5A
03D7FCF1
FAA3FFA6
FA910223
FBAE01A3
025DFA37
F944031C
FAA8FEE1
F9ADFE8F
FF5AFF23
F851FD3C
FF19076B
019607C3
FD65FC6A
FF43FF1D
013405C2
083FF7F8
059F0401
F935FD7A
FC5E0300
FBCB0070
03D803BA
06E30317
04B1FC35
050F02D5
00B30035
FDA6FEE8
0268FCC6
FD9EFECD
034AFECB
FEE1FC04
FC0CFE8F
079400BD
05BCF7CC
03540462
F9990780
F77D02A6
01E3FDFA
0199FA29
01070147
04BDFDF1
0709FBA1
FFE2F90B
FDD6012F
FFE5FE50
FCAB0336
FD3F067A
00F1075C
FD59FDAC
0353FC3F
FF41F677
0105002C
FEE502D1
FD850729
FDB4022B
04D0FFC1
FEA2027C
FE28035C
FAA6FF7F
01B4031C
FD0DFCD7
FCF7FF7E
02A5FDF9
00F004EF
FA38FE92
02F101EA
026BFEA6
02470420
FC39FF70
02A401BC
01B70193
FC53017C
03FC03D9
04E2FE7E
FE2201CC
FE42FBB1
0078FC45
006EFF8B
F747FA10
0042037C
FB1CFFA6
FD6F04B1
03CEFC85
02650054
03350099
FBE2050B
00ABFE28
FF900063
039F024B
FF45FF43
FE53FCF0
FF760189
FBE6FCFC
FF8AFD00
00FB0180
FFF90108
FE1D0167
FFD6FDF0
FFCCFE8D
00D902B5
01D5000D
0084012B
FFFCFCF6
FECAFF98
00CE0022
FED8FFA8
01380194
FB69FF69
0207FE01
FFDD013E
FF390101
001DFE53
036FFE9C
03C4FC67
00120494
0242026C
02470059
0076FFC2
FEF6034B
010BFD40
007F00D3
FD450278
FF6A0132
FC8904BC
FF7DFD69
FCF2FF9F
0184FF72
FCA70039
017600DE
0203037B
001F023E
FF5703DD
FD940029
FE6CFEA2
003000B6
FEF60177
015CFF39
0117FED3
02A401E0
FD8900C0
FDA8023E
0329F9E9
FF2300AB
0036013D
02F8FB43
00E4FE6F
00F404DA
014507CA
FFD7023A
01E80398
FBE7FE35
0105FF3A
FFEDFF79
024100CF
FFAC0207
FE75FE99
FC220121
FDB1FEA9
FCB7052F
FE66FFF8
FEC90419
00F10834
02D2FD93
F8D1FF87
017804AA
013F03A1
FF72FB38
01910142
021EFAC0
0487FC6E
056400B5
0205FDF5
01110264
FEA50289
FF200502
01B604C3
01DC018B
FD5CFF05
0102FF8F
02AAFD80
FF5E045C
03E30300
F94C0130
0237FD84
FE01026A
FEDDFDE1
02A40186
FED3FF52
FDF202EA
049C0214
FECA035D
FF37014B
0334FF0E
FF7BFFE5
0276FFB5
FFE901B0
01D10364
FDFB0182
FD99024A
FF350263
0057014F
00E5018E
0122FD47
02D3FD6A
0154FFB2
FFBBFFED
03440136
01EFFCC8
01F4FD1E
00CCFD2F
FEBFFFD1
0072FEA0
FFAA00E3
008FFDB9
FFA50001
FF1BFF25
FB9CFB9E
0278FF18
03A6FE8E
01A5FD86
01AE00E6
009902D2
FDF200CD
FDD1FF3E
02D8FD32
FEEF013D
0157029D
FF740024
01F30188
0170FC17
01500055
FF0C0126
FD9301FA
FF0DFD4C
FF68FFF4
02AEFF37
02F703C2
FE1400EF
FD0F031B
FB6EFDDD
FF5303DD
FEAFFD1C
01A000BE
0254FD44
0475FEFB
FF42FF15
03DA0276
FEAA0011
FD3000A5
0188046A
FE910081
FF38FE05
032BFCD5
FF1EFBDA
024401E5
FCC801CF
016201E8
00F9FF75
FD3D00AC
0041009D
FF5D045E
0324048E
FE19FA8C
FD3DFE7C
00E303A0
0253FFE9
FDEC0051
FEA70053
0183FF87
0127F95F
019A0179
03A000F7
F8DC0346
FD4601EB
FEBCFFE1
FFE6054F
028601DC
FD73012E
0350014B
020BFF07
01290315
010202A1
FC4101C7
017D0270
0027013E
FF62FAEC
FDD901D1
FF74FE91
041CFCE7
03A202F8
00B20235
01D8FFC4
0222FC56
01C1024A
023CFF61
0177027A
00C30352
FED20323
FF3800A3
027B02DD
FDC6FEA7
FFE5004E
029C020C
00FD00DA
01C0039B
00D3FF19
FF4902EF
FF37025E
FE06018A
0210FFB0
016EFE9E
0348FBC8
FF33FECD
0039FF1E
0219FAAE
0272FD0E
02F902AA
FF9901D8
FFC203A4
FD97FFBF
FC380019
FD2002E4
00FC03E5
009DFF57
01A10035
0039015C
FC59FC95
002FFEB1
FE7EFEAA
02490580
FFFEFDE1
FB7B060D
00C2FF1B
FC7A037A
FF6500A1
FF92FF13
0111FE48
038B02A4
FFF80281
02A3004D
FD250115
FDC6FE11
FCA7063C
011C02B6
0018FC51
045AFF65
0351FC4B
038500DD
FF36FD26
0055FEB8
FF7500AC
09BD0232
F6420073
FC7600CA
F8BF0507
FE69FAC1
FFF4FC2A
023000DC
FB3E0085
FBE1FBAF
FAD201C4
FE2001CF
FF2B03A4
008AF615
01DFFDFF
FE530570
049DFF80
049F0122
FE21014F
FE42FECF
F8F5FDB7
03F3006A
03C9FCD2
0089FFBB
041B030E
03630358
0508FF9B
FBBBFEEC
01A50494
0350FF4C
00A00378
02C4FFED
03D4067E
0222FA87
0232025E
FA670870
005201F7
02E9FFB9
FE1B00B1
FC8EFD0E
01920038
0436FF89
FDA4FD8A
0000FE58
0083FD8C
FE4B01CA
FEE5041E
FF5F03E2
FEEF02DC
0295FC15
FE57002F
FFF80142
FEFB0134
01EE01DD
FA13FE8B
FFBFFD52
FDE20256
FDF10015
001DFF7D
002802C3
F933FE44
FFB90303
0138001E
FF14FECB
01C6FD83
024A025D
FF42F982
04030049
0005F85E
024FFD89
024CFEE0
FF8A0329
049E0394
0088016A
022B0030
FC460113
0658FDD9
FC65FD0C
FFCD0281
FFBBFC02
FEC9FF30
03E10460
044F0122
FF06F94C
02C2030E
FBFC037A
03B30174
FE25FE4B
FE0402E7
FA61FCEC
FDA4034F
FF7BFD1D
03880166
05A2FDD9
FF6C015F
FE9FFCA5
030101E4
FC08FFEA
FC600414
002EFF5D
017BFF07
FDDAFBE5
0517FE7E
FE29FBDA
01A900A9
FE82014C
FC3C0064
00D2FED6
FFF9FBFF
FD5200CC
FB6AFD75
FE220327
01380643
FD05FF39
FE760288
FDC3FE51
FA94FA3B
FF350037
0187FBF5
0179FA36
00640278
0080FDF2
F9F70179
FEDE03D4
FE89FB48
000FFF52
001F011B
FEA4FF26
00F2FFCA
016C00A5
00E6FD75
FB92FF7F
FDE101A3
05D2FC1E
FF36FE92
0080FCE3
045C017B
FDECFFC8
FDCF0255
FD22012A
FE640075
0318FE11
FF67FC87
FF640149
011EF9B7
FD1D02AB
003901FA
00C9035F
003F01B8
01B9015A
FE59FE5D
FE4BFDED
008A002C
0072FFD0
FD50FDC8
FF12FE99
FF1502BB
FC6A008A
FF57FDCC
01BE00D4
FC6800A3
02C0021A
FDC30300
FB06FDFF
FF980077
02B5009F
02E3FA3F
FFC8006C
FC20FCA5
06590156
00D7FF81
0268025D
050703F7
FFD5FE4C
FD6EFF81
0010FF73
02C9005C
033E00E5
FED4FFBE
0051F929
02BFFC17
FEEA040E
0467007F
01AAFC2C
00AE0257
FC9205A3
FF3FFF71
FF11FEDA
01770155
FE11FE60
FD9E002F
000EFECC
FE9CFD38
FF9BFC94
0129FF51
FFD5035D
011A0239
FEE3FEE2
0277FFF1
0127007A
0306FF51
FE8E0128
0024FF91
FE4FFF49
051AFE11
001A014E
FD4800CD
FA4DFEBD
0073FE7B
014900FA
026A0098
FFF8010B
020EFFDB
008BFF3B
FF97045E
0145FE7B
01F0FEDF
FF260050
FD25FDD1
0356FDFE
00F70318
FD8C01B5
FE03FFC9
FE070294
FE71FFB4
FBE4FF08
FF53000B
01F0FDCC
00DEFF80
0090FFA8
019F0030
FD4AFE0C
FD53FFD5
014AFE31
016D0172
FFB9FFA0
048CFB93
FA8CFDD6
F9DA046D
FC8AFACD
FC720207
FF910332
023E023F
00C6FB48
FF1104D1
FB55FD7C
FF3D00DA
FC8EFE6B
FC07064D
FC8CFE79
FE2D034D
F85AFA8E
0731FBCE
0302FE42
060AFA35
FBD6041D
03B8FCA8
FCBCFC3F
03EBFE78
FDF9035D
FD41015E
011601D0
006B06E3
FCF0FF17
00D0048F
FB01FCF2
FD02FD3E
FD3BFB4E
010EF9E2
01C8F93C
070FFF60
01A5FC2D
FF56FF4D
FF82FBD4
FC03FC97
FF7EFF0F
00C10110
01DF00BB
06B2036F
FC380304
0255F9D4
FB36FDCE
FBBB0063
036FFDDC
FE84FB38
06C4F9CC
FF5C0432
00D905EA
02E2FDDC
FF9CFF8E
02870183
0116FE33
0057FA51
03B9FB80
05FF037A
01C803CE
0320035E
09C40083
FE81FFC5
027905CC
0123FFC0
023BFF5C
022B03C4
013DFF4C
FDE30464
FDDAFF76
005A0675
FFF50658
00A3FE97
042C0300
012C01C0
01A5FDFE
FDE0FE22
FEE0FECB
FF02FB70
042EFD90
FD1101BE
00F501EF
FE6A02B8
0481FD39
021C0227
F9FF0375
006D06ED
FDCAFF9A
00C6FDA1
F9400161
03AEFA50
0035FDA2
00FAFB87
01F4FE26
FC31FF98
FFEC061E
0338013E
FB450066
FE5502D4
FC2AFD5D
00E602CF
FCA600FD
FF4E0125
032F0292
FE66FEFD
FF970074
00F7FFCF
0275FF9F
01B3001C
00CF00C4
00C20002
FE47FE99
0034FED1
FF3F013A
004A01FA
000302D4
0059FD89
003BFF77
01470104
FE0B0096
00EE0048
01D4FE02
FF15FE66
0004FEE3
FF09FEDA
FEDEFD82
FF88FDC3
00A6FC6F
FF95FF5C
001E0031
FB3202CE
00D9011D
035400F4
FD78001C
FF05FF37
FF37FEDD
FC95017D
000A0360
FDD2FFE4
0041026E
FFB5FFBE
FF0F00A3
01060297
FFD601A0
0384FEE2
0286FEFC
FD750236
FEF90065
FF16FED5
FE8AFF8F
02B703D3
0065059C
04D9015A
FC71FE6C
FCA6FF4B
03E2FFDD
FEF402DA
04FEFE07
0A32FE3E
FFCBFEAF
0243059A
088F0501
FFA1FB45
00160533
FB590017
086C0328
FD04FEA9
008DFFCB
FCDEFFE4
FDC4FA02
000A0101
FDD9FF6C
FEE300FC
027802DD
FE6707DB
018404E2
0053FBC7
031DFF43
0343003A
FFF4022E
05AF02AC
FBB4FE2A
F8680252
01C10211
FF7AFF1F
02A400F8
032002FE
014BFDFA
018204BD
FEDF019E
053BFCD9
00B2FF13
0324FF7E
003F05C5
FED3059F
FDC905CE
020F0262
FAA503DD
FF0F0166
F890078B
00A4028E
FE020213
0286FF4E
041806DD
FFDC02B0
FFB10056
04A1FE40
FFB5FF3D
020E02BA
0154001D
FEF50014
01B4009F
FE83FF5D
014404CE
FE070061
FEAEFF71
006C0046
01EEFF30
FFFD0139
FFEA01CC
01F801A1
023D0148
00C50033
001AFF2C
02DB0100
01BFFD98
0032FE3F
031EFF30
0284FC0B
0254FC05
FEFD061B
FEAF0123
01A60469
FE2BFECF
FCE0FEC7
FE55FF6D
0231029B
FE28FF03
FF8CFF00
FFF1FF13
FD92FF10
029CFF6D
FF42FEEE
FF6903E2
FF2800C7
FE730517
FF8DFEC0
FEB105B5
FD530256
01E00110
019B02BE
05A603C3
02220123
FED1FF3F
FF750043
03A3FDCA
0050FE86
0107FFE4
0317FCBC
007D02B6
05030385
05AE01F1
FEE4FC73
028205E6
02C8FEB4
02A401DF
FBBBFFD0
FFE2FBC5
FD890366
FC2AFE6B
FE7105DB
00B803D3
006D00AB
02D200E9
FDCB047B
FECB021F
FECDFCFB
0196FB4C
00A8FB3D
02B5044D
025DFF72
020F006A
FE46FB25
04B7FC65
FF04029E
FFD904AA
01BB0633
FC9304CD
0245FFE9
FDC401C3
03E0FE03
FAE3003D
0232FDD2
00DEFA5D
FD3903CE
07E80740
FF1903E2
FE34FE96
FF1103BA
FB7304E7
FD3AFF99
02200130
FDA8FE1B
FD0CFD5A
02BDFCDC
00DC01A9
FED6FEF2
FF5AFF21
FFE20198
FC95042E
02090044
FDAA008F
FD9BFC9B
0255FBF4
00A5FD33
013A0477
FEE100D1
00E2FECA
FE830084
0191FE7A
04460403
0394FFDC
0339FC8F
03250350
0374FB14
FFD2FE93
FE36FCFE
FCDBFFB6
FF64FA4D
FFCD01F6
0138FFE6
FD90011E
F76EFCE0
00CE02F2
00DB0017
FE7E01BE
FEB700DD
01DFFF44
0106FC9B
FFB9FA4C
FEF4002C
FCEF02FF
FC33FF01
FF5BFD71
0018FF2D
FF660352
05B7FEF0
FED3FE9D
02FB0212
FA3505C5
018CFFC0
0187013C
FDE1031E
FC13FED3
FEC602A3
FC6F0142
FF9B00D3
FE6F01DF
0321FC1C
0024009F
04A1FF7B
FE5500E1
005702C6
FF6102E6
FDC80119
0053FFA5
01BAFCAE
007DFE52
01D500AB
FD6EFC48
FEE40020
0137FF46
0067FD1E
FF120021
FD030439
FF3A016F
0055FF32
FFA9FB1D
01D30030
00210045
01DA00F5
FFD400B7
FDFDFD4E
0436FE70
00F202D0
026C015D
FD48007F
FE6D05B5
FFD4FDB9
01DD03F5
024D022F
FFCA0104
01C4030B
FF5FFC04
01650060
000FFF66
FD1A014C
00C0FF30
0091FFC4
FE9C0064
02CB01B0
FFB8015D
FF0E024B
F84CFAC0
FD2EFE1A
FD8401BE
FEA6FE83
FFBB011C
016700CA
FF93018D
00040098
00F4FD6C
FD47FF64
FDF901BF
FF1A00FA
FFD80298
FF5AFCD9
0067FE21
FF6BFE93
FE43FDF3
01BE000B
FEACFDBA
030FFD1E
003FFF8C
FF6902E3
0069FEFE
FF9C0402
03DFFE21
01A1FEB8
FE48FF26
07B6FFCF
FD35FD8B
F9F1FD9B
05FDFD55
02F400F4
FFDB02F1
04A10262
FFFCFC61
FCA7FDC8
FF11FDFA
02B9FEFA
00A60054
FFDD019B
FCCB0556
0079003B
F9B2FEFB
02740175
014A00A6
00D4FD9E
FE33083B
0A6905FF
FF1A0214
007102AF
FCA3FE20
FFE30423
035BFE26
FFC5F9D3
FEF100E3
0447FE0A
FF890329
026E0089
0016024B
FD99047F
046A0316
02C300F7
FDC3FD8C
013CFF30
FEEEF8E3
F78604A6
FD11FEB6
F8780565
027B0287
FF37FD2A
0175FE50
FD6C0255
FEDF036F
01570049
FC29FDAE
04D100D6
0523FF23
0251FEFE
003C031E
0244FCEB
0536FB9A
FF0800ED
00CB01B8
FE3605A2
FFB00571
0043FDC4
006B01BA
03A7FF7F
05130055
02D700D8
011EFA42
FD46009C
FF320638
06BF0539
FFB2FD6C
FE6C052B
FD8F0047
01CD0168
003E0126
FB0D01AC
FEC9FDC8
FFC90254
FD3EFF09
01B1FD7A
FDB303FA
FF40FA5E
008D0138
FFDDFE0D
FD8802FA
FA59FF93
022BFD94
00CA00A3
0018FDE9
FE6AFD24
00B3FF9D
FF1500F5
FFEE0319
00870164
0357FB04
FB81FE6A
002CFA23
FBEE0059
FEECFFF1
FBD406AC
FE9FFC80
02BEFD4E
FE8E0155
00C6FC1E
010D00AA
FD01F753
006D02EF
FC74FED8
FD9F0150
01BD0108
0180FD3B
FF55FD91
00D200B1
013304BA
00FBFEF4
01260204
FF57FC56
0245FAC2
02E60065
07C403A4
0268FA13
00040037
FB6F0490
FFEAFD86
00100198
00F901D8
FE0FFDFE
FD91FC07
FF5F0368
FB36FED5
FD2CFF17
003501C8
FA9902FC
FF5A00A0
01620058
FF97FA15
FC71FE64
05C8FD68
FECF03D1
FEC3FDEB
018A02D3
00BDFE5F
01E9009E
0356FF2F
FD30FE51
038CFC31
012702A5
00BFFD97
00FCFEC1
FEC6FB8F
01BC0040
0129FE39
FE31FF9F
060000E6
FE66FD69
FE74FD60
06F203BE
01DA01F2
FE79018A
05FAFF68
0065FCD3
FD4BF9FA
FF64FB3F
027F02EA
FC9901F9
FD4EFEDD
FCE20001
04000288
F85EFFAD
01B7FE50
0003007D
FFCEFEE4
FC7A0707
026BFDB7
00E80172
FF44FE82
01CF022C
0198FE87
FFBA036B
FD22FDE9
FFACFCD0
01270295
FF1AFF59
FE4EFDB3
0276FE7A
01180192
FFE3FF8B
014300D9
FCAAFEAF
03760334
FFCC028B
00CD024C
FFECFC41
FF6C00F0
00AD0155
03B8004A
01950178
00540283
FFAAFD1B
FF4AFC27
0341024F
0435F80D
FFF1FCB0
02F50444
FC5EFDCD
FE7F02F9
FF7EFE51
FE8BFF0E
000000B7
FEF7FFFD
040800B6
FFE00198
00CDFD1A
FFB9FD74
F9D70283
0194FE9F
0079020A
FF2200D0
FC190061
FEAAFC4F
FE3603FF
00980009
035AFECD
019C008A
FF73FE26
FDAF0404
017900BE
FE58FEF2
FDD701C2
FFB8FE0A
FF11FE2B
FF67FEED
FC21011A
05C6FE85
000AFF8F
04C503FB
018FFFB2
02A40238
FE81FED1
FF35FE16
FEE6FE54
0058FDBF
FDB0013E
03770234
FFC6FE0D
03DBFD70
FF0BFE1F
FEBAFC96
FF9602B4
FFE60180
FC61FF98
0166FED7
FF4AFE91
0020FE26
FF8CFE08
FDE3FB8D
03BFFE1A
FF200187
020C01D3
000402DD
FED90427
001CFDDF
FD69FEAA
02030174
00910035
FEDE0118
006CF6F4
0015011C
06D9FEC7
02E6012C
FF34FD76
FEE3FFAB
FE6B069C
0A220191
FF5F0306
FDF60295
FD550081
01220035
00260298
00E7FFC7
FF3D01FD
0028FC8F
0254FFDD
0581FE42
0219FC7E
FF210087
00A8FE52
FE5902E9
01790086
021BFFC8
FC17FC33
FC6D0064
FD17FCBD
018C0022
029DFFB4
01CFFC1A
FF3AFDBD
00F50664
FFB80181
FE5EFEED
00DAFD41
05CBFF19
001DFFF3
05630403
FE1DFFA6
FD900314
FF600082
FA25FE4E
004601EB
FDA50003
FF9604CD
0091FCB0
020502A6
032F0039
060C0243
01E3FEF6
005FFB20
023F02C1
01C5FF03
02ED0386
01230040
FF68003D
FDC50453
FCACFD8C
FF290408
00D2FE72
00660041
FECA01BF
01470435
002DFDAF
0064FFD2
FDCB04BE
FD8000A4
FEF4006B
014A02B9
FF0F0079
005AFCFB
FF4CFF15
FF0D0390
02030266
FDB1053B
FE41FFA3
FEC2FDAA
044C01A9
FF650136
050FFFF3
007E03AE
01AEFDFC
0219000F
0051FF4B
03C2FC3A
FF72FFA5
FFB70369
0292038A
FD48FEE9
FAEC02AE
04790073
0090FFCA
FE870170
01E70239
051CFE21
FB7CFD9B
00CEFCA1
018EFD8F
04B00054
FE76FF85
FBA00598
00F0FFF2
FC71012B
052DFF07
FFFE00B7
05D0FD4D
008A05E7
009202C7
FC13FA05
FFDF0047
FF45FF63
011F0106
00A0FA44
0105FC2E
00510060
FFD3FB71
FD65035B
072E0193
FBAE01F8
01AE01E3
01B4FEF8
0285FC28
FC93FC61
03C7020B
FAA8FF51
0514FEB6
034BFFF5
FB5F0456
FECD019E
FDDC022D
0101040E
03C800A9
02130148
01FBFD99
FD07012D
FAEF04E1
0277FD6D
0162FDEC
003E04E1
FFEF01AE
FF3E005A
FAE90655
018F0206
FC0B047B
01500825
FE500476
FC67004B
FABBFBAC
01BAFD9B
FDBCFE82
02F70193
FE140109
01130151
FA19FE32
00480100
03580563
FC7BFC45
FF670206
FE7E00A2
FEC5FE4E
FF0E008B
FE8B053E
FE960078
07090011
FEA7FDD3
0109FF6F
FF92003C
0016FF5A
00ADFF52
FC67FF49
FD18FE42
0576004C
FCFDFE98
0185FE98
00BD00F2
0468FEF3
01980848
FFD1FFC5
0478FB8A
005DFE1E
0165FB96
00F0FD9C
FF8501F9
FEA703E9
04700100
FCB00518
FBA6FE2B
025EFE67
FEDAFF0E
FBE7FE75
FEA001F5
FF07FDDE
FE9400B6
FCC6FDF3
FF6900A5
0037FFE2
FBA5FECA
FDB303CB
06E5022B
00FF00B4
FDA8FFB3
009DFE86
FDF4FF48
0363FEDD
03B9FF17
0178FF0F
00D7006B
06230011
FDB303AD
F9AF0488
033801D0
FC66FF1E
FCCDFFA7
FF460429
0075FF63
016F0292
00D1FC4C
FC8B01F6
FF41013A
FF9BFE59
023802AA
04DE0139
FF6A0038
01ABFC25
02C2FC67
FD0001D3
FD58010F
01BFFF22
02B3FC2B
0369FA68
001D00BD
FD190044
FFA600FD
FE610271
011EF962
03A3FC35
FEDDFE36
FDD5FE4C
FE8FFFF0
055B010C
0052FA8B
FDBCFD50
005E01CA
FDCEFFD2
FE1B0120
FFB3FD74
00C20334
0789040D
00420296
04280152
00DBF4F0
0282FF10
02B10525
052D0582
FF1BFC54
FE0A00E3
00F1FD43
FF34026B
FF2B0352
02CE0088
013100EE
007E01CA
FEE70001
FF6800FB
008E0137
0359FF93
01C3014B
00F300A8
FE36FF8A
FEBBFF3D
011A04ED
0128FE7E
029E02A4
FF33FEC3
00EBFF69
0074FFF8
FF0FFFBF
FF3A009A
FECCFEAB
FF1E0030
011400A3
FF78FE3C
006A00AF
FF560083
006AFDA2
FF3AFE9B
FFC7FED6
000A0028
02BA00EF
0093FF7C
01970130
FFCAFE08
FF6000FF
039A018C
FEEA0015
00EAFF3A
019FFFB4
0039FF1C
00B0011F
00240050
001701D3
037BFEB2
01AD01CB
03610348
FF4EFEEC
FEB10096
FF230109
04D0FECF
FE0DFD99
004E0251
FBBCFBE8
FD8BFDE5
02290084
FD1000B9
041CFE04
010800EE
FF09FBD3
06370078
FDB902FE
FF5BFE52
004DFF18
FCF7FE22
FD43FE14
03D8FD82
FF3EFD59
023DFE8F
FD0EFED6
FDEF00BC
FCCF000E
00720103
025901F6
03D807D2
03CC04F6
FFB0FEB4
FF4F00CC
00E90464
FEA2FFD5
01B5FE4C
FDBEFFFF
0365F9A4
06BFFE6D
01E70287
0148FFAC
FA9402AD
FD2B02DF
FC6BFE55
01B600A3
FCBD013F
FE740156
034800D9
FFC6020D
010402F3
FD8502B9
FA78FEFD
FDF20046
FF97018F
FF7CFD6A
06360093
00B10273
04E600BB
FB510110
00C4FF8D
03A9FFB5
FF9CFDFF
FFC2FD22
0624FFBC
019AFD57
00590378
06E402CD
FEEFFF00
01B8FE88
FCF3FBB6
FFC701B4
0026FF8C
0325FE55
FCF104C6
FD5DFC90
FD0D03C5
FC9B026C
009004EF
00B900D6
016107E0
056F0188
00FF010B
FC57FF0D
04240305
00E10404
03BCFE58
0090012A
FCE1FE51
08F7FC05
001EFFF1
02D7000C
FB5B04D6
FCA6073F
FE44FC60
031206E8
011AFE51
0085FCF7
00E0FFC1
02A7FD41
0105035D
077D0648
009D01DA
FF2C008C
00CE02BD
FF6600DB
073D043C
00AC0A0E
0598FE87
019E0299
01DE0142
02F80063
01A5FBE4
01900053
089E0019
0488FE7F
01F301D0
0DC5042E
FF25FFF6
031D0B7A
FD93FFF5
0016027B
0155032F
FFFF00A6
F9D905C6
FA72013D
FE1B024E
0395052B
022F009B
0500FF6B
0325042C
FFFBFFFD
FE3FFCED
FFB3FDE2
08E9FD9F
014AFF46
06420280
FF6AFDF3
F95104F7
0077FB2D
FCC9FC08
FD180385
0002054E
FFDB0369
00C0017F
015200BD
01CDFC97
03B10014
01B5FC66
0167FCC1
FE0B02DC
FD180A33
0610001F
F5F60412
FE31FF56
009D0597
038F00D3
01CD0299
014A03DD
FDCFFBB5
FF8C0159
0368FE4A
FE78FF9F
02AE014C
0156F91C
FF2200B8
056C01C7
0372038E
01640350
FFEC0284
FE7A01C6
02A1FF3C
FF6A01AA
014CFB93
FD9F01E2
FE30FD8C
FD76027C
02B0012B
00360018
0046019E
FF380277
03610367
FF4DFDF0
FE42FD7F
0222FE9A
01FBFFFA
017CFEA6
00CE004A
FEDEFCFC
03EEFC79
00D60162
01CA01D2
FE4E03A7
009902FD
01EA0310
03C90341
01F6FE74
FDDDFF0D
0212010F
013AFDF5
FDF001F7
02480430
FDC001BE
00A30005
000403F8
FBF2FFC9
010801AE
03860139
02AF0141
038FFFCB
FD9A0276
FCC900AE
0121FFB0
FE9DFF72
0153011B
00E00117
FE8600FD
FF33FFE1
FC04FC81
025B0307
01770256
001E0258
FFD9FEA8
00D3FD9E
00D901C7
FE52FE45
0091023F
FEB0FE1D
FF51FD33
FE9FFC02
FED9FE97
01DC00B7
018B005F
00B2FDFA
FF8801AE
025EFF32
FFD9FE99
0296FED3
03840278
FAB2FD83
FCBC0171
FC8C041E
012C0039
FB87FEBA
02C2FDF0
FF31012C
0041027B
FC55FF06
02390057
027E033B
00F10002
FE620044
FCF801AF
0039FEFB
FC8A0233
00290107
0B05FD67
03BB022F
02C204B2
FCA4FA79
FD11FFA3
0457020D
FE39007C
0300F516
0D250628
FA22F9D2
002805DC
0B180560
FD73FDAD
03B10DA6
07CBFFA8
FDEE03DE
014600AB
087AFFFF
0166FFDC
FBE0FE87
FF1300BE
FDD00337
0242FF28
FD200512
FED6082C
05B8056D
03D1FD1D
F9EB0029
057A0969
030A02D2
FACBFAF9
FFFEFB75
0413FAE1
0894F4A4
0938FD8E
046EFF2B
FEBE0281
F6A60114
002FFB5E
03BC0566
0A3F0070
FF060002
04EE0301
0148F9AF
FCD20454
00DE0499
F83D0361
FC6C0034
FBF4011F
04E8FE28
0384029D
FD9D012B
003DFD46
03FC03CE
01610356
FC46027F
001AFD6D
004902D4
00EC003D
000B03D8
FB8800B7
00D5FE17
00F2FD69
FCE20008
015DFDC4
FCC50001
018C0124
05E60418
FDF3FEC4
017304A2
034900EE
0081FCAD
00A8FF15
0387FF67
02EBFDE0
01B0FC30
FE30FE92
039D04FD
FF5000F4
FE94FDF9
00FC0530
FE7A01AB
FA0A04E7
012E0420
FEF201BF
FB220208
FF080020
006702DB
FD98FCAB
01FEFEB5
FE8FFF8F
0A62018C
FCBAFD29
FE51FC8F
01B2FD6E
FDCC0130
05D7FD35
F94800D3
01C0FD68
017E0017
03A606C9
FCB107E7
0092FDBA
FE5603A6
013E04A2
FAD90016
09DCFF9F
075A0011
00B1022F
0397FEF5
0759FBF1
01D5FD61
FE40FE7F
FE3CFC48
F94AFD70
023EFE04
0096FF71
F924FD9B
F89D04F9
FE33FC28
FFCF0153
0865FDE7
0416FC5C
FEDFFC7E
FEFC0166
FC63FF9A
F9B6037C
01F6F8B0
0491F3D2
FC08FB4A
07C2052C
FAF9FF1C
F64A05BA
FBA90154
F548FD4C
FC7702B2
021E00B1
03F4FE9A
FEF0FFAB
0533FE92
FCBAFD4C
080802AD
018A00B4
003A060F
0310F91D
F7A700BA
0EE70433
015F0333
FEB1FF19
F8EB08ED
058204FD
FD95FB8A
009BFE75
074E03F0
03CFFF35
03A6FE66
0652FAFF
04B30147
00250128
FE5403B6
025602FC
FD4104CF
0313FF8F
020A02EF
0528FD2D
FD96FBB3
041F03EF
FD1601C4
FEF0FF18
021A0359
0255032E
0435036B
FE13FE08
03E8032B
FF560143
041EF9AA
0217FE08
FB6E0278
01BDFADC
0103F748
024C060A
FF8E030A
FF7B048B
FFEAFC19
F8BB04D9
FB2D07AD
FF970480
0006FDF5
FF5C0204
FDEAFDD8
0154F8BA
FE7FFDD7
FF2EFD94
03DB03E4
FB93FC84
F9F8047D
081BFE38
FB2600D4
0275FEB7
FB2FFF35
0432FC61
02EE073F
FEEE01A3
FFA401EA
00930278
FDC4FFDE
00BD040E
F8D90212
0381FFF9
04D6FCF1
FFCAFE8E
06B50211
FB2AFE71
FF580269
008F0257
07690042
F9EB013F
FF0FFF2A
FBC005F8
FB13FE01
0036FD27
043BFF8C
FC47FC62
FBF8FB0E
FCE702C4
FC0B00D7
FE1E0543
00ECF50D
0784FE46
FD7B0205
0172FF8D
04FAFEEE
FB72002D
FF81FFC4
FD47F9F4
0261FE2A
0528FEC8
FF76FE21
01CC0082
032B0166
05A4FFF5
006C004D
02F903C1
0155F7CF
021502C0
00DA0503
02D80576
FFD6FAE6
FB58FF32
01C805E2
00EEFFD0
FF40015D
FF0F01B9
03AB04A8
0056FFD0
FF970281
028BFF52
FFA9FDE7
019D00F7
FEA7FE9B
043FFFC8
002DFEBB
00B1FF88
FF8D03AF
018600FA
003E00D1
03ABFED4
FD8FFD80
0121FCAC
FD1D0455
0227FF50
0188FDEE
0072FDBF
FF2DFDD5
018B00AB
FD480143
FD6D00E9
02E9FDCD
00730324
FD72FF3A
FDC1FBAC
FEFF0286
FB75FD63
008CFB95
FFE8006C
0018FE49
FAECFEE1
FDA002A0
FE3FFE3D
FDD50063
FFBA03F7
032701EE
00D700E4
FDBDFE4B
01ACFE75
FEB1007B
FC4C00DE
0222017A
FD6DFD80
01CB0064
055AFCAE
0169FD43
FA770211
04230082
FDA20138
FD3C03D8
FEA80003
00AEFD17
006FFCF7
FE5AFF98
015EFE48
004FFE46
0217044F
FEAA0350
00E002D7
FC82FD65
02C4FE9A
01B6FE95
010EFD23
FFEBFF1C
037100CA
05B2FF55
FF6AFD26
007EFE2A
0077027D
018600C4
FEB4F95F
FF610121
009102C5
008AFCE1
FFD30363
FE0A0100
FCF6FEBC
00B0FDA9
FF45021E
024A0129
FFC40193
FEDA0012
FFDCFE13
FE93FFBC
FBFB01D3
FADEFF2C
FF8C0005
007AFDA3
02BD0738
FC88FF19
FDF8FE1E
03360075
0183FF7C
0484FE13
01080152
FEEC060E
00720116
0508034C
FD3DFE0D
FE660098
00850028
00A6FCEA
04F101DD
02F4FE7A
0091FF9B
02C90050
0076FC60
FE9D03C3
00BE02A7
0190016F
018DFC12
019DFF90
022C012C
F9DD0131
02BBFFBB
021DFC67
0300FE16
FF0EFD9A
010F0538
FD22FCF0
FCC8FC71
032CFCC9
0485FADC
FC5DFDA6
00A9021D
FF26FDA1
012F01F7
FCDAFF1E
FD64FCB0
FEC1FEA5
FC07FF75
FD080077
FED6FCE5
03150239
FFF2026B
FD2D00FB
FF6C00A5
FFC9FFE6
04620234
FC96027D
00A10424
FDB20435
FE69FCD2
00A4FC93
050BFF51
040505DC
04AD008B
F944FC21
FFEAFFD6
0479000B
0042FB38
00E6FBD9
070104A9
FE53FE64
FD720396
07EC0472
FDA10132
03CF0425
0130FF46
00CB0074
021E01A3
0542FAC6
FD1CFFBC
FC8AFFB6
FEB40376
01310460
006DFD10
03B0027F
FF1402F8
0480FF4B
014CFDB1
FC4CFEA4
04DAFF6E
02F40021
0254FE4F
FF7AFF81
FDFBFF21
0432FC98
050F0037
FDD6FFBB
FF800424
FDBFFE91
00B9FC3D
FCC2FD9B
049AFAED
02F5FDB2
0059FD85
005AFFBF
FB5C01E4
FD2B069E
01E70204
FD05008D
FDD90008
0025006B
032D010F
FFAF016C
FD3102B9
00DAFE70
FEA9FCB6
FEEAFF2B
FC4DFF75
00100114
00F9FED3
017001E7
01F701D0
FE96FEA1
FF26FDA4
FE02FF7A
FE410207
FF0DFFD7
00BAFD81
FF87FEA7
03240026
FD520002
00F9FF8B
FE79FF1B
00DE01AA
FE0C019D
FED5035E
FF1CFF0C
FF58FF6B
0049FDFF
FD94FAB0
00CE0466
FFD4FF5A
008A0043
020900F1
05AEFFA8
FEBEFFB3
01C90065
FED600DE
FE5F04F5
011CFEB3
012D03B3
007E0228
FB43FF65
0354FF98
00C3FB88
01F8FC88
004F0185
FF8203DA
FDC5FD34
00B7FFC1
FF6E01C2
01830125
0052FF73
00110039
03FE00D3
012F038F
02BAFCF8
02BE0274
FEDC0321
FF4DFF71
00EB0073
008F01B9
FE6603FB
FBB4046B
02D3FE79
FE15FD46
037B0024
FEC50216
FE9AFF34
FB2C0466
FF3AFFA2
FE0E005C
005C008D
FCAB0144
FF250073
FACF006A
016FFE88
032D0523
FCC5FE88
00EA00C5
029C02D0
056EFE0C
032B01A2
FC5B0341
FB72FF31
FBE700CD
02B903E8
020F0257
00A1FD0B
05A5024F
FF40FF92
020AFC85
003AFD6B
FF2FFFBC
039D0069
FDF2FEA9
FC6A0373
0366FEC7
0251FAD3
008B024D
FE14043C
07D50033
008B013C
FFBA06DF
F606F84F
FA5300A3
FF70005E
FA97FF37
FFC2FDF3
02C1FE53
F961FDAB
01AC0307
02440297
FE6A0147
04280078
FF4A00EE
FC110220
0466FA0C
01BCFB3E
FB73FF21
FD39F9CA
FCA4FFF5
FE3EFCE4
FF57FE3E
013C05B3
FBCC07FC
FFCA02C8
0024FE30
F862FB9B
03DC0263
03BE07B2
0552F8FC
FFE400A0
FBB4F683
078CFDAD
064BFDCA
0241FD92
011E02DF
FD640206
FFF4FCC0
01AFFFA6
01D501AA
01F2FB85
031401DD
003AFC71
029904AC
055402ED
0475040F
0165FBD1
FF5D028E
FE420769
FF23FE00
FF970033
032800AB
FD2CFDC4
FDC1FED1
FFA7FEAF
FEC6FED3
026DFFE2
FDF9FC55
00C301F5
FDE0FF58
0126FF19
01C1006A
006F0081
FDB8FFEA
FCB20284
015DFE1C
FD430178
006DFEFA
FDA4FD01
FE5700E0
FD71FEDA
FDE102C7
FF5DFDF0
FF860240
02560248
016CFE8F
027CFDBE
0131003D
FF0A0209
02A60054
FE2B00D4
02A5FD32
01870008
FE4CFED2
0114FF96
0241002D
FEC90349
003900DD
FFF502F5
FE4401B3
FDBD0007
017400A1
FD7EFF6F
FFB10577
025BFD85
FF0900E4
01AA00A2
FEA800E0
FEA20272
FF25010D
02CE007B
0488FF2F
FF44FB0E
001E0417
0191FDEE
02F6008B
FF270220
0417FF9F
003EFDB6
FA0304EB
FF87021A
FA80FFD6
05CD02C4
FF4BFD00
009E01AC
FD9101F1
02E406C9
F98C034B
008CFEC4
FE21025D
FD410108
FCF2FFA0
016D01A5
FB83FD35
027FFE6B
01D8FFCC
FE6B00AA
0090FBE9
027B01F4
00A3FE57
02FBFE10
019E0029
0386FF26
0313FF1B
FF9702FA
05AE03C1
FCC5FBB2
04E0FF9A
000AFFB6
03C1FE5E
FDC6FCF7
00BFFD56
0234016C
00E50195
FEB006C1
04BD0013
FE9DFB8F
00780251
FF290196
0498FCF3
FC20FD1C
FE7002CF
FD410270
FC7AFE8A
FE2B0363
FB0200D4
FE50FDEE
009EFD05
FD8201A0
010700BE
FD1E00BD
04C3043B
FE26FF57
FFACFED1
FB36FFF9
015CFF00
04C0010D
004EFD54
FED00083
0227FDD1
FE36FD8A
02E20036
005C0096
FE6B04EC
003F02E9
005EFEBE
FD47005D
039B0847
FF190344
0034FE72
FEEA00EC
03E3F9F9
037BFD1B
0826FFCE
0245FCF8
00930044
FFDF02F5
FDE4FE5D
FE5D00B2
FECC02DF
04B603F2
FEFD0144
FF26FC75
008D04EB
0373FE06
FF59FF36
FFA6FEBF
0182FE5D
0215FFE7
FB8CFFC7
FFAC014F
FF26021A
FCB50002
FC55FE96
FFF90149
F8420194
FEF7FC7C
FE51FFC2
FCE302E9
FE0F0065
00C1FE33
FFB5FC60
0015028B
FDB4FD5D
0063011C
0060FCFC
FD7FFF07
02C6FE91
00F6FD30
FF1F00CD
FBC9FC36
0091FF52
006E03AF
FFE602F2
FD210056
0176FC7B
0436FC72
FE8D0549
00B2017E
060D017A
FF14034A
FE4504A0
0485FD7E
FFC60102
FE51016B
00DF02C5
FF2DFE23
FC66FEEC
FDBCFE41
0082030A
005302F3
FFCB007C
FB3BFEF3
0257000C
FDEB0003
00A30034
049401E1
0227008C
FC7E036F
0056FDAE
FE6F00F8
04990245
FEA6FEE2
FFF5016F
FDBB0147
000F002E
FF24FCE9
022A04BD
01240104
FD960057
018EFDED
FFD2FC87
FEC20302
02A700DF
FE68033C
017D001A
FF11FC03
0050000B
002AFEE0
FFD5023B
FB93FDD2
FFC1FC67
005BFE3F
0224FEAD
01C7FEF8
FF49FE63
003D0085
0419FEFE
009EFC05
049A019B
FE5EFF01
FF3C00AE
FC4300AC
FE83FE14
FB42FF29
009CFE59
FB270220
FCF6FC96
FDBCFFD0
015B0137
002400B7
00B80108
FE690387
019501B4
FB3EFF6B
00CAFFFC
FDA901CF
FF51FEDF
0134011E
FF60008D
FE25FFA6
014D0104
057A0334
FFAF017E
010C00A2
0223FD84
00880272
020CFEF9
01E30111
FFD00504
FED500D6
FEFB0281
01820298
FF470012
FED80119
01E4FEED
0159008F
FFD002E5
FEB0007E
FFB60146
0113009F
FFDDFF4C
010B0084
019AFF95
0211FF9E
007C0054
01C3FF37
0133FDF6
0095FF1D
00AC03E5
004D012D
0329034D
FDB9FCC6
FD1EFDE7
0193022F
00C50181
00A30241
02860194
020F02DC
0041FE27
FED9FCE8
FFF20066
019600F8
0148FEE3
00930605
FEB1021E
FE89FFFA
FF260117
0012001D
09350232
FCC10199
FD86FF42
04570566
01E40231
01DE037C
009BFFAC
FEA6024D
03B3F8C1
FE76FFCB
FE84057E
029A02B8
00C40242
FE7D0138
FCFA03F1
013E00A8
0203FE81
0938FD80
FC810008
FF27FCDC
07E8FF10
087800E3
01AD00DD
028B00E1
032401E5
0139F863
FA99FB9A
0520FFCC
0250FC53
FF3902F0
FFC10657
FF23FF22
FA1507C5
FFBF0033
007CFE39
0108FF3C
FFC2FEE3
00F60498
FE2202CF
041F03A4
00D2FF7A
007303F2
FFFCFF8B
FEDAF9CA
02AF026C
08EE0530
00F801B4
F8900192
01A90075
0107018D
03B40249
FD32031D
FE050229
FA88FF88
FDF000B9
FE9E00B0
02B6FFCA
0128FD8F
02FD007E
FF590034
02930144
03DDFD1A
FF670174
0033025B
0061FF3A
FEC2FE94
0380FE6E
FED9FEFC
FFA601B4
00CEFE2B
0211035D
01C0FFAB
034FFCAF
013D02D0
FFCE007A
00DB01C7
0285FD4C
FD9EFE2F
013100E6
FE55FDE0
01A101B1
FD1EFF61
F5BA00A5
031BFD3F
0008029A
011B0315
FC7C02E3
FC270458
FE96FE48
FFCDFFA7
0008FF40
01EA0009
00C000D4
FEE100C6
0133FFE2
FE1F0234
016A0025
026F0465
023301BB
FD6F0144
FDC70181
FED9FFE4
018200E8
0238FF39
0057FEE0
0137FE1D
00BBFD82
FE5CFE7F
0092FFA3
FF5B03AC
02370225
FEDDFF61
02030256
0039FE1F
FF390018
FD3DFEF1
0257FFC3
FE5701FD
02F80097
003D0030
FFF3007E
FE9A0151
011BFF45
01A6015E
FE2C01AF
FF010081
02BE03EB
FED9FF06
FF9703A9
0161FE9D
0236FE5C
FFC10087
FC4CFF34
FD53FBCF
FE540208
FEF8030A
00E1025A
FF52FE59
008D00A4
FB76FEC2
0069FF3A
FEDCFE8B
FFEA014A
024D029F
FFE00072
FE5BFFF5
FED9FF21
012D0009
00450176
FF78012A
00CB0363
FDB6FE69
FFBA01E6
00EF00DD
006000DF
FE250121
01C5FD7B
FEEC01CF
026DFE05
00D001C6
02C80001
FCF5FEC4
FF6F02BD
FFFA007A
FEDD01EA
FE2200C1
00D6FE57
00ECFFCF
FFB5FF48
0079FD56
00B70110
FF95FD9B
01B6FCF6
FF8B002A
FFCA0289
FEDA0055
FEBAFFB9
011AFFC4
0033FE0F
00F300F8
00AA007D
FF13004E
02E103A0
FFF7005E
FE30020F
019603C3
0041007D
FF5D00DD
0197FED4
014A01BE
00DE0049
FF29FFB5
0178009E
FFADFFE2
00AD0059
FF76FFF9
FEAF0088
0170005B
FF620191
FE2200C7
FB90038B
006EFE5D
FFAF01A6
FBEDFD57
FDAD0141
01DBFE65
0003002A
01ED01B7
00E3FEF2
FDCA00B3
FCDF01CB
FDF9FFC8
FF21FFEA
01920083
FBA0FDA8
FF4FFF6A
0025FC7E
FEA001F7
0247FF28
018DFC01
FFB401C4
FE85FE89
01DDFFE8
00DE02CD
FFDD009F
FFC20228
0075FE2B
0185FD4D
FF09FF20
026D01DD
0159FCF4
FF91FF14
FDCCFDA3
0136FF4F
FF7B0165
00C201CD
0190052B
FF2CFF18
00A4FEC6
FD3DFDAC
FEF20207
FEDFFFF5
FF75006A
FF15FE10
00BF015C
FDFA01D0
0452FFE0
01CFFE6E
02D901E7
FAD30382
09400298
FD4E0350
01BD04D3
FC10024F
FC740665
FD3F0362
05D000D1
026EFE1D
011102AD
0255FB6B
04E4FE35
0476FFDA
FCF103EC
FEE00458
FF9D02DA
FEB6FDAC
03A5FD95
FE32FCFD
FD05020E
FC5DFBF9
FEEFFE43
0258FECB
00B1FE93
FD5CFCC1
FE64087B
072D03A3
01A20241
FDA8FFD6
090B02AC
FD88FE87
0323FF38
FC4CFE20
F8E30152
FD02FB97
FAB8FAB7
04C700B1
FC8DFFDF
FB15002C
FF3A0074
06570226
009E0238
04F1FDA0
04020188
03B501AD
03190396
FCB9FF2C
029602EA
014304F3
FE73FCE6
011F01C9
FEE20188
00010088
02D500AD
03B500AB
FF8A019B
0009FEF2
01F0FE3C
007E017E
00F0FFE8
FFCA027E
00C204B1
FDC900B8
FDDC030D
028402B5
00640237
FE9D0133
028AFFB1
00D201D9
029A0067
0045FD18
FE310377
FDCD0062
026FFEAD
FFBAFF1A
018A02C8
0373FF09
FFC5FFFE
FD630054
004DFFF0
01CDFD5C
FE9FFF22
0016031F
06CB016E
FE56FFEC
FFEA00B4
FFF90288
002B05C1
FF6B040F
02BD0074
FFDD00DD
FFD9FF63
FF7DFE9A
FEEDFFBD
015D034E
00940162
0295056F
FBC7017E
FD0A02E2
0072023D
FF20FE6F
05E60143
FD1C0110
FCC705D8
03D30217
FD6B035D
FDBF01DC
FF9D00BC
008F028E
0366FB87
FE65FF58
00A201DD
FF7001BD
011001EA
FDD40100
FFB0032A
FEA700A5
FF76FBD9
0432FD7C
FF6BFE43
FE71FFBD
0572FE0D
0084FD76
0097FDCD
015DFF96
003301AD
00CFFE76
FD4601F1
017CFC7A
00CAFEB6
FC17FFE4
0198FF33
FFC3FE51
FDEC0010
029B0035
0059FCF2
FFC5FE59
FFFDFE04
FD0D049B
00CEFC39
03D8016A
02570514
063E0210
029C0442
FED5F5FC
0577FEF4
06AE0046
040D0400
0191FAD3
0008FDA6
FE5B0450
044CFDA0
FD05FC51
02BF0599
FF66FD34
FA93F8EB
018004D5
FA000038
016BF742
00BB049A
F835FE95
04DB0083
00D0FE02
06E6FC3E
FDBF01F5
06A3FE9D
FA6200B8
0714FBCE
FDB9006C
01B0F954
01DFFC8B
0487FF38
F988008F
0B3A015F
010406B9
04EC04D4
0226FF58
014AFE6A
FE61FF86
00D803CE
FDBF0273
02AF0194
FA58005E
01BDFE42
037DF951
FF79025C
0226FE37
FDF5000C
FA0B044F
FEDAFD15
FE3CFD02
FD8B0181
FED702DA
03A6024A
FDE5006B
FE080674
02CAFE16
FB02FD88
029204AA
036F001D
FFE00020
0211038F
002D0143
005402E6
FA32FC64
FF960123
FF47FD39
FCD203D0
04520280
FF6DFAAC
02DEFCAB
01E5FEB6
FEE2FCAA
FCBDFDCC
FE5F00C7
00C3FD45
021AFDF2
FE0CFD94
FE90FCDC
015E0345
FCECFD11
FC9EFFE9
FE2CFF46
FE550018
FE2703F8
FD7502EE
01520618
FF3D015B
FA44FAE5
FFD101AD
FD800379
0206F827
01410114
FF81FCA2
0BDCFD4F
0385FEAA
05F8FECF
FEFF0004
0140067F
00E7FCE0
08AD05F0
FE45015F
04C4FE57
02B30170
004BF263
028DFBCC
00D6FE0B
029E0700
00E7FB79
FFA602D4
FB96033F
06BCFE65
FF20FF1C
009803D3
FED7FDF3
FDBE06F2
FEAA011E
FEC104AC
FDF70061
051003D2
FD78F9DD
FC170463
01E102C6
FC7C034F
01750391
0165FFE9
FFCFFF2E
03BAFBE9
03FCFFFF
002A013A
FBAA00CF
00B1FD6E
028AFE97
FEB400D5
FF7601C1
00EE014D
01730209
036900CD
FB2CFDA4
036A050E
FF71FFD2
FC9DFAE3
FF5DFFEA
0137FD6B
016BFB07
01F4FB8F
FF58FDD5
000E0136
FC58FCE9
FE4AFBCD
FDE2020D
FFDD0393
028EFFBC
03990236
FF27FC7A
0558FEE1
FDA604B6
00E70162
FD56FED4
FD2FFF95
04E5FDF1
01CA0290
00B1FEA0
01E9008F
FB71FDF5
013F009E
0188FE3C
FE85FDAE
FEEFFF5C
FFCE0131
009B025D
016700F5
01FE008D
007801B4
00BC004C
FF42FF38
FE50FF6A
00AB0131
FBF8FF59
017E0062
0157FFA6
FDFC028D
FCB20236
FF53FFA7
0251FE5F
0141015E
022E0155
0242FF75
FF29FFEB
FE16010C
0059FFCA
0180FF75
000F0118
FE40FF2B
0215FCE4
00C6029A
FF4204C7
FD420245
FDED065D
FD660073
FF85016C
008AFE89
FF58FE09
001AFFBD
028CFD96
FFB6FD64
FD4601B9
FD910003
FEC60180
FFD6013D
0035FD96
FF4D06C7
FFBA0034
FE57FF03
02680132
014606A8
FA54FDB5
FF20FE33
02CD026C
FDFEFE39
00BF047E
012AFE70
FC39FB21
FCCDFB8A
01DBFD03
06D5FEE3
FEF8FF08
0055FE65
FE73FB5E
02C40061
01D00160
FC9C04C5
01A4FF87
FFD2FABA
012CFEC3
FEBAFD2A
FDE2FF3D
FBFFFCDB
0130008A
FD58FCCF
0157FCD9
FD61FFA8
FFFE061E
00E8FF9B
FBA4FF99
FD0A0462
FD4905BE
FC7E02FB
024AFF1B
00C5FB67
FE43007C
FB1F00E5
0089FD8E
00A4FD6F
FE07FE5D
039DFC42
FFC7FEA9
00320161
006F00AD
FFE503C6
FAA3FE9B
02F604F0
00830447
03430229
FA22FEAC
FF92041F
01F6FDBF
034AFE6E
0059031F
01B1FB1C
035EFD87
FF560059
04040303
FB960310
033402E5
00D5FF61
02E9FF64
FF09FFC1
FF96FECD
F9B2048C
FC75FC5B
FBA80398
02080108
FE610063
FE60FDE3
FEBF02C8
FF31028B
FF720093
FEF4FEF5
04D0FF13
03EB0145
021BFFA2
FEFC0185
FD20FB1E
FE37FD35
FCC6FFB4
036303FD
FF03037F
00DF0244
022C0209
026D00E7
01DDFDDC
02A5FE5D
0217FFC1
01CC00C5
00800483
FCF30704
02990347
FFBF015F
FE40021B
FBD00163
FFEAFE17
00F8FE78
FF57FFAD
FBD8FB1C
FE4BFFC1
015BFFE0
F8EAFFC6
FDE6FC92
FFF2FF86
003302FF
FDBB0233
00FA0203
FEECFE46
029F0145
0160FFD7
FF1700EE
025BFD74
FF1E003A
01C1FFBA
FFF7FECE
FF6601F0
F983FF21
FF3CFEDE
011101F5
00E00173
00CF03A5
02AE00DD
0402FF74
FEBE04DB
02FB01C9
02EFFAC0
004C0053
001BFC1B
033AFD3A
0362010E
002C0166
FE3503E4
FDE202F6
0038FCDC
FB0D008E
01780263
F9A6FD2C
0026002A
FE8EFFED
FFCA0310
FF61006E
FAA7FF7E
FDF7FE2D
02AB0581
FCDD0076
034C001C
FE7303BB
FE3E00FE
FF7200B5
FEB4FFD8
FE0D0187
02A0FEA1
0031FC71
00CB01FB
FD83FFE3
018DFE6F
0155FFD3
FE7B0153
FE39FDFF
0340FF66
FF5600B1
0232FF24
FF28FFB7
FD100122
FE4F011C
03D400BB
02F9FFE8
0316FD2E
00B4FF49
0086FFFF
0086FE9A
FF990178
009AFE0A
0224FCA2
FFECFEDD
FD750181
FD59FD47
FCC70132
0354FD17
00D0FEEC
FDF2003C
FF6B0133
FCFA00AC
0014FCD3
00E3FE75
0223FED3
001C0254
0138FFDA
FE0C004A
0149FCE6
FC17FFDE
045E015C
FF2F000D
00D6FE9B
02170220
004BFC6C
FF68FFA1
FCDB0174
03650156
008CFE73
001A0175
FD4F00AA
004BFAF8
009D06F8
FBB2FE2C
FCFC015E
026D024F
002FFFED
FEE3FDF9
00DC00FC
FF12FE84
03C20067
027A0112
0113FDD6
FE6E07A9
0521FCF2
FED3FF69
008CFE8A
004A02E8
0208016E
00F8FECD
01420195
000FFBE4
FF3D0315
FFD2FFC4
FD010313
FF77FFAC
FF3201AE
03C4FD43
05770012
004BFF7C
002DFF35
FD41004B
FDE20079
FE800038
03930066
FE3401AD
000601FC
FEE2FACA
0163FF3F
FF8BFFBA
FF05FFED
0057006D
0090FC15
04340132
0422FF2E
FD420052
00A101F9
F68FFCDE
01BEFCC7
065D0064
0025FC53
01AAF8E5
08050512
FC47FDFC
000505DC
03890664
FD13FF02
043E060B
03F6002F
FA910171
05290150
FFECFC33
0135005F
FB6B008C
FBC40361
FE1701A1
01A2018C
02150313
00E4063B
04CF0252
0205FD44
FCB60033
04DB0359
030FFCE9
FDE8FD3F
FF7C0025
0188F858
03A0F704
04500092
FE1AFFF7
FA63058E
FBB20126
FC65FEB3
FA7E03B1
05D6FE4F
FE95FE30
0279FD95
0132037A
FB510447
FE020799
FA230169
FC15036C
FBE301E7
0223FBE8
