010A
00F0
0232
F8B8
FFDF
04FC
FB20
0317
0010
05F9
02EB
FC34
FE98
FD10
02F4
01B5
F7AA
013F
FF1F
04D0
FF90
FF78
F99A
FC2C
FFF9
FB86
FF83
FEC5
FB2D
FA27
FEAB
FEB9
FD65
01FF
06A3
FED3
FD08
F8E3
FD04
0755
FE38
F8A3
00C5
FD29
FF53
0576
F5CA
F350
0213
FEFA
FD60
FEE0
08F4
FDFA
FEA4
FF34
050F
091C
F894
F882
FFDD
FB7D
01E1
05CB
0B36
FD29
FF33
FF73
02F2
FE5E
0052
F946
019A
0174
018F
0214
F8D9
026E
FF33
FCB9
FD7A
FA41
FFF0
0423
FEB1
FFF1
03A4
043F
FB9D
FCBB
FCA2
0465
020D
038A
0024
0492
031C
FD14
072F
F9AC
FFA2
0317
FDAB
04A9
FDEA
FB4C
FCA4
FAE1
02BA
02C4
022E
FCD2
01E5
022A
04ED
FD2F
0044
FEDB
03F4
057D
F8BB
FD9D
FDEB
FC86
0605
03CF
FECF
FC26
0643
0443
0303
FCFC
FDED
FC70
FD8F
FADE
FBA0
F8C2
05AF
F9B4
06A8
FFEE
08C8
03AA
FFBA
FAE0
02EE
08E6
F6F4
F952
FD25
00BF
01BB
FB13
0879
00D4
019E
0025
0229
FC20
0800
012F
03BB
FA51
FF5D
000A
010A
FC7A
02D6
0641
FB0E
FDD2
FAC1
0709
0281
01DC
0218
FC09
FEFB
FC3F
02A7
FFEA
FFF0
FD18
FE8F
FFB0
FD04
0093
0323
FD1F
FB64
FABE
01EC
00B7
00EE
0014
FBD9
06B2
00C6
01BC
FBE5
FF2C
0988
FB67
0537
FBBC
0BF8
038F
0A7D
03B7
032E
00DF
FE6D
FD8D
0147
FDBA
FF70
FC6A
FD59
FDA1
F70F
0439
FDF3
FD00
0060
F917
0608
FBF0
FE19
FF79
0115
FCF9
FB03
FAE4
00B8
008C
FB34
FF38
FEAE
00C4
FF23
0243
FF30
FF61
07DA
FDCF
FDA2
FEE6
01D5
FFB2
0062
069A
FED5
0382
0301
0AD0
FD03
FB0F
FC91
037A
FF3F
0624
033F
FAD0
038E
FF93
0376
039C
FB4D
F669
01BD
FCEC
FE57
FDE3
05A7
FE7B
0094
FF51
025F
FFEB
FAED
02F7
041A
FFCA
02D6
0410
FCE9
0228
0059
FE57
FDAE
0672
F4F4
FFE3
FF8B
0074
FF56
FB3B
F94A
FF25
FD97
FE92
0322
0455
FCA3
FCA4
04A0
0190
008B
0441
062B
02B9
0033
FB2E
FFBF
052D
0331
00E0
FDF7
02CD
FF5C
052B
FE8B
FD3D
043D
FE69
06C9
053A
0A5E
FB23
0326
FFCD
FE90
03E8
F965
FFB6
018F
0124
FC9F
FB53
F51B
FE5A
FDF9
FFE2
013F
011C
0C5A
000B
FC9C
0090
FED0
FFD6
04CB
FD37
0439
FCB8
021F
FE3D
019D
059E
FB51
01B9
F9F2
F98D
0588
060D
FD50
03EB
FDBC
032C
04B8
FED9
0358
FC22
FF9F
052D
FE1E
FFFB
FDE4
FDE9
0209
0090
FB7E
FB73
FBE2
FF8B
FED1
0639
0438
FD97
FE4B
FF79
F8D0
01FC
FC73
F47F
03FA
FDDA
FE40
07D8
040F
0220
FF81
0520
006F
FD55
0AF3
0545
FD10
FBBE
040D
024B
09DA
FE31
FE94
015C
FECA
00E0
FD98
FFC7
FFBD
017B
02AC
FD09
002E
029E
FAA5
FFDD
FF84
FBA4
04B0
0331
FA4B
05E1
FEDF
005D
F9EE
FBA7
FE55
FAA8
0480
FEE0
07ED
013C
0201
FDF9
0080
02EC
07FD
F79E
FBDF
0029
00EA
073E
0134
FC64
0221
FDC6
0241
0156
0435
FDE8
FF81
034F
FE06
FBDF
FDE0
0087
FF1E
0388
FF99
FABD
0078
0CE5
045E
FEF3
01B5
FC4D
00E6
020A
FB1A
03E1
0163
0068
F0DC
021C
FE02
026F
FEFE
00D7
093D
FBCC
FCE2
00CB
0114
0633
F8E2
0562
0191
FF67
04A5
050A
083A
FEF0
01D7
01B5
FE7A
016A
FD3B
FA07
003E
FBC9
FFB4
000D
FEB4
0311
049F
0066
00FB
FEAB
028A
FB21
FEC3
FFCA
FB42
07C3
FF01
01C9
0034
FD04
FE56
0177
045B
FE98
FC26
00FD
FA0D
FF07
035C
FDAD
FE78
FD94
FC9E
0388
FC36
FE03
010A
FCEB
01BF
00F8
FFCB
03D1
FB6C
025F
F9FC
FA5E
0126
04A5
0031
012A
0082
FEC1
F7F8
FFF7
0004
FB55
FB81
0128
FF39
028A
0188
01F1
001D
0521
FBA8
FBAC
019D
005B
0671
F917
F866
F1EE
FCD8
FE52
0010
020A
02A0
FDEA
F96C
0511
01D4
FEBA
039A
FFB1
FBE9
01EA
FF75
0203
FA1D
039D
