01BAFFC3
001DFF8B
FF04004B
0038FFB4
FFF7FE7E
FFD3002D
FF31FF5D
FF9DFED7
FF180056
0000FFF2
0043004B
0037000C
0079000D
005AFF4C
0087001A
001EFFA8
FF4BFF2D
FED2FEF0
FE3DFF78
FF02FF67
FF67FFB7
0013FF87
0079002C
001EFF1B
00410032
FFF8FFDF
FFB501F4
FEDAFFD4
0149FE9C
FFB50159
FFB8FF3F
002B0010
FF2F0053
FFF30051
FFC8FFA7
FFE300A8
FF1BFF88
0011FED3
00CD003B
FF25001E
FFFD0063
002C0221
FFC7FF16
00480047
FED7FF45
0038FE05
FFA1FFC1
00530042
017D020F
002AFF46
FE80FF8E
01B20113
FF530091
0086FD86
0056FF2E
FEC0FEFA
FF6EFE6F
FFBDFF79
01100037
0069013E
0041FF1F
0007FF20
FF55FFA2
FF5F014F
FFFAFF86
009DFE7A
0102001E
00640046
FECD0148
004D001C
FEC4FF39
FFEDFFF6
00C40033
009400D8
009D0064
FF4A020F
00EAFF62
FF48FF69
FFE9013B
FF8E001A
00FBFFA1
FEB4FFC3
FEFE0136
FF5FFF7C
0035FEA2
0043005F
00B4FF62
FF590073
01A10076
002A013B
000AFEEC
FE9F004D
009B0075
00A5FEAF
00E0FFFF
00C8FF81
FFD6FE92
00BE0032
FFECFFE9
0060003E
002C00E5
FFDB0061
0137FE71
00850094
0004FF62
0036002A
0054FEB8
FFFAFFAA
FF4FFFE3
0026FEEA
001E006E
004E0010
0046000B
0071003F
0101FFA8
016900B1
00DC0096
FF2BFE6C
0047FFFA
0160004A
0043FEF7
018801DB
FFEA0149
FFB3011A
FF6A007C
00FD0048
013C0027
006FFEEB
FEF2FFC2
FF6F008E
FFF30080
FEB700F2
006C0089
009EFEFF
FED9FFD2
00B400A8
010FFF27
FEDDFF9B
0192007F
0095FF1B
FED9FF91
FF55000A
FDAFFE9A
003AFFD6
FF70FF50
FF63FF3A
FFD0FFA3
FF6B0069
FFDBFF8C
FF52FEF5
FF4E015D
FEDBFEFE
FF08006C
FF6600CD
FECF0011
FFE0FF53
FFABFFF4
00370138
00C9FF25
002F008B
FF11FEEE
FF26006B
00C600C2
005EFF07
FE830083
FF19FF0F
00E100B5
FF8E0097
FFE7FFEC
FF6FFFE1
FFD8FFE4
FFDF00B3
FE3900DF
FF86FE46
FFBCFF07
FF3AFF7C
00010027
00AD000A
FFED011C
FFAFFFED
FFDC0141
FF75FFC0
FEB2009A
00CE0011
0044FF4C
FF7E0107
00F8009C
00B80018
FEBEFF97
00AD0144
010C00A5
FF08FFBF
FF21FFC1
014FFF93
0030FF36
FFFDFE9F
FF310100
0047FFF9
0023FFB0
0032018E
0047FFF9
FF87009D
0126FF10
00340194
FF7AFF23
001B001D
FECFFF6E
01B500AA
005BFDF9
FF34FF2F
FFBDFFE4
00B8FF79
FF11019D
0073FF59
FF93FF1B
FFACFE8E
FF0EFFBF
01790125
FE5DFF62
00850067
00FBFF65
FFF60061
00B4FE88
00EBFF53
0027FF0E
FF53FF1D
0020FF87
002D0134
FF11FEB7
FF68FFA7
FFF60104
FEF60168
FFFEFE5A
FF58FF47
0014FFE6
002BFED3
FF3CFF9A
0026005E
000EFF83
FE740133
FFB1FE67
01040077
FE8F005A
FFDD00BB
FF9200DC
0084FFC7
FF03001A
FF18001B
015E0088
FF3FFF63
00B8FF4F
FE8FFDD9
FF48FFC4
FFF5FF65
FF2AFFF0
00C9FFBB
001EFF0C
FECFFFC1
FF4D012B
0046FFB1
FEB30144
0060FECD
FEE00023
0018FFAD
FF85FF56
FF1BFF27
FF9400B4
FFFCFF82
FF98012A
00460024
FEFAFF2C
FFD50024
005000AC
007BFF47
FF6301AD
FF77003B
009FFF86
FF20FFE2
0097FF56
FE900071
01B4FE07
FFC1FFD2
FFE0FFB6
FFB800B0
FFC80168
FFAEFF56
FFF00165
FE210117
FFA8FFEC
00200064
FFE10099
0141FFE7
008BFE9E
FFDFFFAA
FF33011B
FEACFFA2
FFFBFFD9
004800A2
FFB00039
00190034
FE67FF74
009D0051
FFCF011A
00300127
FFD30071
FF91009D
FFE9002A
FF9CFEAA
00AC0174
FE8900CA
FDF8FFD6
FFE80160
007A00FA
FFFD012E
FEFDFE80
FFBD00BB
00A6FEDE
FECC00DA
0055000A
000FFFEF
0013FF96
FE12FFE0
004EFFCA
00BCFDDF
FF37FF5B
00CBFF80
009200E8
FF7600A2
FFB0FFEB
FFF5FF5B
002CFF51
015800D3
00D8FFDF
FF64002D
011EFF7D
0092FFEE
FFC8FF22
FF6A0157
0067FDAE
FF480094
00FEFFDB
007F0177
000F0036
00E60022
FF66009E
FFBD001D
004FFF95
FE8A0017
00CDFF10
FFB5FEEF
FE640158
FFCB0025
FF41FE39
005FFFB6
0012FF7F
005AFF08
FF8D0083
FFE2FEFF
00EFFEBE
FF42FFBD
005E008F
000D00B1
FF6DFF63
FE9F00F9
FF9E0151
FF87008C
FF5A0081
0225016D
001BFFF1
FEB2FFA5
00DD005B
FF3B0034
001C00D3
01180046
FFA2008B
0024FF87
FF1EFF91
00450077
FF970091
FF66FF97
FFF60196
FF57FF76
FEBAFF6B
00F701DA
00970014
FF0A00B4
0074FF60
00C0001A
0066004C
01170009
0036FF79
FFA9FFCE
015DFEA5
FFC801B4
FF96FFE2
FF680049
0123FF76
002600AE
00AB005B
003B006F
0108FF79
00B0FF93
00C80058
00630031
0057FF6D
FFF8003E
01A8FFA3
0121FFDB
0091FF68
FF8CFF32
FE64FEC8
FF23FEDD
FE74FEF6
FFF900C5
000801BB
00330007
FEFD0065
FFF0012C
FED1FF73
009EFE92
011000E5
FF1F0075
FF510019
FF5AFE05
FF780004
000A006D
013AFFD4
FFC6FFFD
00320015
FFE6FF74
FD990059
FFD0FF95
00D301E5
00E90014
FF9B0059
00C90071
0025FEF4
FF9EFF12
FFA2FFD9
FFF0FF28
0180FEFD
FFC3FF02
00BFFF8F
002B001D
0010FF33
FF9A00B7
FFCE0000
FF8F0077
00A6000B
FF580037
00D500BC
0052FF98
FF19009B
FEA30058
00C900BB
0080FFBA
000AFFFD
00F60084
00DCFFCE
00510047
0101FFCA
002F0168
00510057
0169009C
FF860048
FFBA0051
00EC0021
001E001C
FEEFFF52
00FAFF3B
FF0700C7
FFBBFF7D
FF9CFF1A
00E400F5
0084FFB5
FF36FF5C
0114FF90
FFF2FF93
FF9FFE25
0105FF74
024CFF73
0104FF1B
FED5FF5B
FF44FF76
FE40FF43
0033FEFA
FFC8003F
011AFF63
0092FF6D
00DB0043
FFF40003
00C3FF64
FFF5FF7A
00A0FFE1
FFC2FEFF
FFB700A6
FF6EFEF6
FEBEFFB5
FFF90200
00F6002C
FFDDFF4D
0085FF0E
FF4400DC
010D017E
FF00FFCA
009BFFFC
00BFFE9D
0027FFBF
FF92FEA0
FFA1FF84
FF45FED0
000E0034
FF31008C
01AA0119
FF5F000E
FFB8FFD8
FF7D00B4
FFA50044
FF77FF3D
00D8FF49
FFF6FF49
0114FFA7
0028008E
FF55006A
011EFF18
00130091
FF62FF9B
00C20011
027AFFB1
FE920036
0123FFBC
00A4FFC8
0032FF4A
0023006F
008C0001
000CFF50
FFB3FF4A
FF72003D
FF350035
0156010A
0127FF52
00280066
FF9BFF02
FFEB00E8
0070FF3A
FFD10033
FFFC0028
00F6003C
FF12FF92
00D7005B
00850050
FF610001
FEC7FF89
00A8FFC1
FFB9FEFE
FF2BFFE4
FDD8FFE1
FF62007B
01C700FB
FFE4FF69
FF82FF8D
FFBBFF70
000D00FD
014A000D
FFBCFF96
FF49009F
FFCFFEBD
001C0080
0120FF13
019FFFC8
0030FF6C
0028FF40
FF5BFFC7
007E0188
FEE7FFC3
FE58016B
0067FF2D
008E000A
FFBFFFB0
002EFEF8
009CFF78
0071007F
FED90018
005FFEF9
00A8FFCC
FE98007D
00C5FFCA
008900CC
00630039
002FFF6C
FF91FF72
FF03FF92
00040036
01C2018F
00CF0049
00C9017E
00960064
FFC60121
0035FF58
002C0074
00A40047
006B007D
FF8D0043
005CFF57
FE93FF8D
FF21FFED
FE750104
FECCFFD2
006DFEA1
004700D6
FF9B0094
FFE7FF58
0006FFEE
002EFF92
FFC1FF9C
FFA00093
001E004D
003C0007
FF40FF16
007CFFBC
00BA00A9
009C00FD
0024000A
FFA2009A
FFBFFF6C
00DDFF99
01250049
FEF9FFAD
FF8B0084
FEE701D1
0061FF5C
FFE300C9
FFD8005F
FFDA00C8
FFC50024
005A00C1
FF1DFEB2
FEEAFF97
00C7FF60
00C5FEFD
FFBE00D6
004BFF55
011AFE73
FF95002B
FFE3000E
00720029
FFC30137
FFE4FF36
0051FFC5
FF1400CA
007000E4
0094FFB0
0009002A
0004FF5A
FF810152
FFD8FFEF
FFC8FF92
FF3F0086
011E01E7
FF9A0104
FFDAFFA5
FF2300A9
FFD7FED7
00F8FEE2
FFB0FF9F
0079FF5C
0006FF95
FE68FF90
01390068
FFD200CC
FF18FF52
FFA6009B
FF6AFF9F
022FFFA4
007AFFC0
FF400009
007C0104
016B0140
FFEFFF5A
003EFF20
FEFC0103
FF85FE5B
0062FFF6
00690006
008E006F
FFDD00CD
FFFBFFEB
FEA2003F
001F003D
01E5009B
FFC7FF84
FFACFF57
013100B7
FF5A0020
0071FFD5
FF5AFF53
01280091
FE5600BD
002B005D
FF58FF9F
0123FEEC
007A0002
FF31004C
00C5013D
00B600CC
FE98FEDB
003500D7
0072FE3A
00F600E5
FFDBFF9F
0110010B
FFE3013E
0048FF00
FFE6FF71
FF360047
0081FF8D
FFEC00CB
0062FFE6
003F00A5
FEBBFF6B
FF9D00A0
FE930133
FF58FEBD
00EA00AA
00AD00FD
FFAFFEBD
FFE2FF45
FEC6FF5C
FF9A0152
FF12FF40
00270098
FEDE0174
FF2FFF90
FFF1FE8E
FE920034
FF10012E
001DFFA7
FFAFFF42
003200A1
00DC0151
00F600A7
00B9FF92
FFD30038
FF5BFF7F
001800B0
00400140
FF30FFFC
00C5FFDD
FED8FF8C
FF8900A7
FF820023
00EA0078
FF31FF5C
FFEA00F1
0088FE90
01CE0017
00DD0004
FFF50007
FF7BFF59
FEDDFFBB
00C5004B
FFDCFF7B
FF32004A
00040037
FF38FFE4
FE94FE7B
007B0020
017EFFDD
0165FFD0
01EE009C
003AFF96
FFE9FE9D
FFDB0176
016BFFB4
00A000D6
FFAAFF79
FF6D0011
FFDEFFCA
FED0FFF2
FFAF0074
00A5FFA9
FF80FFA8
00BC00BE
FFEEFFE6
FF1CFFC2
FFA9FFEA
005DFDE4
009D012C
FFC2003B
00890000
00AE0051
01BA0095
FF3200B1
FF5BFEFA
0001000D
015DFF52
FF370079
FED600BE
FF6A0068
004800A5
00EB000F
004800B5
00410096
FE39FFEF
0110000E
016500DD
0040FF18
FF960093
015EFFBE
FF54FFE5
FF86011B
FF27FFC5
015FFFC9
FF60008D
FFFBFF64
FF280079
FF41FE9D
FF75FF6E
FF9AFF5E
FFE8FF5F
0128FFA3
00B20097
003FFF75
001F0003
0077FEAC
008300D2
00C300FC
00D1FE9E
00A00000
FF03FF95
0160FFF5
FEC001AF
FFEC0009
FF30014D
FEFEFFE0
FF54FF96
00E1003E
FFCD0002
009000B8
FF1CFFA0
00E4007E
014BFFFC
01100014
FF20FEB7
00E9000F
007C0033
0016FEEC
FFDDFF0B
007DFE2B
01EE006E
00B6FF60
FFC10192
FFBDFEAD
0049FE82
01430043
FFE0FF9C
0085000C
007D011E
FF7A0011
FFCB007C
00D0002F
FE7000B3
009700B0
007BFF1A
FF2900E5
00CEFEEC
00EDFF54
FFB40101
0084FF6C
0108FF67
00BA0109
000AFFC1
FF7C002F
FF390041
FF8D0059
00E4FF48
FF47FFB7
0146008E
01A1FE8D
00DD0149
00DA00A3
01C3FFB7
FF940033
FF29FFC4
013BFEFA
FEB40014
FE6100D5
00D9000B
FF88FF7D
002A0087
FF27001D
0208FF26
FE6B004C
FF39FFC8
0041FF91
0105FDEF
014B00FA
FFB3FFDD
FFCE0141
00F30005
00D90047
FF4D0096
007B0047
00230119
FF88FEA8
000BFE1C
001E0093
FFC6FFA2
00CB002E
FFDAFEAC
FFC3FF4F
FFB3FFF1
0092FEBB
016AFF70
FF6F0043
FFA80060
00C30126
FFD000A0
01290209
FF410042
FFE80065
FF63004E
00B300E5
006EFEFD
015A0048
004AFF85
0058008F
011B0142
FFE3001B
0024FFF9
00E7004B
0068FF29
00CEFF80
00920081
FE6E0075
FFDAFE93
01C4FFA3
0032FFD7
FF1FFF78
FEAD002B
FFF000F7
00A000EB
FFF90029
FF6EFF9A
0035FF57
006EFE39
FFB70093
0099FFB0
0053FFAA
0119FEE9
FF7E0022
00040057
0050008B
FEEFFF77
FFBDFF83
00A800D0
FF3F00B8
FE6B0025
FFF7000C
FEF4FEAF
0034FF9F
FF53010D
FFBBFFD3
003D0051
011700C3
005FFF60
FE87FEE5
009CFFA1
FFB7FFBE
FF44FE9F
006500A8
FEFFFFB7
006700C3
FFC6013A
FF4900B1
0093007E
FF6BFF1F
FFA10062
008A0046
FFFDFF76
007FFEF5
013AFEB3
FEE3FF30
0020FF63
029BFF7B
007BFF67
01EE0009
FEAEFF54
00D00018
FF0F012C
FFA10044
FF950003
FF3B013D
FF9300B8
FF53013F
FFDEFEBD
FF1D00B5
FDA7FFF3
FF6C0091
007F00B7
FF630100
FF8700E0
008E00D2
00B7FFDD
00D4FEC7
FEA40080
01D9020E
FF5C0054
00060025
FFF800FF
FFF6FF5C
0105004B
FF89FFD1
FF7CFF7E
FEC30038
FFCDFF79
FF8F0086
FFEEFFB5
00CA0066
002D00AB
00A200AB
0014FE77
FF5E0045
0004FF0E
00D30077
00410126
000DFF31
FF310000
0037FEAC
FE730038
00ACFF49
00B4FF03
FFAF003B
00A500E1
FF9CFDFF
FF99004C
FE9E0179
0069FF02
FF690082
FF69FF18
FF97FF86
FFCE0091
FFBEFF4F
FF6E0095
FFE80091
FFFA005B
FFCD00CF
FFFAFF88
FEE8FED9
FEAEFEE9
004BFFB4
FE140020
005D007C
FEAAFFC1
007100E0
00D500EB
FFC1009E
FEFF008A
0011FEB7
FEF40085
004FFF4A
FE73FFC3
FEE900AF
FF5FFF8B
00560120
002B0026
FF8C0063
00A7017E
FF6300F4
005500C5
FFDE01F9
FF060043
FF31FF5D
002600AD
FFE0018A
00BB00EE
0212FF8A
0140FFC4
0093FEF6
008E00DD
FFE5008B
000900F8
003FFF51
FFDAFEE1
FFD8FFF9
005FFF71
FF46FF76
00770013
FED3FF89
FFC20075
FFECFE71
009A0034
FF66FEED
FF4800D9
FFB9FF71
FF49004A
00A5FF7B
00CB01DB
004EFFA7
00590194
FF8A0054
004F00C3
00810107
004A0057
0162FFA1
001AFFAF
0083FF73
FF2DFF0E
FFE4002D
00710093
0072FF32
FE11FFDA
FFFDFFAE
00B1FF78
FFFEFED9
FFED0019
FF5F00E3
009CFFA7
FF48FEFC
FEDAFFC1
FEB30005
FF02011A
FF7AFFC0
00C70026
00E00088
00210113
00E4FFC5
01830134
000000B1
FFF0FF97
FEF1FE76
FED6FF1F
0013FFCE
002A002F
FFF70050
FE6200DB
FE26FFF5
0093FFAC
007BFFAD
002CFF3A
00480175
00D60161
FF28FFE3
FEAC0043
FF4EFF5B
FF17FFAA
FD01FF33
00690034
00B5FF3A
0044FFCE
0175FFFA
00E2FEBC
FFAAFF0D
0009003F
00DB00E6
00C3FFFF
000B000E
01230136
0039001A
FF52FF27
0057FF68
004CFEE0
01D20050
FFDBFF59
0161FFC3
FEB500C5
001B0013
004BFFBA
021000A8
00C300F6
004BFF29
FF83FFA1
FF1E006A
001900D3
FFD400F9
FF41FF5D
FFCCFF72
0036FE73
00B400F9
FF360026
0006000C
FEFCFDF8
00A60011
FEE10069
FFE4FF85
000CFEE1
FF1DFF75
0127005B
FFE1FFEC
FF8000BA
0067FFEB
0018FFD8
015A0014
00D4014E
013BFF83
FE5C0006
016C00E1
FFABFFFA
FFB7FEF4
FF5900CB
FFF4FF8C
FFE9001D
FEE4FEA6
FF43FF42
FE5000EC
FFF0FEB1
001500A7
01270199
FF650126
00B4FF61
FFBFFE5B
FF46FD6F
FE210072
002E00BF
FF9DFF98
0022FFB9
0018FFE6
FF8EFEF3
00AD0145
FF8E0072
0130FFF1
FDE0FE50
FF71FF94
FFEDFE47
01750169
00FBFEF4
0014009D
00B7FF3E
FF060095
0045FF5D
FF63FFEB
00DEFFF7
00CFFF56
00BDFF3C
FFA5FF8F
FF19FE22
00B5FF6E
0025FEB2
00480032
0185FF5A
0123002A
FFA90058
FF7C021F
FF67FF4D
FFE0006B
FFFCFF7E
FECDFF6E
FFA3FFB9
FE8D0155
FFEA00CA
0063007B
FEDB0068
FF010081
00C6FFA5
FEA500BB
012CFE3C
0029003B
01080012
FF83FFFB
002FFFA8
FF4A00F8
0034FF6F
FFA70031
FFC600DB
FFE30254
014D0023
006A011D
012BFEF4
0019FFAF
FF6F008C
001AFFCB
FF71001F
00CBFFBB
0110FFA3
FEA30094
FEF700A3
FF420067
003F01A7
FFDBFF24
0012FE69
FFF8FFAB
FF9A0022
0106FE52
009701AE
0090FFEF
FF8FFF84
FF82FFEE
FEC5FF50
FF94FF4F
FF01FFB6
0102FF54
0090011F
FFA1001E
0020FFF1
FFD70102
0078FFB4
0009FF81
00A600B0
01430043
FFCC00E7
FF580009
FF540072
0015FF33
FEEE00FF
0103004E
006EFF53
FEFE009B
002F003E
FEB60022
00CD0105
FF23FF43
007C000F
FFA9016D
00A5FFD1
009FFF43
01DC009E
00270090
FFC1FFE5
01B8016E
FFEAFF00
006F006D
FFE4FEF7
FF98FF71
005AFF5C
FF2AFE7C
00A3FF9A
0060FF7E
FE8900E1
0012015C
FFC1FEAA
FF1BFF08
0048001E
0073FF23
FF6EFFFE
FFE600A4
FF4BFF3D
0106FEA2
0042FF27
00DF0112
FF6E0015
FF1AFFBE
0004FFED
FFC2FF84
FF4B008B
00D3FFC4
015D005E
FFFC0076
008DFF43
FFA5FF7C
FF95FF63
FF7D0033
FF97FEED
00E6FF4E
00A7FF2B
0027000A
FF58FF62
FF7BFFC4
FEFAFF3B
FE2200C5
00800078
00270002
00C6004E
010E0050
FFDB00FA
FFF0FFFC
FF5E0056
01F0FFCC
0034009D
001AFE88
FEFAFFC9
0147FF2B
0046004C
00A4FFA9
FF8F0070
00930097
FECF00AF
011A0155
02220090
FF4700CD
01DF0012
FFD8FF43
FF7600C7
00C50027
0107FFAC
0069008C
0047FF39
FF480175
0177FF6D
FFBB0010
015B0158
FFC10060
FF64010F
FF3BFFD4
0064FF45
FF4D0042
00630039
FE300139
FF1E002A
FFC70025
FEB3FF2F
0030001A
00370132
0106FF91
0034FF51
FFB100A2
003FFF31
FF5C0051
FFE20008
FE84FFD8
0150FEB1
000000C4
00B90147
FF13FEA3
0060FFEF
FF04FF0D
FEFA010C
FDEB0157
FF8CFF7A
001EFF75
FE8CFFC2
FFE300A9
FEC00063
0163FFF3
00B3004B
FF4EFFF9
0119FFAB
002BFF2C
001C0004
FFCCFF96
0050FE13
005AFE19
FFD4FF69
0068014F
0016FF90
FF5B0034
FF74007F
FE99FE9F
00410158
FF77FF6D
FFDA004E
0201FF7C
000A0119
00570031
005FFFF6
00F70022
FF17FE29
FFCF007B
FF30009B
FFAA0044
FF26003F
0009FFA6
FF72FFDA
005DFFEA
FFF00090
FFCFFF6E
FFFA0110
FF8CFEDB
0047FF64
FFADFFEA
0042FFE4
00FE015C
FF9C008F
0032003D
005A01B2
FFC9005D
010CFEAE
0031FEB5
00C0FFF3
FFD601B3
0015FF71
FF800113
FFDEFFA8
FFC8001B
FFDD00B2
00BB01E5
FFF20078
005E0044
FF020054
01050023
0007FEEC
FFD30156
FF46FFBD
FFC50123
00DA007C
00D2018A
FED9FEF2
FF7EFFEC
FFAAFE25
FF940092
00B5FEDD
0102FFF0
FF7AFFEE
FF2A0023
FFFD00A0
0190015F
0033008B
011F0068
0178FFE2
FFFD002C
008AFF10
0078FEA8
FF7C0104
0088015E
0124FFC5
FFCC0084
FECA005F
FF21FE12
FED30037
0023FFB3
00D90021
FF75005A
00130044
00040019
FFF00024
FF3500E6
FFB6FFBC
FFF600EB
FF24FF7C
01A0003C
FFF70019
FF58FF2D
016AFF12
0073012D
FEAD0036
00E60112
FFB80039
009900AF
FF79FFA3
000CFF3B
0115FFF1
0031FF3E
FFE80093
0051FFA1
014DFF97
0037FF65
008CFF7C
0077FF4F
01080075
00760231
FEAFFF77
FFDFFFEC
02ABFEF9
002000BA
FF0A00B1
00450210
FF9D0079
000CFF4B
006EFFDE
01F80047
0099FFEE
FEE3FFA5
FFD7FFB8
0157FFE8
FF1DFFBF
FEB0FF18
FF8D00B3
008200D9
00EFFFD9
0138FF90
FFC5FFED
FEB3016F
FFE8FF55
FF44FFD4
FFBDFF88
00DEFF8C
00B700D3
00720073
FF3FFF55
FF5BFF6E
FF86FEC3
00A6FF98
0086FF97
FFBF01FC
0184009B
FFC2FF5F
00CAFEA0
FEAAFF51
007100E0
01C1FFE2
FF5F0030
006D017B
FF66FEFF
FF2FFF15
003DFFB4
FEF9002B
005BFFD9
FF950151
0006FEE6
0172FFAB
00B7FF12
FF77FF64
005B014D
00280175
012300A7
00EE000B
FFDCFFFE
00B8FFA7
00D80069
FF57FED4
FEF0FFE7
015F0054
00C2FF77
FFF3003F
FFB1003A
0028006F
009E011C
000F01C3
00580008
0075FF30
0005FF9B
FF1201F9
FF3F0137
FE60FFC3
FF7600CA
00890186
004BFEA7
FF150049
00DD0007
006200C7
FF22005D
0046FEC8
003800D2
01E9007B
FEF1FE9E
00DDFF53
FE7AFF1D
0081FFA4
016CFF69
001A01A4
017B0047
0115FF2A
FFBEFEFE
FFA200F0
0014FF0A
FFEAFFAC
011800BD
005AFFE0
004AFFBE
00F00056
00A1FF93
0010FF79
FFD9FF1D
01680017
01F0FF63
0055FF36
00A3FFD6
00BA005D
FFB0008C
FF90FF5C
00F3FEDC
00E40096
00E8FF77
0123FFDF
00B9FFCE
001AFF8A
FF51FFFA
FF7A0259
FFE2FFC6
00880073
FFDB00C3
FFD00062
0044FF20
00000091
005D000C
FFA8FFE2
007E0013
FEAEFFAE
FFE701ED
00AB000C
0078001E
FFABFF9F
002CFECC
006200B2
FF27FF9E
FFB9FE68
FF8900D0
0023FEFA
FF7F003D
001100A5
010400CA
FED20086
FFD6FFAB
FF5EFF83
FFD3FFD1
FEE10063
FFE2FF04
004A0041
FF100099
002D0025
FFC8FFB7
FFA20087
FE600142
00A6FFDF
FF06FFEF
FF790136
FF71FF24
00A30104
FFBE007C
001802DC
0119FFFD
00990094
FF4DFF7C
00190128
FFA3FFCB
005F005E
FFD9FFAD
FEFE0094
FFD201EA
0021012B
01890050
FE4D00F3
0047025D
00C2001D
FFFEFF84
FFACFFEA
0023005B
FF8001B6
FFF4012F
FF53FF86
00A9007A
FEC80142
FFC4FE5E
FFCF0088
0078FFEF
FF190026
FF740049
01C2001F
011FFF54
FFC6FFD8
0072FED9
FFB0FF46
0003FF1F
FF6E00E1
FF62004F
FF2DFF25
01010128
005300A9
FF1DFFD7
00A20005
FEB2FF78
FED200AE
FFB6FF4A
FF3D0073
FFC20038
FEBA0011
FDC800DB
008EFF99
FE69FF87
00100057
00EA0099
FF8300DE
00B10120
FF6100A3
001900BC
0067FE83
FE4100F2
FFCDFFF5
008CFE8F
FF7900AF
FEABFEFA
00AE016B
FF57010F
0084003B
0005FFE6
FEE100B1
FF9FFFD8
00BD0098
0037FF54
0033FF77
0112004A
01040000
FF29FEBD
000D009D
FF8800D2
FDF7FF25
006D0087
00920012
FF83FF51
FF4FFFE1
FFF30024
FFE6FFF4
007800E6
01C2FFB9
0042007E
FFC600A4
FFF3FFE7
FFE4000A
00B8FF2F
FFFB00AA
FFE5014A
0070FF4F
009F00B8
FF92017F
FFEEFE60
FFEFFF2D
00FEFFEC
00E90120
FF92FEDA
01AA0053
00CAFF8A
00A9FF36
FFF8FEB1
01780131
001C0111
FFA40023
0049FF9B
FE51FF34
00150105
FEA20149
01CDFF86
0118003E
FF78FFAC
00C00171
0003FF24
0012FF77
0024005F
FE6E0010
FFA4FFE0
004A0029
00A6003B
01A5004F
FFA9001D
FF5500FC
FFCA015D
0115FF92
014400BB
0104FFD4
00E9FFCD
FFF200CF
FF570014
FFA30027
FFBDFF63
FF420066
00E2FE96
FFFEFF6E
FF8F0080
FF0500D0
FF340004
FFF5FF68
005C003E
0042FFD9
FFE9015D
001AFF78
FE6200F2
0005009F
003FFF30
FF84FEBD
00F9FF23
0287004A
00CA000F
FF44007C
0062010D
FFB2FE48
006500F8
00B0FFDA
0037FF6D
FFA0FE93
0056011B
002CFF00
00250042
001800B8
FF42FF60
FF8B0070
00DBFFA9
004F0059
FF7D0262
FF1BFED6
00B0011F
016FFE8B
FEA7005D
0048FECB
000FFE82
00660090
00A10068
00BC00E9
005FFFB1
006B00C4
000D00DC
FF7F00A5
0058FDE5
FFAF0051
00BFFEE4
FF55FFF0
FF43008D
FF5FFEB1
FFCEFFA0
FEA900F5
FFF6FFB8
FEFA0128
00230156
FFC100D5
FFBF00B6
002F0064
00450125
FEADFF82
FEF600BC
FF7D0046
FF430091
FF98FFAD
00590021
FFF80131
00D30004
00D4FFFD
0051FF14
0124012A
0157FFC3
FFB7FFF3
001BFF08
01470037
FEAFFEAB
0137FF62
010AFF3E
FF2CFFD4
FFD80090
013FFFFE
00DF011C
00E3FFA9
004A0052
FFC30036
FE6B00B4
FF90FF12
FFC6FF22
008E0069
000500B9
FFF9FF85
FF59FFDB
FF98005C
000DFFD5
00480003
FFD30067
00D6FF44
0074FF20
004A001B
01280057
FF6BFFAB
FF6A02D9
FE350067
00AEFFE7
FF73FFA8
FFD2FFDE
FEB0FECA
00EAFEEB
00EB000C
002AFF2C
FFDB002F
003DFEFD
FFDEFF08
002A016F
FFAAFFBE
FF29011C
FF36FE79
FFF7FE61
FFEBFFCA
0101FDF2
00580046
00D2FF3C
0021007F
FF6100B2
00EEFF8F
006A00B0
0085FF3B
018EFFF0
010D00F4
FFCE0022
FFFA00CF
00E90032
00A3FEAA
002FFF61
FD97FFD8
0017009B
0013010B
00AFFFF7
FF87017B
FF04FF25
015D0051
00C40167
FF55FFBE
00970076
000AFFDA
FFD9FF33
FFA5007F
FFD1007B
0137FFDF
01A20019
FE65FFA3
001AFF1C
0047FFC3
00310001
00E30001
FF4AFF20
00BBFF95
005001E3
00E2FF2A
022000B6
FF860061
FFF100E3
FDBCFFE1
0043FFC0
0050FF59
FF59FFD3
0014FEEA
006DFF39
00A2021B
FFE6FFE8
FF9CFFB8
0059008D
FFD1FF3C
FEF7FFDC
FF9C00CB
00C50087
FFD5FF55
FFB2FF87
00A20099
FF560026
FFE80106
FF52FF93
FF0FFFE6
FFC2FFD6
00710060
00F6FF89
FF97FF9E
FEA1FF55
00EBFF11
0013008C
FFDE0012
FEACFFA7
FF690044
008A003A
0089013A
FFD4FFB4
017F0023
0139FF6A
FF22009C
00B7003F
003F0057
FF3AFFA5
00BC0006
FF380051
003EFFB5
FDFEFF8C
000700CA
FFB800C1
0045FE36
FE16FF7A
0024FF83
FF5D0068
FFDF0054
01DE006B
00A800CE
FEB10000
FF58FFB8
FF8E0012
01290089
000800E6
FFFC00AE
FEF7FF7B
FF46FFAF
00D10064
FE6E00E6
00EBFE8F
FFA90050
FF2E0010
001500B7
FF84FFD0
0018FFDF
FEABFF17
FF24004C
02D6FFFA
FF1F005E
006B003D
0054FF0B
FFBAFF50
FF0C00B0
FFAFFF75
FEB2FFDF
0010FEC3
FFC9FFD7
FF91FF82
027CFFB9
003BFEE2
0036FF9B
FFA7FFAD
FEBBFEAB
005B0030
FF3EFFBD
FF06FF6D
FFD7FE82
00F70048
FFD2011D
0067FF4A
003DFFEE
FFA7015F
FF3FFF60
FEB5FF5F
00B300B3
FFE10137
006400AF
FF09FF08
004E004D
00DC0032
FF68FF89
FFADFFD0
006300CD
0131FF2A
FEA1FF11
01270099
FF41FF26
011DFFDF
FFCE0174
FF84FFDE
00E201A3
FFCEFFAB
FF5F0049
FF5900AB
FFC40073
0035FF72
00CB006A
FF2CFFA6
01350016
FF18FE70
FFC502A6
FFD8FFBF
FFC0FF7C
FF37FF01
FE5B001D
00240077
FF8A0042
0002FEB6
00C6010D
006E0192
FEB90028
009BFEDE
0166FF88
00020007
0036FFD7
00140090
0065FF48
002D0131
FF3400E1
00C1FFFF
FF32013A
00FFFFB6
FF5DFFA3
FF2AFF7F
00AFFF94
00020193
0086FF8A
FEED0102
FF90000E
FF1DFFFA
FF8A00C2
FF13FF83
FF010129
FF9CFF76
FFB5FF5C
0007FFDB
00260048
FFB6003A
FF05011F
FFB80022
FFF50039
FFAC007B
FFF0FF8A
01E8FFCA
0019FF99
FF57FF97
015900EC
FF27FF6E
0060005D
FF64FEA5
FFEAFFF8
000BFF65
FFDCFFEE
FFCCFFD2
FF32001B
FDE0FE36
FFEA009F
003E006E
00DC00B4
00D1FF3B
FF510097
FEC6FF44
FFC4FF07
009FFF33
FEEBFFDA
FF280060
0129FE22
FF8DFF3C
01E3FF90
001700BE
FF72FF0D
005AFEF1
FF510076
007F0007
FF5800E0
FF28FF2F
0104FEE2
FF450047
FFB2FFAD
FFD600A9
00F4FF96
00260099
FFDAFF44
FF9EFF01
00BD01AF
003900E3
0129FF6B
FFD1FF92
01680005
FFA60179
FE760027
FFE10000
004C0054
FF1D0044
018BFFC6
001CFFF7
FEA6005C
FFDD00E3
FEE30034
011F01A0
0048FEE2
00E5FFA0
00520205
00700001
000B0031
00B6FEDA
FF9C011F
0116008D
FF7C008D
FFD00021
002D00F6
FEB1FE95
FEF900E3
FF73FF94
0083013A
FFCE0007
01860032
007E0092
00750003
00710071
0062FF9B
001C001F
FE670095
FE91FFB1
FF5FFD80
FEDA0081
0035FF79
00AFFFBE
006B000F
006AFFCB
00D20022
FFBA004B
0007FF56
FEA2FFCA
FFF2FF89
0033008F
0050FFAE
00F2002C
0064FFE8
017C015D
FEDF0002
01E5019F
FFABFFBC
FFCD000E
0053FFE1
FFC000CB
FFDA001D
FFC3FEC5
FFD9008F
FF97007F
FE6CFF7C
FF2CFFD4
FF30FF84
022400A0
0045005D
0082008B
007CFEF4
FFE60009
00850055
00EA00B9
FF81FFC6
01CC00CE
01D4FFD1
FF9900DB
FF1E00BE
000A00E7
001E00F9
FF1FFF30
0119011B
000EFF73
002CFF42
FFF7FE30
FFF0FF2A
004FFFF8
00C2FF92
01440048
FFB30149
01CA01FC
FF71008A
FF3EFEB3
00DB00BA
0080015B
FF09FF73
FF44FFB5
FF44FFB7
FFF10014
012DFF36
00200010
004FFEF8
FF62FFCF
00FA0192
FFA3001A
FF2CFE88
00F80051
007DFF9B
00A2007D
0095FF4B
FF8CFE9A
00A0FF9E
014B00B7
FF1C00F3
00770037
0183FFE5
00CBFF57
01690058
000500D4
FFD50041
00C4FF4A
FFBF0063
FF9D00CA
0030FF25
FFC9FFDE
FEBDFF6D
FF200051
0083FEF0
FF85FFF5
00300021
FFE20113
FFDEFF64
FFE2FF80
009C0063
000F000A
01750072
FF45FF18
0008FFF6
00C4FF1C
0120006D
00FBFF77
FF5E00F7
00ECFE95
00AE005F
0186010C
00D700D1
0023004C
FF350183
FFB1FE29
00A0FF68
00F00119
00510078
00C600B6
00A2FF01
0165007E
002A0118
0040FF59
FF48FFEE
FFF90074
0193FE74
0111FF93
0115FFD1
FEC2FD68
FED60070
00CB00BB
FF830022
0103FFE6
0021002F
FF3DFED5
004EFF73
01A70037
02E7FFEE
FEAA00A5
008E00DE
FFA3FF14
0207FF15
012B0012
01A400D5
005DFF7F
00C5FFC3
FF3F007F
FEF50076
00AFFFDF
0039FFFA
009400D5
0063FF54
FF0FFE0E
007F001E
FFA7004A
009BFFE6
00B1005C
FFF1FFE1
FEE70089
0024FF9B
00D0FFD0
FFEEFE30
FE1CFF12
FE7F00AD
FEB3FF2E
001FFFD0
0127FFFF
000DFF70
009AFFEB
00A90016
0034FFDE
004CFEDD
FFA5009E
FF77FF68
FEB9FF09
FE290099
FFDFFFFF
00140064
FF630026
FE30FEA8
003DFF1A
00FD0061
FECBFFC8
FFA2FFD6
008FFFA0
00120041
FF8500CD
FF6DFFD9
00370062
FFB10044
000FFFFB
FF98FF74
FE8300B0
0135002F
00C9FFFC
FF28FE20
0024FE61
0095019A
0004FFDF
FFBE00BD
FFF2FF09
FFDBFF4B
FFD200BB
FDC5FEAC
010600DD
00ACFFB1
FF4C009A
00CEFEF6
FF3FFFD2
008B0167
00010174
00980103
FF02FFB5
FF9AFEC0
003F010B
00E3FF44
001D005C
FFBBFFFE
FFB700AE
00CD00EC
FF26FF3D
FEFAFF7D
FFB9FF32
FFD5000C
0063FFAF
FEC000FD
00080092
003DFFF1
0153006A
0010FF80
002E003B
002DFEF5
00ADFEEF
FEF9FFF9
FEAC01D4
FEB60060
008EFF30
FFF20171
004EFF2D
009A0107
FF69005E
00000064
00E5FFF9
0072FF6E
0062FF1F
FF20FFF7
0036FF96
FF780173
FF75020D
0032FFFE
00A0000A
FF7FFFEC
01170059
0061FFA4
FEB2FF71
FF30FFE1
FFEA002E
FEE8001D
FFE5FFBE
00300057
FFADFFC7
005EFFCF
FEFF002D
FF2C016D
FF400005
FEE20143
FFEB004F
FF2E0062
FFC60091
0063008D
FF58FF78
0155FF3C
FF5F0036
001CFF0A
002300E6
FF140106
00B3001D
FFF4FF38
FFFE0002
FFE2FF6C
FFC0FFAF
002F001E
FF25FF48
01730002
FF3CFFF9
FFFBFF89
FEF80088
FF0F0080
FEE9FF57
009F0078
00F6FFFE
FEF600A9
00BDFF79
FF7EFEF9
00C9008B
00530135
FFDE023A
FFBCFF70
FFD80052
FF48FF7D
008B0011
FEB4FFB6
009FFE68
000B0126
00930066
007800B0
0050FF60
00AFFF6E
FF1DFFA8
0216FEF1
00B1FEF6
004DFFA3
004EFF48
0072002B
01AAFF3F
0008FFD7
FF330093
00900030
00F2FF65
00480090
FE7BFF42
001C0081
00F5FFCF
FFD300F5
017501B6
FF57006D
FF92FECD
01EDFF6E
011B0110
FF52027D
FF33FF70
FF1F014F
FF8FFF57
FF11FF25
FE95FFDA
004A0054
FE36FF6C
FF60FFE6
FFE9FF8E
0042FFDE
FEC600AC
FFC4FFDD
006E003B
FEF70037
007E0186
0010FFE9
FEBCFFE1
0069FF4A
FFA0FFC1
FF950026
01AFFF5D
FFA30043
00AB008E
0076FFFE
0105FFCF
003BFFC7
0082FFFF
008AFF17
FEFCFEF4
FF31FFFF
00EFFF42
00D8FF7D
FF2D003A
FFEF00A4
0074FFB6
003CFE8F
FFB7006A
007801F9
FF9B0052
FF920003
00F90030
01E30043
0069FF56
009E0038
FF7EFF93
000AFF3C
00EF00F1
FF130004
004C0129
0078005F
FF0400C9
FECBFFED
0079FF56
FE49FF53
FF1000B4
00AE0056
FF0CFFAA
000C00E1
0031FF2C
FF980193
FF1C0026
FFA1FF76
00A9FE5D
FF66FE9E
00B70091
FF14FF09
003BFFFD
00B3002F
FFC7FFD0
013CFFD3
FF9CFF16
FFD7FF12
FF950185
00AA0031
FF2B0016
00FB01E2
FF4CFE7C
005DFF85
0088FF69
FFF8FF21
FF040042
00ECFF61
0155FFDA
001C001C
0096003E
00D9FFD4
FF89FE83
0067020D
FEAF00B5
00F8FF50
006F00BA
0008FF4F
00E4002A
FEB800E2
00410064
FF6E00FB
FFA10011
FF32FF88
0011006C
0025FEA0
00D80030
FDF4FF28
FF97006F
0040FF8C
FF07FFAA
0106FFCD
FF68002C
00280084
FE860059
FF7EFEB6
FFACFFA4
01100007
FFC1007F
FF85000C
FFF2FEF1
000F001A
011D003C
FF84001C
0187FF04
00B1000C
FFA00112
0017FF3B
FF28014F
001DFF3C
009FFF68
017C00F3
FE690025
FF1C001B
FFA3FF33
00750052
FF470017
0066FF6E
FF26009E
0160FFA0
FE0BFF4F
0124FE87
FFE4FF85
FEFA00B3
0031002A
00E9FF6C
FF23FF65
FFF9FF85
FF67FEE8
FF91FF5B
FFBD0037
0218FF37
FF8C009D
FF6B010F
FFC3FF09
FF7FFF25
005A0116
00AF0175
FF7500F2
002FFF60
FFA1004A
0014FE44
0064FF6E
FFA9FF57
00C9FEA6
005F008F
0036FF27
FF3300B1
016D0059
FF58001A
00BEFF94
FFE90072
FF47FF5E
0030FF39
FFADFF24
00560009
FF800025
015F001C
FFDE0084
000900CB
005A005A
004AFEF7
FF34FEF6
0004FF39
0109FFBF
01BDFF2F
FFCA00BB
FF0CFFB6
0141FFD7
003900C5
005CFF1B
FF6A008D
011AFFDA
FF13FE47
FE990072
FF55009F
00EB01AB
FF71006F
FF7900DF
FEFAFFF1
001DFF6D
00D700DC
009A00FC
0176000D
FFC200C9
FFC9FF43
FF530004
FE74FF46
FDB9FFDE
FFC10055
00F70059
00EF00A8
FF9B00A8
01160164
FF190169
FF490022
FF61FFD7
FEBC001A
0026FFBE
00F5FF5A
005AFF6C
00080027
0169FF0D
00090082
FE490011
011F0003
00AE008E
0094FF61
005100EA
0174FE6D
FF2CFEA9
FFDEFFDC
FDF500A6
0037FF73
00A9FEAC
FF27FFED
0038FF37
FFBE0043
FFC8FEFA
004800C4
0045011B
FF4F00AA
FEE0FE1C
0118FF4A
FF7000CE
0033006A
FEF8FFB2
FEB701AA
001FFFAF
FF5C0062
FFD2008E
01D10066
FF64FEE4
00A1FF9D
00C5FEB0
FFC10203
FFDE0098
FFF600D2
FF590041
0094000A
00450011
0004FF78
001E00EC
00B60055
0127FF11
FF130004
003E0087
FF50FF3D
FF3600D9
001800B9
00760100
002FFEDC
000DFF82
008EFFE4
00BBFE22
007200D2
005000C9
FFE30134
FF2BFF86
0011FF70
FFD2FF53
006A0091
FF3EFFBA
FF22FED4
00330041
0063FEC1
0058FFDC
FF70FF90
FEBC0100
FE640100
FE9FFF72
00DB0066
FE850023
FFFC00A2
0016FF9E
0171005D
0025FE06
002FFF97
00530122
FF2BFFBD
FF7B005B
FED500CC
FEF30093
0129FF01
001C005C
006C0086
FF2F0032
FEE7FE65
FFF8007B
FEFE00C3
00C0FF8C
FF55FFB2
00C0FFC0
003BFEFB
016BFFDE
FEB0FFFA
FF96FFA1
FF7B00A8
011E016E
FFE70007
FEF6009C
FFF9FFD3
009F009B
016DFF55
FF77005C
0053FF9C
0002FF58
FF76FF57
FE62FE98
00FF0135
FFF00076
00170047
015EFFCB
FFF70048
0043FF80
FF8BFF66
FF27FFA7
0189FF3D
0184FF63
FFAE01E9
FF93FED3
FFDE011A
FF45FF9D
FF5B0043
005EFEB4
FECE0018
FF750018
FFC6002B
003CFFE2
0063FF02
007CFF67
FF10FF86
0185FFAB
007C00AA
0077FF6D
FE8C003F
00520064
002BFD94
FF8BFFE5
0058FEBA
00030219
008BFF3D
008C000D
FF4E011B
FF6EFF97
0046009E
007D0103
007F0010
0117FFC9
FFA4FFE7
0093FFFC
FE77000A
FEFD0045
0013FFF7
00BCFEEB
00C3004A
016E005C
001C00F4
004400AE
0086FFF3
FDCF00D4
0177FFF3
FFADFF53
006C003A
005BFE8A
FF7900DF
00DBFF88
009F0013
FE21FFFB
FF97FF5B
00950063
FF6E013E
0164FF91
0028FF83
FFB8008B
00BAFE9A
FF70FFDF
0000FFFD
FF07FEBD
FFE40052
FEC8FED4
FFD6FFA9
FF6FFFE3
FF79FE98
FFC3014C
01510079
0009FFDE
FF59FE9A
00B80050
00310000
FFC300C9
00BA009B
FFDBFF21
0067FEB8
FFD5FF52
FF9A0005
007E0025
0094FEE0
FEF5FFCF
FFF50030
FFF9FDBB
0026002E
FFBAFF3F
00D1FEDC
FFF10031
FF6F0083
00A9FFBD
002C005D
00080030
FFF5002E
0104FFC2
018100B6
FF69FEEB
FEDCFF65
FF85FFA7
FFCAFF8F
004D0021
FFDA00CF
00DB00CC
006000AF
001D004D
FEE8FF79
00D0FDF9
0127007D
FF5D01D1
FF4500F7
FEAD0037
FF2BFFED
009FFFE7
FEE6FF7D
FF43000B
01730090
FE1C002D
002C0042
014BFF99
00060048
00780034
00FEFE78
FFC9FF29
00DEFF6C
008DFFF1
FFD80036
007E00F3
FFD2FE96
FF7E00A8
000FFE8F
FF51FFC4
00D6FDF6
FF72FF36
0065FFB2
FEEBFF40
005A004E
0138FE96
00F70197
FE6A0165
0108FED2
FDC7FFD9
00EC0088
FFF9FFFA
01B000F8
FF2E00AB
FFFCFFE6
FF3D003F
0188FF5F
FEF1FFCF
FFD9FED9
FF4D0146
00FF0007
01850049
00FAFEA2
FFB8FF72
FEDB0015
0084000E
FF450095
FFCD0067
FFBCFE91
00F6FF70
00C1FFD2
0190FFE1
00DDFF58
FF7EFE20
001B00C3
01B0FFB1
FE86FEF7
01C600CE
FF4B00AC
FFC1FEEB
FF3E00F4
002B019A
0034FFCA
008DFEFD
FFF900E8
FF940058
0027FF26
FF6E0114
FFD4FFEE
FFE8010D
00980044
015000D1
FFD3FFEF
FFE9FF6C
01ECFFFC
FFA400A0
FF8C0034
0061FF60
FF7E0029
FFE20054
00A60058
FF10FEAD
018FFF25
FE460147
FF10FF55
0147FF4C
0045FFC2
FFDCFE61
000B003A
0153FF28
FFA5FEB1
FFDEFFCF
FF6EFF96
FFB2014D
FFA3FF32
0012FFEC
00B40061
FF73FF7A
FFDFFFD6
FF6CFFD4
FF4EFF99
012E016F
0014FFD6
FF56012B
0066FE0C
FFEA0170
FF720099
FFEEFEE9
FFD50056
FFBEFF44
0000FF6F
00D6002E
FF2C00BC
FFC80024
00740021
FFC6005B
FF2DFEC2
00DCFFB2
0132FF07
00FC00B6
006D0081
005800D8
FF73FF26
FF7E0058
00710076
004AFFE0
FFCC013D
00DFFF7F
0070FFFA
013800B8
0030FFB2
007F008D
00CA0036
00B6FF13
003A00F0
FFE7FF96
00E00097
0117FED3
00440074
FF5BFE37
FFB0FFDF
FF46FF3C
FE6801DA
FFEBFFED
FE99FE29
FEFAFF74
FEAEFFF7
FF2DFF2F
0084004B
003A0155
FF67008F
FF910115
FF2C003C
0057FF49
009600C2
FF5E00A8
FFCE004F
0089FFE8
FF8D0036
00690019
01000082
FEC6009C
FFF8FE9D
003700FD
FEBD0068
00C4FF99
0005FF9C
FFD900AF
FFB8FFCD
00C800DB
FF5CFF5B
FF19FEEA
FE9E0086
0041FF30
0007FFD4
FF5900E5
FF08FF9E
FFC9000E
FFE90016
0085FF97
00F7FF8E
008600CD
004EFF34
FF640178
FFCE0027
FFFFFF2D
FF13FF6A
FF4DFFAB
00C8FE17
000AFEEF
0028004D
FFDBFEC2
FF2FFFC7
01420033
FFA10173
FE0C0065
FEEEFFA0
00B50009
FFB9FF5F
FFBC0287
018AFF23
FF7DFF7D
FFAB0063
FFE20041
0189FFA1
000700C5
0042FF78
013CFF2D
008EFE3C
FF93FFF3
00310067
00EA0168
FFBA00C6
0012FE83
FFC1FEA2
FFCF0019
00360036
FF7EFED1
FF36FFC6
FE9B0089
FF3EFFD1
FED2000E
01020044
0159FEC1
0094FFCB
FF590003
FFFFFFDF
FFEAFE7B
011F0002
FF98FF13
00D0015E
000A004A
FFD100EC
FFEAFFB9
0023FF8E
FF2600D7
00910036
012E0103
FF74FF2B
FEDBFFEB
005100D1
0019FF5C
00340015
01660018
010AFF82
005400BD
0023FE57
008F001E
00C6FF91
FFECFF3C
0072FF60
0055FF99
FF56FFE3
FFD3FF8F
FF2A00C3
FFFFFFE1
00A9FFA5
009CFF6D
01AC01A0
0044005B
FFD1FFEB
00E5FFD5
FFBC0085
0145FE85
FFC500B5
FFA7FFFB
001D01AC
0038FFA3
00DCFF7F
0095FFB2
007EFEF3
0096FEF5
FF33FFB7
FFB60148
00A7008E
009CFFBF
FE780139
FFFC0002
FF97FF32
FF1DFFEF
00B9FFCD
005F000D
FF98FF8B
00B401B9
FFF800BC
FF54FF55
0042FFCD
FF6EFFFA
FF60FF88
FFEBFF10
023AFFCF
007D006F
FF26FF8F
FFF3FFBB
001A00F1
002700D2
0050FFFB
0012FFB8
FFD2FFC8
FFA500E3
01E9FF51
00B1FE4A
0156FFBD
0047FF65
00AA004B
003B0005
00EAFF0F
0112FF90
FE93FFF8
00860117
FEB7FF51
015B010A
0119FEC0
FFF10061
001AFF79
00030087
FFF00054
00A200E7
00D000BD
00ECFF7F
00150128
FEDDFF00
FFA20184
FF33FF24
FEA5FF1F
FF87FFE3
FFFAFF05
FF280089
0166005D
FFF9008C
013BFE77
015700ED
FEB1010E
00930019
FFA60139
FFF3FF46
00620028
002000D4
FFD60089
0060FF49
00C6FFA8
FFAF0045
018A004E
00E7FFF3
00140100
FEDC006B
FF6C005F
0076FFBB
013D004D
003F0063
FFC7FEEE
002B015E
FFADFF19
FFE2FED7
0065FF77
FF25FE8D
FF72FFA4
FEA50022
004A009F
FF41FF7D
004600DA
FFDBFF90
00A20009
00A1FF4D
01DEFFD0
003DFFDA
0062FF6B
00E5FFC9
003D0057
0121FFE1
FF060038
FE75FEA1
005A003A
00980085
FF4DFF0A
01F70002
00390174
00BBFFF4
00CB0017
000700E3
004CFEA4
FFE400CC
FF44005D
FFADFF48
005EFF3A
0056FF79
0185FF25
00E7FE90
FF7C011C
FF5901EF
FEDFFFF6
FFDE00E5
01750110
FFB9010E
004AFFB6
FECA00D6
00AB01C2
FF32FF9C
0120FFDC
FF3F0098
00F6FFDC
00B0007A
FE1D0108
01B700B5
004200FD
0141FE54
FF83000C
0008002F
FEDAFFD8
FFAFFF4C
007BFF60
01E0FF7A
0058FF92
01A20037
015FFFA4
006FFF98
00570127
011B0066
FF670061
FED40081
FFE00114
FF6EFED5
0099FF95
FF31FE68
006600AB
FE760053
013A011E
FFBD0091
00220081
00F40019
FFCFFF9C
01960093
00010013
FF1E0052
00ACFFDB
003FFFB8
FE90FFBA
003E00C7
004FFECD
014E0060
FFDF009E
FEB6FF7A
00DDFE55
004C0031
FF2DFF2C
00380098
00D0FEB2
FFD9FFC0
FE91FF4D
005AFFBB
FFD1FFDE
FF93FFA9
FF5D00D1
003E0077
FEC1010E
FE82FE19
00620017
0144FFDA
00C2FFEE
FF71007D
FFBFFED8
FFABFF55
0130FFD9
00AD014F
008F0031
016D020A
00D200C7
0078004B
005E00FB
FF0EFFD7
FEE7FFEF
00E10079
0121FFD5
FF4DFFC2
FF30FE00
FECBFFFD
FF33FDB3
006DFEC7
FEC8FE5A
FF830100
0037FFD8
FFC60087
00190018
FF25FFC3
00C60064
FFBA0050
FFDAFF82
00790090
FF7A00B2
FECFFFBD
000A0032
00940080
FF4B002B
FF55FFF2
FFD1FFEE
FF35FFA7
FFA00014
FF10FFC3
000FFEB7
0025FE91
00F9FFF8
003EFF83
FF96008F
FFD8FEE4
00E0006D
0011FFC7
00A30159
0092FF9D
00AEFFC1
FFAE00F2
FFAA0015
FEA100E9
FFE700B7
FEEFFFA9
00070041
013A001A
00380067
00C20145
00C9FF1F
FF8000EF
FFEA0108
FFA3FF55
FD4000B6
0128004D
FEB5009B
009B00A8
FEA0FFC5
FF99FF15
FFDAFFD9
FE1F0064
FFE5001A
0011002D
FF5C0083
0085FF26
001D014E
FF3900FA
FF26FF38
FF25FEE0
FFC6FF42
004B0056
FF54FF93
FF50FFCB
FFB7FFEA
0049FF88
FEF3FFE0
00930049
FFC6FF3E
FF680007
FFA800C8
FF55FEE2
FFB9FF1B
00EF00F1
000A003C
004E0029
FF900036
00AC000C
FF15FF85
FF310045
FEB9FFCD
FFBB003D
FF5B018D
FF39FFCB
0016FF57
FED00067
026C006E
FFF00024
01D3FE18
FF32006E
0113FFE4
FF84FFAD
003CFFBB
FFFBFF9D
00EBFF03
FF9BFFEE
00440020
FEA70050
FFC00078
0022004E
FFCFFF2B
FF57008D
00E8FFA4
0064FF0F
FF97FF7C
00D400B2
FEC80102
FF07FF8F
FEDBFFED
FFC0001D
FFE5FFFD
003001A3
008DFFE6
FE1BFEC0
FFD20008
010E0002
FF840083
0069FFFF
005BFFDE
FF100005
FFBBFF9E
006C00F3
FF6D003A
FEF5FFAE
FFEDFFE1
0099000B
009EFFF2
002C00D1
00010008
0055007F
00BEFFAE
00CD010A
FF9D009B
0112FFA6
0095FFBA
FEB2FF1D
FFA2FE81
00350076
0084FFEE
FF26005C
FF76FEB1
00BEFFCE
0011FFC7
0042002F
FFB1004E
0000008C
FF720102
FFB6004C
FF8F0025
00630070
0170FF09
00BE005C
006BFFF6
FF000028
FEF20097
010C0069
FE55FFC3
FF6BFE45
FFFF018E
0082019C
00FF0011
FFBEFF93
FFFF00C4
015A00AE
FF30FE71
FF9F004F
FFA70140
0006002D
FF2400BB
FE96FEDB
FF56FEDD
FF82FF60
FFC30114
FF8C00C3
FF18FEED
0027FF67
FF530029
FFD70073
0032FFB4
005EFFBF
005DFFBB
00D6FF9E
00110147
00B4FEBA
010900A9
FFBC00F5
FEF2FFE2
0201FF8F
FF75FFAC
FF6CFFB3
FF15004B
FFE1FF7A
001701BF
00D1011F
0037FF6E
FEBC0129
FF91011B
FF53FF9C
001600F4
00B4FF72
0073008F
000C0070
0007FFC6
00BC007C
008E0088
0167002D
FFCAFF7E
000AFF47
FF64FEEB
00A1FEF7
0045FEEC
0045FF72
FFCFFFAA
FFD10046
FF37004E
FFE10067
FEA700E0
FF580021
FFDA0120
0023FEED
00AF00B7
009900BA
FFC500A7
014AFEFB
00320107
FF82FFBC
FEC7FF27
FEED0013
FFD2001B
FF6400C3
FF2E00C3
006701A5
FF7201F0
0054002B
0031FFE6
FFF7FEBB
0055FDDA
FF8D0029
0224FF09
004E00AA
000A009E
028800CE
FFF7FF08
FF92FFCC
FF14FEEB
0042FE88
014C0190
FF4D016D
003DFFBC
007D001E
00AE00A7
FF8F008A
FFD4002E
00CFFEE3
0098FE5B
004EFEB3
0167FF62
0079FFFD
0046FFA8
FE6900CB
FFFEFF27
FE42FF24
00B0019A
002000A3
0154FF8D
FF62FF07
0076FF9F
00680006
0020002D
FECAFFFF
0149007B
00B0FE48
FFC1FEE1
FFB50076
FF22FFA1
00A2FED2
FF730050
00CC0012
FFF5FF78
FEF3FFC4
0023FFF0
FFA0FFFC
005E00F8
0087FEB7
FFFCFFAE
FF4AFEFD
FDEE008A
00470087
FFB2002B
FF700006
FF1E00DB
010F00AD
0096FFB1
FF2F00D6
FF2DFF50
00F1FF6B
011AFFEC
FFCE003E
FF05FFAB
015D0054
00860176
0023FE82
002100C9
010701D1
FF730060
FF4BFFCC
FF6B0039
004A0020
0159FF49
FFF9001F
00F00036
FE06FFA5
022E007C
FFF4002E
FF48FF91
FF5000C7
00EFFFEC
FFF1FE5A
0003FE4C
002B00BF
0099FFC0
FEFD016D
00630002
FFA70006
FF0A000B
FF080131
FFB20095
0033004A
00A80217
00570062
009AFFC3
FFD70007
00F9FF71
00FA0131
FF93FF9A
FEFFFF38
004F0007
FF19FE7D
FFA200F4
FF54FFF1
FFB2FEB7
0073FFAA
FE97FE0B
FFA20075
004F009C
002A0020
000FFFA1
00D9FFAB
FF9AFFE7
FE9600F7
001C00B9
FF4000AF
FEBDFFAB
011DFF94
004600A6
FFF4FF65
FF37FE77
FF550000
FF38FE8A
00ABFFF7
FFE20026
FFAAFECC
FFA5FFCA
0055FFD8
0046FFAE
0105000D
FFAAFFB5
007AFFF2
FFBD0001
00D2001B
0095FFFD
027A005A
004000A9
FEF000E8
FFB9FF94
009E0129
FF8500C2
FF4201ED
FFC9FF84
0079FF7C
FF8700DF
FEFB00C9
FEE800E8
FF0BFF7C
0090FF76
FFC6FFD9
0046FDD2
FF000013
FF79FF03
FF1801F3
FF4CFEFD
FFDA0168
004BFF46
00B4FF9C
00E40080
FF000060
007EFE74
0042003B
FF0100E6
FF8E0197
FFB0FFD5
FE2FFFCF
FFBA0152
0025FF82
FF38FF02
00A1FF5C
00D7FFF4
00F1FF70
FF2AFFEE
01890113
003BFEFA
FF7CFFE9
FF8E0018
FE79005E
011CFF66
FFE5FF96
FF010046
000900E1
00E200D2
0030FFD7
0044FE94
FEDCFFB2
FFCBFF66
00C40061
FFA00005
FF97FFDF
FFFCFFC6
FF870000
0001FF97
004AFFC2
0020006A
FED000A9
00780195
00790012
0158FF00
FE8BFFBE
FF65FFD8
0009FE9C
00A3FFE0
0017FE3A
002EFF34
FDD500BF
FF47FF7B
00D30151
00CEFF2E
005A0026
FE80006F
00C70059
00970201
FF4AFF40
FE7F002B
FFCAFFFF
00470002
00DFFFC2
0103FFBC
FEB300ED
007C01AF
0039FF23
01A70265
FE76FF3E
0055FFDE
FFAAFFB2
FF6DFF94
01CBFF88
FF4CFF4A
00BEFEF8
FEA2FEEE
0019FF48
0004FEC0
000E0050
FF97FF79
FFB900D8
002DFF12
FF87FEFB
FEF6FF64
FEB3014A
000A011B
FF6AFFE4
0053FEEB
FFD20068
000B00F2
00C8FE60
016BFFD4
FF1BFF31
00F700C4
FE7EFFB7
FF0CFF12
0040009D
0032FE37
FF94FF21
009400FE
0069FF5E
FF3800F2
FF2EFF2D
FF3BFF0E
FFA600CB
FF5E00E4
00580011
FFFA00CA
00AAFFF7
004C00D7
FFC5FFE7
01D7FFAF
0148003C
FFE6FFB2
008400E3
00110009
FFA0FF44
00EAFF83
FEF1FFE2
FFE1FFCC
0026FE6E
FEE9FF6B
FEAB00B9
018200E6
FFF1FEE5
FF23FE9E
0044FF9E
0092FF99
FF9B003A
FFC2FF89
00280040
00370100
FFD2FF07
FF78FECD
FF5AFDE4
0063FF9D
FF05FF52
FFC3FEA4
01BB0139
FF260097
FEFC0117
0031FFF2
FF62FE7F
0146009B
FFAD001A
FEEA004B
FEBF0056
FFA8FF5A
0045FFBB
01030044
FF5C0059
003FFEE9
006A0093
00F600B7
FF4AFFD2
FFB2FFA5
FFC5008C
FF57FFE5
FFD8005E
00A0FFA2
004A000B
FF99FF17
FF64FF1F
FFA1FF83
002FFFD4
0011FF60
FF69009A
FF1D00C2
0102FE4F
FF8E001F
FF36FF5F
0051FE90
FFA500A5
FF4BFFF7
00820057
007D01E8
FFC8FE70
FF690024
00990177
004EFE6C
003DFE63
0154FFAC
008AFF9E
0079FE0D
FF8D0164
00B2FF8F
00260006
016FFEC8
FFCEFFD7
FF310011
FFCB003F
00690070
FFD9FFC6
FEBDFF9B
FFF1006A
016B013E
00AFFF73
00DA0038
FFB10025
0052FF15
FDDEFFCD
0191018A
FFD600FC
FF2E0026
008CFF4C
00B30032
FFE000B8
003A0105
00DD00CE
014E0028
FF800043
011E0022
FF5B010B
FF4CFFA9
001CFEA8
FF5EFEDB
FF4D0058
00C8FEFB
FFD9003F
FEF0FE7C
FF07FFFF
0079FF2D
FFA0FF79
00B2FEC6
0175016F
FF45FF4C
FFB5FF75
0031FF20
FFFDFFCB
0001005C
0236000F
007FFF9C
0012FFAF
FF730045
00A0004C
001201B6
0106FF6A
FF320055
FF50FFF7
00480091
00A4FFEF
005FFF8D
0166FF7B
0026006B
FEB4005C
0068FF38
005DFFD6
00EEFF37
FFABFF83
004D005F
FF790040
FE8F006F
000B0064
FFA7FFF7
0070FF33
FF530187
FFF2FEF5
FFAC0115
000EFF97
006100D7
FF89FFF1
0087FFA8
003BFE76
00F8FF94
FF3C000B
FED0FEB0
0078FF56
FFF70134
FDE20017
FF850041
00CBFFC8
01BFFFC5
FF84FFEF
008EFFC4
FECAFE7C
004D0065
0239FFF7
FFEEFE77
0062FF14
00B9FF25
FFD4FF91
00B2FFC8
00E6FF78
007DFFAB
00A1FFEF
FF3BFF01
FEC60017
FF6E0033
00200010
0077FF88
FEAF00DF
FFA1FFE3
0060002A
FF0A00E7
01C4011A
FF4B0029
010C0050
01B600E9
0002007F
FF0EFE1C
FFADFFED
FF0200FE
FEB3007A
007700F7
FFBCFEF5
FFBEFFD5
00A80056
FFD801FD
011FFF70
FF94FFC6
FF8AFDCA
01BBFF59
020FFED9
FFF900DC
0129FFFB
FF04FEBF
0058FFCC
0167FFC7
0067FF9D
019D0114
FF650213
00F50085
0018FFB1
006EFF6A
0023FEC9
FF8FFFF8
00F70008
FF78005D
00A4009D
FF0800C5
FEB8FEF8
01110070
FF5FFF52
FF55015A
FFADFFD7
00B1FDF2
0094FF72
FF040043
FF71004D
FFE8FFEE
FF5EFFDF
0023003E
FFF700BF
010B002B
FFBC0043
00220001
00370071
003C000B
01B40004
FFDAFF73
FEF70040
FF8E003A
FEE5FF19
004E008C
FFDD0027
003600E5
009F0073
0000FECB
FE08FF88
00D5FFC6
FFED01E0
018D005A
00F3FFC7
00FDFFA9
00BA00BB
FFB9FE8D
FE75FFD8
FE7A0042
FF38007A
FFAFFF67
FFCD0030
FF6700FC
00ABFF9C
FFCDFE0B
00A4FF03
FFBEFF70
00D20048
000E0069
0062FEED
FFBA0098
01780013
FFC0FF85
FE3E001B
0039FF54
00420037
FEB300D3
002C002E
00450070
FF2800F8
FF5EFFE6
FFB50029
007F0141
017C025E
00D3FDD0
017C0059
FF9000DE
FFFDFF0A
00C100AA
00F100E0
00F7FF0B
FFA5FFBA
FF6CFECD
00BEFFD4
FF9DFF6A
0123FF1B
005BFFEB
FFE8FF2E
00330035
008FFFAF
002300D6
FF590071
008F003F
FF0F007C
FF06FFD1
FEEF00D8
006CFFBD
0024FF89
FF1AFF73
00CAFE96
FFDCFF53
003D014E
FFF4FF66
FE860038
00CC0032
FFE0FF38
0056FF72
002800D3
FFD2FEFB
FFB1FDD2
0044008A
0184FF9C
FED9FE84
011201BF
FEA0013C
FF5CFFAD
FFDFFF98
00250077
010BFF7F
FF66FF6D
FF41006F
FFD50144
0175FF92
FF21FFFF
0023FFA3
00AB00A1
FF02FF2A
FF44006A
00400004
FFA8FE78
00ED003B
FFD0FFD3
017A0065
FF67FF0A
FFDE0162
FFBB0008
01200060
FF8C0116
01240056
FF680033
FEDE00D1
FFB401AB
FF78FFE7
FF7C019B
00A80073
FEE8006E
FF99FF51
FF3C010D
010FFF29
FFC5FFD3
007B018B
0227FFA8
00B9FF80
FFA3005F
FFF4FFFF
001A005B
FFBAFF43
01670089
FE26FF32
007A00B6
FF4E008A
FFF300C6
0065FE48
FE4F0026
00490057
FE8C0011
009200FD
FF37FFF6
0044FF36
001CFF7D
FFB70113
FFDA0004
FED5007A
00260045
FFC1FF09
FED3005E
FE82001F
FEF400C7
00160084
019B007C
003F000B
000E0129
FE640040
FF16FF7E
00E5FFB1
FE95FEC0
00130043
FF3B004B
FF4100B2
0098FF78
FEB4FF9D
0196FFF4
00460244
006FFF8B
0097005E
FF100001
FF1FFED6
01B7FECE
FFE9FF58
FF86000A
00A9000A
FFE10010
FF6F0118
00B2007D
002A006D
000A006A
01760085
0241FF9A
0077FFDB
01FA004B
FE96FFD4
FFF8FFA0
00CAFF58
FFCF011B
FF38FFE5
FFFBFF43
00D2FFE9
FFF1FF70
FF8900B2
00B4FF81
FEB0FFA2
00A2FED9
FFD5FFB1
0043FE8E
FF6FFF54
018C010D
0131FFD2
FFA10031
FF1A007F
00FF0055
FF1400EA
00FDFF9B
FD84FE91
FF04FFF9
FF5D008E
00DD00EB
FFF90151
FFA9FF96
FFF0006E
00CB00C0
0064002D
FFE3FFD2
FF400034
FFFCFF3B
00670052
006CFFF3
005500B3
00310146
01C200B9
FFFB009F
00600065
00ABFF98
0185FFBD
FFBD0020
01AD009A
00A000F5
00A4008C
00E10052
001EFFD3
FF22FFEF
01F8FEF2
00B40063
01500177
FF14FF9E
00350035
003F00F4
FF49FFEA
FFFFFFA2
0022FFDE
01A1FFC3
FEF5003D
FE8100BA
0036FFBB
FFCB007E
00EAFFFB
00C7FE4B
FF69FFD5
FF010123
FFEE0050
FF7A005A
02100088
FFAE01C9
00BB00F3
009CFF8D
00E900C3
010D001A
015A015B
012E0056
FFB1FE4D
001AFFE9
FE08009F
FFBB0048
FFB3FF65
FF49FFE3
0098FF0A
FF25FFBA
00CEFF47
FFAF00AB
FFDEFF72
FF09FFBD
FFCEFF79
FF3DFF3F
FF0A0068
FF76FEE3
FE920069
00290023
FFEEFFEC
FF5DFF6C
0200FECE
0074FFD8
FFAFFF76
00540051
FFCE00A2
FF170032
013EFF56
00310030
00E2FF6C
005600EF
FFC2FFD2
0053004F
001100C2
000F0015
FFD90050
001D0058
0065FFE5
001B006F
00DFFF50
006C00BC
0003026E
00EE001E
004E00F0
00C700CC
006CFFC8
0169FFA9
00E0FFF7
00A40043
FF3C0009
FF41FFD8
FF0DFF7A
008801E2
FFDBFFC6
FE36FEB3
FEA6FE69
FFD1FF77
FFA50110
012D0025
FF64FF79
FF580076
FF83FF31
00A5FF5D
005AFF4A
0068FFA2
FF29FFC5
01E2FFB3
00CE00C8
FF8D00FA
FF23FEAD
014BFFD7
0041FEAB
FF0AFF99
005E0009
00C4FFC2
00ED0098
00C1FF5F
FFB0FF6B
003C01B4
004DFF9C
01B10002
0068009E
FED6FEF9
0155FFF9
00D90092
FD5FFFB7
FF58FFB5
FF7EFF43
FFD80162
00DB003E
FE1900D6
00DFFF3F
FF4BFFAA
FFA30000
FF26FF11
008300CE
0028FF87
016FFFB1
0017FF89
FFEE005C
00CBFFA5
FFB9FE19
FFC0FEE4
FFE9FFF2
FFFDFFDE
FFA6010C
FF36014C
FFD10078
00AEFFF5
01B8FF01
0022FFF9
005BFFC6
0067009C
FF2FFF55
FEE4FF23
0063000D
01C5FFE6
010D008A
FFD8FEBD
FFE100C8
013E0006
FFF1FF24
FF74FFE8
FF050173
0098009D
FF14FF64
FF3CFE81
FFD600CB
FE3EFF4B
0108FFAB
FF54FF35
FED500A2
FFB0FFF3
0080011E
004AFF8C
FFB901FD
003100A2
00030037
00DF01D6
FF6B0048
FDF0FEC6
FF17FFEE
0167FF8A
FFC700F6
00460025
FE9C0072
010800C3
01A3004C
0005FF06
012A008B
FFA4FF75
000500A0
FFE60075
FF19FE88
FFF90026
FFFFFF2D
FF450019
FDD6FEF6
FF73FFDE
FFFCFFCB
FF86006B
FF14FFB5
FF1C00C5
0007000B
FFCFFF6D
FF52FF77
FFCB0152
FEF401A1
00AA00A7
0026FFFD
FF7BFF3E
013DFFD5
0028FF2C
FFA30043
00B1FF47
01C9FF8D
0054FEFB
FE6DFFB3
00E8FE3C
00D9FF80
FFD3FF7E
FF000068
FF90FFFD
FEDDFEF6
FEA4FF3B
0013FF20
00FBFFFE
FE8000D9
008D0213
001F0061
014CFE60
FE69FED8
FF65005C
017F010E
001100A6
FF99FEA6
FFDFFF98
00ACFEB1
FF7200C2
015F0121
00F9006D
FFB30055
FFE7FF61
FF1AFFE4
00D100B5
00B9FFC8
00360022
FF0801AF
0105FF73
0028FED6
007C0022
00AE002C
FFC6FFC8
0219FE2E
002D0001
0041FEC6
FF45FFB2
FFA5FFD5
FF9300FA
004BFF18
FFE90173
FF6CFFD9
006F016A
0096FFBD
FEB4FFB5
FF75FFC2
FFCE000B
FFC7FFAB
FFC100CC
007D000E
008DFFD3
FEFA00FF
FF8A01C0
00710063
FF73FF93
FF5BFDA8
011C0031
0165FF63
FEE3FF91
FF8C0018
000900AB
FFA1FF2A
FF3E004C
FF940032
FF34FF23
00A1FF4A
FF41FFAE
FEC2FFB5
0157007C
FFEF005F
FF72FF40
FF36006D
0192FDEE
FF5000AB
00B30050
0092FFA5
FF2C0068
00720007
01A8FEE8
002C0075
FED2FF56
FF30FFBF
01910057
0193007F
004300ED
01A00036
017800CC
FEAC00D3
006E0057
004E000E
00290069
FF89FFC3
FFABFFD4
FF3E00F8
FED1000A
FF85FF7A
0159FFBE
0225FF4C
007AFF9D
FFA8FFB5
FE9100AD
FEB5FFAD
FEFFFFC4
00460095
00CA0149
FFCC007C
FFCE009F
011D00C4
000600B2
0028FF72
FF5400F6
FFCC0029
001EFF02
FF67006D
017C00E5
FEF80044
FFB40072
FED5FF24
00850030
FF3DFDBA
00A7020C
FFFD00B8
00040086
FEBAFFFD
FE9E000B
FEE4FFC2
FFAC0048
FFAE00CB
002F0066
FF0EFEC2
FE62FF37
0004FFC2
0036005C
004AFF5A
0048FF7F
012200AC
FF5E0098
FE75FF20
003300E1
FEF3003B
FFA70071
FFF8005B
001CFDCB
01240003
0055003E
FFBEFED5
0067FFAF
FFBD000D
FEC00027
00A60088
0101FFFC
006D0123
FFAB016E
FE9BFE55
003D00D5
FFF1FEE3
FECBFFD8
011A0103
010D00DC
018201A6
FF900098
0091FFBF
0114FFE6
FFC3FFBD
FE5A00D7
0033FDF2
FFB90134
00AC002B
FFACFFB2
010800D2
005BFF3B
011DFF32
00F900BF
FEB90078
FFA3004C
FFD4FF85
00260125
FF3FFEF9
00AC007F
00940111
003B01CF
FF570068
00C00006
FFEA000E
00D2FF5E
0197009D
FF47FFE4
FF6DFF10
FF78001E
FE57FF4A
00180053
008B0025
FDD2001A
FE930021
FFE0FFF8
FEA0FF45
FF66FE7A
002AFE0E
00F2FF6A
014CFE59
FF2500D3
015AFE6F
0020009A
0122001C
FE640149
004BFFE3
FF59FEEC
000F0092
00FC00AE
007FFF40
004700AC
0042005A
013BFFE5
009AFF27
00940052
FF4800C9
FF64006C
FFDD001F
FF040071
01F0FFB5
0084FF80
00EDFF53
FF230048
FF680045
0034FF75
FF1DFF5F
FFAB00A1
FF9CFFA2
FFD600C6
FFC3FF77
010B01B7
FF640076
FE81FFD8
FFA5FF6D
FF3FFF51
FF83007D
003EFFAF
FE9F0045
FF8700E9
FE4BFFA3
FF71FF64
0072FE6F
00EE0098
001CFF4F
FDEFFF98
FFAB015C
00870149
FF3C012E
FEBB0040
006F0130
FEF80104
0024FFC1
0030FF03
FEA5FF9D
FF4100D0
00150058
FF6B008C
00FBFFBD
FFFDFF6C
FF4FFF76
FEE40054
FEDDFF48
FFCE0090
0036006C
0022FEAD
01B70129
0110001A
FF9CFF88
0095FF9F
0038FF3A
FFE7FFE8
FF8400A8
0087FF79
FF1000BE
0089000C
000F00F6
FFD8FE5C
FFE3017C
FFA5FEF7
FF6BFFDC
0070FF7A
00E2000D
FF9E0078
00C70105
FF7BFFA8
001200E8
01440062
FF6F017C
FFDAFF26
001B005E
0020FF4F
0153FF3E
FFA10025
006C0043
FF9E007F
FECE000D
FEE4010B
018F00BC
FE13FFC1
003B00A4
004C0059
FF480003
012F001C
FF9BFFA1
FFE1000D
FFF2003D
00CBFF28
007BFFAF
FEB6FFF3
001DFF38
FF9B0023
002A0135
FFB2FEB1
FF5BFE80
00C4011C
00040037
FFCFFFF3
001D0010
FF680022
FDA50132
002F0011
FFD9FF2C
00D2FF8C
00230192
0094FF9D
00390136
00230120
007C0033
FFC7FF5A
FFB1FFBE
0109000A
FFB2007A
FF4EFF6D
