01E8
FD37
0266
FB46
019E
0342
02E6
FECB
FEEE
FAD0
0372
021B
01C5
02CD
FED2
013A
0232
FF4F
009D
0227
FC4A
00C0
FEE1
018A
007C
FB99
0054
02BD
FFD2
005B
0245
FBDA
FE63
0353
019A
FF90
FD29
03BD
0194
FF86
FF12
03BE
028E
0357
02C3
FC21
06CA
FB87
02A4
FB68
FCF2
00F3
FBAE
FCF5
FC43
042B
0117
FC75
020A
04A6
FD98
FEA4
FDFF
FC4A
FE2D
01BB
0019
02AA
001E
FF58
FC61
FED8
FFC4
FD2D
02A5
FC71
FE93
023F
020C
FF90
FE74
FEB4
020F
FCEA
FE3B
001C
04DB
00E8
0116
FB37
0109
F9D1
00F1
FB9C
03C9
FAE4
FCE0
04DD
FD41
02AF
FE51
FD6C
0388
028A
FD87
0594
0645
FF98
FE84
009A
FEA7
FFE9
0382
01EC
00FD
FB57
01F3
0235
FFA6
FC9F
01AB
02E3
FD66
0562
FC3F
00C5
03F9
FEE8
FE78
058E
FCBF
0658
FC7D
0428
FE5A
FD86
02C6
0369
01E7
FC00
F9E8
005D
F8A8
071E
FE51
0044
FF72
FD7D
0258
03FB
01DF
FDEA
FDBF
07AC
FD7A
045F
FF72
FEF0
0164
029E
0428
006C
FB6A
0390
0216
FF66
019F
FA9E
0203
0109
0054
00C1
FCE2
02D5
FF99
FBEB
FC16
030F
FCB4
0457
FB30
0261
0167
027B
0312
FD96
FE23
FC16
01D1
F755
0447
FC52
FEA0
FCA0
00F3
012B
FC37
04AC
FF2B
0343
04F7
FA02
FFA0
01F6
FF88
0076
FEC3
034D
FFC0
FEEF
031F
FE96
00A5
01A9
0172
01C6
024F
FB64
FFC7
FC49
FAF7
056E
02B9
FF38
F767
01FC
FE8B
049D
0197
0773
FFDA
0760
0152
FBA1
03CE
FD26
FE61
00CF
FCA2
FEA0
FEC7
FF7C
FD13
02AA
0053
FFFE
0102
F853
05BF
FC2B
021F
FB80
0036
FE67
FEF0
FFB0
0599
FDB6
0405
0097
FE20
04FA
00CB
FD05
027F
FE36
0135
FF7D
030A
00F5
004E
FD79
0341
0392
02E2
0282
02E7
02F8
00C2
FBB1
01F4
00DB
FDE7
014D
0345
0065
0315
FD26
FD41
048A
FE13
FD78
FEB3
FF23
007B
FBC5
00F7
048D
02D7
FE3E
FEE2
0364
0336
040D
FD22
FD47
FE7E
031E
0292
0192
044A
02F8
0095
FE1D
FE56
FD5F
FF01
035E
FC4A
FE18
0418
FD08
FFF6
001C
038B
027D
01A4
FC62
0266
FD3D
0005
05B3
04A1
FF83
FE70
008D
FCAA
042E
01E3
FDA3
00D2
03AE
00DD
FFBC
FC84
0B88
FA01
FC82
024B
FC07
00D1
000B
FA0F
063F
FE9D
0149
0489
FE3B
026C
F85E
FEDA
FC4D
0139
0433
FAC9
0360
FE12
02CA
0391
FDD8
FF0B
00B2
020B
01D2
FE37
FB91
061D
006A
03CB
FD30
FE4C
FC0D
0212
FC7D
FEDF
005E
00AE
FD36
02C5
FD8D
0128
FFEB
023C
002B
02E3
0053
FE29
FD1A
03E0
FCEF
030C
FFD8
FDFA
0296
FF61
FE12
FED0
0330
01EB
FDF8
0235
037E
00B2
FCFB
FCDC
0493
00C7
FB28
FBCD
FE61
FF66
038D
FF41
FFF6
FE50
0043
FC14
FB29
002A
FCE1
F992
0082
FE8F
02B7
FDB1
FF37
FFC2
FE82
0200
FEF7
FBC0
028C
FEBD
015A
FA3A
00F5
009F
FF77
06D4
02BA
01E6
FDD1
FC4D
03A8
FFF8
FB89
00A3
01CE
0507
FF43
0133
008E
01AC
FAA1
FD83
0071
0330
FEE5
0057
FA35
FF29
FED1
016D
00EE
FFFA
FC57
008D
FF84
FD31
0157
FFF9
029D
03A5
014B
FCE4
FD29
FD30
FA7D
FE5A
FA47
FEB0
FD8C
FCE6
FCF1
0040
FB75
022A
0438
FDE0
FD28
F9FC
07AE
FDC1
002A
0252
02BB
FD1F
0691
0080
FD81
0068
FD8F
0121
06AD
012D
F8C1
FD10
015E
020B
FB1A
033C
FFA0
FE26
FF5C
0130
0059
FB92
02C0
0116
02E1
FEB3
FEC5
04F8
FD7A
FEDC
0201
FCA2
0036
FCAC
009A
00A5
FDAC
FF5B
FD68
FF9C
02A7
FFCC
053C
FFC3
FDE8
02D1
FF5E
021F
00ED
FEDB
FF6B
07CC
FED2
0057
024F
FE4A
FFC0
016E
00AD
FCED
02C4
FC6C
0122
FFC3
038B
FFE5
FD67
FADC
0060
0427
F9DA
0115
FB8B
FE28
F91C
026B
00E7
0114
FCA4
FBCA
008F
FDD1
FDFF
FDDB
03CF
002A
0351
0303
FEB6
FDE1
02A5
0258
FC2A
0108
FD80
