FF09
00CB
FEC1
0048
FF48
FF65
0060
FEEA
FF5F
00FA
FFF0
004E
FFD8
007B
0003
001F
005D
FF0F
FF6E
FF86
FF51
0071
0097
0008
00BB
00F3
FFA6
FF19
008B
00AC
FFFD
FFEB
FFAF
0098
0106
FF20
00B5
FFA2
FFB9
00B7
004A
010B
FEC0
FF3F
FF2A
FFFB
00A5
003B
009E
0010
FF36
FF4D
0096
008F
FED6
00C3
00DE
FFC6
0128
FFEF
011D
FEF5
FF28
00A6
0032
004B
FF48
008C
FE66
FFAD
0017
009D
0095
FEDF
00AA
FF5C
FF28
FFAD
0070
FF9D
FED7
FF00
FF74
00CF
00EC
FFF9
FF47
FFB0
0037
007F
FFB0
0054
FFBC
0023
010E
0037
FF8E
008A
FFE3
00BF
