FD13
032C
FDF7
0036
FF49
FE4B
FD3D
012E
00CF
FF34
FDC6
020B
05AA
FC10
005A
009B
FFE2
FD98
00F4
028C
03AA
016F
FE10
FDE6
0046
0004
FF3F
FF0C
001E
0069
FD61
0102
0219
0128
FC7D
FD8C
0476
FBD5
0195
0146
01DE
FD80
FE44
FF8A
006C
FF0D
01FE
FC32
0179
FEF7
0074
FBC9
00F9
0329
0379
FE85
00F9
FD5F
021B
FFF0
FE01
016F
0060
FF37
FB0D
0314
FD24
04A6
FD7A
FED8
FEB2
0032
0020
FFEB
0497
FBB9
FD3F
FE89
FF1D
FC59
FC9B
FDF6
028B
0132
FED6
0126
0143
03EF
00C3
FE53
FDA2
FF81
FDFE
FFCB
011A
033F
02B0
FF81
FC6E
015D
FF22
FE6E
0341
FE48
0107
01DA
FDD6
0146
01C1
FD04
FF51
FFC0
FEFC
FE62
03CF
FF5F
FF10
06E9
FFD9
FECA
02F3
FE8D
FC8A
016D
FC4D
FDAD
FF92
0139
00A1
FD50
0000
00C7
0009
FC93
FE27
02A2
FDC5
FEAE
02FB
FE78
015D
FCCA
03B6
049B
008E
007F
0007
02FF
FE37
FD36
03A1
0045
FF2B
FF22
FFCD
FC7D
FC66
0172
FB2B
01BF
FC59
026D
0169
FEE5
FF95
FE94
0086
00DD
03DA
0160
0066
FCF5
FF20
02AE
FD07
033D
02CD
003D
FF66
002D
00AB
00ED
011A
FF96
FE4A
017F
FFA9
FF26
0119
FEDF
FFD7
016E
0039
FF5B
FDF6
00A3
016A
FD9F
0379
00C2
001B
028E
00CD
FEDA
018A
FE12
FF06
FFBA
FF7F
FFA2
FF8C
0066
FD49
01E6
00F0
FCDA
FFFD
FFB9
0122
01EB
FFF3
005E
FF71
FE3A
00EF
00DF
FF12
003F
0338
0124
FF42
FF9D
FE54
0005
FF32
00BF
02D8
0102
0135
0136
FE18
FF0D
FE4B
0327
03C8
FF0D
FE16
00DA
020D
0188
0197
FF6A
0205
FF6B
FFF8
015E
FFB5
FEEA
0138
FE7C
FED8
FEDF
FB94
0187
0163
FF20
00AD
0191
0369
FD39
FE0E
FFEC
FCEB
02B5
FF8C
FE13
FF8E
F9D3
FD8F
FFCE
0212
01C0
FEFD
FE98
FFAF
FECD
FEFE
0098
FE3B
0086
FCC8
FF92
FC97
0094
006A
FF7E
006E
01CF
FFBD
0012
0019
FEFD
0117
FC8E
0040
FF9E
0007
022F
0361
FE25
FEC2
01DF
FEC8
FDF0
00AE
03C1
0132
028C
000D
FEA0
02C0
FA08
FD27
FF45
00D3
FE4A
FFE6
04BF
FE35
FFFD
FECE
02B5
FE37
01B1
0119
FF17
FD32
FC58
01F1
00E0
FF86
FEFD
0092
FEBB
FE5B
FFC9
00F7
FE21
FDDF
0074
01F4
FF80
FF4C
FF37
008A
FF51
0046
01F9
FD32
02B1
FF61
FF41
FF36
00F0
0164
FEBB
00BB
FEF7
FF6F
006E
FED7
FD5E
FF58
FE4A
0128
0024
01EC
FE58
FB48
FE7D
FEB2
03AA
0017
FF22
0015
FDC8
021E
FE9A
FF3B
FF12
00B3
FE40
FB98
FD50
005E
FF22
FF5D
FF5E
013E
FE9A
015B
01F5
011D
0374
FFCA
019A
049B
FE96
028A
0003
FB46
FD2A
FC3E
FE5D
01A1
0456
0179
FF46
073F
03D5
05EB
0115
FFE5
FFA3
FE82
FE51
FE85
FD94
FD06
0446
0274
FE0F
021A
FDF7
FF25
FE63
018E
0242
FD23
FD05
047D
009F
FFDF
FDF4
FE78
FD02
0119
FFEF
019E
00BD
0116
FE7E
FC2C
FE0D
FBD6
FC79
FD67
FEF8
FF8A
FF66
00C3
0139
010F
04E9
00FC
0372
00C1
01C0
FD41
FF9D
0203
037B
FC5A
FF66
FFA4
FFA2
01E7
FD03
03BD
0131
FF07
01BF
FAFA
028C
00E5
00D9
0233
FAAD
0478
0002
02F3
FE75
FE25
00BD
FB02
FD4F
FDDD
0190
FB47
03FD
0286
FFDE
FC12
FEAA
0090
00D9
FB7C
01D7
0383
FDC3
FF6C
FF83
0288
012B
FFCA
07D2
FC06
FAF6
FD8C
01B8
FD43
FC43
FCD1
FF3D
0130
FB97
00A4
FD98
FF70
01CD
FD0D
04A8
001F
FE60
0009
FE06
05DF
FDA1
F7BA
0401
FE5F
0927
03F6
0032
FEC1
FFF4
FF1D
00F7
FD96
0478
FDA4
FCB7
004B
042D
FDFE
F857
FAEC
FE79
02BF
029F
022F
FDF5
FF37
0425
023F
013B
02D0
FDE4
00F9
FC3F
FEFC
048A
FEF5
FE14
FD55
0150
FE85
058E
0557
01F5
FEA3
058F
046D
FDD8
FC9A
01A4
FF90
0199
FDAA
FFE0
01E7
FB69
FFB5
FBF6
FDBE
0299
0515
04B6
FBE9
0112
FEB3
0022
00B3
0275
FFA5
00EA
0142
FE33
FFE0
FEC7
FE9A
00AC
0024
0034
FE85
023C
0004
FFEA
0430
FF2E
FF1C
FDF3
0000
FE37
FBFC
FD32
FCDF
FF5A
00E6
0247
02D9
00A3
FD4A
FB70
FC0C
FECC
FCE8
FF38
FDE9
FFE7
FCC3
FD60
FD17
FE54
FF12
FF3B
FDAD
FF15
FF42
033D
0232
FE6F
FFF3
0262
FE42
FF74
FEE6
FF13
FF8F
022C
046F
FF45
FE1F
FFDD
03D5
FF9B
01F8
FEFA
FE42
00ED
02AB
FFA1
00E4
FDA8
FCEF
0252
0040
025E
020C
0193
FF04
02FC
FF23
FE1B
0160
0432
02E6
FF37
003C
FE2E
00D0
FF5A
FF4F
03F5
00A7
FE5E
0012
FEF5
0148
0184
02B6
FFEA
0001
FF24
0011
019F
FE96
0170
0146
00B0
0022
FE2A
00E1
FFDB
FDF9
0347
FF87
00A3
00B6
00F6
FE69
FF07
FE30
0447
01A5
FF93
0284
FFE5
FE45
FE52
FBFE
FF80
FFEE
0074
FEA0
02C4
0389
00F4
FE97
01E6
FC62
00D0
FDC8
FEE7
0309
034A
00B4
FCC0
FEA8
01C0
FFD1
FF97
020A
029D
FF9B
FE41
FE7A
001A
022E
00D1
02B4
00AF
FEC8
00A8
010F
0279
0378
FDA1
006E
FF4D
0048
01E6
005C
019A
FF0F
FD7B
FFA9
FF4C
0012
0236
FEED
0290
0306
0143
FF24
0076
00EB
02C0
FC8D
FFD7
0117
FD97
FD26
FDFB
FF37
FBBA
022D
FF82
FFB2
FE2A
02B2
FDA2
FEEC
0135
FACE
FE79
FF03
FB7C
FF5E
FF09
01F6
0161
FC56
005B
01A0
032C
0294
FA70
FBFB
024E
0192
038B
FE2E
02EF
F9A3
FF96
FE31
FFD2
0166
0207
FD30
FE4D
FE1C
0131
FF7B
FEFB
FEAB
FE6E
FFF5
FEEB
0025
FF1D
0015
00DD
FDC8
033E
FE16
0270
FAA7
FFA1
0303
FDF7
FF63
01AF
FF21
FE8F
FD0E
FEBC
FF1C
FECF
FE9B
FF70
02C5
0201
FD3A
F8E8
07F7
FEA9
0474
0257
FF54
01A2
FD97
FE44
FDAA
009C
FE9E
FF7F
0184
FE9C
032A
FFFA
FF76
FD56
0289
01AA
0230
FC83
014B
FE2A
FDCC
0352
0405
0268
FC3F
FD22
00DF
0053
FE42
FDD3
FF3D
FDD0
FF09
FD57
0242
0276
FBE2
031E
04BB
F99B
01D0
0203
FEDC
0242
06BE
04A1
FEC4
FD59
FBF3
04F5
FECD
0116
FC7D
FEF0
FACF
0096
FB7F
004C
FEE4
FE00
0095
02BD
0078
FD8B
FFCC
002F
FFF9
FB1A
0090
0416
FFDB
0691
00BB
0256
0118
FE21
FDFA
0332
FD8F
014C
0132
FA0A
FD8B
FEC0
0447
FF36
FDB2
015B
FBD4
07CC
FC2C
FFF7
00E3
03A1
FFDD
FE0B
FE59
FEAF
0087
0073
0054
FF97
FE29
01B5
FB35
051E
002E
028A
FEE1
0201
041B
0401
FDC7
005E
FFBB
0335
FFE6
0047
001C
0088
FDAE
FF26
0175
FE7F
FC90
0220
01D4
0458
FE58
011E
FDF2
03ED
FF1F
FFCA
00E6
FD5C
0094
0084
0117
0167
FE4C
FD53
FF4E
FE10
03D8
0367
FF28
FEA4
0140
01E6
05C2
FDC0
FDA0
FED5
016A
0193
0381
FE47
FD46
FD2A
FE20
FD20
00E3
02CF
FD2E
0097
FFB4
FEBB
FF4F
FF0E
FFB6
FF85
014D
02F5
0084
FDCA
FFCF
FFF1
005A
000C
0211
FFC4
0062
FD3B
00AA
0101
0111
00E4
FF2F
FD66
00C9
01BF
FDDF
01AB
FD0E
0001
FD57
038F
00D4
FEF5
0206
0451
00B0
0160
015F
FBFA
014B
002E
FDEA
FF03
FEB1
FE9A
FD5F
FEDA
FE8D
00F9
FE9B
001A
0229
0277
FCBD
FF5B
009A
FF88
01AA
FE93
FF9D
01AF
FB3D
FECB
00A6
FC97
0166
00C2
FF2F
FF62
FE81
FCC6
0219
FE7C
FFD7
00DE
FEF0
0099
0123
FF36
FF30
0101
FDD6
029A
04F9
0292
FC66
01AF
FD1B
0285
FE9F
FC91
004A
014F
FF49
FB95
0048
FD1F
00D3
FFFB
FEE2
FF47
015D
02E6
01A2
FDA5
FE66
01C2
FF28
FF85
FE89
FE57
FD25
FFCC
02CE
0064
FF72
FDB7
FEF8
01E7
FCB4
0600
01AA
FE40
04E2
00A0
FC76
0144
FE54
0204
FD43
FE4E
0117
FE3E
FF4F
0036
FE3E
042C
FD03
02F3
00B8
000A
0027
02F1
FFAA
FEC0
FCF2
0201
0125
0042
FFEB
0104
0070
FF88
FFF4
FD08
0041
00DC
008F
FF0D
FC53
028B
FE97
FCEF
0071
FF73
FF42
FDF1
00DC
01A3
FF75
FF85
FF0F
FD35
FF0E
018A
FFB8
01E2
FF60
FF77
FE02
FFF8
0319
0165
FE09
FF36
00CE
FD0A
016F
FF53
FD89
FE86
FF82
FFC9
003D
0045
0186
022D
FCD9
F88C
003D
016A
037A
0075
FE26
FEBF
FE0C
FEFF
01A1
FE2B
FD5D
0103
025C
FE0F
FF9F
FE08
0188
018B
0106
FDEA
FFF3
0094
FF7D
FD37
006F
0363
FCE2
015C
00E1
0389
002F
FDC9
0047
FF73
03AB
008B
FFB9
FD96
0075
FFCE
FF16
FE30
0243
0160
FE6B
FF75
0060
FFF9
FFF3
FEC2
009D
FEC0
FFC3
0004
00D1
FC33
FEF4
FD97
0130
FD0E
FDE4
0212
00CE
0122
FF56
FECC
FEE2
FD83
0045
00C9
0184
003B
FD12
FFC8
FF49
005B
0452
FD51
FED6
FF3C
0081
FF10
00D2
00AE
FE5D
FF9A
FFA9
00B2
0099
FE9F
00E8
0272
FE8C
FD62
01EF
02E8
017A
036B
FFA2
FFF4
0270
FE5D
FDAA
FB60
0019
FF00
FD61
FCAB
017A
003B
FCED
0027
00E3
0028
01B0
0321
0134
0025
FEEE
FFF5
003C
FDB6
00E3
FEE7
FE2A
03E6
0000
FC46
0055
0042
0042
FFA1
0276
0127
FDC8
FFFA
012A
FFE4
FE79
FECF
032E
FF98
FE20
009F
FFBF
03A7
0300
FCAA
FD44
FF53
003D
01B9
FC32
FE5A
01D6
FE39
009E
FD36
FFE6
FE8C
000B
FE54
FD80
FE6C
FF19
03F5
FD93
F9FC
FFC3
FE50
FFFA
FE28
FEBE
FA35
FF40
0157
FCB7
032A
FECD
0032
FFDC
020F
FD57
FF85
00A5
FEB4
FF4F
FFB3
044B
04E4
05A3
FC77
FFE6
FE6C
FF4C
FF85
0044
020C
0362
0423
00EB
FB23
0217
FEF9
FF25
03D0
FCDB
FEDD
0268
0214
0138
FFEC
03AF
008A
FFB7
01ED
015E
0315
FE25
FF7F
FAEF
0752
0278
01EB
FE19
012B
FF09
028B
FCC9
FE25
011F
0065
059F
04BF
FF93
0661
F9AA
008C
FEF8
0501
FE42
0116
FF01
FD05
FDBC
00C1
01BF
FEFF
FDF8
FF13
FACE
021B
0025
FF89
0066
FBE5
0163
0074
FDFA
FC88
04DE
05D7
F848
0114
03A5
0373
0765
FE1B
FDF6
FE86
0189
0855
FCEC
0334
0102
FE49
FFDD
FF61
F93A
FD46
FCF9
0617
03B1
FFA0
0127
024F
01AA
FF9C
FF7F
FB16
02C6
00BB
00B4
F9F6
FD7B
0005
FDFA
00BF
FB04
0518
01D5
0144
0069
FC76
FC99
FBCB
03A1
0122
04B2
0012
010B
FD5B
FECC
FE33
FE99
0466
FF5A
FA75
06E4
0142
01F9
FC57
FEB9
FCA2
F7A5
02F3
05D7
0324
0215
02FF
0244
00EF
FF7F
FD2E
0000
F9E4
FF96
00A5
FF74
FDE5
04D3
FF69
0123
FFBD
FDDE
FE23
029C
F5D8
FC95
FFD4
04E2
FFE4
0285
FCF5
043E
0193
043A
01D9
FF98
FD65
01DA
FB58
FBDB
FFA2
FE22
FE0F
032A
0018
01DD
0119
028E
FF53
00A6
030C
014A
FCC4
FDB3
0295
FEBE
0508
FD55
F7D6
05BD
FE81
03C6
FDDF
FDC5
FE1D
FD7D
0093
FEE1
FE5D
FA42
0315
032E
0088
FD07
0286
FDBA
0122
FFF0
0102
00EA
FA35
FBC7
FD09
FE72
0138
FE57
0221
FC4F
FF2A
FB90
0063
0027
0472
0203
FEA2
FD6B
FC17
0162
FD19
FF2A
010F
01D2
FCE7
0057
0158
00F7
FCDC
FDCB
03AB
FCCE
FFD7
0458
FEE3
FF40
008F
0005
0378
038B
0187
02E8
065A
01BB
FDA7
0021
FE68
027B
0110
01B5
FCF2
01C4
0159
03DB
00C9
F90C
0196
0090
FDE7
0092
00D3
FEA5
FE8F
01B3
001C
FCB1
FE9E
0555
0442
FDC1
FDE2
01A8
FD91
FF4A
FEE2
01D3
FDDE
0174
00F4
FBA3
FDDC
00AF
00EE
FD2E
037B
FFF6
03D5
00BA
029C
FF32
FAE6
0058
0208
FE48
02EA
012D
017C
FEEB
011A
0438
FF4F
FD9E
00BF
FE03
03F0
0225
FDE6
0390
01CD
FF07
006D
FDBE
0416
FBF7
FF6D
FFE6
030D
0085
FB91
FC6F
FB4E
0A72
FD4B
0299
FF5F
FFF9
FE74
00FF
0313
017C
FB95
02D2
FB04
FFAE
03EB
FCC7
01A4
0075
022A
FEB1
009D
008A
0201
0224
00D5
004C
0147
FC8E
01E1
FFD1
02F5
FE60
FDB5
00D3
FDD6
0107
FE43
FCBC
0069
02D1
015D
FE49
FFB6
FF4D
FED3
FE27
0173
FE14
024A
FD75
010B
FFB2
018B
FFAE
0200
0106
00F6
FCA5
FE7C
011F
FE05
FFE9
0282
033C
FCA4
FE4D
FEBB
0082
000A
FFC2
FFB2
011F
FFCB
0302
021E
FE7B
FF51
FDBD
FEB0
03D5
001D
FFD7
FED8
FEC4
049B
044A
FF56
047D
0201
0104
FF91
0203
FDE2
02AC
FF58
FF46
0021
00DF
003E
007C
0027
FF5D
0050
0547
0335
01D3
FC72
FCF9
FF5C
0630
FE2A
FE9C
052B
FCE8
0137
020D
0133
03CF
03C2
0317
02EB
FB3D
FF3D
FF48
FFA4
052D
03DB
005F
FEA2
FD76
FF5F
FF13
FEEE
FF69
FFEA
0279
FE6D
FFE4
FF5C
0000
01E8
FE52
0691
01C2
FFF5
03CA
0018
0073
0364
FF7A
0279
0018
FE1E
FE44
FC87
0194
FD1E
FE18
FF7D
FD27
01FD
0616
016C
0068
0155
FE7B
01EE
FF94
FD7D
038E
FEC2
0145
FD9E
FF14
FD29
0324
013E
FDB1
03EA
0353
0394
FFE0
FDFB
FE9D
FD8E
0301
00D3
01E9
06D5
02AE
FD90
FC1D
00BC
0330
055D
FE96
FE9F
03A8
FE4C
FE01
FF37
0049
FD60
0018
016B
0130
FA43
FADF
0412
0446
FD05
01B0
FB98
FD7A
FC46
FD4D
0250
0130
002B
03AA
0372
FE74
00C2
00D6
FE4D
041A
FC4F
FC07
FE00
016F
02E8
0099
FC19
0126
FF2E
01A3
FCB4
FD53
FB3A
02C2
F736
FCA5
FB0E
0074
0137
FEDC
00AB
FDE2
019D
FF87
0037
0106
FD58
FDDD
FE76
FD3E
FE67
037E
FEBF
0015
FD4C
01FB
0173
017F
FD45
FE81
FC3D
FE55
FE8D
FD99
FC72
FCF5
00F6
FD48
FF43
01A2
FD9B
0007
FD6D
0036
FCE4
0026
0303
0120
FE86
FCB3
FFDC
020E
FB6B
0194
001D
02DB
00E0
0087
01D3
002C
0295
02FD
FD13
01A7
0176
FD54
00DF
00BA
FE21
FEE5
016A
031A
FE94
004D
0041
0004
00DC
01C8
FF27
FF90
FFA0
FEDD
FF57
0167
FCA6
FF24
FE51
FF78
01AA
0468
FF64
FEEF
01F7
FEEC
0097
0019
FC41
FD90
FC9C
0271
014F
0399
FD22
FFBE
0283
017C
00FD
FF57
0029
FF1A
018E
001C
FFF2
FFC1
02A6
FFEB
FDA4
FF53
0084
00DA
0016
FEEC
0056
01F4
FFB1
FFDF
FEFB
004B
FF54
01F8
0074
0257
FE15
FF13
FF2D
FE18
FEE1
FE8D
027C
FD1A
00DE
FF92
FFD2
FD7E
0043
FF56
0226
FE51
FEFE
FF29
0113
005D
FE8D
01CB
00E8
FED7
FEB4
FED1
FF72
FF5E
010E
FF6A
013B
FE92
00FF
FCCC
0093
FF44
01E8
002B
011E
01E9
FE3B
FE94
FF7E
FF43
002D
0208
01BD
0067
FF64
010A
015D
01EB
01F7
FDAD
FEA4
FF25
FFED
002B
FE74
0048
0163
01DE
FFD4
02BB
FEAF
0016
0140
00AE
020B
0195
FFFD
015F
01BE
FFFB
021C
03A8
FF25
FE1B
031B
FC49
027A
0012
FE97
FF04
FD48
0292
0212
FE9A
FD6E
FD2C
FC05
FF8E
0150
FD62
0411
0104
0160
0132
01DE
046F
FDC8
0181
FC9F
007C
023C
0046
FEE6
0451
FFEE
010B
FE94
036C
00AE
FCE5
0476
04A0
02E1
03F9
FF45
0248
0020
02E8
0211
FCED
0219
0083
0065
FEA7
FC7A
00C7
FDBD
0334
01C6
048C
00B9
FF4E
FE9C
FD96
FEC0
FD29
FC86
FEF0
FC5C
01C0
03C8
0079
0422
FF97
0449
02AC
FCC8
000D
01A1
FC6A
020E
01EB
FFC0
01BC
0393
007E
00C5
00CD
0340
003C
0460
FF40
FEC2
FED5
01EE
02A9
FD2E
FE09
025E
0294
020B
FEA4
FDB9
01E4
00AA
00C0
FEC7
FF89
04A1
0160
0128
FD3F
FF01
FD81
01E3
04B9
01DD
0243
FEF5
00F4
FDFE
0065
F74D
0182
F8CD
0006
FCC6
FF9E
0851
FAD1
FDB4
02C1
0387
FC4B
FEE0
0134
FDAB
FE26
F8B5
0135
FB9F
011B
FF27
028C
0204
005C
0029
FF85
0217
001A
00D5
0105
032F
FB5A
03C8
FFB9
0000
01D2
FE63
FBDD
068F
FBA7
0203
012E
FFC4
0065
006C
0367
0158
0182
01D8
0114
FFF2
00BB
FD27
02B9
FEBA
007E
FFCE
FE8D
FD85
02D9
00D9
FDE6
0188
0147
02C8
02CF
00D2
022D
0151
FFE2
0117
0192
0082
005E
047C
FFA7
FF95
039C
010C
FC86
0092
FDB1
FD2A
FE37
FFC3
00F6
0472
FF37
015A
FBEB
FEF7
02FA
FD12
03ED
0402
FC8D
0055
00FC
02A4
05DB
FFB6
FEAA
FD2D
FCBD
0157
008F
FE33
037A
0336
025C
FECE
FED2
0097
FE56
FC2A
02B9
FCFD
02F5
FFA6
04DF
FDD0
0421
013C
FDAD
F9C0
FF78
FC2C
022B
FDD7
FDC6
FD64
FDEF
FF07
0290
FF58
FF4A
FDA3
FE14
FC8A
FA14
02B4
FE05
0053
FDF5
026E
FE05
01CC
FCFC
0110
FD02
004F
0024
00B5
0225
FF60
0017
FF02
FB85
0149
FD41
FE10
0278
FE18
018F
01E6
0073
0444
0027
FE91
FE89
FEDA
FC49
FFC2
01DF
0358
0100
FDD5
FB4B
00B7
00E1
FCEB
02E9
FEB6
03FD
037E
FD1E
019A
03BD
F8A3
FFB2
0035
FF97
FEEE
02BD
011C
017B
01D9
FF26
02AC
03BA
0026
F9D8
03B8
FAB2
0056
0110
0092
FE3F
0055
FEBF
FED1
FF4E
FB00
FF42
026B
FDC0
0056
FF91
025C
FFC7
018A
02A1
0070
00CB
013F
FA50
FF26
FDD6
015B
04EB
FF20
FE55
FDDC
0289
FB5A
FBBC
0206
FEBF
FEB8
00F0
FFE6
FE46
0053
FD7F
0116
FFD0
FCC0
039B
0047
FF4E
FD5A
FE88
008C
FDB6
0154
0280
03BE
011A
00C4
0498
00C4
FF73
FF0D
006F
0129
FFEC
02FC
FDD9
FF0F
0110
FCE3
0010
FD34
FD43
FDCE
0000
01CF
023B
FB4B
0070
00F5
FE9A
FDF3
FDDF
01AD
FE9F
FC45
FD46
FD56
00A0
01BA
FC7B
FFD1
00B9
FD89
00B6
018A
FF9D
0284
035A
01E8
FE8B
0020
0209
FECF
005D
FE21
021E
FE26
FFC0
FFD8
FE93
0054
FED4
016F
049C
FCC8
001B
013F
047D
019A
01A9
02BC
02A0
FDB8
014A
0415
021A
00F7
FC78
0160
FE42
FBEE
FF74
FE40
FD56
FD6E
FF51
FE9F
FC76
FDD6
014B
FF56
FD82
FE8E
03F0
0004
0335
027C
FB69
02A8
0185
03AA
FE36
FB72
FE41
FF19
FB9E
0035
029B
FEE5
0026
FE2C
0124
FE9D
FCAE
FFF6
FF13
00FB
0289
FEB1
FFD4
FFCF
0275
0088
0210
02EA
0110
009A
0277
FEF2
FFD7
FE57
FBC7
FB67
02CB
06AB
FD57
0221
0278
0031
0113
FE0E
0139
FF15
0169
FE10
0355
FCB8
FCC3
FC0A
02E4
FB28
0169
F825
0030
013A
0004
FB45
0078
05EF
FC84
052E
FCDA
FD56
FEA8
FEA4
005B
FF94
FE22
FEEA
025A
FCB6
FDE3
FC37
03EB
01C3
0372
FBBD
FF1A
01D1
017D
FF08
0572
031D
015F
FAE2
FAAD
025F
F6D4
02F5
03D0
00AF
03E4
0092
0065
00F4
FE80
04D8
FF6A
FCC3
00A1
FE3A
037A
FC32
00CC
FB82
FE7B
FF22
021D
0090
0138
F9BC
FF32
FC77
0686
FEE5
0076
FF3C
FF29
0197
0290
FFFE
FED8
FE81
02F2
FC34
0153
0390
00F9
00D5
00A1
FF79
007E
002C
FF9E
01AF
FDFC
FF2C
FDA6
FFD9
0423
FD8A
0088
FF3B
FFCD
FF98
0045
00D6
0125
FF4E
FE8F
FD88
01C2
FFDA
FCA2
01D8
029D
01EE
FC35
0146
FFF3
FE0A
FF5C
FD6F
0201
FF18
0242
01AB
FE4A
0063
009A
FD66
015D
01B9
0076
FF86
00AF
FED0
0140
FE6D
FE85
02C0
FEFC
FFFB
FFD7
0016
FFC7
FD46
FE4C
01D1
FD4F
021C
034D
FE78
0187
FFE8
FFDE
FFF1
FF4F
FF31
FCDE
FFBF
FDCB
0147
FF88
0071
FD31
FDDD
FECD
02AB
FF40
FE30
0100
009D
008C
014A
FE56
FD0F
00EF
FF7D
FE05
FF39
003A
01A0
01D6
FDE8
013B
FDA4
FE88
00E5
FDA2
0254
FE4C
FE81
03B4
FC6C
FF0E
FFBE
0520
0196
0072
013C
FED5
00B0
0123
FE76
019D
0049
FF3D
026F
0221
05F0
FF25
02AF
FD32
FC4C
03D8
047D
FF2D
0168
0388
FE3D
001B
FFCB
02D8
02A8
FEEC
0105
0011
FEB6
FE9E
FFB5
FD35
00A8
FF60
FD30
01C4
FE42
FFCB
FE59
01EE
FFE6
FE37
0102
FFD5
028E
0043
FB3B
02C9
00D5
0076
0102
FD89
FDB4
FF60
040D
FEF1
00D5
FE8B
015B
0134
02AF
FD6B
FE61
FFB9
FF47
FDBA
01DA
FE2D
0174
0210
FF02
FF48
FCAF
FEA0
0247
FED7
039A
03C6
FF1A
FE09
FF85
0183
FD60
FEFC
0230
FD76
FDEF
015A
0154
00D4
02D8
00BC
00A4
029B
FE55
FCCF
FE96
FED9
010F
FF07
0011
FDEF
FE42
FFD9
0243
FDD4
FE62
000F
FECE
049A
FF0F
FF86
0022
FD87
FD98
FB1D
FFF7
0006
FEB2
02C5
0131
FD5F
005B
009A
FEF5
FE67
00A5
FEE8
00F4
0027
0076
01CD
FFBD
FEBC
FF49
FFD7
04A0
FDF9
0056
FEB5
005C
0270
FD2B
02A8
0055
010D
0016
FE82
FFD8
FF6D
010A
00C5
006D
0107
FF3E
FFDF
FDC2
FF48
017A
FE30
FDF3
0089
FF5A
005C
0020
0004
FF6F
001E
006E
FC84
FF82
FF2D
FF48
FFC9
FE21
FFD2
FF7D
01CB
FF47
FDCB
00CB
FE51
0174
FE57
FF99
FE18
FE54
FED9
FFD5
FF4F
FFDF
0041
0133
0121
006D
FE17
FFDD
FF4E
01D8
0117
FEC1
FE12
FF9A
FFCC
FF47
FDF3
FF8B
01F1
01B1
012B
0042
01A0
0275
0208
FE3F
FFBE
01B0
001C
01B3
01F0
0315
0039
FED9
0250
00AC
FE59
016B
0034
0399
FD54
0074
FEA9
FF8A
016B
FF5D
004D
01DC
017C
016D
FF8B
0124
FD9F
FE7F
FF98
000C
0499
FC2B
0232
FEFF
FE70
FE39
FFA1
FE91
FE0E
015F
FDB2
FE55
FE0C
020E
FFD7
FDA7
01B6
FEDD
FFA9
006C
00A1
0096
FD30
FD61
00B7
FFB0
018A
0169
FE9C
025A
FE6C
FE7A
FF3B
0043
FD37
FE13
FF63
FFD2
FEE9
FE29
FF5F
FF70
FF4D
0259
0248
00B6
FC2A
FFA9
01ED
FFD3
FED4
FF03
FD3A
017E
00B4
FEA2
00FC
FF15
FFAF
FD45
0119
FF39
FE72
01BB
FEEA
0021
FD84
FFD4
FC93
FEE2
064B
0182
FD7A
FE2C
FF2B
FD8B
0175
00D2
0175
FC6D
0131
FF93
03F5
FEE6
FFF7
FD3D
00C8
FF47
FEDB
00D5
FD83
0079
FE1E
FD64
FF11
FF68
00C2
FE9E
FED7
FFA2
FE81
FFB8
00B3
FFD7
FFA6
006E
FC57
FEE1
029A
017C
FDD3
FD48
FFA0
00BB
0204
013F
FF1D
FD9A
FD6A
FC16
FCF5
FEEA
0205
00A2
FECF
022F
0245
FF31
FE6E
01F6
038D
FED1
FBD3
00D5
012D
FFAE
01D8
01BA
FECC
00F7
FE38
0152
FF4B
FFE0
01CC
FEB4
0035
FED3
0037
0274
0020
FEE9
FD1A
0074
007A
FF6F
0290
0243
0239
01EB
01A2
FE00
FFE8
FF08
FF0B
FE16
FD45
FD9F
FF5D
0157
FFF8
0049
0211
01FB
FE98
FF6B
0124
FF48
0065
FDB9
0255
0158
FDEB
01E4
FF8B
0249
FF1B
FE12
FFB5
FEB1
01B3
FEC3
FFC7
FF4F
FDFA
FE9A
02BB
024A
00CC
0015
FDA5
0220
FD35
0011
FFEC
00C7
FD91
FFE9
018C
FEA0
FE5F
FF22
FE1C
FE52
FF76
0057
FFA9
00FA
FF55
0110
FEDF
FF18
002B
FF87
FFE1
FE75
01D6
0140
FDDD
FD9E
016D
FDF1
FF24
01BA
FF91
01C9
0114
00D1
011A
00B7
00CD
015B
FFD2
FD17
0301
FFA8
FCBA
0121
0212
FF2F
FB96
0116
FE72
01B0
FE8A
0255
FF9F
FFAA
0295
FE6D
0198
FF7D
FEE8
011C
0016
006A
FECA
FCF3
FE69
01F1
0596
0186
013B
0086
FD35
FDDF
0200
FE6A
FF33
FFEB
FDD5
02F7
FE37
FDF7
0504
FE41
FD11
01BA
FEDD
FF56
FF60
021E
FF73
0098
02DF
01BC
FED6
01CB
FE4A
0231
FF15
0154
FE43
FC89
0003
FCA3
008B
001A
FF74
FB72
0216
FD2B
018F
FFBB
FAB1
FE2C
FDA4
004B
FF12
FE71
015D
021D
01B7
0133
FDA6
FFC3
02BB
0292
FF87
FFC5
0134
004B
FF47
0124
FECB
0272
0068
0154
FFA9
FF9E
FEA8
FE49
0229
FEF0
FE72
FEC3
00EB
FDCA
0009
0092
00AC
0031
FFD2
00D2
02AA
FC65
FD1F
FED0
FDF0
FB70
0226
FF5B
FE66
FF30
010D
03AC
FED7
FD1B
00E9
FF2A
00CD
0090
FE0C
02D0
020C
0359
00B5
00DC
0466
FFA4
FCA5
0094
00AB
FF4F
FFA9
FC9D
FF38
FFBD
0274
FF3B
FEB1
FDDF
FF04
FE2E
01C4
036E
FF1F
008E
FEAA
FC4E
03A4
FD9E
0052
FFBE
FECA
FEFD
01C0
0182
0339
000E
0142
FEB8
0127
00BE
0012
00F0
FE9E
FCA7
010B
FEFB
0063
0112
0053
010F
0185
FF08
FBAF
008E
022C
00AB
0055
02A1
021A
011B
FD3A
FF4D
00BE
FF04
0056
FE78
FFC5
009E
FE8C
FF79
0199
0148
FCBC
FF9C
FF53
0189
FD2C
FE76
FD27
FE44
FD72
02A1
0112
FD87
02B1
FE5B
FC15
013B
0186
FF3A
FDEB
FD2A
FF7A
FE71
00B8
FEAC
0458
FEF3
FF28
FDAC
FDD0
01BB
FDF4
FD61
034D
FEF7
01A7
FE9A
FF96
0010
FC06
FD48
0480
FC80
01EE
FE96
FF3D
0233
FF9B
02AD
FDE7
FFE3
FD4B
0124
0026
FFFD
FDDE
FC21
FD83
00A6
FF78
FCF9
02A5
FD9A
02F4
0120
004A
FCF6
FDE5
FE98
01E4
FEB0
FEE9
FF0A
FC5D
FCFF
FD21
FD48
02CF
0196
FF97
FEF0
FEB2
FFE4
FECC
FB56
01BA
FFE7
FC80
0011
FD91
FF56
0247
FE09
FE8A
00FC
FE89
FCCF
008A
011E
0192
FB89
0004
0270
FC39
02B4
0508
FBAC
FF1F
0015
015A
0261
0308
056B
FF94
018D
00E2
00A7
000C
FD61
FB96
FD5A
FC88
FDD5
016A
FDA8
FC2F
FD5D
00BC
0449
FFEE
00B7
FD92
021F
0074
FC5E
FECC
0170
FF85
0497
FF41
0116
0069
0022
FED5
FFD5
FED6
FEB8
FF4D
FDDA
01AC
0224
014D
FD59
FB4D
FFF9
01E7
0338
00E1
001A
01C0
0272
FE61
FF7D
00EE
FF00
0256
0139
FEB4
FF47
FE85
FF29
FF34
0115
023E
FE5D
FF1C
FF1C
0081
04F6
FE4E
0125
0057
FFFF
01F4
FCE3
0234
FDC5
FEAD
FDC2
00CC
FE3A
FC4D
00E3
001E
FFD8
FE71
00C2
0232
04E8
0002
00CD
0094
FFE4
FC37
0009
0113
01CF
FF68
FD61
FF5A
0242
0221
03C9
01CC
FC40
0026
002F
FDA3
011B
00EC
03FA
FBA0
FFEE
0662
FF1C
01A2
FE2E
0163
0186
011A
FC8C
01C5
02D9
FF5F
04DA
FFB4
003D
FF96
0354
FF8B
FEF4
FEB6
0172
FF1A
FDC4
FF32
010C
0343
0182
03C2
FD95
FEC5
FCA0
00B0
00A9
0005
FF28
00FE
01EB
018B
0037
0095
0006
0585
FFF6
FFCC
01B5
0065
03C6
009F
0138
FE06
01EB
031B
FFE8
0262
04E5
02A4
022E
FCE2
FE0E
00E2
0159
005D
FFC0
03E9
FF33
0006
0465
FFB6
0145
FEFC
FD9A
FD89
0323
FE1D
FF31
00AA
012C
FF42
01CE
007C
02F4
FE46
FEE2
006B
FF18
FF56
0010
0216
012C
FCE5
FECE
FF03
FDE7
FCBA
FEA6
0077
0226
FF1B
028E
0012
0118
FF02
FD05
0231
0296
FAD3
FE20
FF58
FFE3
FFBA
024D
031C
0373
0060
0328
019C
02E8
FB7C
029C
FFA3
FE06
00A9
FBBC
FD61
0055
FE56
FBF6
0385
FDB3
FF85
FE1A
FF43
0204
02FA
FD07
0076
FD0F
FEEF
0418
FF1E
0083
FB7B
FEDB
FF79
010D
FFE0
01E5
FE0D
0067
FCC4
0064
FF5B
FF65
023F
002D
01D9
FD75
FFA9
0192
0158
01C4
FDDE
00AE
FE15
0330
FF43
0077
FCD6
0071
FF58
008B
0004
02E3
FC3E
FD6E
00D8
0137
FF01
0227
012A
FFEA
FD42
0078
FED6
0375
FEA0
02EE
01CC
016E
FD4A
FE35
018F
0057
030B
002F
0059
FE04
FF75
FF48
FC49
FDD0
FF0C
FE33
FDCE
FFC3
013F
00AE
FFCA
00EC
FFF6
00A3
0298
018E
004C
FF31
FF2A
FF6B
FB7E
FF9C
FD3F
0324
FF56
0084
FE22
FFC8
00CC
010C
FF0E
024C
01B6
00AC
0342
FFB8
FE90
FDA4
03A4
003D
FFAF
FE44
FE2F
FFDC
FD18
FF42
FFB1
FE6E
FEAF
FF60
00B2
0179
01B7
FEAC
FE6C
01BC
03D0
065F
FE9B
022C
00D0
FC58
0045
0023
008A
0054
0227
0128
0059
FED8
0126
FD39
FF76
0066
0238
FE43
000F
01E7
00BC
0187
01A1
007E
03A5
02F8
FEE3
FD0A
FE1B
FF89
021B
FC98
FEBD
FB63
FDD1
FEFB
FFC1
022F
00D6
FEF8
FFEC
02F5
01FA
0286
0227
01A1
033B
FB4E
FFFE
0602
FF4B
FE25
057E
0093
FDE9
0266
00D1
0263
FCA4
FE70
FFEF
FD6E
0095
0030
0083
0396
FF88
FEF7
FCD0
0226
FC15
0308
00EA
00C9
FC40
FFD9
FDFF
0176
0590
FB80
0455
FF5A
FFC1
FE8F
FCD5
FF5D
0027
0151
022F
FB51
FE89
FFB1
FDA7
028A
0172
0182
015C
0561
042E
FFE3
FD8B
0023
00B5
0138
FF20
008E
FE7F
0402
FB41
FE8C
009C
FFAE
FFA5
FD7C
0225
0082
FEAC
FF1B
0291
FC56
002B
010D
FDD9
FEB0
FF37
00FF
0206
0228
FD7B
FEEF
00A7
FEAF
FE13
FFFA
FF98
01F0
FFDB
01AF
FE29
0076
007E
0193
FEE3
FE78
FFED
FFB3
FE10
FDFB
0329
00CE
FD09
019D
FF68
FDB9
FE2B
FE5E
FD0B
FDC8
FEC1
0024
FFDA
FFAA
00E0
FD02
0178
FEE1
FFF9
FF2D
016E
0055
FD1D
FE29
FD76
FFDF
033C
FE35
020E
FF83
FF92
003F
0192
0210
FCD2
FE40
004E
0152
0190
FDAA
FEB9
00AB
FFF7
FDB2
0289
FDDD
0089
FE8F
FFD9
FEE4
FFEF
FD3E
FEC7
FEBF
0061
020C
FEEC
FF42
FF2D
01D4
0256
FD34
FDD2
FC9A
0207
FEB0
02A8
018A
FFF7
FF30
000C
0176
FE14
FCB0
FF34
0061
022D
FFF8
003E
FD97
0250
FF9A
0029
0190
FE62
FFC4
017E
FED1
0267
FD7B
FE8E
0164
041D
0145
0030
000F
FEEB
0318
FE3C
0174
0248
02A3
00AA
FEC4
0123
FFAA
FE7A
01FF
015C
011F
0313
0166
01B5
FF73
FE1D
FFDC
FE6B
02DB
FDC8
FEFD
FFA2
FFA9
013F
FE89
00D0
01D4
FD43
FF49
011E
00BE
0212
FE58
045D
00B8
FD48
FD7F
FC99
FE70
016A
0198
FE95
006F
0149
0162
00F0
032F
FFDA
00ED
0280
FE07
016F
00BC
0163
FE63
0063
01FD
FF5B
FE93
FD99
0032
FC11
00F3
00C8
FFB1
FD1E
FDFB
FE11
FC70
0012
00E0
015B
FCBB
FDE6
FDB9
026A
024D
016B
027E
FDE2
00D1
FDF8
06AD
001A
027F
060D
FF07
0207
0358
FCD8
FE85
017C
FEE8
FE62
011F
FD9A
FC06
FEC3
0349
0088
FE52
FE93
0365
0004
FF8F
FCD2
FE09
FE16
024A
FF17
FD3B
011F
FEDB
FFC2
FD1E
FAFB
FEEF
0212
FFF1
FCD4
FF3A
F950
00BA
02EA
028A
028F
0018
FD3F
039F
FE9A
03AE
FF27
03B3
FEF3
FEF9
01FD
FD04
FD5A
038E
FD60
FFFE
FDD0
FE63
0354
FE27
0071
003C
FE7A
016C
0073
0041
FE18
FFCB
FC9A
01B0
00AD
00A1
01D5
023D
00C9
0122
00B6
0201
FE35
FEA8
FF17
FF4F
00A6
0066
00EB
FEA8
FD25
01B8
0151
FE55
03B1
00AF
0501
082C
FBB9
026C
0813
F9F6
FD9D
FCE1
03C6
FE26
FA3C
0216
F97B
021F
0188
0469
0400
0762
FAD2
08E0
FCAE
0129
0101
FC76
0077
0189
FB24
FE8B
037C
FD8F
FD55
07BF
04F8
0554
FD79
00B6
FD2F
0166
00E7
056C
04C9
0381
0033
FAD1
F9EF
01DD
006A
00CE
021B
FAC1
033D
F972
FA78
FEB9
034E
FA80
FF4A
023B
0064
008D
FC0B
0396
008A
FF06
027C
F7D0
FC62
FBE5
F887
0604
F9E2
01A8
0056
0741
FD85
022C
033E
00B8
FFD4
FFC1
FDE4
FD98
FE12
01A3
FD7E
FCAE
04BB
FC8F
FDE1
FF29
FC67
FDD2
0333
FF51
FB9B
F62F
0028
01B3
04A9
0478
0354
FFFC
0357
FFFE
FFEA
00AE
FFDC
FE5D
0034
FFDB
030D
00F7
030E
0064
01F6
0017
003A
FFC6
05D3
FF3C
FF72
0472
055B
FEE6
FC9C
01D5
0246
0420
FB96
008F
FD11
00A0
F90C
03BC
FD59
FF2F
FE19
044D
030D
00C3
FE7A
FE64
FF92
FFAD
FEA4
0639
FF15
00BE
00C1
FF90
FDC1
FD02
00E5
FF21
028B
0245
005F
012A
FF53
001B
FF72
0317
FE05
FE70
01ED
FF03
0235
02FE
056E
0198
FF18
FEBC
0530
0438
FB15
02B6
04AC
FB39
FFC2
FD62
03D7
0195
027F
FE88
FF9A
043C
01FB
00C7
0263
0008
0194
023B
FA29
0230
FF9F
01DE
FB7C
F8A2
FF6B
FF66
04CE
044E
FBCD
FCFE
0358
F94B
F7B3
0156
FF9B
FDFA
02ED
0026
0139
0120
FEC6
072D
0548
FE75
FC48
FBFA
F831
00E5
047D
0813
FFFA
FCF4
0167
FBE3
00D4
FC03
0118
011C
FB94
FB38
047C
FF81
0071
FEB0
FE13
05F2
004C
01ED
F9F5
01E1
FD48
0551
07BF
01A4
F41A
FE04
FE20
FFB9
FD11
0678
FFE5
04D0
01D0
029E
FA4B
F8EA
FDBE
FF3E
FECC
F9AF
046F
0094
FF78
FE37
FE49
01D6
FC92
064E
03C0
FE18
FB30
01FC
068C
FF75
FB83
02C3
0276
05FA
FEAD
01FC
FFC4
FD2E
FDC5
FC29
FE18
FB42
FB9B
01E0
F9C5
FE06
0182
FF2F
FF1B
FFF6
FD83
006B
FE6F
FE6B
00E9
01B9
00A2
FDFE
FDB3
01D4
0144
FDEB
FDD1
00A0
0075
0034
0054
FF2E
0046
0014
FDF4
FF39
0167
01CF
FE52
FFAA
FFD5
FFA6
006F
FDD4
FF93
0137
FD9A
FDE4
FF41
FF38
012A
019F
017F
FE27
FD53
0026
02CE
00AC
FF85
FDB6
006A
00EE
0070
FE23
0156
00B7
FE5E
FF91
FD6B
FEDD
FCEE
FDFC
01A0
0263
FF7A
0209
FE9E
FF73
00C8
0267
FEAF
FFF5
FEA2
FF81
00AC
FF89
00ED
FF89
FE75
FE6D
FEB9
FDA1
001E
FF31
FFD9
0113
FEE1
008D
FD9B
FFD2
0011
FD30
014E
0086
01CB
0097
0007
0033
0122
FDCD
FDD2
FE24
00AB
0158
FEBC
FD7A
FF77
01E4
FEDC
0030
FE76
0011
0269
FE47
004F
00D7
FFCB
FF53
01E1
FF52
FF94
0079
FE67
FEB2
FF6C
02F4
FFB0
FD64
FFC9
FD46
011F
01F6
FE78
02D1
0058
0236
003D
FF2F
00BE
0148
001F
FECD
0024
FFFF
FFAF
FF53
FFA4
FF6D
FF6A
0031
0201
FE2E
FF1F
010E
014C
0015
0004
01DD
004E
FDA8
020B
FE60
FFEB
FDD2
FE36
FE80
FE49
FE3A
FE1B
014D
FDF9
FEED
FE03
00E2
FF23
01D8
FE78
0147
FF39
FE19
FF82
FE5E
01D6
FF84
FF1C
FF18
007E
FD99
FE9D
FEC7
FDDB
021B
0074
FE0A
FDEB
01A1
020F
FEBC
00C6
0257
FD53
00B7
FF37
FF6B
FD1C
FD4C
034C
0018
FE1C
FE4D
00F4
008B
FE4B
00DA
FEA8
FE65
0235
FF06
FFA5
FE53
FED7
FF75
0443
FC12
FDF0
0024
01E4
FFF1
FF21
FE92
FE10
FF4B
0078
FED6
FF65
004F
FFC7
0074
005C
FDF7
02B4
0088
FD3E
0186
FF58
011E
FF4F
0023
FFCE
00FE
012B
FEAD
FE48
FE85
FFC2
00AC
0126
0108
FE78
FFE2
FFE8
FFF1
02DD
0061
FDE1
FFE2
FD06
00B4
0246
00D4
FED6
FF86
FFD3
0250
FD32
FFCE
0236
FE83
FDED
FD6F
0078
0018
0023
FFA4
FF6E
0152
FE83
01BB
FD49
04FE
0087
01F1
FD51
FEC3
00C2
FDCD
00C4
0099
0068
008E
FE14
01B5
FEE5
FF37
02DC
FDBF
FE35
00C7
FFCF
0343
0091
FFCE
FD1E
0197
FE4B
FF55
0034
FB34
011C
044D
0086
FE8E
01A5
028A
00DD
FFDD
00EC
0178
009E
FDC3
029D
FCD2
FECF
FBD5
000B
00EA
00EA
00F1
FC99
FDC5
01E1
008D
0089
FE73
FD56
0144
FE41
00C4
02EB
0248
0056
FF1D
032E
0134
FF6B
FE6D
02E3
040F
FF97
0069
FD6E
0180
00CF
019B
0146
FE87
FFB5
FF42
FDCC
01DF
0241
0102
018E
FAA4
0072
FF9E
FF89
FD5E
0343
FC6C
FDE8
FDB7
019E
FB5C
FD24
FE1F
02A2
0123
FE48
00B7
FF0F
0141
FE11
01F9
0083
FF79
FF29
FB76
FBDD
FFE8
0024
019D
02E4
014B
0026
00A2
FAAD
0260
001F
00FB
01E0
FC4C
FF04
0199
0023
FC2C
FF49
FCD6
0175
FC6A
00E6
FF55
0139
0046
02E6
FDF2
0035
0407
004F
FF05
028C
FFAB
FA1D
0153
03E1
FF7F
0303
FE46
03A4
FD6B
011F
00C8
001C
024E
FE17
FE7B
024C
018A
FEE0
0272
0190
FEB0
FD48
FE37
FFE5
006F
02BF
FF07
0019
FC9C
FE67
FC8C
FC0A
FEEA
FCF5
FDFF
FEA4
FDD9
079E
F9AD
0041
FEBF
0167
FEAA
FF51
FE18
FFE0
008F
FC75
FFEB
FC84
02F7
04FF
0088
FF99
0302
02D2
0114
FF55
FE70
FDE0
FFA5
0218
029E
FF9D
0035
FF76
FFAD
02D9
FF7F
0056
FF7E
FE0E
FF43
FE2E
FCB6
FDCC
FCF3
033D
012A
01B6
012B
0368
FE61
FF4A
FFC8
0135
03C4
FE6A
FFF2
00E9
FF92
FD9E
FB31
014F
FFBB
FE32
FF7F
0068
04F0
FEB9
0108
0242
0539
FFC9
004D
FF00
FE26
FD7C
FB56
0073
FE95
FE5A
059E
0110
FD8B
FE19
FF5F
FC20
022D
01FF
0019
02FB
FD83
00CE
012A
FE2C
008C
00FC
005C
F9A1
0304
FDDE
0303
FE06
FC78
02A6
0141
038B
017A
FE97
0303
FDCE
007F
FF21
FF65
0062
FF0D
FF90
FFDF
FC89
0181
0271
06D5
0048
FFCC
FD25
00FA
02B4
02BA
FFC5
FEAB
FF4C
FDC1
0006
FC82
FD61
FBC4
0047
FF12
FFBB
025E
0082
00A0
FE2B
01E1
FFCA
0219
014A
0123
FD94
FCDF
02C7
012D
0113
FDEB
FE52
FDDC
0092
0206
FE43
FFA7
0065
0094
FFFD
FF30
FF9A
FD2E
FD8E
0101
FF60
FFD5
FEB2
001D
FF1F
FC69
02A4
003C
FFDD
0085
FE7D
028E
01C5
FEEB
FE8C
FF90
04FF
FFBA
029E
FF4B
00F6
016B
0011
010A
FD8B
0007
FF5F
FE99
00CC
010C
FD7A
0246
00F7
FE16
FEC3
FE17
FE3E
FF83
0146
FB80
006F
FE82
FED2
013C
FE3B
00DB
013B
FE19
FDFF
00F8
FE3F
000C
0111
018F
FEC0
FF6C
02BE
FFE0
02C4
00FB
FDB3
FEE1
FF35
FDF0
0129
0173
0172
FFEB
001A
FF07
FE4A
02D3
FD57
FFBF
FE34
FF84
01A7
005E
018F
FFA9
FE00
012B
FF77
0093
FE09
0255
0135
0069
0039
00F6
FF2E
FFF0
026D
017D
FE56
FF9E
FF31
02C6
0351
FFFC
FCD0
0033
02E2
FD7D
FF0D
FEA4
01E0
004C
FC6E
FE59
01DC
FEA6
FFDD
0163
021D
02C2
FEC1
0055
00B9
0194
FF83
0272
00CA
0384
FF01
FFA9
FF43
018F
00DC
02B0
FEF7
FDCF
0341
FDF7
FE35
0075
FF30
01CA
FD89
FFB1
00B4
FE9C
0108
FC70
FF93
FE66
02A3
01B0
FE4F
FF23
0184
FFF0
FD6A
FC57
FE7A
0021
0084
0228
FFDD
FD29
032B
01CA
FE54
020F
FE5C
FF4E
FF09
0119
FCBD
FFA1
014F
0064
0182
FCEC
FB96
00F0
FDB1
FE7D
FD91
0021
010A
FD1D
FEF0
FD05
00A0
01A6
FCBD
0449
FB8B
FC95
01DA
0182
0115
FECF
FD60
FDAF
01A8
0079
01B2
FF6E
FB40
FF7B
FC43
038F
FFC3
FD54
0010
00DD
039F
FF96
FE51
01E6
00E3
FF43
FD24
FE18
01E7
0115
0044
FFB6
01C4
0078
FFA0
FD38
016E
0385
026B
0087
FD10
FD65
FF46
FF6A
02CB
0142
FDA5
FE8A
FDDD
020A
FF6A
00B8
01C2
FFA2
0333
FF6E
02C1
0068
FCD1
FF69
FEA2
FF45
FF5B
005D
FE04
0187
0366
00F2
01E9
00AB
FEBE
0127
FDBA
FF48
00B9
FF3E
00FB
FDB2
0043
FFE1
00C1
021A
00B1
015C
01ED
FAFB
011A
FDA2
044D
00FC
02CC
FE06
FD72
FE6E
FFC9
FD90
036A
FB59
02CC
FB15
FFE8
009A
008D
0174
FE55
0217
FD3D
FF3A
FF48
01E0
0239
02C5
0062
FE53
0391
FDAA
0565
FD89
0075
FFC0
000F
FC74
FF25
FBBC
00EF
FFF6
0130
0165
01EF
052E
F80B
02A0
FCCF
03BA
0214
02DF
0007
03B2
FDE2
FFCB
FF83
026A
FF2E
FDC7
0259
023B
FCDC
FD5E
FD01
0038
03C6
0111
FF62
FC8B
FD8D
0394
FE75
012F
0044
FD3C
00A0
FE56
00BF
02B6
01C7
FD62
0394
00E5
FC76
02E8
018C
062B
FC20
FF68
FEDB
FBD2
FCE1
FF09
003B
FB4D
FF91
FD3C
FFB5
FEAE
0049
FF53
FDBF
FE93
FE38
004D
0266
033E
FFB1
FEC8
0063
0187
01D4
0097
FF96
FEF7
FFAA
00A7
02B5
027B
00BA
FF75
FE95
01C6
0063
FFED
FFD2
FF85
010C
02CD
FFDE
FF0F
0066
0236
FDA8
FAF7
0297
0049
FD68
FE0F
0198
00B2
010A
FEB3
0230
0269
FCAD
FFE6
01F9
001D
01F9
FFC7
FCBD
FF43
02BA
FE6B
03CC
0213
00EC
FE99
0317
03A0
FC7C
FF71
FDC0
038A
FECD
0456
00D4
FFCE
004C
FF7D
02AE
FD4B
00CF
FF55
FE7F
FCC9
0174
00D9
016C
FE9B
035E
016C
FECB
0240
001B
01E6
FDF0
FEFD
002F
FD11
FE18
FF6D
0035
00E7
FEE2
FD77
0235
00C6
0174
FF82
0154
FCE6
00D8
00CF
0096
0112
FE6B
0052
0150
FDD5
FF3F
FF93
0361
01C7
00F4
FFB4
02A8
012E
0064
FC00
022D
FA5E
014E
FEE1
026E
05FC
FDA2
FFC2
0082
01D8
0011
FFA8
FFD6
FEF6
FD99
FBA0
FEA7
FA2F
00C8
0334
032F
FFDE
FF50
02E4
FBE9
0178
0138
FFEE
FE5A
01BE
FEFB
015E
00D8
FF0D
FFF5
000D
FA9A
030D
FEE3
0130
00BB
FEE7
0197
FF6C
00C0
FE39
01F9
00A1
FED5
FEE0
FFAA
FD92
02EC
FF9C
0308
FF0D
00FA
0077
034E
0305
02FE
FDA2
0089
FFE7
02FC
FF0A
00B1
FF84
004F
00F5
FFD2
0114
FD96
FD44
FF65
FCD7
0053
025A
0062
053D
010D
01A5
029A
03D0
FA3A
012D
FC96
0453
0006
01A9
02CB
FDB5
FE75
FCF2
FFC9
FEC8
0117
FE3F
0359
029A
FE69
024B
FB8C
FFC6
FFE2
FD6D
026D
FDBB
0294
0100
FDB4
FC5E
00FD
FF22
FB42
03DE
FF2E
FCCA
015E
0222
01A0
FDF2
FF90
FF74
02D5
00EF
020C
01A5
01B8
03AE
0132
022C
FF66
FDEE
FDFF
FF3C
01B4
0348
03B8
FE71
0212
008E
FBBE
FF2C
007E
0221
FBE1
0172
FF5B
FE96
FE47
033D
0061
0383
020F
FF4D
FC3D
0366
016F
FFD1
016B
FCDF
03A3
0225
FFFD
FCD1
00F2
02D4
0222
0503
0049
03E3
FE6B
FF94
FD91
0284
F942
0549
0094
FB8E
0486
00E0
05BE
040B
FA11
FDAB
02E9
F9E0
F839
0037
FC9C
FDDE
0056
FD19
0223
0632
FCEA
0214
0330
05F8
FB0B
FD90
FD81
0417
0288
FD4B
0205
FFAB
FF75
FBA3
000A
F96D
008C
0112
FE6B
03DB
02D2
01D7
02AC
FDE8
00AF
07C6
FED3
0415
FC13
FED0
FD7F
0607
01AB
011B
FB97
FC99
FE8E
FC6B
FAB4
03DF
0227
00AB
021E
FDC1
FE97
FCCF
FD7E
00CE
FD2C
FA2B
02C7
F8DF
01C3
FCC5
FECC
035F
F9C7
0551
FF82
0124
FD3C
00AA
02FB
FED5
FCE4
02B4
0349
0363
FD5F
0066
FD5D
00DA
FD9C
FCFA
0281
FEED
FEE6
00F7
FF37
FFE6
00B2
FAF6
0083
0179
FD49
FD44
0452
FE36
FE49
FF52
0135
FEB1
0017
00DD
02AF
FF39
0233
0127
FE1D
FECF
00C7
FEFA
0271
FDCA
0170
FF59
00DE
FF97
0077
0075
FD28
FD25
020F
00FC
0202
0028
FEED
0043
FFB4
01E5
00FE
FDAE
008D
022B
01B7
FF37
00D8
FFB5
0003
0120
0129
FF08
01FA
FE6C
00E2
FF0E
015C
FFE0
FDFD
FF5F
FE94
FE9D
01F7
FE5C
FDDA
FEEB
FAD7
01C6
FFDF
015D
FC40
FF98
00B0
FEA6
FF9C
0029
FFD3
FB66
0263
FFBA
FEB2
FDDC
FD80
0046
FFBA
01C0
FF36
FF57
000A
014A
FF9E
003A
FEDA
FF04
0423
FE06
01E5
FF4A
FF68
FEDA
FE62
0091
FF53
0044
0215
FFD9
00CC
FDB0
FF19
FF42
FD90
01CD
FE1D
0017
FCE1
0233
0166
FE8A
FF3D
02BF
FEE3
004F
FF24
00F7
0167
FE6D
01CF
FF59
FF50
01E6
0223
FFB8
02C3
0158
FF66
FDA4
0041
FE74
00B1
FF66
0282
FF34
0245
00B2
FE91
001D
0128
0021
00F5
0238
015E
0136
FEF3
FE46
0166
FDC8
FF79
FFB4
FEFB
00C3
FD69
0117
FDB7
FDDE
FF05
022D
0169
0189
FE4A
FE02
0065
FDFC
FFFC
FD81
013B
FF82
012C
FF0D
FE74
0093
FEF1
FCB0
FEC4
FF16
FFD1
0139
029B
FF0B
FDA5
FC65
0158
FF7C
FF0B
00AE
00A2
FECD
02A5
0103
017B
01BA
026A
0014
FFE8
FD51
FF6D
026C
00AF
0155
0008
FEF5
FFD0
006D
00FE
0019
0221
01D5
00BA
FD04
029A
FD5E
FFCD
FEC6
0004
FDDA
011D
FF6D
0022
FE57
FEC2
0146
FEC8
FFFB
FC7E
FFAC
02A4
018E
FFFB
003F
FD91
000F
FEFF
01DB
0067
FFDF
0101
00AB
0409
01EC
012B
FF7C
00B6
FEA7
FDF0
FEB4
02C4
FE51
02D8
FEFD
FFEE
FF8B
FF71
FDFC
FCF6
01E4
FFD6
FDDB
FE87
FECC
00C1
FE2A
00A3
00A8
031C
FF46
FB9F
0008
0052
0305
FEF3
005F
FDD2
FF50
FEF2
0208
FEB8
022C
01E9
FFA9
0067
FF3D
0145
FD41
FCD6
FD53
FFD4
0159
02F9
034E
0062
0010
FE57
FE89
FF02
0249
01AF
FD6E
FFA7
FFC4
FE9D
0195
FED0
FDD2
FFAF
FEDD
FEB8
00FC
02F0
01C6
FFBF
FD52
015C
FEB5
FCAD
FBEE
FE5E
FD55
FF29
FF6B
FFF9
FF81
FCC9
FF0D
0212
0288
000E
00F2
FE7C
FE5C
0277
FAE4
FF58
FFE7
FEFA
0258
FEAA
011C
025C
FE39
FF0B
0240
0052
FFB2
00EC
0033
FF96
0131
FFA4
FE4F
00DA
FE2C
FEEC
FF8C
FECA
FE85
0183
0122
005E
000D
FFBE
01D4
FDB2
FF87
0142
0054
015D
001D
FEFE
FF27
003F
01D5
FE9F
FF57
0154
0226
029C
FE5F
FDA0
00C6
0294
FF6E
FE89
FDF9
FEE9
0210
0184
FF95
004A
FFE0
FF67
FEF4
FDB1
FFCE
020D
FDD2
FE6A
FE97
045B
FE46
01D5
FD23
01D5
FEA0
0283
FD2F
FDDC
FE2A
00E9
00C2
FE72
FFE2
0313
0107
01F1
FDB6
FFAF
00F0
01D5
FD5D
FF1C
0146
011A
0014
FF34
FD68
0051
FDEA
FDFA
FE67
0415
0105
013E
FBF0
FFDA
FD28
01DF
FF2B
019F
0248
015B
01A7
011B
0018
016C
FE55
FD4F
FC1A
01A1
0206
FF7D
007D
FDFF
FE98
03BA
01D3
00B4
02E8
FCB3
0047
01A1
FEB2
FC52
011D
011A
FD88
FEEB
FE08
00F1
0192
029A
FEB1
015A
FEBB
FC89
00F4
FE00
0110
0260
FED6
FE91
FFE5
FE85
0386
FDB8
002E
01A6
0190
FE47
02C4
0216
FF91
FA92
0029
FED8
0223
00BC
001E
02A1
01E5
01AC
0106
FEF0
0036
0062
FF4B
FF63
0133
0141
FF97
001F
FF58
02D5
001D
FEE2
FE9B
FF99
00C8
FFE7
002C
00EC
0102
0082
FE1F
01A6
0284
007F
FE5E
003B
018B
FE5B
0046
0157
01ED
FF10
042E
021D
0075
02A7
028D
0096
00BE
FE71
021F
FF4C
FF72
003E
022F
FDE4
FE52
FDE3
FD97
FFD7
03B2
FDE8
FE71
FFB4
02F2
0018
FF43
00F0
FF8A
00AE
FCDD
FD9A
010B
0204
FDAB
0005
009F
FE9A
036F
FE15
FE87
0124
0028
FFF3
FF7E
FED9
03A6
025C
FF3A
FFF1
FDE1
0218
019A
FE41
FF4D
00C2
0165
0334
FEF1
FF80
00FE
0028
007E
020C
FF6C
FE6A
016B
FFE7
011C
FE70
0103
FD23
00AA
029D
FE4B
0054
002F
00E3
01CC
0259
FF73
FFDA
0062
FBDC
FF58
00F0
FD56
FC29
0167
0187
0136
FC5C
0055
01FB
FD5E
0196
FD41
00D0
FEFB
0104
01EF
FDA3
FFAA
0027
0092
0221
009D
0282
FC5E
0187
0041
FEA8
FF34
020D
00D1
FF77
0156
0057
FE7D
FDAA
007E
FEAF
00DB
FFE7
FF01
0284
00C3
FE62
0017
00CE
013F
FEE7
00D2
FC96
00A3
FFC5
0286
02DD
00CB
FECB
0141
FFDD
016C
FF79
FE65
0022
FEAD
FF95
0076
0034
FE28
00FB
FFCB
0178
FF28
FE8B
00C9
0260
FED9
FFBE
FF48
00B1
01F5
FE1D
0080
006D
003A
0057
FF15
FE8D
0023
02D3
0135
0275
FD74
FD5B
FFB9
FFB7
FF10
00C9
FF56
FF01
00DD
0147
02A5
01C8
02BF
FF4D
FC15
0311
0119
FE5C
FC7A
03AF
0060
FD9C
FDFB
02C5
030C
FBEF
017E
01DE
FE32
FF4D
FE46
0122
FD54
0122
FD16
004D
FD14
FFB5
FF19
023B
014A
FDEA
FDDF
FF03
012B
001A
FCB2
FE72
FE9B
FEE3
FD47
00D4
FEA3
00BD
FF48
FE7A
02A0
019F
0533
0161
01EC
FDB6
FD07
FDFF
00D2
FE91
0062
FECC
00DA
01C2
01C8
FF81
FF75
FEB6
014F
015A
002C
0346
004C
FDA5
011B
009C
FE33
FFE3
FEC3
FE64
FDFA
017E
017C
FFA6
0231
03D1
FE97
FEE8
FF4A
0299
FF27
012B
FD87
FEBC
FED7
FF74
FFFF
FF65
003D
0171
024D
FF3B
013D
FF10
0287
007B
010D
032D
007C
FC2A
FF25
00A7
0302
FEF3
0098
FEC2
013F
FE7D
0278
0000
FC39
01CB
039C
FF71
02B3
00DF
FE40
013A
01E8
0214
FEF5
FEE0
00A9
FF98
FFA2
FD4C
0118
0204
FFB1
044F
032D
0247
FEB1
0037
00AC
FE60
0207
0056
0185
0000
0213
0174
FEE5
FE00
0457
FE8E
FD35
0231
010D
0128
0128
FF22
FDEE
0181
FDC3
FF48
FEED
017E
007A
FE19
00F5
FE1F
03AE
01D7
FF17
FFB5
028B
FF38
049F
FCB4
0350
0150
0018
FF6D
0089
00F5
01D6
FFA6
0163
00AD
0042
0060
FEB3
0271
FFCB
FEB2
0215
FD33
0109
FF29
01C3
01D0
FE2E
0117
FDD7
FF74
FEA0
FFA8
0198
FDCD
FF22
FEE5
00C1
FED9
01C6
0184
02C0
FF99
0079
0177
00E3
FF01
027B
0257
00B7
00DC
01C7
FECA
00B7
FE95
FF63
00C0
014D
000A
00C5
0236
FF1E
FD53
FEE2
FDA6
0117
FCD2
006C
0215
FEF6
FF34
FDDC
00CC
FFEB
01A6
FDDC
FF42
FD07
FE68
FFDE
0047
0286
0303
022E
0217
FDD7
027C
FF50
FEE2
FF4B
01BB
0215
005A
0062
000D
FFB7
FFD0
FFF4
006C
0143
FE15
0275
FFD2
FFBA
FF8C
FF89
FFE0
FE80
FD81
FE48
01CE
FD56
FC9E
FF2E
FFEF
FD07
0015
0007
FF45
017C
0170
FE7D
FCE7
FEA8
FAA4
0225
FEB1
0010
0040
FEB4
0419
0688
0261
FEFF
FC1C
FD8C
FE45
0044
0237
FFAA
FF7A
FEEF
00E2
FDE1
026E
FDE3
00D3
0188
0233
FED2
0203
FF7E
FF80
0293
02CF
00F7
FAE2
05E9
FEEA
FDF9
FC75
00BC
FF17
0523
FF05
009F
00F6
FEB2
FD2B
0057
FDC8
FBA8
01AB
00EE
02F7
0034
021E
FE76
FDAF
FF6E
02B1
03E1
FFA3
FFC8
FE6D
FD20
01A1
00F7
038B
0228
FE07
FFB9
FD9A
FD6D
0188
FF91
0108
FF0B
03BD
FED5
021D
FE02
0154
0016
FDF9
0112
03B4
0420
0506
FEAF
0169
FF1E
014A
0643
FDCF
0129
005A
FBA6
025A
FF87
FFD9
0044
FD0F
0229
0628
004A
FAE7
01C3
FF3B
FC7E
037E
FE30
02E9
FDE8
0200
FBB3
0033
033E
0042
0261
FE39
02B0
01EC
00CE
FD28
FB79
FC6E
FEB6
04E8
FE23
029B
0305
051B
0086
FE3B
FE03
FA11
067C
0183
FEF2
0677
FECB
003D
FBBF
FCBF
004C
F70C
FF7C
07A3
051E
0364
0164
0218
0145
FF05
FCBB
FD94
FAA1
FF37
FE13
00B3
FE69
048E
00FB
05CA
01E8
0090
0062
052F
FA9F
FDBC
FEDB
0586
FCF7
0090
FCDB
045B
0355
0785
015D
FED2
FCBB
021F
FD0D
006B
FF4C
000F
FEB7
00B7
FD33
FE50
0144
FDB4
FCE4
00FC
00D2
FC78
FEFA
FF70
FDF5
023D
049C
FDD0
FA0D
048A
FED6
FE86
FDEF
FDCE
FF4A
FC4A
022C
008E
FF06
00B0
0284
FE1C
FF1E
FC19
FC25
02D2
FC99
FDC0
008C
FDE6
FC07
FD78
00EA
FCBD
FFFB
FDB8
FF7E
FD3B
FE69
FF33
FFDE
06AC
00B0
0138
03B8
FDE2
016E
0259
FF4D
FE82
FFA5
04DC
0004
010C
01F6
060A
FFB0
06DA
FFE2
02F9
FDC5
FF97
01E2
0089
005D
0167
FDBE
0189
0052
0447
028E
0273
0258
033F
FA0E
003F
FEFD
0031
FDE7
0226
FE27
0008
FE09
00A0
0281
FF77
FBA6
0061
0197
FF5A
FFB9
01EC
FC8F
002B
0115
048B
00A3
0133
FC45
047C
FE8B
FE1A
FE81
FFD9
FB5E
FE33
FB45
FE20
0503
FEDF
FEE3
0476
0410
FE1B
05FA
FF4E
02FD
0176
FE82
0181
0184
FFA8
F9D8
00DE
FB6C
FF4B
02F6
00E1
0861
0138
031C
004C
F8E0
003C
0270
00B3
FFE5
FB2E
FB2D
FEDC
029E
026F
000D
01E2
FAA9
FC8E
FEF9
FB99
0391
00FA
FAC8
0261
0158
002E
FBF1
F9ED
FD90
FFB6
FD40
004B
FE8E
FF91
FC2E
00A7
04D3
FDB7
0312
FD67
001D
FF18
0275
01F2
FF66
00D0
02D4
016E
00C1
FD85
026B
FCCD
FF5F
FF72
FD7E
00D3
FFED
00D2
FF6B
FE65
0290
016C
FA66
FF8E
0175
015B
FDE8
FF1C
01A9
FE47
0008
0047
017D
0294
01B0
0326
FD0B
0340
028F
FEC1
00A0
005B
000F
03B1
0138
FEBF
FFDF
013C
FF93
FDB9
001F
FEB0
FF78
FFD6
FDFC
01CB
01AC
00EA
0026
01A4
00A2
FF98
FF07
034B
02A2
015E
01B5
005A
0089
0126
004E
00FC
FFDC
FF5E
006B
01DA
FD91
FF32
FF3D
FFCE
FE75
FDDB
FE99
FB95
01E5
FF56
022A
FC1F
FF0F
022B
01F3
FEC7
02D6
00C2
FEDA
0066
FFC7
0287
FE2E
FFB7
00E5
FDC9
0108
021C
00C6
02CE
0021
FE7A
FE16
FFD6
00C8
FDD9
00D0
01A6
FF4D
0064
FD77
FF04
0028
0301
020B
FB63
FEE2
01D8
0288
0270
0254
FD79
FEA3
0168
043A
FD7E
0229
0231
FF0C
00CF
01E8
FB90
0141
FEA6
0397
03BE
FEC5
FF94
018D
0398
FD94
0033
FF89
FEF8
0153
FF0E
FD3D
FE23
FE6D
FD8D
FFC1
FE56
01ED
FE5A
0451
01BE
FEA0
004B
FE1A
0006
FDCD
0101
0121
014B
FE79
01DF
FFD3
001E
00CA
0261
FF6A
FF77
FE57
FFBD
FD93
FE65
FDDC
FA4C
0088
028B
0339
01F6
FEF4
FFA0
031B
FD0E
FFCE
01E1
FD0C
019C
0213
0241
FD6B
FE6F
0202
FFEA
006B
008B
0021
00DF
FCC6
FDAC
FCFE
0009
FDD5
000D
01F7
FF0C
0319
029B
000D
FF6A
0154
027E
FF80
005F
0256
FCF2
0493
FDE3
001B
FBC3
00AD
008F
023E
01EC
FDC0
00CF
FDC2
00B3
FE03
FE10
FF1F
FBEC
FB5F
005E
041E
01B8
FEBD
FC52
FF6B
02E1
FDAD
FD96
FC6D
FDB7
FFB7
0033
024C
FDB4
FEFA
FD4E
FDD2
FD2B
0264
0096
025A
0223
0034
0549
026A
FDA3
FF98
007A
FCFC
016D
FDF3
FBFD
0201
FCDB
FFD8
0134
FF2B
0142
FAFE
FECB
030B
FFCC
FF4F
01AA
036F
FD82
01C3
FEA0
04C0
FDC5
02B0
FE72
021A
FDAB
0158
00EA
02EB
FDC6
FF15
0259
0139
FD38
0185
012F
01B7
0060
FFF4
00E0
0024
0156
FBAA
FF1B
003B
FD4E
FF3F
00F0
FDD0
002D
0317
FC66
0744
04F2
027A
01AD
FE83
0250
0066
FB5F
0645
00A2
00E6
FFAB
FAAB
00C8
00D0
00D6
0668
FAFB
015E
0392
0263
FA53
FD35
FED0
FDA5
0108
FDDD
035D
FE79
FC46
FD8F
FDE9
0742
0114
0073
FE39
025B
04AF
01EB
FBCD
FED9
0032
05E1
03F6
FFB0
0623
0403
016B
01E1
FEBC
03B9
FB0F
0040
00EB
0305
0422
FA5F
0085
F79F
FF47
02B1
F9AB
0006
06DD
04B4
0280
01AC
043A
FE8B
0259
FAC8
FCE1
FE8F
FF8A
FE2B
068D
0192
0240
069A
03C5
0362
FEBC
0230
039B
FDFE
FCEE
FEB6
0210
FF28
FEDD
FB8C
0097
FEF6
03E2
FF6C
FD27
044B
0857
0053
FE31
FF2A
FF32
03BB
0104
FFAC
FE2C
023A
FBD9
FC48
0163
0105
FFBA
FBAC
FF41
0223
01B2
FF0D
0002
FE0C
FF5B
0029
FF8A
01A8
00D0
033F
FC55
FCB2
0318
0333
0420
FF49
00A5
FFCC
FF83
015C
0211
FFE7
0066
0028
FFD7
004E
FB8B
041C
0249
FE7F
FDC1
FFBF
FDC3
0090
FCD4
020F
FE60
0218
FF2B
FD36
FF55
FE46
00B6
01A0
030D
00FE
002A
FEC2
01BA
FF43
0426
FB17
0206
FB49
0359
01A3
00D3
0237
02B9
0387
FC7B
0454
01A1
FD3C
0272
FF59
0255
0013
FE35
FE21
017C
0015
0113
0066
0188
FFE4
00BE
03EF
FF49
03D2
FFAA
FF57
FF3E
04B8
FCD3
0058
FCA5
01E7
FADF
012E
FE14
01BA
0162
FCD0
FF8F
FD0F
FE82
001E
FE77
0006
FDF6
00DD
007D
FA9D
FC08
FE89
0266
0581
00AD
03A1
01AE
0551
FCE0
FCE2
0202
0522
FE89
FDAE
01AF
FEDE
0390
FE12
05C5
04B9
FE00
032D
FFB3
01D6
FBC3
00EE
FDDD
00FC
FF7A
FBA5
FFCE
000C
FDEF
FC08
00A4
01A5
FDDF
000C
0043
002D
0664
FEDE
045F
FE1B
FB02
0003
FD67
FE41
FDD1
016D
FE9C
FECF
FF45
039A
FF5F
FEA8
FD2D
FF02
FC6C
FE64
FED3
00CA
FD54
FCFE
FC7E
02C9
00E5
02EA
FE52
FEBB
FD03
007F
00D7
FD78
FD59
01CF
010B
0109
FE18
03BA
FD1B
FE48
01B9
FD4D
0318
00D6
FEA8
0065
0231
0019
FF54
0174
FBF4
010A
FDA2
01C9
0049
007E
00CE
FF84
02A8
FDFC
FFA7
FF92
FED1
FAF2
FE51
0210
FEFC
FDA9
FE77
020F
012D
0219
00BF
FB76
FDDE
FDC2
0082
01E2
FFF9
0026
01C1
FF2B
0401
FFBD
FDF3
FEC3
001B
FBFA
010C
FE31
01C9
FE77
00A9
00F2
FD6E
00FE
0184
FDCF
FF41
0091
0086
02FE
00A3
005C
04C6
FD39
FC8A
FC18
FE32
FCE2
0038
FE36
0204
FDFC
0211
00C7
01D4
029B
00A5
0253
021D
0333
FC45
0081
0074
02E8
0382
029E
033D
02C4
0220
FED0
FC79
02EB
00F6
01BB
FEB6
FE80
FFBC
FF0C
01F2
FD44
01A4
FC03
00CE
02E6
FF14
0014
04C8
FE5A
015F
FC86
0471
FAD6
FF1E
02B6
FC7C
FE6F
FFC4
03A1
00D2
01B9
FC5E
0395
FE6B
FDCD
FF25
FF15
FC68
032F
FF01
028F
056D
FEB8
FE36
01EB
010B
01C9
FD97
013E
003F
017B
0165
0059
032A
0090
FCAE
FCBD
FCFC
0267
FEBB
FF3C
00FC
FF72
FF5B
FCF7
000A
FCDF
05A1
FC57
0421
017B
0000
007F
FF3A
0070
01D5
FE67
026B
FEE7
FE6A
041C
FC5F
0064
FFEF
FFA3
01B3
013D
0218
01A3
00AC
0576
0239
FFF4
FDA2
FEF7
0218
0533
FC41
FE32
01D6
FB66
FB5E
FCF6
FD8C
FCFE
0186
0061
FDC6
FD59
0062
0087
00CF
FF7B
FE9B
012B
FB69
FC42
FF9B
FF11
FD38
0225
0289
020E
00A0
00BD
018B
FCD2
0198
015B
05F6
026D
00EA
FF6E
0047
00A3
FDFD
02CD
011C
02C3
FFC4
00E5
0335
029D
00A3
FCE5
0480
FD89
0226
00D6
051A
006D
050C
02CE
0209
FDD2
FEE8
FDD2
0295
01BB
FDDD
028F
FD72
FEE3
FF93
0001
013E
FE0F
0044
FD20
FE3E
FDE8
FC7E
01A2
FF76
0055
FB87
00AE
0036
00AA
FE35
006D
FE81
01DA
012F
0203
FE2A
FEC7
FD0F
FFCD
FD21
FEC3
0005
FFBC
01CA
01B1
00D8
02B7
017D
FF7C
01F8
0009
FFD7
009F
0176
00DE
FE9D
00E3
FC49
FDDE
0900
FBCC
011D
FC93
0211
0259
FFB6
015E
05D0
FCD5
0107
FC53
0231
F851
FEE4
FD97
FDF6
FD6F
FF77
030B
00A6
0119
FE5B
0454
FE8D
FF1A
00E7
FDB7
FE1D
02C9
F74B
FF2B
080D
00B9
F8FA
0501
0798
061C
FBAF
003F
FD1E
FC85
FF23
FE43
03DE
0171
FE17
F933
FC75
01FA
0323
0169
FE8E
FC15
00B5
FB46
FE3F
FC90
059C
FAC3
FF3C
06FC
02E8
FA8C
FE0B
029B
014D
FE8A
023C
00DD
FDC7
0096
FD34
013A
FBBC
FF2E
03A3
0374
FEB6
05CD
0087
FFE7
0208
FD10
F75D
00A1
0185
08E5
FABA
FFCC
06EF
FC1A
FDDC
FE30
FE3E
FC6A
02B0
FDCF
FB16
F99F
0543
FF22
FFE4
0217
FD88
03E8
FCE3
FE7A
FE5D
FE80
FF3C
0245
F909
0065
FEA2
FC8B
0266
FDD5
FF25
FF21
FF87
FFC6
0395
0098
022E
FD54
FEBE
FFAF
FE22
02A9
00D5
FD86
FDD5
FF6E
02B6
FDDD
0271
0329
FF27
FF01
0391
0175
FEC1
FC70
0128
FFE5
FE3A
0163
FFB2
0059
0059
0390
FF44
02B3
FFC9
FB28
FF8A
0041
FFC2
FFC0
0134
000D
01EE
FDF0
FD4B
FDA5
0494
FFDB
0287
02FB
FF22
010E
FC05
028F
FE72
00BB
FD3A
0031
FF24
0280
0407
00E5
FF1E
FEC5
02A0
0244
008A
FDA7
FF22
02C3
FE57
FF32
FCBC
03A7
FDCB
FF2A
FEAD
01D6
FDEB
FF51
0642
0093
FF02
FD97
007B
01A4
FC02
0435
0275
FEF8
FD41
FD39
04E9
003F
FEA9
0999
FAE4
FC41
03F9
019E
FFC5
F8F1
FD54
FC6D
010A
F6CA
0227
02AD
FAB2
F7F6
FC07
0638
FFF6
01B2
FB6E
FFB6
0345
FC1B
F934
FF59
FA23
026B
04B1
FDDA
02DE
FED3
00C6
0203
009E
0229
FF3E
0335
FEB5
02B4
07E5
FD60
FCB0
FDBC
FF29
0472
FC75
0429
0541
015D
00A1
0215
08E4
0020
035F
0297
FE0D
0151
FC0F
FE96
027B
FDE6
0508
0412
FDEA
0322
0001
0779
045F
F80A
F5C9
FE74
0462
FFD7
FF31
FCAC
0485
FD95
FF9D
FFC0
FD51
FD02
06AF
FA8F
FCEF
01E1
FD61
04C4
0081
0353
010E
FE63
00E3
051A
00ED
04E4
01DA
FE7D
0260
FF9B
031A
0143
FFBF
FCF9
02FC
FF7C
022F
FD7C
0078
0185
FEA8
0061
00FE
0018
FBDF
FC45
0357
0367
0118
FFAE
FF8D
FF54
FE4D
01D5
FF35
FFE0
00CD
FDE7
FEF9
017A
0081
FEF1
02CA
FD8E
FFC9
0474
FF8E
0132
FC07
FD8A
0279
FDF2
05B4
0128
FF30
00D7
017D
FF7A
FEF1
0100
FC56
04EF
FED2
FF9C
FC20
FD70
FE8F
009E
FF9A
0085
FFF7
029F
FE05
0035
010E
03CD
FBDD
FE29
0330
01D4
002C
02BC
00C5
043A
0136
03DD
00D5
01A1
FB4A
001E
FF00
00A4
029B
FE94
FEF7
0294
0066
FFC1
0041
01F9
020A
0005
003E
FDF7
FE04
FF74
01A2
FE98
FE13
011D
FD6A
02A7
FF57
01D4
01B9
0126
013E
030D
01AB
02E8
FE49
FF6E
FE66
FD5A
0148
0396
00F3
FF9B
FF85
FE2C
01E3
0149
0279
0026
0149
030C
00FF
0193
FF88
FE85
FEEB
0046
027A
FEEC
0154
0217
FC4E
FDEA
0433
00A1
FF05
FF1D
FF8A
0338
02A7
FCBE
02A2
FDB7
00DE
0040
0107
FEEF
00F2
00BA
011B
FDE0
FEBE
0135
0088
01D5
0133
FFEC
FEA8
02CA
FFFD
0152
FEBE
0010
0105
019D
027E
FF59
00AB
0152
00C8
010F
FEF6
01F4
00D1
FFC7
FFAF
0309
01BE
008C
FF5C
0001
019F
FEE2
FF66
036D
FDFF
FF36
000D
FEA8
FD1C
0090
02AC
0184
FFFB
01D1
0256
FC81
0342
022B
FEAE
FE85
FF0E
FED2
04D0
01F3
FEE2
FD2E
FFF0
02C7
00EA
FE1A
FF04
0055
0301
FEB0
01AF
FCD7
FBEB
01B0
FD3B
00F9
FEED
FE57
02B8
FF31
0274
FC2E
0277
005F
FFE1
037F
FFF1
01D7
FE08
0269
00D7
FC1E
0335
FE0A
FDCB
01BF
022B
FE2B
FD27
FE55
FD3A
FCBA
026F
FCE4
FE3D
00C7
FDCA
FEBF
FDDE
FEA4
FE03
FF45
FF1E
FF88
0109
00C8
012F
0048
0026
FF23
004A
FDD8
0277
018A
FED2
FF71
FF43
FED1
00ED
0009
00E0
0105
FE75
FE34
FE50
02B4
FDD6
FF9E
0115
00E4
0080
0193
FDBA
0146
FC70
FE08
FFEF
FE01
FD1D
0105
038D
039F
01D7
011A
0242
FEC5
FE7C
FC67
0138
FA70
0120
FF19
023C
0566
FB34
FF0C
04B0
0177
FCB1
FF80
FF20
FE11
FE6C
FC70
00FD
FE15
024D
0191
02EC
FEAB
FECF
0244
00CD
04EA
FE07
023B
0168
01DE
FEF0
FF9D
FE70
0169
01E5
FEB7
FED2
0223
00F4
FE1E
FE0A
FE14
029B
01ED
0063
FF13
01BC
FF73
FEC2
FEB4
01CE
0027
0372
0119
004D
FF48
FF78
FCDF
004A
005B
011A
0058
00F8
0379
00F8
FD25
00EB
FCFA
FDC7
01DF
025F
FFAD
021F
02AF
FCC4
0024
028E
01C7
FF9F
030D
FEE0
018F
002E
00FD
FBC2
0060
0212
FE6A
0233
0121
020B
FC88
012F
0004
FD2E
00B1
FFA5
FED2
023D
0190
FE00
FFA9
0251
FEA5
FDBA
FE91
FDD6
FF18
FDDE
FFA9
00EC
00C5
FECB
FE7D
024C
FF04
FE79
018D
FFB7
03E3
FF48
FFE9
FEE9
0136
023A
028C
0350
FFAE
007B
FF27
026F
00BC
FDAA
0275
FEFE
FD51
00E0
FF6E
00B7
003E
FF73
0281
FE29
FEC5
001D
031D
026F
02EA
FE7D
FF7C
FE3E
0335
01CF
FC8F
FDCD
FF00
FFD9
FE37
FEB8
0000
021F
FEAD
FF8A
01D9
FEA3
02B1
FDAA
FE0E
0074
00EA
FEA9
FE22
015A
01B5
014A
FF7D
FFB1
FF9C
02ED
035A
01C8
FF0B
FFB0
FFFB
01FE
04BE
013C
01C4
00F2
FE92
0167
FEED
FE50
FE97
FFAB
021F
FFD7
FFA8
00C2
FD08
00D1
000E
00EE
FC32
FFDE
FE3D
FFFF
FDE4
FFDF
039B
FFEA
0352
FFC7
0259
00D4
FEB6
FF2D
FFFA
FCE6
0060
021C
012E
006A
FE2A
03EC
00BB
FFFB
FD7D
FCAA
FF70
0046
00A8
04C2
01DB
02F5
FC2B
007B
FD69
F9A1
012D
05E8
026C
FF62
0075
00BD
00E6
FEE0
01CD
FE87
FBC0
FEFE
00D3
000B
FC6F
FF4A
FE9F
FEAB
FEAF
FE52
01B7
01B2
FB4E
FCDF
FCED
02E1
FE42
02B7
016B
006E
028E
0327
00DC
FF60
004B
0335
FDDB
0092
00BF
001D
FCB1
0199
001A
FE07
046A
FCFA
FD1F
004F
021D
FF88
0145
FCBD
FDF1
FD5A
FF84
0146
FE35
FDCA
FEA4
0056
FF38
005D
0002
0008
002E
0016
FC86
0558
0343
026D
FED3
FDBE
FD79
024C
FCF7
020D
003D
FC67
FE0B
00FD
0184
003E
0035
FF22
FEAA
0171
0248
FF8B
023F
FF0B
0579
FD97
0017
02FA
FFE9
FE9E
00E3
FF2D
000B
FFA7
FEB1
0008
FE28
00F6
FAA2
00D5
FF8D
0162
00ED
01F9
FE7E
02CD
0082
FDAA
FD2F
0166
00C6
0401
0265
00A0
01D0
0068
0445
020C
FEF2
0058
000A
0259
04D6
FAF7
035B
00A9
0076
FD08
FE5A
FFD3
FE00
0270
FCDB
FB60
FE43
008B
FE74
0254
00FB
FCF7
013E
02C8
FDAE
FD06
00E9
FE93
FF3B
0418
0231
020F
0175
FEA2
04BE
00D6
FDA8
FE2E
FB08
FB1D
0083
0257
0263
FC3B
FD99
0379
FD5C
FD41
FA25
0094
001B
FC10
FF3D
0103
01F6
0074
029D
00CC
0440
FF0C
FEA1
FD09
0128
0052
040A
01BE
FEA4
FD26
FD2F
0056
FB31
FC77
0326
FC9A
046F
FFE8
FE70
FFC5
0101
0187
007E
FE0F
FB9D
0194
FE95
FEEB
FEFC
0118
FF02
FE61
05B4
00BF
0352
0259
FF5D
0134
00C7
FB68
03A1
02F5
0744
FE6A
FDE8
019F
FF88
FECB
FD3E
FFC0
FC46
FCDD
03B4
FD13
0478
0074
FF1E
FDD6
FEF5
0130
0074
FED8
FFAF
FF45
FFFA
FDD0
0118
0158
FEC9
FD1B
009C
053F
00C3
FE02
FC99
FD63
030B
0689
0294
FF19
001E
00B3
0078
FD41
FE37
FD5C
FF8C
00EE
FF7F
FEB3
FFDD
FB85
FEA3
0295
FCF6
0092
FDB4
0374
FFE1
FD37
FF8F
0110
0023
00C0
0247
FFE7
FDE8
FEFC
012E
FE42
FCF9
017A
FEC6
FD8E
FE45
FE6B
0150
FC0D
FE38
FF67
FF09
0344
001C
0119
0263
0230
03ED
FF21
017C
FAFA
0191
00E7
FF0B
004B
FEDC
FED2
FEC8
FE15
FE84
006D
01FA
005F
FD82
FDB5
FF83
FF5F
FF93
039E
00CE
FB5A
009A
FFB4
013A
0238
0046
FE58
0132
055E
04B4
FED9
FEF2
0042
FFFE
FF6C
0095
FDA8
01CE
00AA
FEA4
0017
0208
FC6B
0147
FBD3
FF7A
0252
FCE5
FACA
FF42
0341
0157
03EB
FF7B
0007
FEC3
020F
00C2
FC7B
03A3
FFBA
00C4
FE03
0149
0529
00D6
FABB
0028
0034
02C2
0442
FC67
0164
FE98
034C
FCD2
FE0C
FDA3
FE2A
00A4
0284
FEE6
004F
FE59
0244
FD75
02A5
FF8B
FF4E
0246
039C
0212
016F
01C2
017D
00BF
FD8F
FFE7
FEDE
FF46
FF92
0059
02EA
FC1A
FFEC
034D
0245
FF95
FD0C
0281
0459
FBD9
FB83
FC78
0323
FF1F
01C8
FF79
04D4
00BA
02F0
FF2D
FEE2
FE4E
02D6
FDB6
FE67
01CD
00C5
004E
FF39
00E7
03A1
FFBF
FDA0
0075
0108
0135
0025
FFBD
029B
FEC9
00F5
027E
FFF2
FDC1
0121
FEBD
FF81
03F2
00C6
FEEC
005F
020C
04D0
FF54
FC37
FF34
00A9
0012
0097
0243
FEE1
0268
002F
FFD2
0132
FC60
0122
FFFB
FDA6
011F
FF06
0035
FEA2
01C3
00B9
FF38
000D
01D4
00E9
015B
00A9
0082
0182
004B
046F
0136
FEF6
FE01
FDFD
01D8
FD27
FF78
FDAD
01AB
FE0E
FE94
0267
0387
FDD4
0073
0065
FDF6
FEBE
010F
FE0B
FFA4
0153
FDC7
0029
0041
FE46
FECF
0192
0151
FF82
0368
00AC
0266
02EB
FF76
FF46
FDC5
FEFE
0312
FF41
013B
FEAA
01A6
028C
FE06
FED0
01C4
FEF6
053A
FFFD
FF84
FC13
FCC3
020E
00CB
013F
0220
FF1C
028F
00AD
024C
FFF1
FF71
FFE1
FEC5
FF3B
FB9E
005C
FE6C
FE13
FB19
01C0
00B9
FFA1
FF83
FEA0
00A6
FF4E
FDBC
0279
FF0A
FFB6
FE44
01CA
0465
0090
00AE
0124
031A
FF4D
012E
FE80
00D4
FEA8
FD3F
03D7
FE85
FC84
FE2D
FB8D
017D
FA11
012D
047E
0322
FF86
FF47
02A3
0000
00A2
FEE5
FFD7
FAA2
FF17
FF26
FD5C
0000
01FE
013A
0242
FFC4
0048
FE9E
FE27
FD8F
FDDC
019D
00FD
FD2F
FFA1
FF66
008C
FFC3
040A
011A
FDFE
00D4
0287
FECF
00A1
FDCA
FE85
0060
FE4B
FF20
01C4
01A2
000B
FF97
0274
FF9D
022A
006B
0230
FFC0
024D
01D7
0190
FFD2
0065
FF2F
005A
FD45
00AA
006D
02E1
FCDB
FE09
01F9
05BB
FF57
FED5
016F
0270
00BA
0081
FDB2
FF9F
0212
013B
018D
00B6
FEDE
FFEB
00AD
0174
FE6F
0281
0070
045E
FFF2
01A1
00CA
00BD
FCD5
0340
031B
FFC1
01D4
FF6C
FE69
FF61
019D
FD2A
01A5
FF12
02D2
00C8
001F
019D
00D6
0382
FE54
0101
FFD6
FC61
02CD
016F
00A6
FF88
FE82
0061
FF72
0110
01A3
019F
FD61
FEC2
023F
FD12
01D2
FEA8
FDD3
002B
FCD5
FE67
0251
018C
0155
FED9
03D8
FDE7
FF83
0085
0050
FF21
FED3
00C7
00AF
FDE3
00AC
FEF5
FF2E
FE72
FEE9
FF40
FDD9
0013
FC6D
032D
FF49
FCDE
FFC0
00B0
FD6E
0310
FF47
0321
045C
FE88
0121
038D
02DB
FEC2
FE81
FEBD
018B
FF14
FE4A
FE68
FF13
0231
0076
FDFC
012A
013E
0287
FC8A
FF82
FECB
01BF
0038
0361
FE95
03D5
FEFB
FEC4
0217
0027
FE45
020B
FD9A
FE98
FE34
FE75
039E
FF0F
0267
FE8A
FF19
FDCF
00CF
0043
FF04
FEA0
0123
FEF9
0181
FE27
FF18
FDC9
0133
02D5
00F4
0322
FD77
027D
01E1
FEEE
FF99
015B
FF5C
0167
FF5B
0021
000C
FEFF
0034
0021
FF3D
0184
FF2F
FFED
FE5B
00C6
0028
FD44
FF04
0031
0008
FDF8
FF36
004A
0026
FF71
FFD1
0179
FD0E
FDF6
0064
0471
050E
0024
FCA5
0046
0173
02AD
0284
FBA6
FFBF
FFF3
FD81
FE21
FE97
016B
FBD3
008B
0031
FFDB
0246
01AA
FD30
02B8
FE91
00CA
00B0
FE0A
010C
01B7
00EB
01E7
0212
01BE
FF0A
FF09
01F1
FE1C
FF12
FC18
029A
FF55
01CD
0130
FE8C
0251
00D2
014D
FDF2
FFDB
FF63
01E8
FE9F
0055
FE04
0093
0054
FFAA
FE56
0135
FE02
01C0
FF23
FE54
01FB
00FC
FDEF
FE98
FDBF
0177
0180
FF2E
019A
FDAE
FD61
FEC2
0206
FEE9
030F
0473
FE52
002A
033D
01E8
0376
0054
01A7
01A5
011A
0148
FF47
0039
0062
0091
FF53
FE96
FE8D
FE46
FED9
02B2
FF8F
FF50
01DF
0192
00F0
033D
006F
0034
FED2
FCAB
01B5
FFD2
FEA3
FF5D
01D9
0199
FC09
006E
02B5
02EC
FCCB
FE6B
FC7D
FD0F
0227
020A
0209
FF89
022C
FD2F
FCFE
FF2C
FE10
0240
0263
FCA8
03F6
FEA7
FD93
FE0D
0190
FCA4
FCC5
02C9
03D4
FEEC
00D0
005E
0139
FEA8
003D
00CE
FE54
FEBA
00A0
0441
FE2E
FF9C
0217
FE7A
0068
0186
FEA0
00D0
0282
002E
FF7A
FE96
0011
FFE0
FF7A
FD4B
03F4
FD2F
029B
FD7A
0122
FDA8
0377
0154
FB6B
FD86
FE57
02E6
FCFD
00A9
FE44
FF75
FED9
FEE0
0075
FDF4
FEA8
FF06
FF19
FD75
0151
02FD
FC4E
FD89
00D1
041C
0130
FEDD
FC80
00D9
0069
0029
015E
FCE7
FD1C
FD64
FF41
FD36
FFF1
0205
FBC8
FF3A
00D6
FF8A
02C0
02F0
FF79
030E
FC97
0193
FEB9
004A
FF5D
FD42
00E5
003F
FD58
FF2E
FEBC
0236
00BD
021B
01E2
00CB
FFCA
0181
040F
FEE2
00CF
016D
FE89
01D4
FDDD
0193
FDD3
0069
015A
00A5
00FE
007C
01B3
FE58
FEA2
FE76
FDF5
FE02
FF51
0104
0143
0013
FEBD
FE7F
FF8B
0406
FEE7
FF82
FE62
00C7
02AC
FF4D
0339
021E
0384
030C
FFF8
00C5
FFFB
002E
01C6
FFAD
010F
0204
FCF7
00C4
00F4
FD1C
FDE3
01E4
01D9
00AD
011F
0011
FED5
03C4
FEBE
FFE3
FF12
FDC5
FE92
FFC5
FDD2
FE70
0168
FF34
0108
FE71
FF59
0193
FEE2
FF99
FD17
0268
FE09
0163
FF1C
FF6A
FD44
00C3
02E6
038D
0097
FE61
0071
FF15
FFE2
0070
FFBF
FE63
015B
FC86
00F5
0163
FDC6
0157
FD4F
031F
FE1B
FEDC
01D7
039B
FEC7
026C
00F6
FD36
026B
001B
FF68
FD2E
FDBA
FF98
FB93
016E
0020
FF82
0097
FF3B
035A
00F2
00D8
FCBD
FFF8
0024
FED4
FD46
02AF
FE40
01AB
00A5
040D
FD46
FCF3
FCF4
FF08
FD8C
FDE1
0130
FE4F
01DE
0322
FDD0
FE16
0119
FFF0
006F
0095
FF19
01A6
0169
00D6
0227
0193
FCE7
003E
FEB5
00AF
006A
0033
FF9F
FF46
FE65
0150
00CE
FCC0
FE4C
0452
FF6B
0152
FE67
00DF
FF44
0042
00FB
0164
FF3C
FF4D
010A
FF47
FF26
01E7
00AC
0340
FED2
FFDD
017D
0283
FFB4
0006
FE20
FFF9
FF14
FF6A
01D8
00B7
FE80
00C1
FEB1
FE8B
0167
FEEE
0112
FC40
FCA7
0010
FD80
FE9C
002F
0075
0041
FEAA
FDF4
FFB2
0050
024B
FECC
FE5A
010C
FEF0
FF4C
0083
0027
01D7
0038
0198
FE97
FDB1
FFC8
FF94
0098
0066
FFB2
FF18
00FE
00D7
FE36
FE71
FEA7
FF77
0219
FEAD
FFB3
FEDF
FD10
0114
FDBA
FFB9
FF9E
FEFB
000E
0166
FF82
FEE7
0203
FFA9
FEDA
00B0
FE8B
FF8A
FEE1
0054
FFE7
FFC7
FDB7
00BA
013A
0286
FE42
FF9E
FEE8
FDBF
FF75
00C2
017F
FDF1
0073
FD68
001F
FFFF
000E
FFC4
FF55
FE57
FD2C
00A2
FECB
0048
FFF2
FD7F
FE4A
0105
FE90
FDD3
033D
004B
0128
FFE5
FDE0
000C
FEE0
008A
FE39
0248
FF95
0052
019C
FE7A
0191
0004
005C
FE77
FD5A
FFEB
0134
005A
FE7A
0179
018B
0184
021D
FF9C
01BB
FFF5
FEB8
FFF3
003B
0089
FF5D
FE9B
FFA0
018C
0119
01D6
FDC7
006B
00FD
FD9D
0195
0004
0136
0026
0106
0105
0113
01F8
FF3E
FE8A
FF61
FE52
0080
006A
0107
004F
FBBA
FF4E
FD6B
FEBA
FE24
02F8
FBA9
01AC
FB52
03AD
0126
001A
035F
FF67
FF4B
FD92
FE21
01F4
00F7
0157
0149
0363
0004
0111
FE94
FFF0
01FB
03CF
02CE
0340
FDCE
FEA3
FE44
0191
FF0D
FDE5
0006
FF6C
FF9A
FFDE
FE64
01B5
FF74
003D
FEEF
0091
0141
FE56
FE4C
FFCB
FE33
FED2
00DF
FD1D
FEBB
FD6C
00E1
FE49
FD8C
FAF7
0050
FFA1
FFE1
FEF8
FDB9
FE56
FE98
FD11
0270
007D
FF1D
FDFE
0069
017C
00F8
FD60
FEAD
FF00
FE8A
FF47
0277
0282
0058
FEBE
00F3
0115
015E
FE38
FF80
01DF
FF84
02C3
FDF4
FF1C
02BA
02A6
FF8F
0121
FFED
FEBE
FF8C
00D4
FD29
FFFA
023B
FD90
FE8B
FF11
00A0
014A
00BB
FF53
0057
0221
0109
FD24
00D2
0221
03BA
FFEA
FDFC
0151
FDFF
0084
FF08
FCC8
03BD
FE9C
FD2F
0172
FF64
0083
FEC5
FFE2
FE79
FD81
0170
028C
0123
FEBF
0112
027C
FEB9
0074
FEF8
0060
FF82
FFAE
FD83
000C
0004
FFB6
000C
FFC0
00CF
013F
015D
00EE
FE62
FE19
FD4E
0222
0102
0114
FF56
013A
0240
0060
FFA7
FFF3
0038
015D
FE71
FF3D
FD8E
0010
FE0F
010A
00C4
00C7
FE95
FF14
FDF1
0058
02E3
FE54
03A4
FEE9
FE65
01C8
00D9
FE7D
0028
01E8
0054
FEFD
FF45
01A7
FCC3
02F7
013F
FE0E
033D
001B
00A6
01FB
0018
0021
FE2B
01C5
00AD
00A2
FCB8
00DA
FFCB
FD95
FE93
01D7
FEE2
FFFD
FF4D
0168
000B
010B
FF6E
00E6
02FF
FE43
017E
02E8
FDB1
FFAF
0327
00AC
FF93
0161
01DD
FED5
0294
FECF
FE41
FE9B
00FC
0265
0192
FCEE
023B
FEAD
01CA
0052
FFC5
0166
0030
011A
02F5
FFE7
FFAB
FDC4
0298
0287
FC4A
FF77
02BC
FF35
FE98
001B
005D
020D
FE41
FEE7
FFB9
FF20
04BE
FD7B
013A
00F6
FE66
004D
FF14
0104
004A
022D
FFCD
0185
012A
FE6A
019E
030D
0141
FDBC
FE92
01E3
02F3
FDE4
0000
00CF
FE93
FFAA
020D
FED9
002C
FEB1
0448
021F
FD80
0050
02A2
0345
FE95
02DC
FF9C
FFF3
0024
0001
FE27
01C1
FF49
FCEE
02FC
00EA
00ED
FFC0
02FA
FF4C
0024
FEAD
FD76
00DE
FE9E
FFF4
0119
027B
FDD5
01D7
FE92
FE8E
0098
FDEA
FE22
0316
020B
0258
FD2B
FEDE
FD42
FEFD
FFFC
0202
00D3
FDC8
0090
FE1D
022F
013D
FEE4
FFC9
FB2D
0190
018C
01F9
FE67
FFEC
0217
0085
FE0A
FEAB
FCCD
FE25
FF50
0259
FDAB
01B2
FD46
0312
FFCE
FF6B
FF32
02B9
0220
01D2
0076
000E
FFB1
001E
FDF0
001C
01C2
00CC
FD54
FA85
FF63
01A3
FEC9
FF23
02F0
FCAA
0241
003E
0049
023C
0144
FEE7
FE7F
0186
FE6A
022A
FE97
FBB8
00CD
FF85
0011
FEB3
FE9B
0485
00A4
FC7C
00F4
02CE
FD58
02CC
FFFB
FF80
FC46
01B4
FA53
FFAC
0189
FE01
FDD7
011A
00EB
FDE7
0010
FCAD
FF73
FEEE
0345
00CF
0372
FD8B
00F5
FE8C
017B
FDA0
FBE2
0372
005C
FEA2
FDC6
FC3D
FE70
FDB3
FD41
FF8D
002A
FE16
0116
FEDD
0054
0131
FCE0
01BF
0142
FFD5
0028
018B
0280
FF68
FF85
FF71
01D1
0161
003D
01B0
FDEA
FC3D
FDEC
01CF
01D7
00FE
FDC4
0005
FDF4
FC65
01D7
0077
0129
FEFF
0193
FED4
01A8
FED5
00B4
0554
FE2F
FEA9
00A6
00DE
0145
0027
0176
FFFF
0331
FD1F
0245
FF2B
FFA4
FD76
01EF
FF9C
00A8
FDB9
0282
0139
FE4E
0099
FE51
FDBB
FEC0
FE2D
FEC3
FC53
017D
0313
0203
0217
FFB6
012D
039D
FE50
0146
0053
FFB3
0118
0073
FF17
FD27
FE69
FF17
0051
FDFC
FB98
01E8
FD1E
000B
FD6E
0123
FF2A
035C
FF31
019D
FDFD
FECE
FFBC
0098
FD55
013C
FF9A
0089
F9B4
045E
001D
0094
00F0
002C
0105
017B
FD05
0146
0316
FFD9
FFAC
FC8D
025F
012C
FEA6
FE0E
FF84
FDB2
0060
01AC
0149
0182
0183
FEE6
FDEE
03F9
FD4A
FD6B
FD57
FEF7
0127
010C
02AF
01E7
00BD
FE22
FD79
FEEA
FD16
022B
004D
FF4C
00A5
FFB4
FF3C
0148
FFB8
008D
0001
FDD7
01B4
FCDB
FFAB
FDA7
001D
029F
FFD6
FF10
FC7C
01D5
FE72
FE84
FF8F
FEA6
FE60
FDFC
FD55
FED6
FD7D
009F
FFCC
001B
FEE3
00DB
FE58
FF12
FFCF
013A
FECB
01FE
00A8
FD2C
FF3E
FF2E
FEAE
FFE4
0009
018E
FE29
FE2F
019C
02C2
FC3E
0238
002B
043B
FFF9
0305
FF3F
01BB
FDA8
00EF
FFF0
00B2
013D
0076
005C
00CB
FD4C
FE0B
0073
0249
018A
FD5C
FC6D
019B
024D
FE5E
00C9
FF59
FF79
02EF
FDEF
0274
FE3B
FE38
0456
0117
031F
FF68
FEF7
058C
FFF2
FC70
FD3D
00F2
FFE0
01B8
00EC
042F
FF74
03E7
0157
0233
0128
FDDA
FDDB
FF19
FCCE
FD1E
0275
0276
FD3D
FA8A
FF34
0256
FEB1
FE82
011B
001C
FCA0
005D
FF08
0125
FDB2
00D6
03AA
04E1
0308
01BE
FEFB
FFE3
FE92
FEE1
FE81
FFB0
FEBC
FCCA
026C
FEC2
FE1F
FE49
FBE6
042C
FBE0
FE34
0336
0330
005F
FF6A
022F
FBE9
01CB
FE95
FE27
FB69
00EB
001B
FD3C
002B
01FC
0134
FDDA
019B
0186
0260
018D
FDDA
FE7B
025B
FFF0
FEFC
02A1
FEFB
FEBB
00BF
0227
FECF
FC95
006E
00AC
0289
0014
01A5
FF30
FECC
03E8
0108
FE92
FF54
0196
FFA2
0014
FFFD
FF4C
0143
FFC1
FEE0
0091
FF8C
FFC0
020C
FFE8
FFF1
FEF8
FEDF
FF7D
FC24
FED7
FC13
FC9E
026B
010D
00E2
FB9D
FDF0
00D3
FC8F
00EA
0091
FF6D
FD30
01D2
0112
00AA
018B
02A2
FEF1
0209
FE3E
FD7E
01C9
006A
FF55
FF3F
0058
01D2
018C
FFB4
FF61
FF87
017B
00AF
01D5
00FD
FE41
FE1F
013A
017F
FFC3
FEFB
FE8E
FF0A
0183
FCFC
FF6C
FDD2
FF91
0094
010C
012C
FE8A
FF01
FFC4
FF39
01B4
004F
FF67
FF66
0036
0211
01C9
0038
FE72
0021
FD48
00A3
024C
0130
FD1A
00CA
01AF
00EE
010C
FEC7
0169
0231
FF54
FF42
0071
FB36
FF70
037E
FD3E
FED0
FFCB
0042
018D
0324
0348
024F
FF00
FC54
02BD
FF01
FCB3
FD5D
00D1
FFFD
FECE
FE3C
0219
FF6F
0041
016F
0037
0164
FCAD
FF3F
FEE9
FD87
FDE1
FFA4
00CB
FE89
0426
FEED
013D
FEDD
FF69
0059
01B5
FE85
02ED
0041
FE02
FFD8
01E6
FF92
FF22
FC23
01B9
FED1
00B9
FF8E
005F
01C1
011F
00F6
006C
0138
FE1F
016F
0096
0110
FE18
0187
FF24
FF09
00E5
017C
0108
013E
0131
FF5C
FF75
FF31
0015
FF13
03DA
FF41
FF9D
01FA
FF32
FF0B
FE54
FEA8
FF50
FFA9
0332
FF9B
012D
014A
021F
002D
0581
00D5
002E
0153
01DC
FBFA
FEDE
FEC7
042F
FF81
FE5C
0278
001C
FFA6
FFE9
0205
FDC0
01FF
FE3D
03A5
014B
FF88
FF20
FAC3
02F3
048E
FF35
03BA
018A
0473
FE8C
FF74
FD98
02AE
FD98
FAE5
0136
FC6F
FF96
010E
0173
00A5
FD35
0075
FDB6
0082
FD60
FCC7
039E
FFDD
0396
0304
015E
FD19
FFB7
01A5
FB40
0129
0058
0166
FCBD
044C
FC22
FEC2
FECA
0264
FDC9
FB3B
FF82
FD49
00A0
FCD8
007A
FBED
02C4
032E
0067
FD23
0187
0328
FEC3
FE98
FD42
030E
FF96
0350
FCA8
01AE
01F1
0103
0447
0287
0378
FD77
FE2E
FF90
02DA
F94D
FF55
FFC8
FD52
0219
FE91
0260
057F
FC46
02AE
FFD2
FA0B
FA72
FC75
FBE1
0302
0069
021C
01C8
07BB
FF95
030B
00F2
0193
FB8D
FDFC
FB98
0320
05F4
FF48
FCD3
FFE3
FEEB
FDAE
FEA6
F8F1
012E
0379
FFA0
03C3
043F
0519
FF37
00DC
0324
0628
00C4
019C
004A
00DD
FE48
0642
0245
00A7
F8CE
FB4B
FFA2
FD57
FB64
01B5
FEDD
019D
FDE2
FF74
FF6A
FF68
FFEC
02CE
0087
FA95
05AA
FA5A
FE4D
FBF7
FFA0
0502
FE1E
047A
FFAB
042A
FFF3
0049
0021
FC08
FC5D
002B
044C
06EB
FD5E
FBEC
0179
FFDE
FE2E
FE03
0359
FD53
FD52
02F1
FC00
013E
0255
FCB8
03D5
FE83
0036
01E5
FDCA
FFA1
FE39
FFB3
FF86
FC1F
FD7B
0342
0097
FF2A
0155
FB61
00ED
0320
0052
005B
01A1
0452
004D
FD39
FD47
0166
FDE6
01E0
046E
028F
005C
FEFC
FFD6
FF10
00DF
0404
FF1A
FF64
FF07
022E
024F
0072
006C
FE66
03CC
FC70
FE55
00E7
00C4
03C0
FF3E
00BF
078A
FCEC
FA2E
0076
0412
0249
032A
FD9E
FDAA
00E3
FE11
FE4E
02B5
052E
FE4D
FC36
02E5
012A
FD92
FEAE
018E
00B8
00B6
FCAA
FF90
01E6
01ED
021A
FE22
0013
FE5C
FED9
008F
0194
005A
05D2
0175
01DC
0206
FEA8
FC68
FFC1
00AB
0105
FCF2
0280
0042
00BD
FFE6
FFE3
0206
01A2
024E
FFEC
0122
FE9B
FF46
0186
00F6
019B
FFA2
F85D
FC1E
FB8F
FF17
0151
FFC2
FFBC
039D
0842
0042
0589
FEDF
041B
00FF
FBD9
0008
0331
FEB6
FA25
05BB
01E6
FE69
02B1
05BE
0600
00F6
033A
FBB0
F9A1
FABA
01FA
0063
FF4D
FFEF
FD81
FFFF
FEB9
02FC
0146
FE90
000C
0050
0137
0101
028F
08A4
FA7C
0371
027F
FE88
F831
FBEB
002D
FDF1
005F
02B1
01B6
FFD5
006A
0001
00F8
FF68
FE5D
0325
FF75
FAD6
0271
0554
FCED
00E9
FFCC
01B2
FEFC
FD0B
086E
F936
0263
FFB6
0050
FC17
FCE8
FE47
F8A7
FE11
FBE2
FD56
FC37
0207
FEBB
FD4D
0299
01AA
02B3
FE14
FE04
FC02
FDA4
FFC8
01C4
FD3F
02AA
0193
0138
FF02
0261
FF13
FE01
FE1E
0200
016F
FE04
FD93
FF28
FF28
FFBF
02E7
013D
00D6
017A
FEE1
FF4E
FE87
001C
0088
FE73
FE96
0150
0109
FE64
FEBF
0132
0335
FE54
0145
FE70
FE54
0308
01C3
FEAC
0015
FFF3
FEA9
FFEA
0145
FFC8
006C
0076
0215
FEBC
FF99
0157
FF50
FDAA
0117
FD34
FDDF
FDB3
0183
FEE1
0334
FE20
FF2C
FCB0
FFC4
0196
FE94
FDBE
0224
FF10
FDD2
0060
0184
FE8B
FE85
0231
0004
FE81
FF7B
FF11
02A1
FF3D
00B2
0148
01F7
FFFE
01E0
03C3
FFDD
FF29
FECD
00EA
FFEB
FF26
00C5
FEC9
009F
0032
009E
00CB
FE02
01A5
0250
FFD7
FF22
0234
FE1C
003C
0101
000B
FF9A
FDE0
00AF
0328
01AA
0337
01F0
0311
00F1
FBFD
00BE
FDA3
00CF
FF25
FF2C
FDF3
0103
FFBA
FF9D
FF5C
FD1E
0058
FE25
015C
FE57
012E
FFAB
0191
02FA
0058
FCF4
FEF3
00D2
023C
00DB
0344
FEC4
005F
0249
FF05
FE12
FDC7
FF52
FE30
0124
FDBE
01FA
FF51
FF90
003B
00EC
FDD5
01C2
0133
FF92
00DC
01C0
FF7E
01D7
FB59
FD78
0196
01C3
00F0
006F
00B2
0054
FF70
FDA0
FF6E
FFB9
0234
01AD
FF18
FCC3
FFD2
020D
FF56
00AE
00CD
FFE3
FDAE
FE85
022F
0271
FCBD
FF6E
0117
FD18
0207
FC70
00F9
009F
002E
FFA7
FD88
FFD5
006F
00B8
009A
FC2D
0016
FAEF
026F
00ED
FF1F
0802
007D
FBF7
FCF2
FE3A
0150
0385
00E4
0022
FFF0
01AF
FC2E
FFEC
FF84
FBE9
FFAF
01DA
FCC1
FE8F
0082
FCF6
0218
FE6D
0182
008E
0182
01C8
01CB
FF11
038A
FEFE
FCEA
FEC2
FEAF
FEBB
FF13
FBE9
FBE0
FCFA
FEF9
FF34
FF4B
0141
0290
0181
FEC0
FC83
FF02
02CE
FCA0
016D
FF74
FF85
0277
00C6
FD87
FFAB
005A
FEB6
FCF3
01A5
FD9C
FFC1
FDB6
0333
000E
01E4
FD87
0376
019A
013F
0179
FDAE
FDAE
FFF9
FF8D
0215
037A
FC79
FE40
07EC
FAAB
01FC
0019
FED5
019E
0113
0056
FFBC
01A5
FE58
019E
01C7
FDEB
FBB5
0166
FD88
027D
FD8A
FF17
FD80
009E
FFD4
000F
FEFB
F8D1
016C
FF78
FF1C
0166
00C2
039A
01CA
01F2
015D
00CD
FD78
0062
FD64
0029
FCC3
0095
0033
FBCA
00E9
FD44
0115
FE70
FB59
0221
FFA0
FFBF
0105
FD2A
0069
0264
FD4D
FDA2
007C
FC92
031A
FC79
FF84
03EB
FE0C
015B
FE62
044C
FD8C
009E
0254
01E4
0275
0562
FFCA
0312
008E
0490
FC4F
FE7E
FEFA
0172
FE71
FBC4
013D
FDAE
00BE
0279
FE80
01C6
0144
FF3E
FFF2
048B
FDE0
00B5
FFD7
FD6E
01CD
0190
02B8
0473
FEFA
0019
FF23
FF56
004D
0265
001A
017F
0019
001C
FF65
FF1E
FEA7
008C
FDBC
0090
02D6
FF5B
0187
0095
FF66
0018
FEA1
02C0
FCC1
FEAC
FEE3
FE91
01AE
FE90
0166
FFE0
FDF3
FEFD
FEFC
009E
FF38
FFA1
FEA4
0128
FF29
0146
0311
0104
010F
FFE0
FF8A
006F
003E
0070
01A2
0023
02AD
FF84
0060
FF4A
FD5C
021F
FFE7
FFC0
FE10
0227
03C8
002B
FFC3
0229
FF07
0260
FCDB
FD67
01E2
01A1
0016
020A
FEE4
022C
00BE
0243
FEB0
0166
FEF3
FE26
016B
002E
01C9
FE1F
0098
0111
FFA5
FFB9
01A4
FFE5
FFFC
FE1B
FF92
FE0C
0125
FF84
02CD
FE63
0210
0200
005A
FFDF
FE50
00FA
FF79
0364
FDA2
00D7
00C6
FED7
FE73
008C
FD5D
FE7B
0144
FD39
01DD
FE07
FFBB
FE88
011A
0010
FF94
02A5
00DB
030A
FD58
FE77
0179
FF7D
FF92
FEF5
0125
01E3
FDE1
FFD6
FE4E
FF77
FE7D
FE54
013B
FCCC
014E
FF11
00DE
0136
FE6C
FE79
FDF6
027B
0135
FEB7
FE6B
0131
FF46
FF76
0271
0376
017C
FE12
0107
0088
FE56
FED5
FF68
FFE9
00C6
0010
0213
0060
FF0C
0008
FDFD
0000
004A
FEA4
0034
FE06
029C
FE87
0244
0104
FD41
FFBE
FDE2
0281
FE66
00A0
00DA
FEC3
0175
FEFB
0176
FE0A
FDE0
007B
FFD2
01FA
0092
FFED
0149
003E
FF7C
0329
0246
FCA9
FEE9
0053
0103
FF40
00F7
0218
FFA1
0354
029E
FE42
FB35
0020
015F
0050
FF7A
0036
FFDA
0183
005B
FEF3
002E
FBB8
FF19
022C
0152
026D
014B
026A
FF6B
02BA
FFA5
00F8
FF2A
01F6
00C2
00A2
FDF8
FEA1
FF32
FD38
0525
FF4E
0112
FF57
0250
0129
0038
006B
0197
FF95
FEBA
025E
FFC4
03E3
FE09
01E4
FD68
FFC6
FCF6
0099
FE6A
0295
0330
FCD4
FE21
0032
FF4A
FE4D
FE6B
0273
FD23
01E1
032B
0475
00F1
FE91
FC82
FE2E
FE6F
0435
0026
FDFB
025B
FFD5
019C
FF18
00C4
021C
0006
0136
FDF1
FDCF
FC69
FED8
FDB7
008C
0139
028D
FED8
0188
00D1
009D
FE22
FF13
FF9E
FDFF
006F
FBD8
037D
010A
FE05
FE48
FF74
022E
FE6C
FE22
FF46
044A
FE48
FFC8
0154
00E3
00BF
034B
04EC
041E
FFA4
02BF
02B6
00B0
FF18
00E0
FE7A
FF05
FE2B
FD5C
0460
FD9B
FEC7
FC74
011F
FF3F
FA03
0080
0351
FF5F
0031
0108
00F9
FCEE
02C6
FDF3
0056
FD9A
004E
0145
FDD8
02AC
025A
0194
FE42
FFFD
019E
FF4D
005B
FD19
015D
0309
FEDD
FE04
02CA
010D
FF3F
0047
01C4
FF22
FDB6
0080
02ED
02F3
FFFA
0198
026C
FFEC
FF2D
FD65
FEC9
03CC
F621
F7ED
0041
0006
FCFB
01D0
FDA2
0190
008A
FEB9
00A2
041A
001A
FF09
FFCE
0396
0191
0328
0292
0066
FF77
042F
0166
01D6
FAF9
00CC
04A5
FE5F
0133
041D
0476
FE2B
0022
FFA6
02C8
0092
F92B
FCFC
03D7
FC80
FF77
02FF
FEA7
026D
01AE
FAE8
0176
FF28
FFE8
FF77
FFA0
FCA3
FEAA
FA90
FD20
0018
FD09
FCCE
05D4
FB7B
F95C
FE5F
0034
0386
FFB4
FFB6
0085
007C
FDD5
0042
FD5E
FA3F
FB77
FF15
024A
00E0
FBF9
007A
0376
0132
0033
03C6
016B
FF5C
FEEF
01C2
FD99
FF01
03EC
01C6
FE91
0114
0009
FB01
00A4
FB92
00C5
FC8E
0249
FEA5
FF28
FFD8
03CC
FC9C
001F
011B
0472
FC7B
01B0
0220
FFA5
FBF8
FC03
031B
02AD
FE0E
FC85
0337
FDDF
FDEF
FFA2
FF7A
011D
FE8D
FD21
01FC
0255
FF1C
FD30
01F7
05B7
00FF
0021
0340
FE3D
0391
014E
018E
FF67
FDBC
FD6E
FC8E
FE98
0076
0114
FA7F
FD3B
FEC7
0161
FF0E
FC52
FBE4
01AB
0096
FF38
043E
00CF
FDFC
FEAB
FDA5
02B9
0019
0402
00BD
FDE6
0559
0024
02E2
FA5B
023E
0135
0256
F923
039A
075D
08C9
013A
FDD4
FD4E
0312
FE44
0375
FA79
FE36
0085
FF14
FD7F
FC5E
FB9D
0158
057B
00CA
FC01
FF58
FC95
00D7
FFCA
FFCD
FED0
FE65
FB92
FEB4
01C1
02BF
FE5E
0230
FF97
FDD6
FF25
FF0B
FE85
FCE2
FE53
0374
02A3
FC83
FE6A
FF3E
FFB2
0087
026F
008F
FE32
0008
FEA1
0091
014F
FDE5
0079
0254
0012
FF83
00C0
FDCF
0114
FF37
0004
FF27
0116
0016
FC16
FC06
0102
FDF3
0075
04CE
0018
01CD
FBE1
FDB8
FD60
FCF5
FF8F
004E
009B
01B9
FCF1
009C
F952
F92A
0124
02B7
FEF0
02E7
013D
01BA
FD8A
00A2
02B7
FE92
0052
FEED
010E
0084
01A2
FDBF
FB25
FEA3
FDD3
017B
004A
00D4
0186
FD87
FD7F
0023
033D
0080
0100
FAEF
002E
0127
FDAB
FC5B
FF7E
00DA
05FA
FF73
0129
05C4
F884
0365
049F
FCB7
FD74
FD98
FED1
019C
0152
04BA
FCD5
0633
011A
0363
0200
00B8
FC4E
FDF1
FB24
FE2D
0338
FFAA
FB61
FE55
0285
0331
00A5
FC3B
017D
00C9
FDE8
FEE5
018B
FF3E
0272
FF51
04DD
04AE
058A
0472
FEEC
03E7
FBBF
0482
02CB
014D
004D
FF41
0235
FB4C
F99D
00BF
FD3A
0399
FB71
00B2
00DD
028F
00F8
02F3
01AB
FA57
04CC
F9CD
FCB1
FAEA
FD24
06E4
FE04
032B
FFE9
05B8
FEA4
01C4
0434
0026
00EE
0126
031D
02E5
01C3
FFFE
00B7
FD79
FE60
FF90
00F8
004A
FDDA
016D
0132
FFE9
0304
FC6D
027F
010F
0097
03BC
FF9F
01A9
0172
FF10
FFFC
0020
022D
02E5
FFF6
0057
FFD7
FCDF
035E
FF89
01CF
FD5D
FFA0
02C6
04A9
0099
FC65
0081
FEAE
0784
0110
015F
FD4F
0248
0035
FEEB
00F2
00C0
FFD2
02AC
00C3
FEA5
00C1
0074
005E
FDA5
02CB
03B8
013F
0178
FE6C
FF9C
00DD
FCF8
0454
01B6
004F
FFA7
0046
00D9
00FD
FEEE
FFD4
023E
014D
FD1D
02AB
009C
02FE
F896
00C7
FF10
00AE
0069
FC20
FF0C
FCA7
014A
0303
001B
FDF2
FEFD
0207
01DE
FD80
FF1B
03F3
02FF
FF49
FF06
FDEB
FE6D
FFEC
FF1F
0011
0034
0174
008F
029E
FFCB
01C8
FC1E
0054
FDD3
01D9
FEE6
0024
FDCE
0158
0069
FD5D
0028
FF9F
01C7
FFC5
FF88
FF0A
0219
0156
FDA0
FEA2
FC5F
FF46
FB0A
01FB
0039
FEFF
FC55
FF34
0085
FFB3
FEC8
FF73
00FD
FE0D
034C
FDD6
FD9C
010D
FBE3
0016
0025
FECF
00B2
00DE
FFEF
FDD1
FF45
FEE4
FE54
02F5
FD65
FF11
FF21
FDBC
FE69
FF08
028A
FFC6
FD49
FE08
020C
FE21
024D
015B
FD4D
0001
FEEA
0164
037C
FEE8
01A3
006A
033F
001D
0095
FF70
0063
01C5
FFB9
FE33
FE5C
017E
FF40
FF94
FE93
FE22
010E
01E7
01BA
FF02
0131
FEA8
00F9
FE6B
0002
015D
00C4
0226
FD10
0052
01A9
0063
FEE3
FDB5
FD2F
FDA2
FF55
FE99
FFDD
0170
030B
FF65
007D
FF18
FDA9
FCC1
0461
FF39
FCDC
FF6E
FEED
FF85
FF94
FAC1
0204
FF3C
0300
00B5
FF0D
0314
FEC3
FEA1
FC2F
FDEC
0027
0229
0219
0322
FE38
0307
FF4F
01EC
FF5D
FF36
001E
0214
00B1
011D
FFEB
FD08
013F
01B4
FEDA
0231
03AD
FED0
FFDF
FE67
FC16
01AD
FF3F
0179
FEBD
0117
FDB1
FE5E
0051
0154
017F
FF40
01CD
0066
0085
03EC
021C
FE26
FDF2
FF07
0149
0090
FD9F
024B
FF67
0146
0008
FE0C
000A
035A
00EF
0083
008D
0171
FE48
04EB
FF1A
FF08
FAFE
00C6
029D
0157
010A
FDF0
FDE3
02F7
FF8A
019E
050E
FD16
01C6
00B9
FF17
FD42
0060
0063
FEAA
FE58
0414
FF28
0568
0275
028B
03D3
FF41
FC61
0287
FE3D
FDC9
0073
0124
FDA6
FDD1
00AC
01E7
017E
FCCB
007C
011B
0003
01B0
02E3
012D
00C5
FF54
025A
0456
0068
FFE1
FEB6
FF42
FD65
02DF
FEE5
FD81
FE8D
FBCA
01D0
FE72
FC3A
FDDF
FF21
FDFC
FE74
FFC5
00FA
00F8
FD58
0169
FF53
FF4C
00F0
FD42
0005
FD85
FE23
0469
FF85
0210
FE21
054E
FF51
FE87
02CC
FF51
FEDE
FE08
0190
0233
FFCD
00C5
FE20
FDB8
027B
010C
FFA0
FF3B
0038
0448
02CD
FE97
FFA7
FE55
0087
FE38
FE0A
001C
FEC1
0382
03A3
003F
FB09
FB80
FE7C
0113
FB75
0027
FCAB
FF1D
FE9D
0184
FD79
028E
0347
FF21
FFAB
00B0
0131
028E
05D3
FF82
01AE
01B9
FD7E
FF96
0178
FC16
00DD
FCD4
FD0D
FCF0
FF56
0096
FCF6
00C6
FF8F
FFFD
031D
FB76
004D
0287
02A3
034D
FF13
0619
FFCF
FFC3
FE43
FCCB
FEA3
06ED
03E1
0026
FE8B
FB4D
FDA2
FF48
FFCA
FF18
01F9
FB92
01FA
0247
0061
025F
01CE
00A8
01CF
035E
FF90
FD90
FBEF
013E
018B
015C
03B5
FE63
0333
0437
FD6C
FDD7
FEA7
01A5
0412
FC59
001B
011E
04E5
FD34
0286
0590
FE89
0352
0941
02F1
FF55
FB28
026E
02D4
00AA
043A
FE0D
FF71
0037
FAC7
0448
FF01
0000
03A0
F73E
00EF
04B4
01FC
FCA3
FC20
00B8
0104
FF0C
FB74
02E3
FF8F
FD17
FE19
FD49
075D
0238
0292
FA93
03E4
05FC
FD9E
F926
FC2B
FD0D
06F4
048A
FFAF
06E5
03F5
01FB
FFC5
FC9D
FFE9
FEE8
0400
FF2B
0353
048B
FEBF
FECE
FE04
03E2
FF94
FC23
0152
04B7
046C
00BD
0350
0852
FE63
00D3
FE7A
F97A
FDE4
FAFE
00B9
0297
FF08
033B
03D0
0323
04D6
FF24
0217
0617
F980
F75D
FE62
060B
0156
FEE5
FAFD
079E
001E
008E
FE31
FE17
FF9E
0262
FCC2
FBA2
FF68
FF46
FDD5
FF21
0429
FF19
02F7
FEDF
0000
FF57
FDAB
FF24
0118
042A
FDE7
FE21
F93C
0005
03DE
FD7E
0116
FFB9
02E1
0490
FFF2
02EA
0493
0177
0163
FD00
0417
FDA8
FEEB
0424
FEB1
004A
FC03
0165
FEC8
FDBE
06B2
010E
004B
FE6B
FEE7
025F
FF03
03C4
FFFB
0239
FEA1
0085
FDE9
0206
FF8B
00F3
FDD0
01F6
02B2
0056
0190
FB56
0163
FFEF
FFC7
05BE
018C
0490
FB75
0527
FDDC
FDB3
01DD
FE98
FFA7
0114
0622
012C
FEEF
F9C4
FFF4
0225
01E4
FF27
FE3F
0060
00AE
FFA2
0379
028B
0063
058B
0266
FC61
01AB
020A
FF70
FF2B
FFBD
01C0
FCA5
02D6
FDB7
03C3
00F8
0070
023C
00F0
0091
FCAE
0185
FF23
FBA4
020F
FD50
FDF4
FF86
FF95
FFBA
048B
021E
045D
FD7B
01B5
FDF7
FC87
F98D
03C0
0248
FC11
FEBF
FEAE
02EA
037D
0216
FD27
FFE4
0188
018E
FCF7
FC44
FD88
F967
0261
02C4
0282
FFD1
011A
FCF7
00F3
0134
03DB
0762
FEC2
FE23
0565
00D7
FE4F
FA48
0439
FF17
FAB0
0393
0421
FA41
FFAA
FE73
0304
FDC7
02A0
0298
FFA6
FF84
FFDD
0047
0337
FFC1
00D8
00FF
F93B
006E
02EA
004B
0368
FC2E
FB95
0072
03EE
04E4
FCD5
FE0B
013F
FE42
FC56
FE3C
00A0
FE31
007B
FAB0
FD24
FEAD
013D
02CF
FFC5
FCB0
FCEC
0112
0051
01DA
FFDB
00D6
0147
005D
02DF
FEB3
FF10
FD47
01E3
FF29
FFA3
FF7D
FFB5
FE57
02EB
FE9F
FF5C
0061
005E
0026
025D
00C6
0055
0100
00BD
015E
0187
00FB
FF05
FD23
FE51
0364
0128
FE2E
0489
FF1E
01A3
FC1E
0263
0191
004D
FD34
FC29
FD75
0146
00AB
01AA
035B
FCDC
FF4C
FFB5
FCAC
FB86
03C6
01B5
0059
F9CD
00A6
FF7F
FEBD
FCAB
0188
FD0A
FEDB
FEDC
0119
FE32
029E
FF4E
FF94
FF52
FC87
00C0
01F7
FD5D
0210
0022
FE72
FCD4
FFEE
0105
FDDA
00A6
021D
FDA5
000F
FF5E
014D
0226
FF98
FEA9
0067
FED4
FFD7
00D5
0146
FCA6
FF43
018D
026B
FFC6
FFF9
FFA7
01C1
FE36
FF66
FE10
00D1
01BA
FFD8
0153
0028
FE5D
FAC5
FF0A
FCDC
FFB8
FB3A
FE2F
014E
FD26
FBEE
FE90
00D6
FD00
03CA
FE2B
0034
0134
FF85
FEA9
FC9C
FE8C
006C
0152
FE4E
0168
FD54
0117
0178
FFFA
FCCD
FDEF
FFBF
FE5A
0150
0359
FED3
005C
FE25
FCA1
FF7C
FB71
0118
0195
0417
02C0
0122
FEED
FE47
012A
02F4
00D6
FC21
0037
FDA3
0202
FEC8
0074
FEA2
FEA6
FF61
00BE
020C
FE03
FF67
0151
FF93
03F2
FFCF
03A1
0085
FDB7
02CE
0066
FFF1
000A
FF7A
0081
FE60
FF00
0050
0532
021B
01E2
018C
FA80
0027
FF74
FEB7
FF23
0210
FED9
FE6F
F9D9
0115
FF15
FD5E
0124
0221
FEA3
02F6
FE6F
0166
0343
FE10
FEA6
FCF6
FFBF
FF4F
06BB
00BE
FF67
00E8
FF73
01E8
0265
0204
021A
FEDB
FE27
FBC4
0453
0023
FDB9
024B
0232
FBDC
00E2
014F
FF00
FF4A
FCC6
02C3
00B6
FF58
FF96
FC44
001E
016D
FFB6
02AF
FC92
0357
0288
FFD2
FE4B
FFE1
01B3
FEDD
FFDA
FF93
016F
0374
02D1
0297
FDAC
0071
FF58
FF5C
0334
FF98
048E
FE54
FE65
032C
FF6B
FD31
FE3B
000A
001E
FE99
FC23
002C
FCDB
03AC
015C
FF43
FDBE
0068
FC98
FD9F
0475
FF5E
FF5C
FC98
FE9D
0074
FCD5
05F1
0230
FD58
FF8F
FDD7
03A4
00EC
FFFD
0570
FD4F
FE67
FF01
0124
FFDB
F6ED
FC69
FD39
FEC0
F92B
FEE5
04C6
FB7F
FB6F
FCBD
0788
FF82
0276
FC21
0094
0042
FD54
FBAE
0053
FE5A
0483
0024
FE36
026F
0052
027C
020F
0030
01D0
021F
FF2F
0100
0152
0561
FF26
FE4C
FDFD
FB13
03A6
FB34
03B4
01E9
021B
0077
00D8
0365
FE0F
02F3
0221
FFA6
03EF
FFDE
FF10
006B
019C
03AB
001D
01D6
00FA
01B5
059D
0057
F973
FCD7
FF1A
043B
FF1F
018C
FC1B
02E9
FF78
FF7E
002D
FF29
01B3
0564
FD64
FE1F
0163
FF79
015A
FF61
0016
01D5
01AA
0019
0040
FF36
FBC1
003C
FE63
00D7
FDA1
0117
FCD2
053E
00BC
01AE
02AB
030A
FF70
00E6
FF33
0240
0531
FF1B
01BE
FD5C
01D5
00BD
0308
014F
01E2
FD27
FFFE
FDC4
FF4B
FF73
004C
01D9
007E
FC0B
01FF
0403
0089
0283
FE49
FE67
01AB
FE69
FCFE
FDAF
0087
0163
FF5F
0931
FFDD
003A
FEF3
01CB
01F9
FD13
FF24
FDA1
0318
FF21
FFD4
00BC
003E
FD3C
0467
FEAA
0047
FE89
FDE6
0051
0572
FDED
00D1
FE30
FDA5
003F
02CA
FF0F
FEAF
0332
016A
FE9D
025D
018F
FE55
0241
FCB6
FE06
01E9
FE58
0077
FDA8
01D5
0115
FE32
0276
004F
01E1
FE1A
02F9
0150
FE66
FE93
001D
0129
0018
FF49
FE5F
FEE9
FF3E
034B
FDCD
00E6
0198
FF36
FF32
FFC9
FEE3
FD56
001F
009C
FDB5
00F9
FE27
FF4C
FF7A
01C2
FF3C
FF88
FE9B
0088
012F
FC7D
FD12
FE76
FF77
00A3
00CF
00D1
0103
FF7D
FE90
FEA7
030C
02AD
FEFE
00AA
0242
FF06
014B
00CC
FFF4
FE8E
0059
0350
0092
FDD2
FF5D
00EB
00D7
FEF3
FF68
0111
00B4
FF77
FD74
017B
00AD
014C
0115
FF52
FF45
000F
0322
FE62
FDB9
FE8E
FF80
FFC1
FEC8
008B
00E2
FE51
01EA
01E3
FF33
0062
FD71
FBB0
FC7A
FEFD
FFC0
0081
002B
FF1A
011F
001A
FE93
0284
FE0A
FB89
FD71
01FA
FEDF
FF98
F656
01BB
FE55
FE17
0319
FE8C
0134
0017
FECA
017C
03F4
FFEB
FC0E
00A3
0055
FE8D
FED9
01DB
016E
0227
FF15
FE85
FFE6
FC51
00B2
0248
FE95
FCED
0209
0126
FD67
FF14
FE86
FE9C
FC95
028B
02AB
FF6F
007C
0454
FECC
0293
FF45
FE8A
FCF5
020E
FEF3
04B2
0483
FFE2
FF55
FCFB
FE83
FE29
01F6
FD87
0298
0267
02BF
024E
0075
02AE
FE27
000C
011E
FEC7
FF4C
0279
00FD
FFB9
F974
FD75
0196
028F
0126
FC8F
013A
0278
FFF4
01DF
FE53
FF71
03D0
FAF1
0008
02F6
003C
03DB
050E
FDA2
02F8
F7AC
048A
0192
FBC5
06E0
03DF
FC1F
FF4C
FD54
0662
FF97
05A7
0D4C
F5E9
FD82
FCBD
05C4
FCDA
FB8F
FCD9
FB7D
FF71
F707
005A
0183
FD24
F5D7
FE3C
06A3
00B5
001C
FA07
02E4
009A
F8B4
FC6C
01D2
FB02
06DE
045B
02F4
07BB
0595
FFAF
FF20
FB18
034D
021F
01D7
FF24
00F3
0808
001B
FDCF
FD17
FD3B
06BE
FC1C
060F
00ED
0103
0101
0383
0A24
FB3C
030D
FB24
F985
0018
F9A6
FE10
FB85
00DB
0667
05AC
FEF6
035C
056B
06BD
0019
F819
FC3F
046E
02FD
FFAB
FDAE
F848
03AB
FE30
0064
FBC5
F6AD
FE45
0976
F9D7
FBCB
FCF8
03CB
FEAC
FE92
FE9C
FFEC
02AB
FD42
00C8
FE80
0116
FEB2
017E
FF03
FFDC
FF24
FB3F
FF07
000B
FCE8
FE79
011C
FEB2
FFE7
FE75
0250
0461
0250
007A
FB15
FF05
00BA
FD53
FE2F
FFC8
04A6
FE85
FEED
01AF
002A
0150
0312
FF14
FC4A
FD2D
FFF6
026E
FCDA
FE09
0017
FF6C
FEB4
0558
017F
FE96
FD30
00E3
02BD
0095
00D9
FF47
02DB
0222
FEC6
FD9C
FDAA
FF2A
0109
021B
00DD
FF42
02D9
004E
0071
017A
FBDB
01F4
017C
000C
031D
0327
FF33
0163
03DE
02FE
01D9
0137
FE38
FCDF
FEEE
019E
FFB8
02D9
028D
0187
0315
0207
FFD8
FFFB
0236
0294
FFFD
FC80
019C
FDC8
02A8
01E9
FFEA
0000
0041
FE05
FBD0
FF63
FF42
FDC3
FD6C
FAFF
0244
049E
02A7
01DC
0174
0286
FCD8
FEE4
FF8F
0115
01C5
017D
001E
FF98
0053
F92A
FFCB
FA9D
0070
01B4
FFD7
0592
0318
FCCA
00FD
F98A
01ED
01F5
FED6
00FA
FD08
FEB0
FCA2
0227
02B7
023D
F9A5
FDA6
FE37
FE9E
FFDD
040A
FF89
FF0C
023D
022A
FEAF
FEED
FF14
005D
FC98
FE8B
00A4
FDFC
FEAF
FF19
FD1F
02DE
FE9E
0233
0045
FFC3
00F3
00B3
0277
FE62
FF4C
0159
00A4
019C
002A
FFA6
0011
00DE
FF0E
0043
0289
FED2
FFC4
FED1
FA92
FD84
01EE
FCB3
FD54
0257
0042
02A9
FF16
FEEB
F5C9
FE4B
FFEA
02E4
00AA
0088
01E1
FD5B
01C2
012B
FE8C
0104
FF72
0369
00DE
FE4A
0090
004E
FDFC
0233
FEFD
FCA6
FBB9
0143
FE85
00CA
FD6E
026C
FBB3
FD68
01E7
FE42
0131
FDF1
FE51
0068
FF81
FFA4
011A
01F1
008F
0056
FDC6
FDF0
01C2
02BA
003D
0333
FC15
FD00
0144
FF29
FEF6
FF61
0061
F99B
01D3
FF8F
FE24
FC29
FC12
0195
FE7B
003F
0192
FF2E
00D0
00CB
0222
FEB0
FFEE
FF3E
FD13
FE10
003B
FF6D
FB39
0066
FF8A
01B0
FFEE
03A7
FF82
FF91
FF3C
FEC5
FD5D
FF4D
0035
FD8F
FD15
FD90
FEAD
FFDC
017A
FF9E
032E
009A
03EF
03A1
0006
00D5
04FE
FC1E
FEBC
00E2
03CA
FDEE
FD0D
0194
FD0C
0276
01CE
0001
0346
0248
FE43
029D
FD41
FF22
FFF3
0004
0094
FF96
FC2D
0315
02EE
FE81
FC7A
0230
FE61
0008
FECD
00D7
FC0E
FF0D
032B
0387
041A
0196
FDE9
FC1E
FE30
FF07
01DC
FE52
0129
FFC9
036A
FE80
FCA9
FC6B
FF4D
FDEA
FF1E
040F
FF39
0027
FAF6
FEC9
0282
FCC9
0540
0067
FEA9
FF83
FBE0
0691
FC1D
0023
0232
028A
FF9C
0473
0452
03A8
0001
FD0D
FD4E
FE04
FFD8
00AE
FDF4
FF2F
0088
FDE0
FEB2
FDF3
FC88
FC68
05F0
0080
FE4E
FAB5
00AD
0015
0094
012A
FFF3
FF98
FF07
0019
FD04
FED0
FF1C
01B7
0289
FFDA
025A
FEA2
02BA
00B0
FFFF
FD71
0033
FFC4
024A
FCDD
FE1B
0000
008B
FFB6
00C5
009B
013F
0197
004D
FF1F
FEEF
FF53
FCFC
01C5
FFCE
008C
0133
FF2D
FE29
FFE0
0355
FF00
FE57
0233
0063
0224
0074
FDF9
014D
014A
FEBA
FD95
FF4C
FE5C
FD93
FEDD
018B
FFA2
FD81
0197
FE85
FD3B
0211
FD08
FF5E
FE6F
FF7F
FEE0
021F
FF3B
FE62
0160
FF7A
FF6A
0101
0042
FF67
FF26
FF63
01B4
001A
FF08
0280
01B1
00AB
0101
0145
FFD2
022F
0161
00FE
FF00
00AF
FE82
FE4D
015A
FDCC
0051
FDC1
FF7F
000D
FF7B
FE46
0056
FE17
0196
FE03
FD0A
0105
FF89
00E2
FDE9
018C
02EA
FF59
FE55
FD5C
FC8A
0178
FBB4
FEA2
005A
0003
02C1
0116
FCF8
00EB
FE5C
FE57
FE51
035D
003A
FEDC
FADE
0247
FFCA
004C
FF54
FFE1
01FD
FECA
0202
0070
02EC
007C
03F0
FFCC
0117
FCA5
00D5
FE94
0332
FFDD
01AF
FC17
03ED
FFA9
FE56
FFF4
FED0
0227
0197
FE6E
011C
00A9
FD5F
FEF5
FCA7
015D
FD1D
FFA6
FE24
0118
FDEF
0190
FE93
FE27
FD5C
00A1
0007
0036
0220
0181
FD8E
FF4F
FFF4
FD0C
FEB7
0008
FEF3
FFAF
01E6
0007
FD2F
00FD
01AF
009A
FDC6
0171
FF96
FECD
01DD
FE64
FB47
FD1E
FDD1
FF5C
FFD3
F7CE
005E
FC41
000D
0112
FE63
FF0D
029B
FF4E
0287
0031
FD10
FF9D
020A
00E7
FF4E
FD0A
015C
011F
01F3
FD40
FE86
017A
00E5
01D5
0024
FFDD
FD1D
FFA4
01ED
FD6D
FF61
FFDD
FDD0
005F
0079
0322
0303
FE04
051D
00B5
0037
FE76
00EF
FC1F
03A1
FF88
0403
FFCA
FF9E
010F
FD0A
01A4
FFEC
FF04
02D2
061C
03FF
0033
0261
0223
FEB5
FFCC
01D8
03F4
FF37
FFD8
FE7D
05A0
FEB9
F95D
FFA9
00D3
017F
0170
FEF7
024F
0329
0068
0070
FD65
00B7
031D
F952
FEE8
00AF
FE4A
01C7
0C3E
FC1E
0115
F92E
0428
0087
FCE9
0885
03E3
FC02
FE3C
FBF2
0D05
FC90
059A
0B6D
F31C
FA43
FD76
0404
FDCA
F94E
F8C0
FD4E
FC70
F696
00D9
00E5
FE34
F5EF
FA2E
08B6
0406
0283
F8CD
04F0
056A
F7D7
FCFD
0274
F78D
0499
04C3
006D
051F
05A6
FD02
FD55
FB64
04E1
0218
0203
FC37
03AE
081D
0057
FA96
FE11
03EC
0205
FF94
0754
FEE4
01FF
FF0B
066C
0AFF
FDBE
06A6
FECD
FAC4
05FA
F86B
02AA
FDDD
0046
07A2
01C4
FF8F
066C
02C0
0AEE
052A
F37B
F4F6
0167
0316
04F6
FC0B
F883
0891
FB6F
FD22
FBDC
F735
F895
068B
F92E
F7ED
FE53
FEC4
02E5
FE55
028B
01C1
FE33
034D
015B
FEB8
0059
00D4
FE3F
FF9C
FEA3
0025
0467
006F
F966
00B8
01DE
0AEF
FDF6
003E
01CE
01FE
FEF7
01A4
FDF3
FB8D
FEBC
FE7A
00C7
01C3
0151
FE25
000C
005C
00EF
021B
FF5A
FE88
01D1
031C
FE7B
FD8F
014B
FE44
FD40
FFD0
FEA8
01D8
0160
FFA2
004C
FD77
FE6E
015A
FECE
FFFC
FDD1
FFA5
031A
FF3D
0316
FD2E
0069
FBCF
00FA
FD8D
FE8E
0115
0208
FF8E
02AF
0258
0034
FFD2
FE03
035C
FF60
FCFF
FF7C
01AC
0079
FE2F
FFDC
FEBF
0532
01C7
FCF2
FC82
017C
FF94
0028
FE39
0156
FCAF
0161
FD15
0096
FF15
0191
FFB5
FE56
0040
FF36
FD7E
FEEE
FDBF
FECF
0047
FF2D
00C8
FE7B
01FE
FF4E
FF91
FB1B
0073
023D
FF7C
FF91
FE6A
FF50
0164
FE0E
0067
000B
FE95
0095
FDBD
01DB
016E
00CA
FEA0
FE5C
018B
FC43
FF10
FE7A
002B
04BD
FD42
FDAC
008D
0014
0137
0135
FEA6
014A
03ED
0308
FE92
035A
0144
0128
FFB9
FC7D
0379
FFE2
018D
036D
FC4B
FE7A
01D5
044F
0103
FE58
FFFE
FE50
00C1
051F
FFE3
FCB6
04C1
FE20
001E
024B
FD15
0032
00CD
FDB2
FF16
FD82
FDE2
01D6
00A9
0347
FD6C
FE36
FEF8
FDF9
FB95
FE85
FCFD
FDFF
0031
FCBF
FF6F
FE17
FF27
02A5
001F
0092
FFBE
FFD4
00B4
FE3B
0071
FD4D
FF54
0202
0154
FEF3
0276
FF3B
FFFB
FED5
00C7
FCD2
0641
FDC1
FE29
FD27
02A2
FEE9
FD11
FF2A
02A1
0076
FFB8
FE90
0000
FFA4
FEEE
FD03
FE16
FF90
0187
FFBE
00B0
FEAB
0154
01E8
03B7
FE55
FDEE
FFAD
00DA
FF62
0350
02BF
0092
01D4
FF14
00B4
00AA
006F
FEB4
002D
FF1E
0159
FDB7
00EC
FFCF
FC57
002B
FFE4
00B1
0104
01A8
01A5
FC0C
01C7
FF2C
FF2C
FF48
FD15
FDD7
0227
FD50
FEC0
0142
FF67
FFDB
0156
FF15
003F
FEEB
00A5
FFE5
0004
0061
FEE5
0229
02E3
0385
0148
0016
FE98
0266
00F1
FEAE
004B
0235
0066
01B5
FDC7
0041
0169
0122
FD2C
010F
002C
003B
000D
FDCA
0085
020B
FE79
FE75
04D3
010D
012E
FFD1
0207
016D
FB46
008B
03B2
00CE
FEFB
0265
01D3
0119
003E
041B
03AC
FC08
FF25
FF12
02D2
FD51
FD55
FED1
0177
0121
FF6A
FF07
000D
FE18
020B
0337
0236
FDAB
0117
0298
0285
0480
FCF1
FFE9
FE7C
FF59
FFF9
00EE
0173
0228
FFA7
FE10
FD1D
FFC6
006C
00C8
FE15
0276
FE28
FEFA
FEE2
044D
FF69
FD50
0195
0002
011A
FE70
FFDB
00EB
006A
0136
00D2
FF3A
FF11
0082
017C
00F9
FFE0
0173
FF11
004A
FDCD
FCFA
FDC8
FD1B
01B9
037E
FE4F
FD14
0235
FEB2
FECA
024F
0284
00FD
FD8E
0358
FDF7
00BC
00BD
FE82
0078
02F8
02A3
FD8A
FFFB
FFB7
0297
FFC1
FCBC
FDF3
0126
0163
00F2
FF32
0055
01BD
FF37
FEA5
0060
022E
FF5C
0304
FFFA
FEC8
0067
024B
FE5F
FFC4
FF8F
019E
FE1C
0161
FFA1
0026
FF55
FEBE
019A
00B0
0064
02D5
FEAA
FF51
0195
FDAF
FDFB
FD40
025A
0163
0096
FF8E
0115
0016
0067
FF8D
FF07
0196
FC9E
0225
01F4
FDA2
FD9B
FE7A
0056
0140
FF9E
FDC3
0064
FFFA
04ED
FDEB
0250
01E5
FE53
FEA2
FF06
FE0F
015D
01DA
01F5
FC5C
FF8F
0236
018E
0129
00DA
FE4F
FD60
0340
02B4
FDC7
03AA
FE42
0135
01D7
FFA2
FD40
FBCA
0187
00F4
FFC9
FEF5
0396
0308
01A1
FD4A
FE21
015C
017A
FF81
02DB
FF5A
FE25
FDE3
FF08
0156
0164
00E5
FFAD
FFAB
03BC
FDEA
FFB4
FBFA
FDAD
FFDA
FEC4
FFE9
0176
00B3
0109
FEF7
0032
03DB
00D3
FD5B
0254
0346
0095
FDC9
008D
FCC3
FE1B
02C2
0011
FCA1
0055
FED4
016D
02F4
0171
FEB5
FFD7
FACE
FF0D
0007
0183
FEDA
0358
019D
FD9B
0103
0279
FC5A
FF5B
FFC5
003C
FE82
FFC4
01B6
0171
FED8
FDE1
FF34
001F
FE59
018A
FC7D
FE1E
FC65
01E7
FF4F
FF99
FDD9
020C
015C
FF51
043D
027D
FEE6
FDA5
FF8B
FF61
0165
FF78
020A
FEAF
FD49
01B4
018D
0162
FE03
00C4
0142
0226
FEFC
FE3E
FE4C
FF9E
020A
0599
047F
029C
010A
FFE2
FAE5
0276
FE34
0018
01FD
FFF1
00E8
FFD2
FDC4
FEF7
FD70
016A
FFDC
FEFE
FF87
004D
FFEF
0032
FF7A
0043
0136
FDB0
FFCD
007F
0212
0031
00E0
FE56
0034
0315
FD9A
0615
FE74
00F0
F837
021A
FFD4
FF1E
FF0E
FA5F
FF43
FAD5
024B
00C1
FFCB
0092
0108
0254
00A9
FB47
FDAF
0371
FFE9
FEAA
FDBF
0114
FF2D
02A7
FD3C
FD6B
020A
FD1C
FF4C
FE39
FFF0
FE9C
FCF8
00F6
FED0
FEF5
0103
FE52
FD60
03C6
FF21
FED5
0280
008C
013C
0358
FD9C
FE6C
FFE0
FFB5
FD35
FED5
FF15
00D1
008E
0071
051A
0143
FE7E
FF24
FCE8
000F
02DB
FEB0
0130
0204
FF4E
0118
0008
029B
0217
FADE
FE7D
00D3
FF29
FE5E
FDFD
FDAB
0125
FE51
FFDA
02E8
FFD5
FEB5
FF3B
0095
0316
FE15
FF70
020E
FFB8
04EB
FE8D
01E7
02BA
01BC
0019
018A
0189
FF6F
0390
FECA
0255
FF91
042A
FE4F
FE51
FFB7
FE46
FE1B
FE79
FE33
03BD
FD5C
FFE9
03E8
0106
FC7E
FF0B
FF5E
02D5
FCA0
02DF
01C4
014D
FECA
0107
00AF
FF0D
FFB1
00BB
FE53
0268
0147
FEEB
FFC6
FE13
FE40
01FE
00D7
00AA
FF36
FFE4
0042
FFCF
0081
01C6
FF4D
FDAA
FF18
01CF
FF55
014E
0070
000D
FFA8
FD9F
FDE2
FCB5
FDC2
FF30
02D7
0011
0078
FF12
015F
FE47
FF98
FD84
FEF9
FCD4
02CB
014C
0069
FDDB
FFBF
FF0F
00FF
FB1D
006D
0161
002A
FF8A
0179
FE37
FF36
023E
0314
FDA5
FD5F
0078
006A
FD08
013F
FD49
00D0
0152
FDB0
FFA9
FEBC
FF40
FD70
FF30
0096
01A3
FF48
FDE5
0138
FE9C
FF81
FF27
000E
FEA8
FDE9
0232
FEA1
0145
0138
0144
FD67
006F
0281
00E0
0011
FD1C
0361
FE7B
0424
00E5
FF17
FE15
FE75
FE70
015F
FF7E
FECF
0116
0276
007D
FFB2
007D
0257
FC7D
FEC1
025F
FDB3
FF86
02F9
FF9F
FEEA
FF4B
FF9C
0367
022F
FE7B
FFFC
FF5E
FC57
FDAB
FF81
019A
0009
FFD5
FFDE
01ED
FC2D
FC36
02AA
00C3
FD63
FF25
021B
01DD
010C
FEEB
0234
0071
00EB
FE72
000F
FF64
FE12
02A3
02B2
FF7C
FDF6
0162
01FD
FE11
FE9C
FEDA
FBB4
03AB
0037
FF25
FE14
0148
FF2E
FFB2
FF1F
FCA3
FF1C
0088
FF23
FFB8
017A
FEBF
FF06
026A
FEA6
01CF
FC90
FFF8
033D
0208
FCCE
0251
FF75
028A
FCB2
0003
0259
00F5
FE7A
FEB6
FEEC
FFE0
FDA4
02DE
FF25
FF7D
FFF8
FEEE
0081
006A
01C7
FDFF
0061
00A1
01BE
0064
FDFB
FF7D
FE0A
FEFE
010B
FECF
01FE
0024
FED5
FEB5
FE4E
0187
00D8
001A
FD87
FE7B
005B
0135
0086
FE35
0162
FD18
FF4A
FF8B
0126
0024
FF73
FFA9
0118
0127
0275
000A
FF1F
FFAE
FEAC
FDC8
FFB8
FD88
FF58
FF75
00BE
FD18
028A
FE68
FDED
033C
0059
028B
002D
FFCE
FE47
FE7D
0156
010F
00D6
00D7
01EF
FC62
029E
014F
FE91
FEB4
004B
FEFE
FFB4
FEB7
FE99
0276
FF08
FF51
FF57
FFAA
FEDB
0054
FE17
010E
003B
FF00
FE39
0147
FF10
FF07
FF8D
FCFD
FDEF
FED0
012E
00C2
0025
FF03
00B7
FFF3
0213
00A8
00BE
FDFC
FF20
0008
FFEB
FE32
FF14
00C1
007B
FDD4
016C
FE96
0091
0184
0138
FFA5
01D6
0296
FF25
018A
FFA0
FF31
FFA0
016C
02F8
018F
00E4
01ED
FF4F
FFEE
FE41
0051
FF1E
0105
00DD
FEE5
015C
FE55
017F
FE9D
FF6D
016E
FF8C
012F
FD97
0214
FDCF
0227
FDD1
FEBF
FF0D
FDEC
00A4
00F7
FDBC
0257
01B4
FE6B
FF1D
FE96
FF19
0048
0116
0183
0013
FE40
FF33
FE00
0028
FDD2
FEA2
FECB
FDB7
009F
00AF
FF1D
0306
FEB3
0066
02BC
00A4
033F
FF14
FFBE
0008
FFB1
006F
014B
009F
0089
FF05
010B
FF76
018B
FEF7
005D
01F6
00DA
FDB1
0388
FE24
FDA3
0217
FDAD
0031
011A
0170
FFC0
00C2
FFE3
0013
FDDC
FE10
040D
FF04
00E1
005C
04AC
007D
FE21
FC1E
003B
00DD
0121
FFBE
FF4B
FDF2
FD6F
FF22
FD21
FE30
FFCE
FCED
0061
FE0F
FF32
02BD
FED0
FC9F
FFAF
FEA6
FFD7
026A
FF1E
FE9B
FED8
FF7E
012B
FE3E
FE7A
FDDF
003A
01BF
0149
FDD4
FFDA
02E6
0236
0320
FF5A
0034
01E0
FB73
0127
FFA8
0272
0079
00CB
FEC7
030B
012A
0047
0178
FE80
FF47
FF0E
023B
FEE8
FF7C
015A
0034
0125
FEA4
FF5F
FE0D
001C
FF8C
FD2C
FF1A
FEED
0287
00B7
003C
FED2
015C
0142
FBD2
0271
FF03
006D
0037
FFD2
013C
01DC
FD66
0257
0283
FE36
FF4B
FD57
FFAB
FF1F
FEA6
FE79
00E5
019D
00DF
FE77
040A
0084
FDA2
0288
FF9B
0132
0112
FFC1
00FB
FFC8
001E
001F
FDEF
00F0
00A2
01BC
0204
00BC
FEA4
FED6
FE54
FFA1
0025
0223
0145
023D
00E6
FE3E
FCDB
0277
0176
02A7
0152
FC92
FF47
0096
006A
FE79
021C
FE2B
FE38
FF7B
0331
FE5F
FD39
00F5
FEDC
FF62
0339
FFFF
004F
FEA5
FDBC
041B
FCE5
FEA3
0251
00B7
FD6E
00E8
FFF2
FE09
FF04
012B
0125
010C
00E7
FEB2
FE3D
FE56
029D
00FF
FFE9
0056
FD7E
FCC7
FF06
0142
FDEB
FCCF
FEC4
FF70
FF4B
0114
01B6
FFBB
FBBA
0031
0342
FF87
0317
02A3
FFF7
FEDD
FFEE
0060
0069
FD84
FECE
034F
040C
FF8E
FF36
0366
0013
011B
FE01
FF5C
FD48
0137
FDD9
FC96
01A6
02B6
FF6C
02AB
023E
0041
00E6
FEDF
FFC7
00DA
0240
FFE4
0337
01CB
0104
FC4F
008C
016B
FE56
02EC
0036
03AD
FEBB
01D0
003E
FBDB
024E
FC65
03C4
FFA2
FBF7
FEEF
F948
FE17
FDE6
03CF
FE97
FFA0
FFBC
0088
FED0
FD9D
0004
0005
003D
0006
FF2D
FFBC
0146
FDBD
015A
FFCA
0193
FD56
0024
0180
FDBC
009A
FBCB
FF29
0065
FFF4
00A0
FD8F
02E5
FDE4
FC77
FD88
00D5
0139
0255
FEE6
0109
048C
FB8A
0530
0350
FBB6
FE21
FB53
FF6C
FEDD
061E
0510
FCE5
03A0
030B
035C
FFF9
FBF7
FFF7
FA42
FF09
FD4E
0588
02E8
FECC
F864
031D
0416
009A
FEDE
FE60
0482
FB07
FBA5
01BD
FF03
FCE7
0413
0515
03BC
0569
015C
0004
0169
FB25
02DC
0360
0305
FDA9
FFC2
068A
FBF4
FB42
00ED
FBD3
0318
FC2D
0054
0072
FE9C
FF39
012B
041E
FA1B
03F1
FBC4
FD1A
FE79
FD66
FFDD
FD69
0395
041F
0483
007E
0144
033A
0092
0082
FF49
FDEB
01C4
0083
FDFD
FFE4
FB51
FFC9
FCD6
00CB
FFD9
FA54
02DF
FFF8
FDCD
018D
0012
0306
032B
FDDE
FC6B
0274
00EA
FE71
0001
0033
0051
FE54
FEF5
033F
FE2F
0336
FDE0
020C
0379
FCA3
FECB
FE8E
03E2
00B7
003C
FF58
00DE
FE8D
FF9B
02B3
FFCF
FEAB
FF57
FDE9
FEF3
051F
02EE
01FE
FC3D
0206
0126
FE4B
FFAA
FC36
00ED
044E
FFD3
FF31
02A8
0200
0182
0101
00CF
FE62
FF09
FF5B
0348
FF68
FF54
FF9F
FDB9
00E2
03AB
00F0
FF2F
0081
02FF
06D3
FDA3
03C3
0113
FC7B
FF7F
0046
FECF
FE37
FD15
00E2
FE36
FD29
010C
00F6
FE87
03F0
024F
01A0
016F
02A2
0240
FDF7
FC50
FFB0
FEFE
FD35
FCF3
FFB8
011B
00DF
011F
0197
FEF3
FF70
00FF
0553
03D7
0101
019C
FF22
0170
01BB
FE5B
013A
0146
0060
013A
FCB3
F9F9
0208
058B
014A
FDC5
045A
05CD
FE37
0153
FD1C
029D
FDD9
FEA5
0112
0029
FDB9
FC1E
FE33
FE07
FD45
FF81
FDC5
0719
0396
FFAB
FF61
F77F
00D8
04DB
FEC8
FE67
0172
FF0F
FFD4
FE30
FFBC
0158
0045
FB29
02BC
0074
FE64
00C5
FB83
FD94
FDF0
FF8A
033B
FD93
FD68
005F
FB42
01D2
FF70
0088
0122
FBF8
01DF
03E5
FA58
0308
FF65
FD69
FE78
FF84
FF96
FE42
0037
FD98
FF67
FFCA
FDC6
FF23
027C
01EF
028A
FF96
0378
FE67
00C2
FC54
FED2
FE52
020F
FCE2
00C3
FE44
FFEC
FD7F
FFDA
01CE
00E8
0034
0108
FF42
FD0A
FFBE
FF6D
FF87
FD88
008D
FF3C
011E
FD4D
FF86
FD8D
FE2C
FCD7
FD07
FDB6
FE8D
FF2A
003E
05C4
FFA1
FDD4
0041
FCA5
FE3B
FDB8
FF58
01BC
FD29
034A
0180
0160
01C3
FDC4
FC65
0060
FFFB
FEE5
FEE8
FDC7
FE27
01BF
FF17
FEC0
03D2
FD9A
02BA
FF40
0120
FD2D
FDE8
0293
0266
FD8C
FFF5
FE92
FA6D
022B
0061
0044
0135
FDD6
FD9C
01DF
004A
00CD
FE8B
FE93
FC0C
010F
012E
FF13
0069
FEB9
FE22
FEF1
FF76
0070
FDEF
027E
FF62
002C
FC41
FED1
0004
0208
FCF2
01FF
FFAB
00B7
FFFD
0031
FBEF
01F3
FF1A
02DC
01B8
FAE8
0187
06AB
FA4D
01CA
012E
FD0D
00D0
021E
0171
FED3
0381
FEC8
0208
00DD
FF25
FD5D
0288
0032
FEAB
01C9
FF94
FD06
0278
FEF0
01E5
FF1C
F9A6
0053
016E
FF43
02E1
004E
008C
FFB8
FF68
02EF
01F4
FE40
FFCF
FBAB
FFA2
FFF9
00BA
010A
FD1A
0122
FE7D
FEAD
FA97
FC33
FFF1
FB85
0121
0064
FE7C
FE15
FEBD
00F4
FE46
FF20
FFFB
0390
FF75
FF53
010F
FDE0
01C4
FAF6
0290
FD6A
03DE
037B
00D5
FE17
0527
FD48
00E2
0223
03FE
FEAF
FFBE
FF08
FDB0
FDFF
FD47
0243
FEF0
FCC0
03B7
008B
0340
FF09
FEA4
FE61
FDD0
0090
FE80
0567
FE3E
FF55
FF62
FEE4
FE6E
01D4
FF43
00C5
0125
0339
FE7F
0077
0052
FE0F
FF1A
02BC
FF45
016D
FF08
003F
009D
02BE
FB26
FDDA
0047
FF7E
0241
FEB8
0068
FBCB
0352
FFEF
00DB
0294
0015
01BD
00A1
FD03
01F0
0289
FE05
0275
FF37
03DB
FE92
0267
FFDB
00BA
FD38
FEB1
025C
FEDB
FE26
01BB
0267
FEF1
01DF
FC96
FE76
FB3C
FF43
FE25
0134
FFE2
0252
010F
FFC4
0175
00F0
0193
FC58
FE9A
018A
FDE8
0115
FD37
FD0E
0084
00CF
00C7
FDAC
00E2
03D8
FD66
FFC8
FCAA
FF33
0261
00C6
02D3
015E
002D
00FD
FE88
02C9
008A
FFDE
03F1
FE93
FF03
FFD8
015C
02CA
00D0
FFBA
FC99
FE6E
FF0F
0006
FF8F
FF1D
01D2
045A
FFAE
FEFD
02EA
0237
FE80
FDF5
FE99
0043
03DA
FF05
FE4A
FFB6
FF79
00BA
FCE2
FFC2
009F
0281
FCBD
FFFB
0297
FF84
FEEC
0214
00EA
041A
0253
02D6
FE65
0055
FFF9
0163
01F6
0067
FF19
FD24
0007
FEDE
FDEB
01C1
FE58
0083
FDF8
0013
026D
027E
FFF2
01FA
FFB2
FF3C
0287
FC92
FF4A
FBE0
FFC9
FF7A
FE30
01F8
000A
0236
FE01
FD72
FFC7
FCC1
00AF
FFD7
00B1
02C8
FFC0
FC2F
0206
FEEA
FD4B
0214
04B9
00F9
FDDB
0071
FEA0
FE56
02AD
00A9
FCFD
02D4
0432
FFE3
081F
0107
036C
01FB
FEE1
FF2C
FB7C
FF6B
FF80
FCA5
FFA9
FEBC
02A5
0095
FDFF
FFB6
0136
0013
018E
FA73
0229
00FE
FF7D
FDF8
024C
FE9E
008A
03AF
FA86
FEA0
FEBB
0225
FF18
FFED
0116
FF79
0188
FDD0
FBBB
FD72
00F9
FEA0
FC40
FD89
FE86
FFB2
FECA
0194
0233
FB77
041B
0195
FF75
FF42
0090
0075
FF97
00CB
FDB8
016B
01B2
0065
01E1
0106
034B
0239
00D6
0397
01D2
FE9A
FFB9
FD07
FF41
FBF1
01BF
FDE4
0139
00A3
0078
F943
0073
01C9
FF23
FF7E
00C9
FC0C
FB9A
FFEB
0008
0161
0424
0262
FE86
037C
FF62
FF90
02B3
FCA7
047E
FC45
03AF
FF29
024A
0223
049F
FE43
FFA4
00BF
00EB
FB85
0096
F91D
FF53
FE4D
FCC8
02AB
03B7
013A
FD0D
FEA9
F94A
FF61
035C
0435
0136
FEE0
01CD
FC70
03F1
FCC3
FEBD
034B
FF93
FDF6
00E7
0091
FAF2
FD46
000C
0472
FF55
0084
FECB
0094
FA7B
017C
0794
00F6
FCC4
FDF2
0228
01AB
FEAA
04AA
FEB9
01F3
FE2F
0428
008F
0037
FC9C
0422
007E
FD27
037A
0322
0023
0334
FC82
FFA5
FDE2
007A
044D
FB2F
FDA8
0227
034E
FE59
FD8C
FCE3
FDA0
FF34
FF2C
0257
FB24
FFDE
0012
FDB5
0012
FE6F
F9B5
FA1D
FC71
FDA3
FD56
FA02
026F
FFA7
FEB7
FD0F
FF32
FE8D
0156
FFBE
FE64
FEC8
0256
01D9
0066
0181
FE56
FF44
0069
FC8D
FD07
FFCE
02E5
FE77
0177
FDCC
001E
FD7E
FCA4
0181
0269
0033
0105
FE01
FFEA
FFF5
FFA1
FF7E
FF8E
FC39
FFDA
028D
01EC
004C
FF86
0245
FF30
FF9F
0326
010F
FF85
0050
FC60
FCF7
FFF2
FF0C
FF0D
0314
0160
FEFF
FDAC
FEB9
FED3
00D3
FFFA
FDC7
FCA1
FFB5
01BA
FDC5
FC4F
0095
0029
FD67
0059
0132
FF36
00B1
FF56
0052
00CC
FC0C
0280
FFF7
FFDB
02DB
FEAA
01B2
FCCD
FE0E
014C
FF31
FDEA
FF4B
009E
012B
0010
014E
FF6D
01A1
FEC0
FF97
FF41
02A0
FEE8
00BC
FD82
FFE2
0187
02D3
FD88
02B2
FFA9
0036
FFC7
010E
003C
0170
013D
004A
FED7
0019
FC9F
FAEF
FEC7
FC6F
00F6
FFF9
000F
008C
001F
FDEB
00E3
021E
FE74
035F
01CE
009E
FDEC
FBC9
01F2
FFF9
FF2A
0226
0104
0119
0002
0166
00F5
FF79
00BE
00E6
0062
FEB9
FFC3
0099
FFA5
014E
0151
FCAA
FDC8
0338
001E
FFBD
FF8A
018D
0085
FE9B
00C2
01D2
0030
0190
FE56
FFF5
004C
FD7D
0039
013B
FFD8
0238
01F6
FF56
FF30
0182
0292
FEC1
FFF1
FD3E
041A
FF24
0121
004D
FFB2
0191
0272
00B7
FE42
00E6
013C
00FE
0189
0197
0179
FFCB
FE6A
00CF
FE63
FD6E
00CF
01AB
FD46
00C2
FFF7
FEFE
FF06
0187
FDB1
FFC6
FDC2
0107
FECB
00FA
FF16
FC93
FCF3
FC5F
0180
FE2B
FE57
FB80
0023
FDDD
FDCB
FE63
0193
FCA7
FDBC
FFFD
01F7
FD71
0207
FF41
002F
FF2F
FE0B
FDD2
01CC
0001
0161
005D
02C3
FEFA
FD60
FEA4
00B0
0263
FF5C
FF32
FCD8
00E0
FEC1
FFF9
04BC
FD97
FD86
006D
01A6
FC1B
0024
035A
0106
FDEC
FEAE
FF4A
001B
01E6
FF82
FDC4
FDB6
FCD2
FE07
FCBC
FF53
02FE
0034
01E9
008A
0231
FFFC
FEE5
FFDB
FE34
FC9E
FC6A
0373
FE2E
01BD
FE7D
0218
01B3
010A
02FA
FF2B
FFB0
FFD3
0025
01CB
FEB1
FC64
FFD1
0240
FFEA
0095
FFD7
01F1
FECA
0189
0125
019F
0144
FDB4
0126
FE52
FE2D
FF03
FED9
FCB2
FD8F
01E2
0113
FF71
FE8E
FE8D
005C
0201
FECE
0107
FE63
00D3
FE60
0294
003C
0191
0275
0203
02E9
FE27
0089
FEC9
0177
FF85
00D5
001A
FDC0
007D
FF64
022D
0111
FC3F
01BE
006B
006C
FE1E
00C8
0060
023D
010F
000D
0101
0076
0083
013A
FED5
FFBE
FFC0
FE94
FF22
0306
FF68
009E
0115
0250
FFF4
00E7
FE3C
FEE0
002A
02C4
0147
FF7F
00F8
002F
0009
FE56
FF13
FD70
FE7A
0225
0056
015C
0184
FF98
FCC9
03CA
FE4B
FF2B
FBB6
FF55
FF05
FD22
01C2
FE8F
FCB0
FE72
F820
0026
FF7D
FF7D
FF21
00C9
FCE1
019F
01C6
0032
00C1
FD9E
06FE
009A
FD4A
FF50
FF18
FFCA
FF7E
FF0D
FFE2
01E6
FD2F
FDB3
012C
FE32
001A
FFCD
FEAF
00E2
FFD0
01F8
FF70
FC50
FE1C
01F2
FEB7
FCA7
FC23
0119
FE37
0010
01FB
FB99
0088
FC42
FE59
0250
00D6
0413
FD5D
FF04
FF35
FE4F
0272
00B9
0019
0344
0131
019F
034D
011B
02D3
FD21
00C8
FDF4
FFD8
FDF6
00D1
FF8B
FFF9
005C
FECE
FDA6
002B
00B1
FEB5
FD60
FDAC
FF32
028A
FED6
0418
FCEA
FF29
FE6F
FCBC
03E0
0425
FEBD
005F
FC7B
020D
02B5
FDC9
03F0
03A0
FD02
FD9B
FE91
0266
FF2F
FEBA
0062
FF8F
016F
FEEE
0412
00A2
0157
FD1B
00FB
FE0E
FEF1
038E
00D1
FF61
01DC
006F
FF36
0316
FDDE
FFD6
02A8
0177
016B
FECC
0203
FE16
013D
0244
03D1
0131
0179
006B
0008
FA40
017E
00A3
FFD2
0079
01B7
0258
FEED
F9DB
FAD2
FF4C
02A0
FCBA
000F
0608
FEDF
FE44
00AB
00A1
FE49
0393
FEE7
FE17
FC08
FDCA
0088
0041
034E
028F
05A3
01BC
02AA
0292
FF2A
006D
00A2
FF70
01A2
011F
0190
FDF6
FFA4
002D
FC47
FFF9
FBB2
FF4D
0151
0069
FEAF
0161
FE17
FD90
0239
0067
01C5
01A5
FE5C
0225
FEFE
FC28
FECE
FDB1
FF4C
006E
01AB
012E
0106
FCA3
02D0
00A2
FFE0
00E4
FD17
FF80
FC46
0265
FD11
FDA8
0050
FF5F
FE51
FFFC
015D
012A
FBF9
FCCC
0058
0044
0123
FEC2
FF61
013D
0157
0147
0078
FEE8
FF57
0097
010B
01A6
029A
FE8D
FF8E
FD91
0277
032D
FF7C
FF5F
FFB2
FCFC
00E9
0079
FDE9
FE71
0213
005F
000C
FFF0
01C5
FE18
FD85
00FE
0007
FFEF
FFFB
014C
0170
FFA7
0163
FEA7
0110
FDB6
FFEA
FEB4
0170
00D1
00EA
FED1
0115
FF05
FEB3
FEED
FC31
01E0
0241
0072
FF23
00BE
0050
0074
0344
FD70
FE69
FE3F
FD17
01AF
0167
01D7
0152
FDE4
FF2C
FD96
0199
00D5
FF3E
02B5
01DA
FEA3
FE5C
FF38
01DA
013F
FF3D
FEB4
00DD
0184
00EA
035C
0127
FFF4
FD85
0197
FE71
FFEB
FE01
FF39
FFDA
00F1
FEDF
02B9
00A3
FF89
02C6
00B3
000C
FE9F
00BD
FDC2
0164
FDFE
0369
02F8
02D2
FCA1
0058
0036
01FF
00E7
FF93
016E
0096
031C
FDF0
FE02
FD03
FE24
0160
FEED
FED4
0062
00C7
FF4B
0158
000E
FDBF
FE94
FDCC
FFC7
FF21
00AA
FFCA
00D1
FCBB
0072
009A
FFE5
03BA
FF07
011D
FE22
FE3C
00DD
FD39
FF41
FE24
FEDF
FF1F
FE9E
FFE4
00E4
FEBA
FF60
FCDB
FE81
0027
FF06
FE79
01B7
014B
01FC
FDEC
FF2D
02AD
FE58
FDD6
FEFD
FECF
FC32
0255
00BA
0130
02EE
FC05
018D
FDDE
0005
0142
FD73
FE7C
01EE
0217
0137
0181
01C7
0084
FFA2
FF76
0381
0138
00B2
0299
02F9
FCE4
FDDB
FEBA
FFFC
FD9F
FBE0
FF14
00F7
002C
FEE3
004B
FE04
0187
0294
FD6D
024C
FE88
FE51
FD30
01A1
006E
FDAE
0022
FE2B
01CE
FBC5
0087
009E
0061
FF7B
FE37
0038
FFF7
01A8
FF32
FFD5
FF25
00B8
011F
00EB
FD74
011C
02F3
FE5C
FE40
FFEF
0013
FF1F
FFBC
FD9A
FB9C
0136
02DB
0201
FFDE
006B
FC51
025D
0116
01DF
FE43
0066
FE02
FFBC
FF7C
FF01
0182
FEB7
02C6
01FE
FE0C
0036
FDB5
0340
FE48
FF47
017E
00B8
FE58
FF21
FF88
009B
0110
00F1
FC76
FFD8
0507
FCFC
FFFC
020C
FFEF
034C
0156
FD68
00AA
FE3A
FE04
FFC7
FC82
FEA4
FE28
015B
FDF3
FFF1
022E
FDBB
00B9
015B
FFB9
02B1
02A6
FD97
025D
FEFD
FDEC
0263
0017
FEFC
0050
FFA0
02B1
FFBF
FD61
025C
FF5E
00EA
01A7
0263
03F0
FE6E
0185
FD99
00B0
0303
FF25
0066
FEE3
FCF4
0035
02A8
03BA
03E9
FE55
FDA9
FE12
0438
021D
FF65
00CF
FF3A
FC87
FD7E
FD25
FFB7
FB59
FF9F
FDD8
019A
FE66
FE44
FF59
FEC2
FF1B
0313
0146
FCD4
FEB2
FF22
FEFA
FFC6
FF9E
030F
010F
FDD8
FDF0
FD04
0100
FF62
0181
0225
009B
01DB
FE66
01B7
009A
02D9
FBA6
FEDF
0009
FE85
01FA
01E4
FFCE
FCD5
00E8
0250
01E8
01DF
00A7
0253
03E2
FF19
033F
02CD
FF74
FF76
FF4A
0500
01AD
FEC8
FE9F
FF71
FE84
000D
0163
FF8E
FD15
03C7
FF68
FE88
003B
FE3E
0282
FB87
FF5B
FF21
FF84
017A
03AB
FFC3
033D
FFEF
007A
00CB
FA17
FF44
028B
FF74
FDDE
FDFB
FCE7
01BE
02AB
FEC5
FE90
0007
031C
FC73
FFC6
0186
FEAC
014D
00B5
01DD
FF97
0297
FFB8
002E
00AC
00CB
0082
012B
002A
0024
0137
026D
FF2E
FE94
0088
FD1D
00BB
FD88
FEAC
00B5
019C
0228
02B6
FF77
FE97
01B7
FEC7
FFF4
FE91
FFE7
FDC9
0086
0011
00A4
0128
031C
FF38
FFA2
026E
FE04
0253
FD63
FE3E
0063
FE64
FF6C
01A7
0001
FFFB
FF8F
FF7D
010D
FEDA
0154
FE7E
FE72
023B
FF53
FF9C
00DC
FF88
01D8
00C6
FCC6
026D
FFA3
0163
0334
FDB7
00CA
002C
01E2
FE9D
FE57
0174
00E2
FB78
FFD8
00E8
FF83
FCFE
FF1B
FFC6
FF2E
00E3
FD59
FFDB
01CE
0067
FED2
00F8
0313
FF58
0305
002A
FFC0
0094
03A1
0199
FF42
008D
FFD7
0042
0038
0109
FEDE
FCF9
FF39
012E
0247
FF46
001F
FD9F
FE82
FC96
0098
0012
0119
00D0
031B
FE7C
FF6F
01E3
0001
00F0
026B
FF8A
00D7
01AD
012C
00D0
0334
FE20
FEE8
FE9A
FFBA
0183
00FD
02B3
01E9
021B
011F
03B8
FEE3
FD65
FF16
FFB8
FEBE
0079
020D
0267
0181
FE23
0321
0061
01F5
0042
012C
FFC3
FEE5
01CB
FE8C
015B
044B
0233
02F1
0072
FD8C
010C
FF10
FE37
FE8A
FEBE
FE62
FF44
00F3
0375
00FA
016D
011D
FF1A
023E
FFA0
0191
FF4C
FF12
FF69
0264
FE88
FFE2
FEA3
0224
0348
FCC0
0086
0255
008D
018F
FEA2
0021
00A3
0076
0069
FFD7
0497
FD45
FE09
0137
FFD3
FF5F
0260
FECE
FF0A
FF80
00FE
FD09
008A
005B
FF0A
01AE
FFD1
01F6
048E
0209
FEEE
02E6
01BC
00B8
FD19
FDAA
01B9
02A2
010D
FEC0
FFAE
01C2
FC20
FFAD
FCDC
0020
0270
FCA8
FFE6
01AD
FE74
013C
FEEA
02E8
0178
02BE
0328
FFAF
019A
0019
0129
049E
0218
FDB8
FF95
FF3F
FF5E
0034
01D6
FF59
0230
0184
FF3F
FF84
FD07
FEF3
0174
0174
FFDD
02DB
FEF0
FD7F
FC19
FD93
0225
FF32
02F0
0038
FEF9
FE39
FF33
FF7F
FEFA
FEFD
009B
0267
035F
00FC
FEB9
02D0
00F0
FE6F
FED5
03DF
010A
FF6A
FEEB
FE44
FCA8
034A
FE08
FF58
FE2E
011D
006E
0027
FE97
FC94
FEC6
01DA
FFB8
0086
021B
FF77
FD16
02CA
FF25
FF29
0359
0127
01D7
FD7E
0036
FFB7
FEBB
0379
FC50
FD90
FE4C
FB4B
FFC7
FFE9
FECC
FFD6
00B9
FE91
FFA7
FFF5
0049
FE42
010E
0461
0203
FF1F
FF2B
00DB
0246
002F
FEAD
FFE6
FC9D
023F
FF9A
000A
FC41
0414
FCC8
0081
FEE9
FD0F
FC56
0401
011F
FD6F
FF84
F9F0
FF10
FF70
0334
00C0
00CB
FDF0
0000
03BA
009F
02D1
FAD7
FF96
025D
FF2E
FDF5
FF09
000F
0070
0206
FF70
FE86
FFFF
02F2
01D4
FECF
009C
FFF1
FEDE
0209
0369
016A
FDF4
FEA7
025B
009E
0483
0106
046F
FD01
026E
FF13
0092
0775
FD46
FFEC
02B1
FC4E
0491
FBF7
0134
0327
FD0B
0287
03E6
00CC
FF7B
FE56
0155
FDA0
02F5
FC41
02AB
FEA9
FB59
F9FF
01C7
0387
02DC
02C8
FE26
01C4
01A1
FE97
FCC6
FC24
FECC
FF1F
023B
FFA0
02F8
01A7
0096
02AB
FF36
001F
FFDB
06AD
018A
028D
02BC
FCDC
01EC
F5F9
FA7E
0053
FAD8
0565
0416
FDE4
01B8
013D
04B7
FED2
0431
005D
FD20
FDC0
FCDC
0072
0202
FC02
0292
02A5
FD17
02B2
0154
027E
05E8
F9C2
FC4D
FBF0
0480
FF2B
00CE
FE5C
007C
FCA2
036B
FDB5
FFB5
FE02
056A
FB79
0184
01C8
FFA6
011F
FE85
FE51
FCEB
0086
0513
034D
023E
FC26
FBB2
00C6
FD01
FEDC
FE1B
FEEA
0220
02DB
FC7D
066E
FE4D
FF61
FF72
FEFD
01F8
FF00
0277
0598
06D5
FEA2
001E
0080
00E2
FE45
FE46
FD80
00C1
FEBF
FFC1
0199
033E
019A
0162
0190
0368
F804
023F
017E
001B
0298
F970
FC00
FCA7
FD6D
FF1D
01AF
FDF5
FE82
010D
00A3
FCF5
016C
FE80
017D
FFB9
000D
FF0F
FE3C
FEBC
02D4
FCE7
02E1
FDF9
FEF6
FF38
02A0
000E
FA63
FAE6
FBE5
0085
015E
F9B6
0039
FEBA
0081
00FA
FF10
0116
FF35
FF6B
03C9
01A1
013F
00B2
FFC5
00A4
0220
FF84
0248
034A
FE0D
0083
FEB4
01EA
FFCC
0043
012D
FF60
0181
FD6E
0031
036C
FF2F
02CE
FFD5
FF10
FB9A
02DE
0122
FD59
FB30
00A3
FE7A
FD32
F956
013C
02A7
FD1D
FD55
00BA
0151
FFDF
03B1
FCB9
017D
FFB8
FDD6
FEA6
FDC2
FE2B
0203
017B
FF6E
0242
01C2
01E3
0199
FF2D
FFEC
FF43
006E
FFBE
0520
01AF
0065
FF36
FAE5
FE5A
0294
FF64
05C2
0218
FD7E
0007
0035
0346
FDB1
017C
03C7
FFB4
02C3
FD57
00E0
FE54
FF38
017F
FE45
0156
FEC2
007A
04EB
FFAA
FD40
FC1F
FF34
02F5
0010
FFEF
FE20
0114
0122
014E
FF7B
FF33
FC9F
0274
FCF1
FF46
02EC
