FF55
0303
FE21
0106
02FA
019A
FE27
FD5E
005B
0502
FF6F
02F8
FBE8
0224
03DC
FE5A
01EC
FF2B
02BB
FE20
0209
00CE
FBB4
025C
00D0
02B4
FD74
01B0
FC36
FF99
FF26
FE79
001D
000B
FCE4
FE6E
006C
0131
0006
0331
FEE0
0351
003D
0297
0274
0381
0092
FD0B
01B6
0334
FD8A
0155
001C
FDFB
00B5
FEB5
020B
01B4
FCF6
FD37
FC9C
0151
0091
FE68
009B
FE35
FD26
FE65
0092
FDA6
0206
0328
012E
0424
00E9
FDC2
FE47
FE24
0303
FE12
026A
008A
0318
0143
FDD4
026E
FDD1
0399
0324
02CC
0347
00F4
007E
FEFF
00CD
FF74
0020
FDFA
FD3E
FAA0
FACD
00BB
F8F6
02BE
0315
03E3
005F
F9A1
043E
FD88
039F
05C0
FA46
038B
02A1
01F9
0218
0330
FFB4
FA0E
FDD7
038E
FC12
065E
0231
02D2
005A
0126
0151
FCBA
F8B0
02F5
01DE
01D6
00F5
03A4
FBC9
03E8
0368
0659
FA18
0298
F91B
0365
FD6B
0418
03A3
FC22
04AF
0128
0305
0352
02A3
016C
0175
0328
03A5
0132
00B1
F9D5
FF63
01AF
0218
FFEC
00FB
F44E
FE24
0198
024C
F895
053F
01B7
0509
FF7D
07AD
FB92
F938
01A3
0595
0209
030C
01AE
0472
036F
002F
032C
F8ED
0103
018A
0439
FE36
031F
0230
FAFF
0247
FAB9
0359
0387
FC08
F9B0
005C
FEAD
FC35
FFED
0382
0328
FEF6
FCBE
0158
057C
FED7
04CD
F8F6
0356
FF89
01E2
031B
037A
0320
FCF2
03DA
02C6
F9F9
03AF
0167
0378
FD02
0095
FB7E
FF87
FC92
023E
FE04
FE73
01F5
0109
FEF8
0315
FE68
04BD
FC76
030F
FEDF
04CD
0147
0273
0199
FC6B
045D
01B0
FD78
02DB
01C7
0132
02A9
01C9
0029
0364
01F7
FBB3
FBE1
01C8
0326
01A8
0203
FBFE
FB5C
FFA7
FFA1
FAEE
0464
033E
015E
0507
02FF
FBB0
FC60
00B6
046B
FDBD
017B
FFAE
014F
FEE7
02E1
FD5D
FC85
04B0
0465
03AC
03B2
026D
004D
FEB5
FFB5
FD90
FEAD
FF41
FBA6
F7EC
