FFB4
01E9
0060
0049
0102
FE92
FEF1
FE8A
FF82
FF7D
0013
000B
FEF4
FFEA
FFED
00A7
01C4
00BB
FF16
FEF5
FF10
0155
FF20
0121
FF42
011D
FF55
00C9
018A
0021
FEC7
FEE5
FE1D
0198
015B
FEE0
0131
0155
001E
011F
0060
0034
0063
00D1
FF93
00D5
FF46
006F
0116
FFC9
FE58
01C0
FE8E
00B1
FE33
FF43
000C
01EC
FFB6
00AB
FE48
FF19
FE17
FEE1
01D9
0158
FF77
FEB0
00ED
FF8C
FFC7
00C0
00F9
0103
FE22
FF43
016C
00A3
013A
FF75
01A1
FF10
FEAD
0145
0049
FF49
008F
FFF2
00FD
00BD
FE3A
FE12
FE93
019C
00D6
FE6B
013D
FF64
FFF7
FF8F
0084
FEE8
0176
FEC7
015E
FF87
FE6C
FFFC
FF5F
FE39
01E0
01AA
019D
FF8D
010F
013D
FFA7
FE5C
00E9
FF8E
0174
01BA
FED5
0188
0025
0171
FED8
FE36
00D3
FED0
FFD4
FF8E
018E
FED8
FF0F
FE31
FFA9
0007
FE39
0081
FF6D
0005
0106
00AC
FFA3
FF31
016A
FF17
FF07
0193
FFC8
00AB
FFE4
017F
FFBA
FFC7
0078
006E
FE92
FE52
0194
FE68
FE63
FFD5
FE29
00BD
FF58
FFC5
014F
FF33
0124
0193
00D7
FF9C
01C1
01E9
017D
0160
FE9C
012C
005F
FE1C
FF29
0144
FE2E
FE2B
013A
FF63
FEE9
014F
FFE0
FE3E
FEF7
FED2
01E8
0053
FEE9
FE98
012C
FF50
0184
FE7B
00A8
01D8
009D
FFC7
FF07
FFA7
FFC8
FEEA
FF06
017E
0052
00D9
FFCC
FECA
0140
00F5
01CE
01BD
003F
FEFB
00A3
009E
01E1
FE2E
FE44
00E6
FF6B
0112
FF5A
FE77
017F
FF33
FF77
FF91
01AB
FF8F
001E
FEB9
007F
FF50
0011
0125
FFDE
00AD
FEC5
FE92
FF36
FE55
FF46
FEE8
007E
FECB
FE9A
FE56
00BF
FEC6
0013
FEEB
0146
0135
01DB
FEE9
01AC
FF4E
0198
FE55
FF32
011F
008B
FFEF
FE66
01E7
FE2C
FED9
0165
00A5
FEED
FF73
0045
010D
0191
01B2
013D
00C0
01B0
007C
FFBC
FE54
FE6F
FE42
FE4F
005F
FE41
FE91
FE12
FEA2
00C3
FE9A
FE65
017E
01C7
00AA
018F
FEA8
00AC
FED9
0155
00DE
00F8
0174
FF77
0090
FE7C
00BE
FF8A
00C1
FF1E
0091
0099
FE12
FE21
000A
019A
00F1
01AE
FF19
0066
0000
FF55
00BB
00F2
00EF
003C
FF6E
FF04
FFD4
00D2
00EF
FF26
FE25
FFA6
FF7A
FFFF
FE64
FE70
0186
FF43
FF00
FF4F
FE57
00FA
FF22
0146
FF91
001F
FFEA
00FE
FEEA
0056
00C3
FEDE
0095
FE5B
005E
0136
FF50
0037
0134
0006
00E7
01D0
01E0
FF35
00CF
00D5
FE11
00D9
01DD
FED1
FFC1
0025
FE4C
FFAC
FE1E
FEE2
00F0
FF0C
0155
FE6F
FEA3
FF1A
0005
01E2
FE3D
0083
FE8E
0017
FF7B
FEA2
0083
FFBF
00E2
FE2C
FF91
FFD7
0131
FF02
FE70
0199
FF7D
FE19
01BD
FF11
00C1
01C7
014E
FF31
FEB4
0185
00C8
0081
FE1A
0143
0170
FF0C
FF84
01A6
013B
010D
FE7E
FE3B
01D0
FED4
0159
FE3C
FE78
0015
FEC9
01DE
0151
00FB
0148
FEF2
0066
0075
FFD2
FF30
0017
FF6C
0063
FE86
0159
FE2A
0187
FECE
01BF
FFAB
0005
FFE5
016E
0113
006B
01D1
0107
0199
FF61
0054
FEC2
FEB6
FFE0
FFBF
FF5C
001F
FF9B
015D
0182
FF71
00D9
0032
FEB6
FE19
01D3
01CA
001B
0116
0053
00C8
0159
01E3
FE36
FE22
0134
00C0
0095
0131
FF2D
FF61
FED7
FE55
FF58
003E
FF29
016C
01B5
0154
FEB5
0023
0183
0064
FEA1
FECF
FF50
010C
0112
FE40
01E8
0014
FFEB
FEC9
014F
016D
FFB2
FF87
01C6
00A2
FE23
01AA
FF39
014D
00DC
FE5D
FFF8
00FC
0012
FECD
FEAF
FE84
FFA3
0195
003D
FF75
013A
FFD2
FE57
0089
FFE1
00F2
0147
FF14
011C
FF88
0023
FE64
005E
FE1B
0095
FEA4
0003
FF82
00A5
018F
FE5C
01CF
FF35
012B
FFB2
FE8D
018E
FF46
FE12
017C
FED8
00AE
00CC
006B
00B6
00D2
0196
FEFF
0175
00EE
018E
0087
FEDF
FE97
0163
01B0
FF5B
FEED
FEEE
01DE
009B
FE27
00DE
01E3
0021
FE6B
00E2
