003C003A
012F0066
009900E7
FFB4FF9A
FF37008E
0087FEF3
FFD6FF43
FFD0000B
0094FFB1
00940033
FF0AFF25
FEF20018
FFCCFFDC
010200BF
0100FF52
01250060
0004FFBB
FFC40071
00970093
006D007E
FF0BFF11
01ABFFFC
FF93FFFC
FFC201DA
FFA5015F
FE6E001F
FFAB0143
FF6FFF3F
00A2FFF5
00960016
0077FF77
007F016E
FF090080
FF89004D
008D00B8
002EFEC8
004D0007
FFA6FF7C
FF7F0158
FF730018
00670117
017300E2
019400F8
004C00C9
FFBBFED0
0184008C
FF30007F
00C2FFC4
FFBD00AB
FFA9FF43
01F1FFB0
FF8701AA
002D00D3
FF3AFF4D
01580044
0043FEAF
FDFD004E
FF2EFE2E
FF4DFFA0
FEF50126
FFDDFF7C
0058000D
00D1000E
FE9000CD
0015011C
FFB00161
00B9FF66
00DD0098
FF9EFF97
FF0C00F4
FFA3FFD0
FEE8FFE5
00580017
00930088
FFC4FFD9
0080FF57
FF00FECB
008FFD67
00370083
002101BF
FF7BFF5F
012A0136
001AFECF
00D1FF5F
FE95FF10
FE5F0092
FF6FFE74
FEF1011E
013AFF65
0163005C
FEC80047
FFC70052
FFC8006A
FF3900CB
FFF6007F
006DFFB6
00190032
FF93FFD8
FF15FE48
FFCBFE43
0184018C
00FD0054
FF6EFFE8
00C1FF78
FF4CFF2D
007F0052
FF1F00C5
0081FE6B
01010061
004B00ED
FF9A0060
0040004E
0022FE8F
00BE00A5
00A70019
00B6FFC7
FF40005B
00F60125
00550040
0150FF78
FF49FFB4
FFDDFF2A
FE7000CC
004EFF81
0228FFFE
00960034
0015FEC1
FF3BFFAB
FEEDFF75
011B0004
0044000E
FFF9FF07
005F00B3
004D00F2
0181FFA5
FF63FF02
FFC2FFD3
0131FFC5
01AAFF30
FFE7FEDF
00B0FE70
FF15FFD2
FFE1FF99
FEFAFF68
FF64004D
007000BC
FF430132
002CFE5A
FF5FFF86
FEC4FFB5
0059FF07
0013FF3E
FE850086
FFEF004F
0018007D
FE6AFF69
00520051
FFC3FFA0
0090012B
002D0160
FE83FF54
0007FF87
FFF7FF48
017A00B1
012F0185
FE55FFDD
FF94FEC6
00CAFE83
00FA0021
FFDD0097
0063000C
FF970252
FFAB00FB
008CFF22
FFF1FF7E
FFDD0213
FE610084
FF45FF99
FE58FF85
FFF7FF0D
FF650006
FF83FF57
FF3F00B7
FED2FEA7
013CFFAC
017500D2
FED50074
00ADFFA2
FE3CFECF
FFCA003D
0048FFBF
FFF7FF8F
FED6FFA0
FFC80073
0090FFA3
02E30199
0102FF81
FFBDFFA9
0035FFA4
0126003A
0130001B
FF6C009E
0203FF66
FFA40012
008D002B
FE1F002A
FF6F0185
002DFFE5
008EFF70
FFAF0122
FFC1002B
00A1FF62
FF670053
007B0032
FE8C007B
FF940067
FFBF0061
FEDBFF75
FF8FFFD4
FFDBFF7F
00FEFF89
01560007
00AC0158
FF920096
FF5CFFB4
0059FFE4
00B6006D
FE9AFF71
010DFF93
FF5BFF72
FFA3FFE2
FF57FF40
00A80036
FF79010A
FFF80040
009301ED
0054FFDA
0098FFF8
0181FF41
001AFF2D
001AFF49
00F0FF5A
FF4C00B0
00840019
FE9BFE9F
FE27FF10
FF590110
01D0FF49
FF23FFCD
01020030
00A90060
00ECFF7C
FFB70057
0008FF5F
0058FF77
FEB80170
FE95FFD2
0047FF1C
FFF70031
FFD1FEE9
0036FEE7
00C9FF7C
00790063
0043FE46
0121015D
FF59FEE1
00A50007
00B8FF7B
001BFF3E
0004007D
0085006F
016BFF90
00CCFF17
00B5FE99
01B2FFAE
FF2D001A
FF47FF10
00750063
00FE0145
008AFFA3
FFF80172
FF670050
0136FF66
003FFF01
FF9A0156
FE4E00CF
0102FF7F
00BBFF2E
015500DA
0051FF5F
FF8300DA
FEC0FF49
002BFF81
0110015E
00150009
FF28FF3A
006AFF83
FF0B005B
011000D9
00A10107
00590079
FF6AFE45
FED2FF1E
0145FEF3
01E20007
FFACFFC7
006BFF85
FFB10076
FE8CFFF9
0079FF7A
FF9400EA
FF68FFAF
FE78000F
002AFEA6
FE89FE94
009E00E2
00BCFF57
FFC90150
FF630046
00A8FFF0
FDD80017
015701C0
00E0FFD7
0046013E
016CFF3B
007BFFA0
00860038
FECF00E4
008200AD
FFF2FF66
0016FFA1
0036FED8
FFB0FF27
FF36FF74
007AFEB7
FF750070
00AFFF6C
FECBFFB6
009BFF98
0067FFA7
000BFF64
0165FE9A
FFCCFF4B
FFF1FFE3
010EFFB0
015AFFA9
FECF00B6
FF18FEF5
009AFFCD
FE4FFFAD
FF7AFED7
01290028
01E1FF0C
0110FE97
0046001E
0026FF2D
FF300092
0083FFB8
FF8D002F
FFB8FF32
FF97003E
0046FFF4
FFD9FFCB
002EFF79
FF2F0002
FF590093
00060036
005AFFA0
FFBEFEEE
0212FF7B
FFF1FF66
00E2008C
FFEEFF1C
0071FF8B
FF1C0090
FF6FFFE0
00B40024
FFE400ED
00840019
0069FFEC
00E300DB
005C0008
FECDFF9F
0017FFCE
00980048
007100E6
0050006B
00EB00D4
006500AA
016E0099
00DAFED5
0003FF97
0142FFF5
FE870083
FFDA00BE
003DFF53
FF94FEC5
01B5FF04
FE8BFF04
FF920027
FFB6FF4F
01D500B9
FF3CFFFA
00E40098
FFE1FECB
005DFFBC
0108006B
0093003F
0007FFC5
0147FE8E
FF9600A6
0001FF43
004800D7
FE51FFBA
009200C4
FFC5FFA3
00E4FFFF
0046FF27
FFE3FF61
FF1CFFFF
006B0026
FF0CFEC1
009F008B
00C10025
017BFEAE
01380038
00AAFE4B
003FFF7F
005E006D
FFA20032
00A1FF29
FFD0FF55
FF58004B
006E00D7
FFA200C8
00890023
FFC2FF9D
0039FF45
FED40067
FF870079
FF810068
FEE5FF59
FEC0FE3D
FFCA01D3
014E0006
0007FF6A
013DFEF4
0186FFC2
019A0021
FF990053
00AA0076
00A30017
00A6005F
005CFFA4
FE010047
FF33FFB4
0029FF50
0136FF1B
0075FF06
00BB0032
FF4300EC
00C70022
FFD50027
008D00DA
0072010F
01B200FC
01680087
00170003
001BFFA4
001101F5
FF9400AD
0121FFF8
FFF1001D
0046FF30
FFCCFFB2
0053FF62
FEFEFF20
FFCDFEEA
FF07017E
FF8AFFAE
00B6FF02
FDF70022
001200B7
FF9200BF
0121FF5D
FFF9FFDE
00CA009C
FF210099
FEDFFF0D
FFFD007D
FF71FF69
002E005E
FE23FF1D
FF8D0118
0021FEDB
FFACFF4E
0107FF0E
00A5009A
001800FD
FF13FFFC
00C100A5
FFFCFF9E
FFE8FFD5
FF960033
007BFF12
003AFFFA
0018FFF4
00A20024
0125FFB6
0035FF7C
FEFBFF71
FEAA0167
FFE000B6
00DA002B
00510091
FF5AFF8D
00C0FFE9
004FFFEC
FFD9000C
FF3A00EB
0123FEEA
FF2F00F6
013E00F3
FF5C011C
FF4BFF37
0134FF4C
0011FF53
0042FE13
FFA5FF9A
FFC5004E
FEEDFFC6
006CFF20
FFC300A5
001E0001
FF0EFE74
FF94FF45
FFC4FFA6
00EE0004
007A000F
FEF300C4
00420065
01CDFE60
00EE0020
FEB500EF
FFE50200
FF53FF2C
FF83FF4E
01D70117
006FFFCF
FF33FF84
FE7D0077
FFF500B8
00140033
FDECFF9A
FFC3FF90
01AE001D
FF6700C4
0037FFBA
008BFEF5
00340039
FF82FF68
00D4002F
01310015
020CFF4A
0039FFAE
0029FF58
00EB0118
007D0150
00AC009C
FF82FF43
008300DB
00890030
0065FEDA
00BA003B
FFF7FEBE
FF680019
008CFF71
FF5100EE
00F000E7
00B3FFC5
0159FEC2
FF8BFEC8
003800E3
003DFE90
0045FF3F
00BA0062
00D20019
000DFF7A
FF58FFAD
009BFEC4
017DFE9E
00E4FFD7
FEC5FED9
009A0094
FEF1007B
000BFF63
FFBAFFAC
0063FF25
007400E4
003EFEDD
002BFDC4
FFB600E7
0034FFB5
FFFEFFC8
009DFF3F
FF20FF68
FE8F00D9
FF5D010C
FFB3FFA1
00EBFF12
0099FF77
004100F6
0013013E
005800EC
007C0126
006BFE43
008800B6
FF470107
FF22FED4
00540079
FFDE0032
FFB6FEE9
00D5FFC7
FFABFE7A
0035FE25
FEFEFF6A
014B0166
00CF000D
FFD200E5
FFECFFE1
00BC00A8
FFAF0041
00380147
FFAD008E
005500D4
FF170136
015200F8
FFDEFF2E
00E40054
008EFFF5
00EF0084
FF7EFFA2
FFFB0133
00DC005D
005E0122
00570011
FFB5FF9C
FF050050
FEE9001B
006F0075
FFDDFFB2
00500005
000E01C3
FEF200AD
003401A7
00A5FFF9
00100003
0036FFB9
FFC800D9
FF72FF10
00390050
0045FE9B
FFEE019D
00FBFEFD
01B8004F
FF40FFCA
000900F2
00490158
FF8FFEC8
0017FF3D
FF50FF28
00F500DF
FFE50059
FF84001F
FE8CFEAF
FFFA000F
FFCB0085
00B1FF98
FFD0FF72
FFD80050
00A50170
0177FF93
FF110010
FF7700D7
FFE000DF
FFE7003D
FEF7FF69
FF51FFE0
013D0106
FEDAFEA4
FEAAFFB7
FFA9FFB6
FFE7FFE6
00FEFF7E
00020049
FFD9FEDC
FF9AFF2D
002CFFC0
003400DF
FFFF0036
00B80019
01D5FF72
FFBBFFF0
FF2100A3
00C2FFF8
003D003E
0039FF5A
FF7DFEED
0092002D
FFC3FFB7
FFD5FF54
0011FFC2
FEFD0170
FF710005
00DEFFA4
00BC0066
FF8E0051
007200D6
01C2008C
FEDF0061
FFE2018B
FF26FF3D
FFEB00C5
0023006B
00CF008E
000C0049
FE560038
FFC4FE76
0007004D
FFA90014
00B0007F
FEDDFE8A
0054FFF5
FDBEFDFA
010300E5
01B3FFC8
001D000C
005FFF4A
0131004F
0107001A
FFE70058
00E5008B
FFB3FEEA
FFBEFF1E
FFCF0156
FF02FFF0
FFE700F8
FEDEFFFD
0054FFC4
FF11FE7B
00FCFFC9
00B80023
00B900E3
FE83FFFD
FE950001
00F8FEFC
0028008A
0092FFC6
0063FFF3
FE61FF65
003CFE46
002C003E
00E9FFE0
FF1B0159
FF1EFF0B
0178FFBE
FFC2FF82
FF5E0127
00BB003A
FF9B008F
004600A9
FEE2011E
0060001C
00BC0101
0087FF54
FF72FFBF
00FD0126
FFE3FFAD
FFF7FE2F
FF6CFF9E
FF190051
FFD1FED4
FEA8FF39
FF3B0035
011B0053
0031FFC0
0078FFBB
FF56FFAA
FF990004
0083FF3D
001CFFA4
FF7F017A
004BFFC1
0101006D
00A9FE0B
003AFFE4
FEC3FF1E
0020FFA0
0235FE94
00520040
FF3BFF3F
00240020
FF59FF7A
FFFBFEDC
00E40085
FF86009B
FE360024
0183001F
FF3E0212
FFCE01AD
FF4FFFDB
FF5AFF4D
FFC50067
0081FFED
FF6A0010
003BFFD5
FE8300F2
0021FEC4
0088FF4A
009B014B
00270010
010A0209
0068FFBB
0297FF3B
00C4FF8A
0045FFB5
0087FFA8
0056FF93
010500B1
FDA7FEEE
FF6000C9
0051007A
FFA6FF29
FF72FF0B
00C3005F
FEDC002F
009CFF96
01BAFFDA
FF8E00A8
FFE00108
FE5F0160
004A004D
002200B0
0025010E
002CFFA5
00540039
0051FF60
01450034
0044005A
FF200065
0050FF06
007200AD
FF83FE95
FFBA0070
00FC008E
0144FFC2
001EFF97
FEA30118
FFE401A8
FFC500B1
006BFF60
FEB101E3
FF1D0052
FFB40042
0053007B
FFF7FF64
008600C5
0069FF49
FF0B00D5
FEA9FFF0
FFA000B8
0047019B
000E0082
00480044
FEE00106
00F9FE74
00A9FFBE
007DFF07
FE8FFFBF
FF0F0035
FFCCFF7A
FFBF011A
0076FF46
00DA0025
FFB400D2
005A0032
00280138
00BCFFD1
FF010123
FFCC0052
003EFFDD
FED30094
FF88FFB2
01B7FF7E
FFA1004B
0073FF46
FFCDFF9D
00360003
0029000C
FED2017B
FEB30010
FEC9004A
FF9DFFCF
002200C1
FF53FF9C
017D0072
FFAAFF22
008B007D
FED50083
00910112
01EF0114
00FEFF0F
FF0AFE7C
FF49FFED
00690104
FF91001F
FFC5FEDC
0042FF9E
FEE4FFC6
00D50023
FF7BFEDF
FF5AFF70
000D009B
FFAAFFD1
011AFFC1
FF6FFFC5
00CE0144
0056FF6C
FEBCFF7D
0024FF0E
0193FF76
000AFF34
FFB1003B
FFE0FF7A
00A50126
0222016E
0017FEFC
FE060159
0165FFEC
FF22FF06
FEBDFFF8
010BFF19
FFB00256
001400BD
0169FF5B
00A8FF3D
FF1CFFCE
006CFFA0
00460071
FF6E00AB
FEEBFF4E
00BAFE65
0035005B
FFE201F7
FF5F0074
FF3FFF1B
0058FDE8
003BFFFB
FF1CFF3E
FF360079
00C7FF58
FFDE0042
FEBBFFA5
009CFEDB
FFD1FEDD
00B6011E
0023FEEA
FFF5004B
FF8D0084
FF550139
024000C6
00D10000
FF47FDBF
01AF000E
FFD6FF2A
FEDA0009
009BFFB7
FFB8FF65
0016FFF5
FF7800A5
001DFFDD
0138FF81
FEE8FF5D
009FFFC4
005FFF57
00B600CB
FFF70070
FFC5020F
01B9019A
FF7FFFB6
008600DD
FF46FFC3
00880062
0030FFBE
00A3FF49
FEE3FF56
001D0034
FFA400E7
005C00F2
009FFFD4
00AE000B
FECC00A9
0034FFD6
0008000E
00C2FFA7
FEBB003F
0019FE28
FFFDFF7B
FF77FF8C
00B500C8
017FFF32
00E30184
0008000A
0004FFF6
00240028
FFD6FF06
FF87FF4C
000AFF22
00CEFF96
00B2FFC2
FF2DFFDF
01FEFF19
006B00F4
00F0FFA8
FF09FFD1
021CFFC8
005BFF8B
002D00C8
0112010A
001CFF41
FF320032
FF9CFFB2
00650021
FFFD0099
FFA20052
FFC50042
FF58FE03
FE47026F
FF59004C
FFB100CB
00CA001B
FFBDFFF3
01850010
FF6E0061
FFE60110
0076FFE2
00E4FEAD
FFD8FF2D
FFC00087
00B5FFF1
0019FFDD
016FFF6D
FF1500BC
0002000E
FFF2002F
00DA01CF
FF5DFEFA
FFB4009D
00250033
00130040
01B2FFD6
0001FFD0
00D1FF43
FF2400BD
00B40011
FFFD00C2
FF9E00D6
FF3F0074
FFAA00C2
FFF2FEF7
0032FF1C
FFA2FFDE
FFE5FF3F
FF62FFAB
0065FF0E
0045FFF2
01C8FFEC
FF7B0025
FF890072
FE0AFFE1
00AFFF94
000700AB
FFA7FFFE
004200F1
FFC3FEBF
FF96FF8B
FFC0FDED
0039004E
00E0FF30
FF930077
004FFF66
0028FEC5
FFCD0032
0158FE98
FF8BFF88
00A10031
010AFFE1
00D700F6
FFB7FF9D
FFBAFF78
0111FF91
FDB7FFAA
FF3EFF36
FF900155
FF72FF25
00D0FFAF
012A0021
FF5A0054
FFA400D4
00D9FFF2
01020056
FFF5FF74
FF56FFEB
00B80132
006FFFCD
002DFED8
0127FF75
003A0089
00D8FED1
001C00A2
FFFAFF27
FF66FEC7
FF2F004A
002D0063
0016007D
0012FFED
01EAFE2E
FECA016D
00F10196
0032FE74
0059004B
00ED003A
FEB30010
FFF6FF41
00A5FFC0
01380088
0096FF8B
FF97FF61
FFA1FF2A
0058007A
FE91011A
FFA7011B
0181FFA6
FF85FF69
FFC4010B
FEE6FFEA
00EE003B
0051FFAB
FECDFF70
FF9E00C2
013DFFBD
00E4FFAE
00050023
FE25FE66
FFA5FEF0
FFEEFEA9
FFBD00B3
0051FFFF
004DFF0B
0073000C
00BFFFBF
FFEC0064
FF84005E
FF9B0012
00E90003
00F90026
013901A4
FF20FFAA
FFCA0040
002BFEB1
004500C1
004A0011
FFC00149
FE900075
FFF2003D
FF290148
00430003
002AFFDB
FF8C0122
FF890024
FF3F017B
0011FFCD
008B0037
FF5DFF23
FFF0FFDD
00E0FF3D
FEE9FFD0
00EB0160
00C30089
0063FF1C
001A005B
00F900B7
001C0074
0000FF2D
00D50051
005B00F1
00E400DA
FF6C00A2
005DFFD4
FEE8FE7C
FF550077
FF2D0058
FF52004B
FF34FF19
FF780093
00B70074
0039FF64
FDF700E3
00B3FF03
01E5FF56
FF71FF21
FE27FDF2
FEB0FFFE
FFDD0155
FFF6FFAC
FE00FFBE
FF57FF7C
FFD40095
00B7FF53
003900DB
FFBA0059
018DFFD0
FF460052
FFC2FF7F
0066FF8D
FFBAFEC6
0113FEDB
0018009D
FEB4006B
FFF301B4
FE300024
FEDE00FB
FF74FF07
007BFF48
005BFFE2
00DD0107
00690045
FEAAFE3B
0106FF3C
FF0F0069
FF9AFFC6
FEBA0082
00190068
01550049
FEA1FFBE
FF7CFF14
01400027
004EFE01
00D1FF6A
01700052
010CFFB9
FEECFF7D
FFB800A6
00950037
0182FFFD
FFC80000
015D006F
00650066
0009FF67
FFF8FF3B
FF8AFFCD
FFE400EF
00000077
00690281
027AFF36
FF1FFF3E
0009008A
0020007A
01B6009D
FFC800AF
009300B3
FFD9FD9C
FFF5FF0B
005E004C
00250129
FFFD0023
FF9CFFC2
016FFFBE
FFFDFF91
FF500177
000FFFC1
FF1C014D
FF82FFE0
FEBA0102
FFA6006B
001BFFE4
FFAA0030
FF350092
00200088
00480007
FF09FFE5
013F0105
FF2700CA
FFEE00F0
FFEAFFAB
0091FFFE
FE760067
FF10FFD9
00010052
FF86016F
001FFFA4
00D70199
008B0186
014CFFE5
008D0017
00C800BD
FFF9FFE5
01050146
FF94002A
0138FFF7
00400030
FE74FF7E
00BC0014
00A5FF89
FF57017D
FF2AFF26
FFD1FF5C
00C6008D
FFD4003B
015DFFED
004BFF8D
FF50FFCE
000700CB
FFCB00FA
FFC400FD
FFFC0095
01BFFDA5
00AEFF9E
005CFF1D
FFA6007A
01160085
FF88FF74
0116003D
FE5000B6
01620148
00090146
00CCFE82
00D20098
FF2BFEA5
0044FED6
00F900A6
FF98FF17
007DFFDC
01D6FFE8
0008FF83
0069FFC0
FFF4003F
00F3FFA9
005E003D
FF97FFDE
00230080
0067000B
FE73002D
FEE9FFF8
FFC6FFF1
00BFFF90
FEC2017F
FFCD0047
007E001B
0021FEBF
FFEDFF50
00560082
00390011
017F003D
FF25FFC4
FFDAFF7D
FF11FE8F
FFE4FFDB
01A7003E
01B5FEAD
0015FED6
0009FFCA
FF4100BA
0099FE57
FFAD010D
02130149
0078FEA4
FF6C002D
009B0043
FF73FEBC
FFF200F8
FEF5001C
FF9100F1
FF38FF46
FE82FF34
00130075
FF5E005A
FED10074
FE14FF9B
FEE5FECB
008400E5
0136FFCF
0127FFC4
FECEFFC1
005EFEB5
0038FEEC
FFD1FE8F
FFB00045
FF5BFEF4
FFBEFF84
007E01D3
00A30087
FEB800E2
0031002B
FF840134
FDBAFFA2
0108FF9E
FFD3001D
FE1F0074
005300FD
FEA3FF81
0030009F
FFE701E2
0051FF4E
007B0159
00E0FFE1
0013FEBC
FF7900E6
018AFD3A
001E0116
FFBF00B5
FF8FFF6F
007B0064
FE80013D
002E00AD
FFBC0141
FFF8FFE8
FF600101
FFDA0037
FDFF00F4
0187009A
00C20080
006000F8
FF6DFFF9
002E01FB
0059FFAC
FF6BFFEC
003DFFDA
001D008B
0097FE5E
FEDEFD4A
FFAFFFD3
00BDFF1C
00C9009D
FF3D001B
FFDA006F
FFD4FF55
0017FF51
FFB10047
003C01A8
00CB0034
FEBAFFA2
FFEE0126
008AFEDD
0020012E
FF110142
FEC30040
FFBBFF9E
FF710040
FFC9FEFC
0134FF31
00830006
0004FED4
0034FFD1
FF9500B9
FF5AFF0D
0044FF8B
FFD2FF4C
FF1BFF2C
00B1FECF
00030037
FFF2FF1E
0173FF70
FFD3FE5F
FF4AFFDA
0052FFD6
0110FE0C
0035FF9D
FF9700DD
FF320086
009F00B5
0073FCCE
0056FFAC
008F0005
010700ED
015BFF0B
FF66FFAE
00BD0041
FF930070
0032FFE9
006BFE8A
FF35FF85
0022016F
01CF00DE
FF85FF31
00EEFFD7
FF100157
00F6006C
00BE0075
FFF700D5
FF13005E
01DAFF2D
00ACFFA4
FFDFFFB9
FE9AFF84
FFA4001D
FFBEFEED
FFDBFEDE
00B40055
FF63FF62
FFCA0144
FFC80021
00400066
FF590073
FF170185
FE1E012C
FFD6FEF8
001D0013
FF2F0036
001CFF90
002E0074
FE9FFF39
FF62FF2D
00C5005B
FF24FFA0
00ACFF22
000400F6
008300C1
000400E6
FEF6FFAF
00CA0070
00CE003A
00DA0169
0037FF0D
FF300060
004AFECE
FFE800B9
008000AF
008D0045
FFC1007B
FF800078
00D5019C
00EA0048
00D8FF45
FEBAFF3C
00AFFF97
00B4FF3F
FFFD0040
FF3800AB
FFEFFF83
FF2CFF89
00A4FFEE
000300C6
0070FF74
FF310136
FFAD0120
0017FE74
FE850028
00B0FF8F
0160FFDA
0028001C
FF9B0197
FFDAFEF5
FFECFFB7
0118FFC0
FFCC0044
003FFFEF
003BFF2A
00200060
FF2200B6
FFAE002C
FF31FF64
FF4600B0
0023FF9B
0050FF89
FF8EFECA
017BFF97
FE55006F
001CFFC2
00A4FE9B
FF4AFFEC
0025FF38
0033011A
0082010A
FFBF016E
FFF4006F
00C0FF79
0001FF90
FF4C001E
FFF0FF93
0092FF31
0044005B
00110006
FF1B014C
009200B9
FFEF0167
000A0034
0139008B
FEC10188
FEE9FE61
00AE001B
FFF10022
FE47002E
FE9BFFBC
FFAF00C8
016BFF96
00B00100
FFDD0010
0012FEAE
FF040031
01C7FEE1
008EFEC2
0087016A
00FCFE76
FF54FF0E
FFB70035
009D0056
FF65FFE4
FF9DFF3E
0007FED9
003C00C1
FDEBFF6A
0021012C
FFC1FFD1
FFA5FFA3
0140FF73
FFC900CD
FF9E005A
FF1B0145
FFFBFF42
000CFEF4
0079FFDF
0018FF85
FF5CFF8D
01B8FE1E
FEEEFFE6
00A1005B
FF5FFFAA
00BD01D6
FF82FFCD
FFE8FFD2
00CEFFEC
00AFFFEB
003F00E5
012FFF64
FFB1FF01
FF7C00EA
FFEFFF51
FFA3FE8C
006101A5
003B0124
FFA4FF72
FF78FF4B
FFD2FFAD
FFB7FF50
0056004A
0063004E
FEDF0105
006F00D2
00A40029
005E0107
0161FFCE
FF3EFECF
FFB5FFB2
FF5B012F
FFED007D
0095FF85
00120092
FF9EFF27
008B0050
00E900D1
004B0067
FFACFF7F
FFDCFF63
017AFF37
008500EA
014C0050
FFE100E1
FEFCFFF6
FF250089
00CBFFA4
0075FFD7
00490091
0099007E
010DFFCE
FFAA00B6
FF920010
FFBBFF66
FFE80153
007DFFF6
002400CD
0029FFAE
007F00B7
FEB9017D
FE920031
FF96FFB0
00C0FFCE
FF2F0036
FF450076
FF660030
0144FEE3
FF7E012E
FE02FFA3
FF38FF0C
00DAFF1C
00B6FF66
00AB0047
FF8FFF6E
FF79FF91
007CFF2E
0073FE7E
FF29FFBB
0153FFE5
0040FEEC
FFDF00A1
FFDE00D6
00B3003F
0112FF9E
FFEDFF24
00300055
FF970094
FFB5FFB9
FF2A0105
0015FF7B
FFBA0005
FEA60022
001FFF0F
FF3BFF03
004AFF86
0143FF82
FFDF000F
010400D0
0033FF29
FE8A00A4
FF950040
FF4500C6
00DF000E
0019FFE5
00CE00C5
0064006D
FFD7FE6F
0041008E
FF02FFE0
FE620009
FF71005D
FFD3001E
00A3FFE0
00350060
00B3FEC9
FEDFFFD9
019E003B
001AFFEE
FF2AFFC1
001BFFFA
FE9FFFFB
005E00ED
00420007
00E10013
00A400F1
FFC9005A
002CFE77
FFD6007A
FFB30106
002B009C
FF49010A
FFB20090
FFF60126
FFBE005B
FEE8FF3D
FFC00125
0093015B
0041FF9D
0045FE91
FEA6FF9E
00F0FFDB
011C002D
003CFF9B
FFD7FEC0
002BFFDF
0055000D
FF7F0162
FFF700A2
00CFFF72
00A1002E
FF6CFFFD
0111FFA7
FF9AFEB2
FFEA0074
012BFFE5
FE91FF09
01B000AD
FF4EFFB2
00B60086
007B0090
00C5FEEF
00C5FFCC
FEEDFC72
FEF0003C
009900B5
FF51FF52
FFB30071
FEDE0055
002000C0
FF7AFF8D
0005FFE2
001E0024
FF1D0000
0091011F
00C20062
FF17FF9B
00410017
00D8FF01
003EFF52
FFD80021
FFFC0058
0033FFC6
012EFD66
FFC8FFFC
FFBB002C
00050013
0029FF7F
FFFC0194
00B8FF2E
FF5A00F7
FF36FF80
FF36FEFB
FFA400B8
FFD8FE6A
FE9000B4
005C00A6
00BC0023
0199013A
FFAD00AA
0055FFCB
0018FFD5
FE9900DF
FF91FF2E
FF8DFF46
FF870095
FFB2FE93
FFF7006A
FF5FFFF4
0123FF4C
FE93FFB5
00D90048
FF440073
FED00016
00370179
004C0089
0108FEF3
FEEAFF8F
FED20096
FF9C0073
0001FEB8
0076FFF8
FFA800D5
FFC90049
00A40188
0010FFE5
FF0AFFE4
0004006A
0127008E
FE5BFF2A
0054004A
00700152
008AFF1F
007F009F
01320085
00F0FFAB
FFC3033A
FF130028
FFE50173
FF36FF9A
FF8CFEE4
FE8FFEEA
009B0081
FFC8FFB3
FF14FFD0
0018FECE
FF2AFEF1
FF86FEE2
FF4CFFA4
FFC20095
FFBB00DA
007B0029
FF7100DA
FF810144
FF420172
01000023
004601AD
005200BF
00D10144
00D1FEFD
00880091
0117FFBE
FFFDFFE7
FF75000E
FF2CFF5F
FF2C0081
00A8FFA3
013DFF79
FF640033
FF7A0064
01ABFF71
FF6700E5
00E8FFF8
FFCCFDF6
FFC20058
002CFFFF
FE8BFF91
0093011B
005D0018
FFF1FFE0
00E8FF9F
0049FF3D
FFA00012
FFCA0025
FFEFFFBD
00920097
FFA9FF78
FF93FFB0
FFD6FFE5
FFDF0016
FFFEFFB2
FFE60026
FFBBFEFB
009D0194
FF9F00BF
00AAFECE
015600D9
0032FFC1
FFE3FFB5
FE910061
0009FF3C
FF3F0023
FFDAFFCF
FF8C0075
00ABFFCB
FF77FFA5
009A0026
FF4DFE03
FE49FFD1
FFE60019
FFB90065
FFFD00A9
FFFEFFB6
0054FF70
FFE1FF26
0010FEB1
FF5AFFD8
FF48FFE2
FFEB0026
FFA70139
0093FFA0
FF350003
002801AF
0037FFD9
0071FE98
0024FF9C
FEC4FFD7
FFE6FF12
00C1FF18
FF81015F
00CBFEA8
FFFD0135
FF22006E
FF570029
01150165
FFD700B0
FFBB00A2
00C6FF8E
FE110173
FFF9010B
FF2AFEED
016400BF
FF24002F
0001FEE4
006501D5
004C000E
FE89FF9C
009AFFB2
FFD301E9
006CFFDF
FF330090
FF1A0054
0191FF3C
00C800B4
FF4D0110
00F101A3
FFA700A0
000AFF16
01610087
FF510089
FFB3FF04
00E0008C
FFC9FEEB
FFF50099
01BEFE98
FFB50036
000AFF8F
00A100EB
FFAEFF89
00230133
0045FF1D
001DFF59
FFB1FF04
FF8B0037
00AE005A
009B006C
FFEBFFC0
000D0010
FF0E0071
011DFFA2
FF8B00A5
00AAFF1C
00560041
000600DC
FFD6FFD0
0024FF97
005B005A
01D2006A
FEF500B8
0011FFCF
005300B6
003200BD
0003005E
FFDC0128
FFF20070
FFB80075
0013FEF5
026EFF22
01620029
012AFFC3
0098010E
FF9700E3
FF5AFF4D
FFE3FEA9
FFC60002
FF5301AB
FF910107
00C6FF86
01200095
FF8EFFE9
002F011E
FE78FF6C
002EFE08
0028FF09
00DEFF7A
FFC100AC
007900FE
0095001F
002F007B
FF1F00AE
FFEDFFCF
FFCCFFD4
FFEB0020
FF8BFF4A
0075FFFF
009000CD
0140FFAC
FF7A006E
0048005B
007AFF69
FF4900F3
FF4B0194
0083FF31
0049016D
0095FEC9
023EFF07
FF7AFFDD
00720105
003D00BA
FF1000AD
FFBF01AD
0016FE25
FF78FFCD
0061014B
01B300A9
FE73FDC1
FF89FF58
FFAC011D
01870115
FF0B0089
FF5DFEA3
FFEB0133
FFB5FEB7
FF6CFFF1
0004003F
002800B6
001C00CA
006300D6
FFF0FF83
FEC0FEDF
0078FEC7
002DFF99
006BFF84
0124FF39
FFC4FFB3
FF85000F
0043FFAD
FEA80028
FF9900E7
FE6EFFD0
00460079
FE6C0000
001FFF9A
FFD70085
007800C9
00E5FE7C
FF2800A0
001CFFA1
FEAE007B
00CB003A
FFE6FF6D
FF39002D
FEB000E8
FF5B024B
0044FF61
00090101
FFB8002C
FF970187
FF5D00D9
FFD6FF01
FED5FF3C
FF32014F
008B00E2
FEC90028
003A0033
00CF003A
FF770045
002D0012
0043FFDC
FFFC01E3
FFC70052
FF980118
0099009D
00D50165
00AD0123
00ED0052
0091FF72
FFC3003E
FF66FF85
003501C9
FF09FF35
00E20061
FFD2FF08
007F0042
001EFF37
0030FF91
FF400069
01C300F0
FFC7FF4D
FE83FF48
FF650037
0005FFA9
FF3FFFDE
00D3FECC
004B014A
0053FF49
FF89FFE3
FFF300BF
00840054
004E007F
FF58FF6D
0018FE27
004EFFF3
FFDD0241
FF59FF46
FFCBFF56
00D1FF1F
FFD2FFDA
FF0B0174
003300CC
0068FF86
FFE2FEF9
005400D7
FF87FF9C
00ABFF61
FFEA0057
00CAFE4B
FF58FED1
FEA9FEAB
0004FFB9
01A300EE
FEA70024
0026FEF8
0145FFEB
FFF90031
FF630021
0073FF61
00F1FFA3
FF810104
FFFE0125
0110FF57
FF8BFFBF
011FFFC3
00C00057
FF930006
FFF90014
FE9DFF83
011AFEA8
FF6E0102
FE1EFF47
FF92FF4C
00F7FFA0
FF33FFD6
FFAA00AE
00B1FF69
FF29010D
0027FF29
00D70169
FE23004F
FFF400E7
FFF1FFE1
0164FF0A
00BA0099
FE020026
00000052
004B0016
FF59005D
FFE9FFFF
0031FFE1
00E6FF76
0041FF10
FF75FF1A
0020FF61
0114FF5F
FFCA00DD
FF7EFEBC
010F00EF
0190FE6F
FFA10100
FF69FF07
FF37FFD5
FFB2FF51
008A003F
01D2FF69
0156FFFD
006CFFC2
FF7900A8
00F40101
FEAEFF88
0085FF8A
FF1CFFFE
FDDC0034
FF800153
FFF6FFAC
00130114
0088000D
FFC90142
001B0046
FF7EFFA6
FFD9FFDD
FFC70156
FD96FF18
FFE0FFDC
FF190091
0254FFF0
FF35FFE4
0063FFAC
FFCC011E
FEA500EF
0036001A
00450119
0075002B
01010030
FFCCFF84
00D3FFFD
FE1E00FE
0030FEC0
FED4FF62
FF3F012A
FF5F0008
0055004B
01F200B8
0056FFCD
00D20024
00C300A7
00A60046
00FC0010
FE930199
FE98FFD8
002800C3
FF0F012A
001EFEE6
FF85004A
FF8DFFC3
FFA700FF
00DB007A
FF7E001F
0026005B
0044FF9A
FF190029
FED600C8
FF57FF06
FED9002A
005300D6
008FFF9D
0038FF3F
0089013E
FFD100F9
011DFEB7
FFD700AC
00ABFE4C
FFEFFE5F
011700AC
FF470101
00CFFFF5
FEF2FFEA
FFC3FFED
0027FFFD
FFF1005A
002B001D
0032FFB9
FF2500AF
0108FECD
FFF10002
FF7FFFB2
FFF2008E
FF72FF54
FF060008
00480067
FFCA00D7
0053FFBF
003E0197
01E40058
FF14FF12
FFDC0083
FF7A00F2
0119FEBF
0072FF0E
FFF4014F
FE70008D
0181000E
FF8CFFC6
0042FF65
FEDDFFE0
00A401FA
FFED003E
FF4000E8
FFB600AD
FEA700BA
FFAAFFA2
01220137
FFEAFF6A
FF90FFB9
FFBD002A
FFFD0073
008C0184
0025FF6E
FEB20097
FF10FF9D
00ECFF51
012B008E
FFF90025
FF7AFF81
FFB80083
00E6009D
00A1012E
FFF4FFDD
00DDFEBA
FF62FFFF
010BFFD7
FF94FFFB
0029FFFB
00DA0042
FFAAFFB9
FFB4FF86
FEB60075
005E00B1
FFED00CA
FFA10052
FFDC0020
FF920051
FF73000B
00C0FFA9
0038FF6E
FF3FFE84
FFE00001
FE5E0034
FF31FF5D
0087FE81
FFC7FE94
FE75FF50
01300064
008F00E9
00680038
FDF4FF6D
FE5F016A
0091FEE4
FFF2FEDC
000C00FB
003F00FC
00F0FEEC
FFE40064
FF760030
FF32002F
00E700B7
FFE9FF49
01B9FE69
0009FEBC
FFCCFFED
0064FF99
00FEFF54
FFF0FE92
008700D0
001BFF69
00340036
FFF4FFC6
FEAC0235
FFEBFFBD
0083FFD1
002D0094
005300C7
FFC3FEDE
FF8400A5
FF950054
FF4700D2
008BFFE9
FF9FFFE0
FF89FE2D
FFF6FFB0
FFB8FF6B
001EFFCE
FF5C0051
FFBA007B
FFD50180
FE2FFEC1
0053FF69
0145FFDE
FF60FFCC
00A1FF2F
00D2FF92
0016FF19
0109014E
FFFE0108
0105007C
FEBB004E
00F30056
FF71FF7A
FFA8005D
010CFF24
FF7FFEFE
00CDFEB0
FE9EFF2E
FFB20024
0002FFE3
FFB6FF60
01230044
FFD1FF62
FE91FFB2
FF75FE95
FFCE00DD
FECD0168
007AFF04
FF56FF40
FFC4000A
00AD00AB
00A3FFE9
004A000A
0014009C
FEE7FF70
0032FDFB
FFA0017E
FEACFFC1
0051013C
005DFF11
00E300BB
0055FFA1
01280007
FF1E0088
FF66008A
FFC1002E
FFFFFF2C
00D1002E
FF450111
009AFFC3
000A0014
00E3FE48
FEBB010C
0168FF78
FF8201B2
00EEFFB5
FFD7FEB5
0109015C
01490063
FF1FFF6B
0061FFA8
000CFF97
FF9CFE8F
000DFF51
FFF80099
FF4A005F
002DFFF6
FEE2FE77
FE7EFDE3
FFECFF7D
FFA5FFD9
FEBB0137
FF39FF45
FE76FFFF
0044001E
013F005B
001AFFC7
009901B8
FF6E0021
FFA8FFFB
FE910095
000600FA
FF74016E
FE8600D5
FF10FFF9
FFE100E8
FE8D00A1
00870053
0039FEA5
0005FFF3
00280096
FF330134
FEF3FF28
000D00C0
FFF6FEBE
FF7200D9
FF180046
0019FF81
FFB400A8
FFEAFFEF
FFFBFF1B
FFEAFF9E
FFF5013C
00650047
00860020
FF4101CA
FF47FE79
0096FF8A
FF9BFF9B
00BE006D
00610100
FFBAFFE7
0059FF55
00E1FFE0
007EFF8F
00C1FFAB
FE840105
0056FF85
00F10007
FF85FFE8
FFD20150
011FFF59
FE42010D
00C000D4
FEF10148
0026FF01
00E0FFE2
0046005B
FF0E0125
FE46FF21
FFC30074
0035FF22
FF7C0080
0084FF9F
FFC00089
00490094
0166000C
FFFFFF97
FF3900AC
FEF10058
00DEFF45
009700D8
FEE20037
00ECFF6F
FF3B002F
005B013A
FF98FF73
01B70082
FFD40097
0083FEE0
00D50003
0112FEC5
022E0229
006100E5
FFA6FEFA
0258FF24
004B0117
FF97FF3A
FF840236
014400AC
FFF1FF33
FF16FFDE
00620167
FF6D0051
FFA1FFD3
FF710091
0142FFE6
00BE0044
008700B9
FF800067
011FFFD1
00E60068
0144FF84
FF37FF20
FFB0007C
01C9FF7E
0103FF01
FE8DFF2B
004B007C
0015FF58
005D0111
003D00C8
FF62FFBF
FF4CFFF6
00A7FE15
FF63009C
0028FF13
FF64FFEB
FFD2FEE9
FEE701D7
FF04FFF3
01FBFE5A
FFEBFF20
FDA9FFC1
FFF1FF09
FFE3FF6D
003F014C
003300AF
FF98002C
00F6FF9D
00D7FE82
FFC2FF7C
006E002A
FF48FFDC
0119FF80
FFC40077
0028FFD9
0022FEF7
FFF100B8
008CFE91
003EFF51
FF33FF1A
0154000B
FF4F003D
FF760122
FF80FFE3
00110041
FFFEFEEC
009CFE5E
FEDCFDA9
0197FFC6
FF74FF1F
FFB4006E
003AFEEF
00EC0068
FE23008B
000BFEDC
0072FFD8
00AEFF8F
000E007C
0137016B
001B0081
0027FF73
FE8B011B
FDCCFF2B
FE1EFFBB
000FFEFF
004B0044
FF43FF8A
0068FFC1
FFB9FFC9
FFEE00B0
FED5FF22
FFC6FF8F
00180003
00F3FE85
FFA000C8
FF99FF8D
00C2014A
FFBDFF4E
FE080024
FFE80029
003C006C
FFA50049
00D4FFF6
02BEFFB5
008FFF0C
002900ED
FEB7FE96
FFFC01E4
FEDF0031
FF8E0113
00B40052
012EFED4
FF9AFF66
FF450057
FFE8FFA3
003BFFA6
FEB700B2
FFBDFF61
FFBF0022
000BFFEF
00A1FF77
FFB6FFBB
0031FFA9
00F6FFB1
FFF4FF43
FF670036
FFDAFE58
0029007B
FE9A0041
0066FF2B
00DA024B
00680119
FF9FFFD4
01CF0096
00930113
000A0063
FEAFFE6D
0002FF82
003F008C
00050068
000B00B1
005500C3
FE2EFFDA
002EFEB0
0172FEE6
FF98FFBB
FFB0FF7C
00DB011A
00B900A4
00D60042
0017005D
0057FF43
FFDD0003
0025000C
FFDE011A
FEE9FFE8
004FFFCE
0000FEBB
FFFEFF4B
FF3EFFA5
0065FF48
FF79FF72
008C0073
FE3600E1
FF97FFDD
003DFF89
0179006E
00DEFFBF
01180023
FF7BFF1C
000E003A
0006005C
FFA3FE4C
FF60008C
FF1CFFD4
00AF008D
FE93FF24
014DFF58
00A80090
FF500036
FFEEFFF4
FF6D012A
FF34FF20
0041FF9A
FFF20188
FEBF01A5
005D0172
FFCAFFE6
0010FFE3
FEAEFEF7
FFAE0099
00270014
0051FEFB
FEB30050
003FFF95
008BFF9C
FF8F001B
00C101AF
00D6FEE1
00EF0020
00D3FF4F
0003FFC3
00120024
00A3FFB9
FFC3FFCB
FFABFF8B
FFB2FFAF
FF61FFE8
004A0017
009DFF42
FF2300F2
FF320016
FF5EFF22
01000062
001BFF5C
FFFFFFA1
00F7FE98
FF660018
004C004B
0076FE75
FEBCFFEC
006AFF61
00ED0016
FF2A001B
0049FEAD
00270177
FF62FFEF
FFC80020
006D003B
FE7E002E
FF9BFF33
00670030
FEE9FE97
FFE8FF12
FE7FFFBE
0010FE8E
0065FF0F
00A4FF5C
FFBD00AA
00E40158
FF6200C2
0188FF12
FF400085
FFA2FF85
005AFFC0
FF30FFF6
01A400A2
00A0FFE5
00300200
FF4BFF62
00B8001C
0019000E
00200011
00240014
00100065
FF7EFEC1
FFF0FFB9
FFE400C5
FEC00069
010EFFD3
002BFF61
008E0088
FEB60058
FF2D011D
0033FF4D
0016001E
0093FFD4
FEDB01D3
01D3FF51
00FE005A
FF1BFF16
00550047
FFAE00A1
0023FFB2
FEAAFF0F
008FFF92
FF650003
FFBBFFFC
001B007A
004700BB
FFA20017
FF1A00B7
00CFFFE8
0115FFFD
0146008D
001B0072
002CFF15
FF7EFF8D
009DFEF9
FF85FF85
FECEFFA6
008D00AC
0197FF28
FF2CFF01
FFB6FFEC
FFC70191
0091FF8A
0068FFD6
011CFF6E
FE6E00E3
FD7800C7
0017FFA7
FF69FFB3
FF44FEFF
01F600A7
000AFF11
00D100D8
FEDC00A2
FFB30073
01ACFF39
FF21FF3C
008FFF86
FE8FFFFD
01FC0022
FFFCFF92
00290005
002AFEB7
FF1900A4
01A0FFEF
FF430149
FF3A0060
FF69FE56
FF83FE90
FF05FED9
FFAB0178
FF7800FE
FE70FFB9
00CDFFF2
0147FFDF
00E90156
0121FFD9
FF1BFF2C
0092FF6E
007E005F
FF89FFB2
0022014A
00EEFDE0
0062000B
FEE6FFE1
FFF50161
00EDFF5F
FF5EFE9C
001900B3
00A0002C
0027FFEE
FF5C00F0
0003FFDF
000C002D
FF1900BD
FFC7FF54
010300C9
0126FF36
FF7EFFF9
FFBBFFF8
FEA300EC
0090FFE7
FECB0014
FFBF0019
FFD3FFA2
0136FF92
005E0041
000500CC
01C800C2
0020FFD0
FF420172
FF26002E
003EFEC6
00A7FFF4
FFA9FE77
FEB0FFBC
FEEE00C4
FFD0FF5A
FFD6FF00
FF40FF5E
003000C1
FFA4014D
0197FFC9
FF9F0033
FEDB0041
FF7BFF75
0152FF45
FFF200C2
00EDFFB1
009AFFC8
FFCA003A
FE090137
00F7003E
FFEFFF06
0053FF3A
000EFF21
006AFFFA
FFF5FEFB
00EAFFDF
FFEDFF82
0011005D
FEFBFFE7
FEFCFFDA
FFC7FEB3
01C4FF34
00AE0204
FF10003D
0081FEC1
FFC3009E
0070FF7F
FE68FF3F
FF780178
FF50FFB4
FE4B0034
00410081
0054FF77
00550043
006C0020
FFDA00BC
FF4F013E
FF9B0112
FF68FFD1
00A00178
FFE10020
0052FF25
0117FF88
01CCFE64
FF1AFE8A
0087FF8F
FF88002B
009CFFD3
00B80030
0105006F
00A401DF
001D0178
00550035
00AFFEDC
011601D1
FFD4FFE0
012F007D
FF35FFA7
FE6AFF45
00550042
00CBFECF
FED400F4
FFDFFEC1
00B7FF89
00430082
00A10011
FFEDFEFC
FF7B01AD
02CF0008
0016FFE3
FFD30155
FF2EFFD6
FFD2FFFA
00AE005E
FEBAFF93
FF67FF64
FF23FFF1
0146FF7E
00A9FF5F
00450052
FF74FFC1
FF8B008E
FF280043
FFF0004D
FF36FEC1
0032FF30
FF4A00E4
002CFFB9
0069FFD3
0052FFFA
FF73007C
00A7FFEC
0004FE90
005F0017
FEF2FF98
0066FF5C
FE4EFF02
FFB9FFA8
00570119
FFA5001D
019DFEE7
0054FFCE
0087FF62
0043FF5E
FF6C0200
FFC600DC
00DEFF18
FFB6FED7
00A5FF7C
00600095
00E4FF09
00340019
0127FF76
005AFE47
0161FFA0
FFA6001E
FF5DFF4F
004BFFAB
00420094
000CFFE9
00EC0072
00E0FF0D
00160050
00520119
FFF1002C
FF260049
002D0056
011C002E
008DFF5D
030DFFB1
0176FFC4
0110013F
FFE9FF2F
FF6CFFFA
FFD200B9
FF78006C
00AD0032
FFDDFFCE
00390177
00580077
FF8CFF5E
FF2EFE3F
01370170
FFE7FFBA
00AB00B3
FECFFF75
FFC600EE
00000047
FE63FF08
FEFB004E
001000A0
FEC3001B
0070FF60
00530012
FF460106
00FEFF67
021EFED9
0062FFAD
00D1012F
00840009
FF91FFE3
FF7E0033
015DFF3E
FF9700C9
00720059
007C0199
0023FE3C
00B000DF
008B00A8
003400A2
FFE5FF54
FF900087
FFD7FF83
000F0167
FFF7FFA5
FF3A001F
FF8F0004
00DC000C
01450068
FF03004E
FF03005F
00420082
01AA0132
FFB4FF86
016FFFF5
003EFF9C
FE81FFF4
FEE10050
FFA3FF3E
00490101
FFB2FF42
008B0094
007EFF96
0055016C
FF56006A
0008002D
FF5E0169
0041FF79
00170285
01950038
FE9200FA
0028FF06
FF90018A
FFC9003E
FFFB0078
FF8E0037
0018FFB7
003A003F
FFE5FFF2
0046FFE5
FFE20085
0143FF99
00B000A0
01720054
012FFEE3
00070087
0097FF6D
FF880125
FF7900B6
FFEFFFEC
0070FF4F
0035FEEB
011A001B
FE8A006C
00B50062
FFC9FDBF
00D80098
FFEB00FB
0067FEE2
001DFE5C
001F0027
FEEEFDB8
FFB6FFB6
FFCBFFA9
FF1BFFC2
FEAD001A
FF860098
FF66FF70
FF46FFC1
0006006B
FEE6FE57
00220099
FF03000A
00A2FE19
005BFF1A
018800ED
FFB1FFFF
FDE9FFB3
FF24001D
FF2900B8
0066FE18
FE350008
FEBC0089
FF0FFEA3
FE5200D7
009600A5
005400E8
FEFCFF78
FE5BFF3E
001300E2
00B70055
0119FFEB
FF7BFF3C
011F0127
FFDE001E
002C000E
017CFFD9
FE6500C8
011601E0
FED4FE90
FF92009B
FF97006E
00300061
0011FEE3
006DFFC2
001EFF59
00CD00F1
FF63FFBB
0018FF55
FF22FFB9
FF360023
FF300076
FFABFF3E
016EFE8B
004B0077
FE5DFFD5
FEC200DE
002E0117
00240147
FFD60065
00CAFF46
01E60090
001CFFCD
FF2F00B8
0019FF34
0009FE2F
FF39FF9E
FFA300B0
00C0FF24
FF88FEEA
005400B4
008BFEFB
FF91FFAF
013A00AF
01180070
FECE003F
01C2FF23
003E000E
FF20FF37
0018003C
FF230023
008A0122
00A40081
FFA4FF99
FE5DFFF1
FFC1002C
016E0024
FF61FFBC
0094FEB7
00F70038
FEC9FF5D
FFD10020
FFFF017C
FF430021
FF59007A
01140119
FFDE019F
FEB1FFBF
00B5002B
FEBA0001
FF4D0098
FFC7FEED
009A0009
00F0FFD1
006BFFF5
FFC40084
001801AE
011DFF53
0044FFE0
FF340019
007EFE93
FF79003E
FF790061
000301C8
FFA7002B
0219FF6C
FF7F00F5
003AFFD9
010DFEC1
FFB900ED
FF5100B6
FF2EFFC7
FE2AFE50
00B30051
FFA9FF07
FEF00050
023E006E
0063FF1B
003EFFE7
000900BE
002D006D
FFD5FEC5
0045013B
FF67009E
0065FE9F
FFCB00E4
0038FEA1
FFDDFF7D
0044FF5C
FFED007A
FF090120
00DEFF40
FED20046
FF8A0020
FFB2FFEF
0169FF6B
FF7C00D4
0102FFC8
FF7E000A
005A001A
FFD2FF09
FEF30007
FFD2003F
01BA00A5
FF0AFF44
0036FE9F
FFCCFFE8
FFA1002E
FF07FE84
0081FF88
FFD300A8
FF7400C0
0058FFD3
FF200056
FEEBFFF8
FF920254
FE8E0212
016501FF
FFC101AA
0030FFF7
FFB8001C
00F4FF56
0046FF69
0035007A
0005FF1B
020AFFEB
00DEFF08
00A0FF66
FF7FFF68
003C0079
00840085
FE6F00CC
001BFF9C
01250076
00B900D4
FFC2FFC4
FF7F00DD
0149FF4E
00210037
0125FE92
FF1400F6
00470041
005500B8
01BB012A
FED3FF27
FFB9FF31
FFEFFF6E
FF9DFFBB
001AFF37
00280115
FF34FF84
FF7C0000
010800BD
FF93FEC7
FFFC0032
FF3F00B0
0050FE11
FFB00026
006DFFAF
00E1003E
0117FFCD
00BDFF66
FF3BFFEE
00D40078
012D0043
FF79FFA3
009D0093
014CFFF2
FFB1FFBD
006C00A0
FEB7FFFA
FF18FF2A
00E4FF31
FEB1FEE8
FF5E0086
00F6FF14
FF8CFFFF
0064FEBF
FFBDFFB6
FF2AFEEC
FF14FF73
0111FE6A
FFC8FFFE
FFC600BB
FEB1FFAC
0058006E
FFABFFF6
FF66FFD5
FF10FE9C
005DFF2B
FF3AFF6F
001AFF63
FFDCFF25
FF7CFF6C
FFE7FF54
FEA8FFBF
FF7F00AC
00D4FF13
01E20023
FF8EFEF1
FFF1FFE6
FF60FF28
FFD9005A
0024FEDC
FFFBFF9D
009B01CA
FF56005C
FF81FEAE
FF5600D5
017EFFA6
003600BC
FE9A0079
FFC00085
FF4D0094
0016FE70
FFBB003A
FFCE0083
00850065
FEF50148
FF1BFED5
00D50097
009B0080
002E0013
0179FF2F
0037FE06
008B0040
FF87FEF0
FF6400C5
FF77FFBF
FEA50053
FEE40055
00ABFEC0
0022007D
00660128
00DCFF74
0133FF5F
FF90FF7D
FFDC0079
01070090
FF170081
003AFF2C
0106FF13
003FFFDD
00BC0044
FF520044
009100BD
010F0139
FF8F011E
FFB3FF09
FF0DFE43
FF6BFF0B
FEE5003A
00ABFE9B
008601AD
0025FF6D
00ABFED3
00BAFF8B
005AFFB0
01150006
000800AE
FFFC012F
FF5EFF6C
FF18FFE5
FF7E00AF
FDF9FEAA
00ECFFB6
002B0014
015500A1
FF27FF64
00DFFE42
FFC7FFDB
FF0F0057
FFCBFFFF
FFC30095
00A9018A
FFCCFFAF
FFEB00B2
FFCE0055
00B1FE64
FFEEFF26
FE060099
FF8EFF92
0166FE74
FEAA008C
FFD10133
006BFFEE
FE710042
FFD1FEA3
FF0C0024
FFBAFF7B
000CFEF2
FF520055
FFB10009
FE72FF42
01B50026
FF18FFFB
00040092
0068000F
0071FFBA
0142FEC8
FE700142
00AEFF2C
01A1FF89
0047FFAA
FE7B0019
FFD0FEDB
004400CD
FE9B0092
FED8FFD3
0054FF1E
FFD7FF55
FFE40014
006A0110
01FA0029
0145006D
FF0BFFAD
FEFDFF82
0078FF5B
FF2EFF87
FEE7002A
00A3FFBD
FEF50010
0091FE74
FF0FFE63
005DFFBB
FF2A00B5
009D0027
FFD700B3
009EFF76
FFBFFFF7
FFAD008F
0079FF0B
FF96FFFF
00E9FF90
FFCB008A
FE1300BA
FD3DFF1C
018B0104
FFC0FED7
FFA7FFA3
00EE0020
FEF9014D
FD9D0091
FF8CFFAC
00E3007A
00890076
FFFB0095
FF720096
003C0129
004B0051
00C60112
00DAFF9B
00B30038
00A9006D
0079FF9E
FFA80071
009FFF9A
00D3FF9E
0150FF6F
FFD9018F
FF7BFF9B
FFB70004
FFDD0138
0131FF6C
00700110
FEEFFFE2
00D40029
009A0260
000300A2
FEF4FFCF
00EA0090
FFB901B2
01000004
FFA7009D
008EFF0A
01390031
FF09FF72
00D9012E
0066FEDF
00200096
FFE301BF
0097FFD9
0043010E
FFC0FE89
0022FF3D
011DFFFF
FF570055
FFBE00CD
00270025
009E0185
FF18FF45
01DA0078
FDD900F3
FEB7FFC6
00F300CD
008D001A
FF770033
FF1CFF04
00580013
0010FF94
FFD100AC
00D100A0
013400BA
FF3D0115
FEE00014
FF50005A
FF710109
FF0CFF5C
FFFBFF69
001A0087
FFE20117
FFFFFF3C
FF970038
FEE4FF80
0057FF77
001000D0
FF5E0024
FFFBFE85
FFE6FF84
FE09FF00
FEFFFFF5
00BD0082
01F10117
FFB600AF
02800036
0006FF8A
FEF40156
FF73FEF1
00350046
FFAB0038
FF9FFFDB
0138FFA8
00E2FEC8
FFF1FFEB
FFDBFFE2
0077014B
FEEDFFB0
003200B9
009C0079
00B2FF35
FED70132
011BFF0B
0068FEDA
FF62FFB8
000D001E
00B9FE67
FF90000D
FFB5FF3C
00620129
0001008D
0062FED7
FFEEFFB3
FFC30009
FF78006F
0035FF41
00E6FF8C
00ED0036
01050017
FE74FFA7
FF650075
FF510102
FFB0FFDF
FF210033
00900120
00B9002D
FF22FF17
000DFF8B
FFFBFF08
FFC1FF02
FFA2FFAD
FFE4FF39
FFFAFFDD
00C9007C
FF43FF45
FFCD0036
FFEDFF95
006C001A
FF5BFFFC
FF840098
016AFE1C
017B013A
0161FF99
00CDFFEA
FFDE0056
002DFEDD
0012FF6F
FE91FF55
FF5EFFF5
FE170136
00F6FF3A
FF79000D
FEA500D5
FF71FF23
FF00FF5E
0093007D
005A00A3
00AA00C6
FF52FDDC
FF1AFE6E
00550130
FFDFFF09
FF4FFF3F
FF400125
FFD9FFED
007CFF20
FF6E0124
00230040
00A8FEBE
004FFFF2
FEB8FEB9
FF5C00E6
FFE4009A
0147FE9B
008D00EB
003FFED8
001CFFCD
FED70165
00530013
008FFE16
0057FF7E
FFBA002B
FFCB00A0
0184FFC8
00AAFFB1
00BCFF22
0019006A
FF26007A
FF960078
00600048
0164FFD3
FFBD0032
00D1002D
FF8DFFFC
FF92FE95
FECDFF54
FFE9FF7C
FEB6FEE7
FFDD0122
00140128
FEC7FF7B
FF280051
0108000C
FEF4FF93
013400AF
FFD7003A
00C0FFA2
0070002A
FF01002E
0137009D
00A9001F
FFF300DC
008BFFF7
FF1D004F
FEB1FE7F
009300C2
0089FE72
002CFF55
006700CA
FF9BFFA7
FF64FECC
009E00F9
FF90FECA
0137FDB5
0061FEF5
FFE7FF34
FFCCFFEB
FFBE0074
FFF5FF48
FFF1FF95
FFA2FFEA
FF1D001F
0047FFB4
02B1001D
FEF3FF1F
FFEEFFB4
0094FFD5
00D6FF5B
FFFFFFEE
FFA7FF55
0141FFD1
0003001A
01290098
FFEDFFBD
000000B5
FFA200AE
0168FE58
FF410012
00030034
FF10FFDC
FFD50049
005D00A6
FF9BFF85
012400B0
007BFE72
FF82FF07
FFDDFF74
0032009E
014CFF98
FF5900D2
FE1DFF8C
002B00E2
003A0069
FE7F00CD
FFFE0074
FEBD0162
FFB2FE8E
00A000D9
FFB5FFC6
0029004D
0130000F
FF72FEC8
FF2B0079
00320002
FF6E00F8
FF710290
FF77FF3C
0151FF8F
FF23FF22
00FCFFC4
FF04FF09
0092FF29
FF11FEB9
FFF8FEED
008800B5
FF4A0048
FFB3007E
FF34FF84
00C00074
FF38FF89
FFD1FF01
FF4400F1
FFA0FE84
FFF9FF8D
FE6D0082
016BFE0B
FF530111
FF36FFCA
01160068
FF2C00B0
00C7FF24
FFBB00AF
008A007E
0118FEE6
FFA600EE
00B70118
00960029
002F007E
FDF2FFD0
008800BC
FF38FF8D
00AEFF04
FF00FFF7
FE670009
FF2F003E
00F5FF75
FF81FFCE
0047FFF9
0102FFCB
00A60050
FF8200EE
00A60071
0055FEB1
00DB004E
FEFFFEFB
FF94FDBA
FF7800B8
FFD80020
002100A3
014000D0
FE9900B6
FFAD011D
FF500043
0032FD78
FF93FE9C
FF94FE76
FF8CFF98
006FFEAB
FF7B0084
0166FF13
01E2FFA4
010D000C
FFF20019
00B5FF48
FFF40121
FE9BFFCD
002A00B6
00720018
FEFD009B
FF7BFF9C
FF960009
FE760040
FFF4FFE8
FFB5FECD
008DFF89
00BA01AB
FF0DFF67
00A9FE8F
0218FF27
FF5EFFA6
FFEBFEB6
FFF1FFD8
FF330110
FF9DFFE5
FED00074
FFB9FFA2
FF640095
006AFFDD
FFEA014E
0061009E
009A0035
FF97007B
FFCE0016
FF4500C3
00CB00DE
FFF4FEFD
FFDD008F
FF3AFF50
002EFFFA
00EA002D
003DFFFB
003CFF55
FF9EFF9B
001A009F
FFD8011B
00B70021
0195FF3E
017EFF9D
00A3FF85
00520078
FE18001E
FFD2FFA6
000D002F
005CFF19
FF9A00EE
01C2003D
FF83FF43
004FFF6B
017FFFDD
01160030
00390061
FFAB0012
FF3700A6
FF0E002D
004EFF42
0028FFB4
021FFF44
FFF2FFE1
0022FF9D
00B70022
0186FF25
FFD3002E
FE9D0080
FEDF0010
FF630035
007CFFF5
FFA0FFE0
00E9009C
FE08009A
FF16FF00
FFAA0126
FF6FFFC4
FF920209
0036FF2B
FF0F00F9
006C00F4
FE8DFFD3
FFC1004B
004DFFE7
FF5601A8
FF660000
003BFF36
FF34FFB9
FF9EFEEE
FF4B00C7
FFD400F3
0024FFC5
FFB9FEA2
01140006
01380087
00D6FF7E
FEC10011
00390130
FF58FE83
00BFFF82
FED100B8
FE97FF65
0035FEFB
00E40180
0178FFEB
0188FE2E
FF44FF4A
0025FDC7
FF06007F
FF24FFD8
FFE7FFF0
FFFCFEF5
0013FEDC
00D6010A
00E900E3
FECBFE80
FFD5005B
0010FF28
004AFF74
FFE80032
010BFFCF
FFF500FD
FF7D0140
004D005E
FFCB0042
001C005D
FF910054
FFC90071
00E2FF85
FFDB0131
00DBFE37
004301B5
01320137
FEF10150
FE22FEEE
009B0103
FFA7FE55
FF1CFE4E
FFCA0092
FFB10100
00A5FFE5
0180FFC9
FFD9FFDF
00020121
0032FFF8
001F0076
004EFF97
0084FFD8
0186FFC9
FF0EFFB0
FFD30030
FF4D0128
FF96FFFA
0030FFEC
FFF600C2
0032005B
FFDDFF26
0036FFC2
FF5AFFCA
00E70007
FF35FF9E
FFECFF45
FF9B00EA
FF1D0088
FF7EFDA2
FFC0FF05
005600D4
009D0041
FF86FFF0
FF2E005B
0038FD82
00E4FFAF
0111006D
014DFF93
FEF6008A
FF8501D0
00D7FF38
0042FFC6
FFFAFF3E
00F200D6
FF1EFF57
FF31001B
FF57000C
002E00E8
0097FE99
009C005C
0167FFCA
00D300B5
00F900A6
FFD6FF44
003EFFC2
FFF9FFA9
FFC30097
010EFF29
01AFFF32
FF1F007E
FFB1FFCF
01180011
FFA5FE87
00560081
FFA70105
00B1002E
01ADFE3D
FE5D01B1
FFAFFF7B
FFB0002F
0197008E
00BF0093
FEE3FFA4
0028FF63
FDE40030
FF52009B
00BBFFEB
FEFE0038
002201CD
FF1EFF33
0034009F
FFAC00D6
000E001A
01DE001F
0020002E
0043009D
010BFFE9
FEF7008A
0032FF23
00E5FFBD
FFC80161
00390011
008B0091
FE53FFA9
0039FFB0
0087FFFB
0022FFB3
0014003A
FF34018B
009F00A2
FFBD0047
005D015E
01650061
FEEA018E
015B00D9
00DB00F7
FF3C00D7
012200EF
003AFF27
FF650064
FF49FFBA
0032FFDD
004500F4
00E20076
005600BB
0072011B
00430265
FF8101A4
FF3FFF79
FFF0007E
FFF2FF61
003A0003
FFB400A9
001EFF8C
0095000F
00EE00C1
011FFF92
00B90119
00C1FFDF
FE46000B
001C0063
0032FF5A
FFBEFF98
FF37FFAD
014F000F
FF890089
00F40021
FF6F0100
0123FFE5
0127010D
0089FFCF
FED40066
013DFEEF
00760031
FF3CFEFE
FFAD00D2
FFFB017E
0058FFC6
009800ED
00C0FF76
002DFF80
FECB0185
FFC3FF53
000EFF4D
FF9800C9
00BAFFB9
005601D1
FFD5FFD1
0004FF96
FFE4FE56
0064FFDC
FF71007E
FEF90012
FE6D0014
FF2F011F
FFD1FFF2
002AFFF1
01B300BE
FF8B0069
001000D3
FF83FF88
00DDFFE4
FEEEFE94
FF7EFFB4
FF20FEB7
FEE3FFB1
015C0000
FF7B002F
FFC0001C
001E013F
007AFF6A
01D0011E
00A1FFF2
0146FFFC
FFD3012E
0022FF9E
0000FFC1
0114FF38
0034007E
004D0173
008CFF20
FFA5FF70
FF580094
FFA40034
FFB1FFC1
FF0D0044
00CCFF65
FF4A007D
FFC0FFDD
FFF6002C
016F0042
008BFED7
FF8B0049
FF5DFFF0
FF2C00B9
FF83005C
00450036
FF46FF9E
FF79FF43
FFB7FFDD
FE94FFC4
009D00E8
00C6FFDA
00580039
FE89004A
FF9A001B
FFFE004E
FF25FFCA
00FCFEE4
00BF0008
FFEE0035
FFD2FEC5
0033FFBB
FFCFFFB8
00B90134
FF4EFF51
FF84009B
016CFEC2
FF7C019C
FF82FFAD
FF7DFFA5
FF74FFB1
FFD40109
01AE0138
FFF90039
0028FF9F
00B5FF73
0019FEF7
FF4A0124
01C3FF06
FF08001C
0112FF67
FF460055
00820030
0080010F
006D0123
00FCFF31
00CEFF0C
01D70151
00A30065
003CFFDC
FF9EFF69
FFAE002F
00A6FF95
FFCAFF7F
FF24FF6A
0108FEE6
0095FFD8
003AFF79
FFBAFDA6
00A60170
0141FF7B
00B0FFC4
FF48FEE2
019700A0
FF2A00AA
001200AB
FF35FFF4
008BFEC9
000E0000
004A007A
FFDAFFCD
015EFF46
0049FF85
FF680060
FF5600E7
FFE7005E
FFF1FEF8
00E8FEAE
0025FFD0
FF19007C
FEA50017
004400E0
FF0CFECB
FF9F00BF
FF18002A
0123FF31
004FFEC5
0122FFA1
FFF5FF60
01D8FFED
FFB5004A
FF2200B9
00EA00B7
006AFF57
005600EA
00C10110
FFDD004F
FFD8008A
FFBAFF11
FE950041
FFF7002D
FFB2FFD9
FF2FFFA4
00BF003F
FF4BFFDB
FE97FF08
FF6F00AE
00D7FF04
0098FF8D
0017FFB2
0021001E
FEA000AA
005BFEA3
FEDC00EA
0058FF61
00EBFF34
FFD50000
000200CF
FFE90020
0096FFD0
FF8AFF26
FFC7FFEF
FF350039
006D01B0
FF7D011F
00000043
FF0A020F
FFCCFEAF
01AAFF0E
003D0135
00750065
FF550116
0103FFF6
0026FF7F
00280125
000E0049
FF98FF1B
005BFFFE
FF80001B
0048FF2D
FE68FFC0
FF84FF9C
FF4800A2
FF76002B
FF610095
FF7B0130
FF810054
FFC40031
FF4C009D
FFCF0025
FFF8FFEE
FEC40053
FEC90198
00EEFF5C
003AFF81
FFA3FFD7
018FFF52
00D600B6
FFA2FE7A
FFEEFEF9
FFABFFDE
005900B9
003EFE9F
002DFFD8
00B2FFDC
FF63001C
FF1E0091
00720010
FF86FF38
00CC0053
FF41FE76
008700AD
012FFECD
00A8FFB9
FF9101B0
FF4CFD7C
FFD5FFC0
FF27FFCC
FFD10056
FF490158
FF26FF2E
0050FE8B
0062FFC5
00E80053
014AFFB0
FF5D0177
FF6C0080
FFB9FF1E
005EFF6C
0080FFCE
01040034
00200103
FF0C004E
00D90028
FE53FFD3
FE54FF95
006700BB
007E0041
FFD4013F
FFAD00CF
01300079
00600028
FEB500D5
FF4BFF2B
FF9CFF6F
004FFFC4
FF140112
00220004
0070FF7A
000D00A9
FF01FE77
0088013E
FECC0050
0041FEE7
FF9E0018
FF6D0010
FFC80054
00230078
000D002A
0128FF98
00490034
01F5019C
FDFBFF3D
FFDBFF92
0080004D
001DFFB1
0091FF24
014EFF02
FE77000C
FF91FFA5
005F00F8
FFEE0212
01A0FEB8
FF7BFF6E
006AFF07
FEFC0095
FF850123
FE8EFF10
FFFA004C
0015FF8C
FF55FF79
FFE9FFEA
00ECFF4F
FE6E0013
FFF400A3
FF9400E5
FEDC004E
01590027
FDD1FDDB
FFCF0096
FF4D0045
017E00CB
FF35FFC6
01520156
FF5DFFBF
FF61FFC6
FF68FE5F
FEE200DD
FF850013
FE9200E5
FEAFFFFD
0038FF19
FE940006
FEFE006F
0004FFA0
FF8AFE71
FFA80103
FF07013E
FFECFF4D
FFEFFF20
FF5600B8
FFC1008C
00C7FFA3
FFCF008D
FF330078
FF8B0089
FFC9FFB2
FFCE0046
0143FFBB
0090FFAD
FE9D00AC
FED8FF46
FF5CFF0E
0124FFED
FF790059
FFD5FFC9
001A0025
FF2F0088
00130091
008B006E
012BFFC8
0062FF13
FFE4FFA5
00290140
004400C5
00CF0051
FF7C00C7
008600A4
00B30115
00620090
0070000D
00300030
FF3CFFF9
0094FDC6
FF9100D0
00D9FEF3
00A0FF1F
FEE200B6
FF5DFE5C
FE73004F
009E0116
000B00E4
00CC0058
FFC9FF53
005E0123
FFE7FF8F
005400AE
00590174
FFE5FFFD
FEA5FF7D
FF46FF9A
FFA20048
003A0044
FF400013
0130FF5D
0006FF52
FF8A00D7
FF5F0174
007B017A
0040FFD1
FEF100EF
0106003E
003AFF8C
FF5EFF84
FF3300C6
01A3008A
FFCF01D5
FEFC00FA
FF98FF16
001FFE35
FF03003C
00DEFF57
FE46FE51
FF6B015F
0106FF77
0086FE5A
012FFF36
FF7D0016
FEA4001F
01D6FFFC
FEA700AC
00160050
FFEC002E
00690002
00CB002E
FF090048
FFE4000B
00DB00EE
004DFE5A
FEBEFFDC
FFD6016B
FFD0FF00
FFB0FFD3
FFB90044
FEC7FFEB
FFA0002D
0040FF22
0079FF5B
FF7400F5
0086004B
0001FF9E
006A00A1
FF5DFFE9
0000FFF0
01640014
FF21FF4D
FFA10070
FEAEFF37
FEEBFEEC
0020FF03
FF550094
00860044
FFD5FF6C
0017FFC1
0017FFA5
FFA4010B
FFC0FF7B
00970106
FEC90003
00460110
FF850092
00BEFFF0
00FAFFFE
FFD0019B
FF8AFFE5
0039FFA5
FF6500D3
00790139
0032FF1E
FEA3FF9C
FF8A0063
FFCC0054
0069FF46
0058009F
FE99FF1F
FF1C0344
FEF6FF49
015500AA
00D60039
FF5DFF8C
01A800CD
0095FE99
FF8BFF83
FFE1FF6A
00CFFFCE
0002FF56
FFB7FE05
FF8800C5
009E0076
FFFDFF4A
FFD70006
00870062
00600056
0016FFD1
FF9DFFE8
FE2B0016
009D0216
FF7800A0
FF7E00A9
00E80004
000CFFA8
010E0085
00BAFEC1
00CBFF32
00E50072
FF19FEB0
019DFFE8
004CFF3E
FF9F016C
0004006E
00D0FF47
FFEFFEBA
0001FF5F
FFA5FFF4
FFDEFF2B
FE8DFF17
0041FF92
008BFFE0
01B00036
FF61FF69
004AFF76
FF5D0032
FF73012C
005D0094
004500C2
0027008D
00C2FE34
00E20192
0070FF86
FFCA012D
0013013E
01160183
FFDDFFD5
0026FF8F
00180058
FF4BFF71
0120FF40
0028001A
FFFAFFEB
00CBFEF5
FFEC0041
0017FDF0
FF650011
FF47FFD2
FF61FF10
FF08006C
0066009A
FE00004F
0132FED2
FDE10014
FF7B015B
008E002E
000C011F
FE53FE53
0056FF98
FFC00120
00A2FF7D
0133FF6E
FFE10036
FF67000B
01330027
0185FFDD
FFB6FF32
01A4FEF4
FF3900EE
01A000C2
00CFFF75
002BFFB0
00390031
00ABFF53
FEE4FF4B
011EFF38
00CF00B9
FF8F00E6
FEF2FF2A
01190070
00AA0144
FFDFFF9D
FFF10122
0089FE90
FF59006F
0076FEAA
FF85FF9F
00B5FFAE
FF5300D1
00C5004C
007B00BF
FFF60081
0118FFD0
00BBFE64
FFF7FEF8
0019FF81
FEA3FF85
FFDE0157
00230036
FF19FF2C
005C0018
011600A2
FEF0FEF9
0119FF8D
00ED0232
01DA0022
013C007D
FF7D0176
FF62FF9B
004FFFEE
0051FF42
FFF9FF79
FFA4FF2D
00840096
FFA50070
FFA100D7
FEEAFF35
000A0082
01D30003
0181FF07
FF7000EC
00040038
0006FFDD
0186024E
FF00FF13
00710006
FEE0FE70
00C10104
FEBD0077
008401DB
FEA2FF93
00110065
FF6B00B3
FFD20133
FF5F004F
FF220118
00B30141
FEC40067
0063FF66
FFCC0049
0036003A
FFFD0137
001E0111
00BF0010
FF57FFD2
0031FF22
00490191
FF700053
FF81FF9E
024CFF85
FF98FF20
00CEFF26
FFDBFFEE
FFC50079
FFA70144
FF7F00D5
00C7FF6D
FF6F005F
FE44FF52
0086000F
FFC100AE
009A0055
FDDD013F
FF6AFF7A
001F00B5
00E3003E
00780053
0032016C
007B006D
FFE5FF2E
FF69FF8E
009B0028
009E0022
0083FF99
0043FFC3
0002FF47
0003002A
019A004A
01080003
FFD2FE85
FFF3004F
FF570008
002FFF3D
002DFFA1
FF1F015D
007500A8
00DC0069
FEA2008A
00A4FF29
006E0135
00140067
00C10147
00F60110
003BFF95
00D800BD
FFF500AB
FF81FECC
0153FFB8
FE9E000B
013F0061
FFBAFE8A
FE91FF49
FEE8FEE5
00AAFF4B
FFC5FF9C
00C2FED0
FFEC0068
FDFFFFC2
007500A9
015BFFC6
01690079
008DFF66
007F004F
FF2B0056
00B10024
006EFF33
01DBFFF8
005CFF2E
00A80141
001C0081
FF66003F
FFCA0026
FE41008B
0035FFDC
000C0195
FEB8FFBA
FFB3FEFB
FF070095
00DCFF62
FFE6FF78
012201AE
0011013D
FDF3FF24
00810158
FECF01A7
FFF300D4
0138FF32
FF61007A
FF31013B
FF70001C
00DC000C
FF4A003B
0012FF7F
FF8701C1
FF15FF72
01100158
FF88FF1A
FF68FF0B
00AB0007
0014FF7D
FEE50087
00FA00F8
0196FF13
FF83FFE5
020F014F
FFE900D2
0177FEB7
FF61FF75
001EFF99
002BFF59
0078FF64
FF000053
0021001B
00480053
00600203
FFFBFF76
FFFE005A
FFE200BB
000FFFD9
FFF5FE9C
FFBCFFA9
014B00B6
0068FEC5
FED2FFCD
0002FF5C
FEFD00D2
FF94FE20
FE53FEC0
FF23FEDC
FFEEFFA8
FFBC002A
00E80010
FFA3FF8C
FF8F0037
FF72FF4E
010CFF99
007B0086
FFC801EC
FEF700AC
FF63FFD9
0013001B
0208FFE0
FF4BFF38
FFB70076
0005FEFF
010B007A
FF9C012A
FF4AFF35
FFF4FF8C
FF500069
014700A3
FFB50023
0096002C
000700F9
0036FF9C
0133FEDA
001B007C
FFA5FF96
022900A5
FFD30062
003EFFFA
FFD5FFED
FFE80031
00900069
FF090179
01A9FF40
FFE60049
