FF89FEBA
003700FD
01020041
FFD3FF74
FF50FFD7
023500FA
01EFFFD1
003AFF59
FFA80025
FE6B002D
0062FF1B
FE6E0164
011DFF94
018FFFBE
FED2FF68
FFDDFFEE
002F0059
001A0012
FFEDFEFB
0045FF64
FF470092
0134FE63
FF75FFA8
0005FE05
0042015B
FF720113
FE77003E
0004FFA4
0023007A
FF990078
FFEE0001
0126FFBA
FEF4FFD5
00500071
FFB70087
FF67FF8D
00D4007D
FFC2FEE6
002AFF7A
FE5D0036
FFA9FEEC
0023FF4A
FFC4FF85
008A00C9
FFF60039
FF310102
01C70046
0087FFFD
FFE8FFBD
00BD0016
FF350042
FF1FFFDB
01B10014
FFA900F6
FF1DFE49
FFE6FEDF
00C50009
FE54FFE5
FF5EFFB5
FF3C002C
FF23FF24
FFC8006E
00C400F8
FF39FFE5
002D007C
FFEEFFD1
FFA8FFF3
001BFE5C
FEFB01AD
009300FF
FF0600C5
0122FFCD
FF94FEE4
FFDE0037
00140072
FFFDFF9E
FFD6FEA5
FFBB0081
FFD600B0
00ABFFAF
01A30044
FFE1FF0F
FF52FFF1
FF68FFD1
0111FE99
006700D6
00B2FF82
0008FF72
018500D3
0026FFD6
00D1FFA5
FFCFFF8E
00180040
FF77FF60
000A0063
02AFFF1D
FFD0FF5E
FFDBFF9E
00900092
00CCFFB1
0025FEB5
00DCFF85
00C2007F
006A0184
FFE1FF3E
FFC9FF87
FF8AFF78
0187FF66
006B0014
FF87FFAF
023800F3
FF9E0050
00A900FF
0063FFDB
FE520100
FFA2FEF8
FF6200A1
0006FFFF
FF89FF62
FF1DFFA7
FFEFFFDF
00D2FFD3
FF00008B
002BFFE9
00BB001D
00F4FF1B
00030065
005C00D0
FFF2FFBE
003AFED2
FEC8FE5F
009B00FF
FFBE0127
00CBFF0C
0123FF47
FFE5FF77
0006FFB9
007BFFA8
FFECFE60
0011FF80
FF5CFF37
FF2FFFB3
FFEEFE9A
00D6FF4B
0095FFDB
017DFFB0
FF90FEFD
FF350083
00040146
00A4FF73
FFE101CB
00AF0007
00C7FF50
FF9900A2
FE65FF04
004FFF02
FEA90054
002B0179
00830079
FF48002B
00A3FF76
FE8E00AB
003C00B1
00C000D2
FF20000C
FF3AFF7F
FEEEFFFD
FFA50060
00AEFFAB
FEC9013D
001FFFA0
0097FFD3
FF580031
FFC00062
001FFEE2
FFBFFF77
00FF00FB
FF6A0090
FFBC013B
FFF100E8
FFD7FF98
0003FFE8
0052FFD1
0134009F
01240068
00D10037
003001A6
FFD20146
0086002A
FF49FF95
008B0189
FE1F0039
00D3FF8F
00B50056
FFDAFE7E
FF9D0087
0027FFC5
0131FFEC
0129008E
FEDC00E8
FF1200FE
0187FEC1
0077008D
00D1FFAC
017EFE30
FFA400B3
FED60033
00010112
FF2CFF94
FF99FEAD
FEB500C5
00A10070
FFD0FF3E
0199006B
002C00BB
00A0009A
FE95FF14
003600FE
FF5000B8
007BFF82
00CA0155
01330097
FFCA0002
006EFF8C
002DFF54
0014FFD3
FE6E00BE
0118000B
FEFBFF4C
FF19FFC6
FFA9FFF2
FFCAFF63
0055FEEA
FE5C0064
004AFEE7
007A0006
00C5FF02
002DFF0C
FFC700CD
00B4FF9A
006C01C5
0033FED9
00A0FFDE
FF450024
0103FFFA
FF62FFF8
FFEBFEB3
00F90054
FE97FF11
0050011F
00DE00E1
00A600E2
FF900019
FF170008
00D5FFAE
00BEFEB1
FF71FF3D
0096FFC3
FF71FECE
FF4AFF81
00A200CF
FFB8FF1A
FEC3FE68
00ACFFDE
00700126
FFB4001B
FFC7000F
FEC0FFA3
FEEEFE6E
0027008D
FEA0FF56
FEDCFFD1
FF76009D
0026003F
0014000B
003AFFD5
01C40016
00AE001C
012C0038
FF9E00BB
00410066
00F30115
0075FF86
FF800024
FFA2FF2C
0039FF4E
FF06FFD4
0136FF37
FEC90105
FEF4FF93
003300C9
FF5AFED6
FF59019A
FFACFFAC
FEE200F8
00A0002E
00C0017D
0023001D
0079FF9A
0063002C
FEE1FF37
FEE10048
FF6C008E
0115FFE1
001B008F
00070080
FFD9FF2D
00160014
0002001E
0154FF33
006FFF22
FFC5FF8C
FE27FFAC
FFE8FF7A
00FDFF30
00CB016C
FF840137
FFCD0095
FFFDFF12
00D8FF5D
00B7FF93
014AFF8F
FFF0FFE2
020BFFFF
FF2AFF29
00B2FF07
005D006A
0119FFD8
FFC100FE
FFDAFF92
0001FF30
0131FFD0
01AF003F
FF3FFEDC
0087FF2D
FE81FF68
00BB0063
FEE40143
FFCAFFBF
FF62FE67
FF03FFC9
FFA7FF82
FF11FFA8
006AFFA4
FEE20059
FF4FFF07
004DFFF1
FFBFFFBF
FF920066
FF6CFE28
FD99FF65
002B0067
FEDAFFA4
00C5001B
FF45FF5F
FE010166
FFDC0013
00D7FF21
00950039
00D100BB
FFE900D7
013701C6
FFC80042
014B0044
FF26FE9C
0137FF5C
FEBE0101
007F0042
FE5DFF6B
00FFFFB2
01C40046
FFC50147
01D3FFCE
003A005C
0062FFC1
FF7F0061
FFD00086
FFCEFF77
002D0037
00570110
0074FEA1
FFDE0051
0186FF5E
0024FEF0
FE50FFFE
FF310020
FEE9001E
0037001D
FFEFFF5F
FF79FFAD
0029FFD1
015B0014
000AFFD3
0024FF99
FFB2FF90
FF5F004B
FF46FFBD
0009FFA3
001FFE5B
FFA000D7
FF3000BB
FFCFFF74
FFB301DF
FFB100A2
00A600D6
FF98FFAB
FFFBFF57
00A1FF70
FEE30050
0068FF92
FFBF0078
007FFF14
00130027
014801D5
007AFF59
FEA10107
FF8CFF29
006AFEE5
FFA20098
007C0049
FFFF01AB
007DFFC0
FFE60186
001F0120
FF8FFF4A
0020FF3A
FED1FF6E
004000A5
FED400EC
004701A3
FF3900B2
FFF2FF2D
FFDCFF74
FFCD0104
FFEEFF65
00160062
FFEB0018
003D0092
00090012
FF66FFFB
009FFF4A
01310013
FEBCFF69
01600043
FF710017
FFC7001D
FFF3FF71
FF4900FE
0064FF36
0001FFCA
FFEAFFE2
01F90005
00130003
FFB6008D
FEF5004E
000A017A
FF1B0113
008B00C0
0018FFD4
FF1C0067
FEBA009A
FFC1FFB9
00FDFE19
FE5CFF85
FED8FFE4
002DFF0E
FF7E0135
01F000C5
008FFF7B
FFBE0047
FED80046
011B011F
021A00F1
FF88003E
FFDE0059
00A1FDED
00D3FFB9
FF560057
FF1E0077
014CFF84
FF94FEF7
008F0145
00E5FE6F
01A80007
008100B9
00DD013D
FF5EFF54
011CFFE4
FFB500AC
011FFFA8
FF8E000D
01AA00FB
008200EF
016E013B
0029001F
00A4FFDE
00320117
FF84FF2E
0048FFFB
00BCFEDD
0005FF1E
FFC7FFE9
01EF004F
00690042
02740088
00E200A7
0043000D
FF070108
00E6FFE8
FF4D0018
FFF9006C
FF7C0009
00F20049
FF8100F4
FF6CFF9A
FFA50056
00820077
0074FF87
0039FFA3
FF39FFA0
FF72FEF1
00BCFF03
000AFFF0
FF16FF33
00860032
0052004E
0127FFE0
FECDFF4A
00500144
FF47FFCC
002BFFEC
006D009B
009E006A
004801F2
003D00A3
FFA6FF93
00E4FEEF
FFD8FE88
FFAF0084
0014FFE5
00F60016
00E9001D
FF1CFFF7
0024016A
FFDF0032
02150009
00170087
FFC50052
0068FFA8
FF2200B3
FEC50060
FF8F005C
FF20FF89
00130027
FFEA008E
FFB3001F
010AFF17
007AFEF8
FF7EFF01
FF5EFFE2
FF70FF05
FEF6FF89
FF62005F
003D0057
FED1009E
FFE1FF69
00CAFFE8
0065FE9C
009A0120
FFD2FF32
FFBE003C
009D0095
FDCF0027
002200BC
018E0081
FE37FF50
00B0008C
FF71FFE8
FF6900AD
FFB8FFDF
01F6FF02
007F00BE
00030072
00D2FFB1
FF7C014C
00BF005D
00510016
00460091
00A2FF4E
00DCFFCC
FEF9008E
0154FED6
00D9007C
FF2B00EF
0081FF2E
FEBB0164
FF1DFE1A
FFC7FF11
008E0035
017C0109
FFACFF82
0096FFE7
FFF5FE4F
00AB005B
00090003
00FC00D9
00100151
FFFD0063
FF04007E
0061001E
0105011F
00E40135
FF80FF30
008C0055
00120113
FE76FF3A
FF8BFF2B
00680118
FEFE0193
FE2100FA
FFD30137
FF3B01BA
FF4FFEAD
FEB800F7
FF45FFD1
00200265
FF9D008D
01F300B3
0141000E
FEFDFF8B
015BFFE2
FFECFF4B
FE5EFFCF
014D008F
FFD400C8
FF1B008C
0062FF3B
0001FE01
FF36002C
FF2C0053
FDFA0063
FFE9FF39
FF780083
FFEDFF7C
FFAD0043
FFF8FF1F
0071FFB6
FFB0FDE3
FFD3FFB6
FF36FFAA
002C00B9
00530063
FF1500D5
FFA7FF22
FFB0FF57
FFC5FFF4
014200B7
FE670061
000FFF8E
0075008A
011801C8
0039FF0B
01190157
FFA6FF6C
FEFCFFEB
FFB3011F
FF5B01A7
00E1001D
FF46003A
0170FE70
016500C5
FFF9016E
FF72001E
FFC10057
FFD20030
003800FB
FFE2FE1B
0081013B
002A00C8
013B0178
FF5C00D2
0026FF45
005FFF46
002400B7
002E0185
FEF7019B
FECB0091
FF6DFF42
00CC010B
006201EA
FEC30098
01120172
016100B2
FF170019
002F0088
00FA0068
00F3FFDF
FF2E00CE
0045FFDE
FF6FFF03
FFBFFEEF
FF22001D
FFE6FFA4
FF1CFFDB
FEAC00FE
012AFF6E
FFCA00B2
FFAFFF11
004A00DA
FFC7FF7B
00AB000A
006E015D
FF4400B1
00BE00FC
FFBDFFE1
FF9AFFE7
FF8DFF58
FFB3FF20
FF81FF6C
00330149
FF6FFFCF
0063FEC7
00C40045
00F300FF
011CFF64
FEFD0017
FF9100A2
00FC0173
0127FF9F
FFB900E7
FF79FFEF
01090123
FEB3014A
010700B6
0025004A
0022FF3F
01F9FF04
01640115
FEF2FFFD
0026FF98
00D7FECE
0116FFAE
FF780032
001C011E
FFD1FFC8
FF76FEE2
002500E7
FFF3FFE1
0111FFD6
004DFE5F
FFCC0000
00A0FEED
010001B0
FE710038
00DD008E
FEFB006E
003B0068
003B0056
FF7B001A
00E9FFCF
0094FF79
005CFFB1
FF660180
005000CB
009AFFF4
01AEFFDA
003D01A9
01BCFFFB
0087FF0D
FF2DFF9A
018C0072
FFCEFE6D
001E01A9
007EFEEF
0044FEEE
003D0071
FFED0006
FE13FF33
0016FEAB
FF6FFFE3
0097FE97
FFD500F9
00550114
FFA400F5
FF00FF82
0090000D
007B00B7
002F00BB
0000FF33
017A0068
0033FE99
FFB80095
013B0004
FFEB00DD
FEFD00D8
003CFF34
0096FEEF
FF86003B
004700EA
00E20002
007F0027
009EFE9C
00A0FF7C
FED4004C
FFF100FD
FEC6FF93
0104FE36
01BAFF1D
00DF0094
012AFEF3
FEE8FFED
003F004D
009F0017
FFB4FF22
FF5AFF2C
0009FFC3
FFB8003E
0107008C
FFAF014F
005E0093
00E80065
0070FF7E
FFD80077
FF5C0022
FEF80052
FF7FFFA0
009D0028
014B007B
008C006A
FFD100AC
010C0060
00D90041
000EFEB7
015E0071
00CAFED1
FF4CFEF7
003CFF89
FF0E0002
006900C1
0082FF06
FF2000DC
FFE9FF79
FFE3FF1E
0110FFAD
00EE0026
0015FEA4
010CFFA1
FFF8001B
016200AE
0079007F
FF43FFB5
0087000A
01B3FFC1
FF180167
00E00034
FF960038
00D10019
0080FEBF
FF4C00CF
00650089
FFA60030
FF1E0062
0004FF51
FFE80061
00480097
012FFF70
00700019
FF1600BB
008A001F
00350081
00120018
0066005A
00D7002B
00EC00CE
00090144
0059FF86
0084FF68
FFAA00CC
00A20076
00CBFFCB
00F5FF89
FEC1FEEA
0049FEBD
00F1000D
FF02015A
0079FFCA
FF7D008E
FFE30120
00070043
FED2FE08
0145013C
FF62FEA1
FE930053
FF56FEFE
017AFEEE
00440006
FFAE012E
FEA101B1
0043FFD7
007101A7
014BFF26
FEEAFFAB
00EBFF7F
FEFEFF4D
FFD5FF5A
FF4C0032
0060FF1D
FF3FFF58
FF6E001E
00B9FE8E
000D0176
00B8009F
002EFF9C
0147FFBD
0034FEA7
FFEAFF3E
00E00038
FF8800E7
0022FEC1
FFBC0205
01AC0011
008A0037
0002FFEE
FF70FFDE
015D0129
01570143
FF9BFF60
00890003
014E006E
019F0021
0094FF05
005B00E4
FFEAFF94
FF8D005B
0089FF52
00A10095
FF8B0159
0153008C
FDCB0024
01ADFF33
FE9BFFDD
FFE2FF95
0014016E
FF36FED1
FF2FFFB2
FEE900F4
007C0005
FF89FF93
0044FF0C
00F3014F
0024FF5F
006EFF73
FF530021
FF68009E
0189FF97
FF3500ED
FF90FF0B
FF62FF84
01310147
FD8CFF80
FE0DFFB9
006FFF1F
FFE4FF48
FFCE0038
0073007A
FFBD00FC
FF240001
FFA80027
FDC1FF48
008EFF98
004B0002
FEC0FEEE
FFC4FF6F
004700C1
FF160085
00EEFFDA
0057002D
FECE00E8
007F0048
01810123
FE710183
FF22FF57
FFC20151
00DBFF24
FFFAFF6F
008900C5
FF01FF99
FF83FFA8
FF55FF94
0041009D
0095010C
01270066
FFAE0034
011CFF5E
00AE00E0
FF2CFFB8
FF7BFF44
002CFFCE
FF4B0139
0098FFE6
0025FF75
009D0082
FF52FFDC
00D2FF6E
FF8401E0
FF33FEAF
FEBAFF09
00B3FFD8
FEE3FF15
FFB90024
00650009
FFBC0003
FFD4FF88
00ACFF51
0142FF00
0013FFE6
00900114
FE5100D0
FF16FEF6
FF9D00C3
0050FF6C
FE44FEA5
0079FFFF
00040148
FF09FFD2
FFF60241
FF52FF3F
FFE1FFED
FFB80190
0010FF92
00FF00A0
FF6C0066
00ABFF48
006B00E8
0006FFF1
010C0050
00D400AE
0132FEAD
FF03FF50
FF96005E
006300B9
003D00F3
0000FFA5
FF01FFB3
017CFE33
0025FE71
011BFFC0
0038FF5A
FF9900E2
FFE90190
FF8C009A
FEF90070
00F7FFEC
00090163
FF3D001B
004EFF8B
FEA5FEE0
003000B1
FF28FF9C
01C9FFCA
FFC0FF35
FFFEFF74
00E3FEC4
0005FE39
0000002B
01DDFF7D
FFF9FF93
004F024A
00DFFFB5
00AE0030
FE790005
FFCDFFEE
FEB1FFC9
FFD7FF7C
00560039
027DFF9C
FFC10020
001CFF5B
007C0085
FFBDFF85
FFE900E0
01080117
00A0FFC5
00A0006B
00CF002A
002E0110
00BB015A
006C009A
FF71FFE4
FF1EFFEA
00C0FED7
003BFF9F
FEDD00CA
0063FEC8
FFFF018C
FEFE0052
FF9EFF51
FE6B0092
FEF2FF32
FEFFFECB
01F000F9
FF760025
FF7FFF37
00B7FF88
FF8FFFFF
FE9200B9
FF62FF9A
FED6FF69
FF490052
0050FFCB
FF5EFF6E
00C70032
FF510041
0069FF81
FF99FFC4
019AFF05
FEF1FF0C
00E800C7
007B0106
FE6EFFB1
FF350009
0046007E
FE72FFE9
FF580108
0022FF75
001D008D
0003FFA2
00420100
0044FF95
014B00F3
0004FFDD
006CFF2A
00F70172
FF8DFF3A
002C00FF
011EFE10
005AFF6D
FF90FF9F
FFF2FFDE
002700EC
FF7901A9
FFE10186
FEEB002C
00CB009B
002EFED9
0118FFE3
0035FF6E
00D2008E
0101FFA8
FFF00031
FF49000A
FF15000D
00790104
FF4FFF73
FF54FF69
FE870019
00D40026
FFB500EE
01BBFFDD
00B9FF83
FFE3005F
FF2E0097
FFE80179
0029FEC6
006600DF
FF5D0061
005DFFFC
FFFD00DB
0081FFFD
FF77FFB7
FEEBFF38
FFED00BE
0112FE97
FEFE0061
FF7BFFE7
00D8001A
FE30FFBC
021FFF34
FFD1FF41
FECCFFB9
006BFEE0
FEDFFF29
0077FF7F
0000010D
FEF7FEB7
01B4FF3E
FFC4FE5E
00100000
FF3B0074
004F0050
FF41FF3F
FF700024
FED6FF8D
FEBD0071
FF470009
00C20071
0024FF76
FF3FFF53
FF34FF96
FFA6FFAB
0086FFBF
00C10094
FFC6FFF0
FF0FFF23
FF7A0113
000A001A
007400A9
020FFFC4
FFDF00DF
FFB00117
FFE100A9
FFE00032
012E0062
00AE0094
011FFEE0
012AFF1A
00C30103
001C0003
FED8FF6B
FF30FFAE
01FF0036
001AFF40
FFF9FF33
FEE1FF7F
FF5E01A0
FFC3FF60
00B3FDE6
00ADFFB5
00D9FF53
FF28FFE3
FF43FF89
FFB70156
FF2100A6
0018FFC4
017E00CD
000BFF3D
FF04004B
FF91FF6D
00000014
FF88FF50
005500A3
003BFF08
FF81004E
FF9EFF65
FF4100D9
FFE600EE
FF32FFD0
FFE8FFCB
FFB6FF22
0006FF87
01A6003E
0129FF18
00F2FF97
FFC3FFE4
FF1DFF30
FF9D001E
008AFFEB
00FEFF89
FF350057
FF85FF3A
FFAC0135
0020FFD7
FF59001E
009700BC
FE1D001F
0086FF0C
0152FF91
FFB4FE09
003600F0
01C90041
01790057
FF42FECA
001A003C
01150003
0012FFDA
FFC20031
0038FDDD
0070FEDC
FFE90008
FF02FF61
FE8E0090
00A9FFE3
014000BD
FF9E003C
00090016
FF7100EF
00960045
FF0B00F4
FF58FEEF
FF0000F5
FE6100D4
FEC00005
FFB6FDF2
FF0AFF89
FE95FF44
004DFFF2
FE0C00AB
FE9FFF81
00290079
00210171
FE36FFC4
FEE10032
FFE20073
FF3EFEEF
0049FFAC
00C0FFF7
00DAFF1B
0085FFF5
013DFF45
FF19FF4F
FF68014A
FF74FF96
0067FF9D
0008FFC6
FFD700C8
009A00E8
FFCA004E
002701B2
002C00DE
FF3BFFD9
014EFDF7
FF530047
FFD10105
003DFFDE
FF920050
FFAF0131
0092FFBA
FFFAFF62
00BC0015
FFAF005F
FF650142
00B90082
FF24FF85
FF700011
001F0009
FFB60057
00780122
FF20FFB2
FFAD004C
01720006
004FFFE8
00730161
003BFE98
FFAB00F2
FFC6007C
017AFF4F
FF7E003E
FF750037
FE930056
016C000B
002F001C
FFE3FEAC
00FB002E
FF4B0053
FFE60009
0047FFDB
FEC400F2
FFBC00DE
02170059
FFCFFFF1
00B80057
FF94006B
007EFF7A
010DFF8C
FFC8FF9B
0102FF81
0037FFA7
010F0155
003B00A5
000200AB
FF87006F
00FBFEDC
00E50154
010600B5
00A2018A
FFCCFF31
FF09021B
FFCDFFDD
002B001E
FFBAFFD9
FF81FEF4
FF3EFF41
FF3A00C3
FFB30013
FF9D00C3
009FFFCC
FF4C00B8
00040073
0197FF3E
00F00195
0001FE27
FF2AFFA5
FEE9FF84
FF54FFAB
0147FF3E
00F6005C
FFC900C1
0031004C
00F60138
FF9200F4
0067003D
0007FF05
013D00D2
FE35017F
FFB5007D
00B2011D
FF8F007C
FF97FF7E
FEB9FF2B
005EFF27
0056015B
FFC4FF51
FEF70035
012300F0
FECFFED6
FF0F00C0
FFC000EB
01300052
0074FEF6
FF9EFF60
FFB8FF79
0139FF99
FFD1004E
001B004C
FF9B00AB
FFF9017D
007401DD
0078FFDB
FF62FF3D
009E0030
FFDEFF92
00B00037
FFBE0082
00DBFF28
006700A6
FFD100FD
006FFE61
003FFF82
0111FF61
FF84FF22
01120041
FFB10068
FFA10063
0040FF5E
02920101
FF73FFE4
00B8FFB4
005F005D
FE5B008A
FF6100CA
FF66017B
00A60021
FFE0FFE3
FF4DFF6C
01B3003B
006EFFE1
FFC500CD
00FAFEC7
00010024
0008FF8E
0089FEAA
FEBD00A9
0017FF7D
00E40227
0012FF50
0022FE33
0109FFC5
FF570024
003E0066
004FFF37
FFC1FFA7
009AFFFF
FF3AFFC5
00D5007F
FEC2FEFD
FF2700A9
FF96FF9B
FFBE005D
0051FFE8
00AB00D8
00E900E6
FFDA0050
007C00A2
00FCFF70
004500C3
FF400022
FF4EFEF0
00B900C2
FFA7FF3A
00C1FFF9
00AFFF24
FF77017B
0000FF82
FEE201FE
FF7A00C2
FFBF0129
00690065
02AFFF17
FF4200B9
FF490039
FFECFFE0
FF1E0135
FEFCFF42
FFCD01A5
001F0109
00DDFF58
FF3900D5
FF88FF93
00B8FF95
0146FF16
005B0129
FF6BFEFC
000A00B1
0049FFBB
FFFBFF83
FFF1FEF1
FFB4FF93
FEAEFFFA
FFA30139
0030FF14
0006FFC6
00FF0019
FF550025
FF58FFE6
00CB00B4
00860085
FF8600D2
FFC500EE
FF0FFF2A
FF8FFF2A
009EFF9D
004BFF69
FFFEFF76
00940103
00D7009F
FF850139
FE7700B0
FF5300A6
FEA00121
0013FEBC
00AB00F2
0066FFE7
00D7FFFC
01230005
FFA3FFE7
FF3AFFF6
FF9CFFD5
FFF7FF0F
FFBF00B4
FFCDFF7A
0009FF64
0072FE28
002DFEE0
FFE8FFDF
FE23FEFA
00ABFF95
003500EC
FF5E0039
FF33005F
FE4D0036
0005FFB5
FF8500C2
02070156
01000114
005501C0
FF7E001D
FF1DFF35
FDE0003A
00B9FF88
0014FF01
00C1FF24
00AEFF7A
016C0010
0105FFCB
FFE2FF39
013C0096
00630029
00090025
00D40150
003B0007
00110052
FFC8007A
00CFFFC1
00580020
FF0FFEEF
010E002D
00C3FF49
FFABFFF1
FF1000BC
FFE4008B
008400D8
01C7FF2E
008600E3
005000B7
0021015C
FF1F0198
FF8B00CF
FFC2FE92
FE7B0151
FF60FF80
FF5EFFA7
015D0099
00BAFF1A
FFF3FFEA
FF80FEF6
FF32FFBF
008E0171
007D0038
FE9E0116
FF5C00AE
FE7BFEE8
FF340147
FFF8FF8E
FDEFFF5E
FFDF0013
FF0000D8
0096FF75
004AFFB5
00E1FEB8
FFCB0018
FEA2007A
00BD0023
FEE00051
0003FF49
FFA5FF04
FF01012C
0008FF80
00D8000C
FFA2001A
00C9FF1B
00B0FF12
00EEFF63
0055FED2
01110141
004DFFAF
FF970050
0113012F
00810034
FEDF0032
FED2FF10
FEBAFFC3
FFDC00AD
FF9E0047
FFEDFE99
0062FFAE
001F0010
00710009
005A01C8
FFA200B5
015E00E8
007000F4
FF92FF99
004AFE37
00320060
FF7DFFE9
FF540110
FF4D00C2
00E0007D
FF66FF2C
FEAA00F7
00230005
0126FF8D
018100DA
FF8E008D
FF010061
FFFEFF42
000CFF93
0030FFA3
00980137
FFCA0024
FF140174
FF63FF54
FF9AFFCA
FF73FF56
002AFF4F
FE8FFEDB
006EFED6
014DFDD2
FFD8FFFC
0190FF0F
0008FFA7
0075FF33
00C7004F
FED40027
005F00B4
01AD00C6
FFFEFEED
0040FEE5
FF67FFB7
FFB3FFF2
00320053
FFF900D1
FF86FFB6
FFBCFF9E
FF7B00DC
FE6D0176
FEB40087
FFEDFFF9
001900C2
00440052
FEBBFEF3
FFB800A3
0088FF1E
0037FF02
FEC5FFC3
0016FFA7
00E00176
FF26FF20
00680099
FFBDFF5E
FEE9FFA6
000DFDF2
0086003B
FF9B0007
FFE10061
0016FF55
0041FF90
FF47FF93
00850097
023700D1
FFDBFE97
FF4EFF4A
008AFF90
FED9017D
00FDFEA2
0010FEC6
0000FEA1
00CF0080
00A5FF2C
FFEC00E1
004FFEA4
FFFC0051
FF90000D
00AB0078
01C3FF28
FFED0104
FE5DFFBA
00E4FFA8
FFA100EB
FFA60136
FFF30006
018CFEDF
FF4AFEF5
00D5FF4F
00EF00AC
FF8C005E
FFF4000A
FEEE00F9
FFC8FF77
FF180067
012E00E5
0064FE44
FEDB0144
003B00D8
017FFF71
009900B5
0104FFF7
FF4DFEBD
00AA00D8
003A0034
FEFAFFAA
0003FFBE
FFDCFFF5
003200BC
0113FED3
FF2BFECB
00EE0070
00720009
FE26FF55
FFB101D2
FF980131
00A7FFD7
FF11FF99
00FA011D
00810090
00D200AB
FF82FF9A
00C800F9
0196FFA0
FF7BFF6C
01890089
0020FF3C
0124004B
00BE0166
00BEFFB9
01E9012E
FFADFEAF
0028FF52
FF9B0095
FED0FFFF
FEC9FFDD
0070FFDE
FFAC0193
0167001F
FFAF00A1
000FFFD0
017DFFF9
FFE3FF0E
FF49FF4B
FFEF0029
000BFE20
008AFF3C
FFC4FFCD
FE6AFF5E
005D0119
FF400145
00910180
FF3CFF11
FF6F0048
00F5FF6A
FFF4FF67
FF58FFB4
FFF8FFD4
00810072
FFA800CF
020A014C
FDF5FFC2
0065FF94
002E011A
0022002D
000B009B
0116007A
FEBD009E
FF4AFEBE
FFA10043
0052000D
FE7DFFDE
FFAE0108
FFA6FFFA
FFDBFFAC
003BFEDD
00BD00FB
FF720039
FF03FF17
FFD1006A
FF57012D
0098FE93
FF6C0111
FEE7FF8F
FF4F00ED
00C40072
FFF8FFB5
FF5B0106
001DFFE8
FF98FFBF
01090001
FFC4FFC2
FFD0000E
FFC50089
FFE0FF9F
00230000
FF9EFEC8
0039FFC3
0023FF92
017C0116
FF83FFAE
FF0B013E
0088FFDE
0046005A
FF64FFE4
00260135
002D003C
FE700041
0122FF0C
00C3FF50
FFA2003A
00880071
FF35FF5E
008A0169
0063FF4A
016DFFF8
0001004B
FF43FF29
FF0E0013
010CFF8F
FF1DFEC8
FFE4FF3B
006BFFC5
00BFFF3C
009700DA
FF37FF9E
FF5A00A6
FFE10115
FFEE0014
0142FFFE
FF9D00FF
00ACFED1
004C00B0
FFB5FFE3
FFC800E9
00A100FA
FF3E0019
00840045
FFFC000E
FE9B00A3
FFC5FF83
FF93FEEA
005CFF20
FF8A0011
FFC9FF6F
FFA4FF9F
001AFFA1
00BB0176
0032FFB9
FF440103
010AFF85
01460101
003BFF24
008D00DE
00D10073
0115FEB7
0048014E
FE94FE87
FFE3FE76
FF4AFFB4
FF2DFF5A
FF45000C
01BDFEF4
00A3FE37
0035FFD0
FFF5004B
FF78FF61
005DFF52
FF6100EF
0133FE09
008F015C
000DFFE8
FFFAFF10
0065006D
0110012D
011C00A2
FF7200A5
0087004A
FFEC0167
FFFFFE7B
0168FF90
00A6FFD7
FFC3FFD9
00ECFF9D
00E000FC
000B00DA
0076FF69
FFB00087
0009FEB8
00DB0021
FFA70021
FFB80030
FFE50088
0036FFB4
0205FFB7
FFCFFFC2
FF16FFE1
FF4DFEAD
01AEFFBF
0046FF8E
00540111
0005FF62
0104FF43
FF7E0060
0276006E
FFAF008A
0021FE7D
008BFFC8
FF670070
FFB0FF21
FF540174
00470017
00820052
FECB00D9
002B01AC
000801B0
FFEE0061
008FFEF8
002D00B0
FFDB0051
FF84FEBF
FFADFFA2
00400068
00BA0051
FF9FFF1D
0063009C
FFF1001C
FF74009F
FF32FF31
00C6FF0F
FF9A0004
FF88FFBC
0160011F
008D0076
FEF2FF61
00A1FFEC
00890154
FFC9FF59
028E00CF
FF650125
0080016E
0042FFD1
FFC10064
01110107
00960166
003F0140
0002002A
FF6A00FA
007AFE75
00740081
FF54FFB6
FE80FF9F
FEE9007F
0046026E
FFEAFF55
01670057
00150009
015EFFDC
001A023D
FF6DFE81
00580020
FF19FEC2
0078FE72
011DFFC3
002600F7
FF6E0133
01760160
00DC0016
FFEBFFE7
005A0091
FEC700B6
000AFFB1
FEE400BA
FFD300C4
FFFC00BE
FF0A005D
00DEFFCB
FFCF0002
FF86008B
003AFFA4
009EFE80
0046FF9B
FFA7FE9A
FFBB00B0
FF6FFFFA
FF43FF05
0016008C
FFB00088
FFC0FE12
FFA40106
FF1DFF17
FEA2FF5C
FFB10074
0020004D
FF6D00B5
FED50038
FFA10091
00FDFE65
006B00BC
FFF600CB
FDD00025
0079FFF3
FFAE007C
017CFFA3
0030FD87
00C7FE46
003E0077
FF78FFA1
FFE0FFCA
FEDC00B7
FE9E0075
FFDBFFB5
FFCB00D8
FF76FED1
FE29FEC5
00D40055
0078FF22
FFDD00CA
0078FF9E
00D501D7
003CFF10
FF38FEF0
0029FFA3
00940015
FFFC0020
001DFF64
FFE00174
FFE2FECE
FF93FFCA
012FFF32
FF12006D
FF85FFC4
FF4FFEB2
FFC8FFD0
001B008B
0059FF05
0107FFA8
FF1CFF0D
FEC0FF7F
01A1FF2D
0039FFEE
FFC9FF38
FFADFFAA
0159004B
FF58FFF7
FFF500BE
000AFD74
FF1CFEFF
0010FEDA
FFFCFEBB
FFDAFF80
FFA5FFB7
013800ED
002300AC
FF42FDFC
0162001F
FF1200A8
008300C0
002E00D5
FFEFFE65
FE170055
007300B7
FFCBFF1F
FE5AFEA1
00A00069
FFA5FFDD
00A5FFE6
FF580129
FF1CFFB4
FF980076
FF77FECC
FFC5FF41
0005004E
FFF30163
0075022C
0057FF51
FF1700B1
FFA4FEE8
FFAA0008
FFEF012A
0020007E
FF97000A
FFC6FF0E
007C0087
FEE900C9
00FFFF83
00EC007D
FE96FE7A
FFEA0085
0126007A
007D007A
FEB1FF5F
FF880037
FE5DFFFB
FF8600CB
0064FF30
FF90008D
0045007A
FF8BFF98
00DC0034
0012010D
FF1B003E
00BEFFDF
004E00F6
008F0080
FF77FF38
FF0BFF69
FF6A00A5
FF4E00AE
FFA8FF3E
FE58011B
0077FF1C
0046FF59
FF24FFB6
FF4B000C
FFFCFF72
00D40023
FEFE0103
014C0063
FF9E0038
0186FFC0
FF830010
0051FF91
FFDC0022
00BFFE8D
00B7FF92
00E001BB
01BFFFAF
00B3FF96
FF8500CF
00F80086
FF740105
00A2FF10
FEEDFF5D
FF07FF3B
FFB5FF91
FFB9FF4F
FF40FFD8
006C0062
00400105
00BCFF6E
FF86FF44
FF660023
001B0057
0036FF9A
0045FFF6
007AFEF7
FF18FE6F
FFEDFF1E
0039FF32
FEF3FEAB
0028FFF7
FF030014
FFA6000A
FE4BFF6B
001B0011
00430001
00150072
FFCAFF5F
0029000B
FFA2FF92
FEF9003E
FFD2002B
0141FFF8
FF6FFFDE
0022FF18
FF1B000A
FFAF006F
00500067
0081FFEE
00B8FF5A
008C000F
FF33FEC0
016300D1
00E7FFDD
FF99FFFF
FF4FFF4E
000EFF64
FF77007A
FFC0014E
FF86FFED
FECC004D
FF4000F9
FEDBFF84
FFD2FE8D
0065FF32
007500FC
FFA60018
01ECFEB1
0124FEC0
00F400AC
FF83FFA8
FF71FFDF
FFE400EC
00BBFEED
FF5C0061
FF71FEE8
0160FFE9
FFCAFEA4
FF890090
010401B3
0014FE72
01360050
FF8F001C
FFE8FF61
00ECFF8A
00E1FF1A
FFBF0032
FFCFFF48
FE9E01A1
004300CC
010600BF
FF9BFFA3
00F4FFBC
FEE6FEFE
FFDA004C
FFD5016F
00A7FF87
01B40072
FF0100A1
FFDD0035
FF980027
FFD4012A
FF2E0076
FFCF00F7
00C9FF76
FF940029
FF830118
FFD900F3
00B5FFE9
FF3F000E
FEEAFF8E
009BFF74
00EBFF83
0086FE98
007C009B
FFA20074
0147013D
FE05FFDF
0028FFF2
FF7FFF4B
002C01C1
FE7BFF80
FF4EFFFA
00A90189
FF7B010E
00200017
FEE700D2
004B0102
00CEFFC4
00FEFE6A
FF2DFFE2
FE44FFC8
00DEFFB5
FF05FFAB
FEEDFFD1
FF0F0064
0027FECD
00EE0050
FF04FF64
FFB000B7
00BCFFA0
0074FFF9
00D5FF6B
FFDCFFDF
002E00E9
01C301EC
FF19FFC1
003EFD76
FFEE00DA
0152FF4F
00A5FFAF
FF4EFFAD
000F001D
FF4F00A7
011600A2
0155FED7
0004FFEA
FF87001B
01030032
FFACFF5F
0043FE8A
000D002D
FFCFFEF7
00010059
FEFC00E2
0010FEFE
FEF4FFEB
006DFFB4
0017FF38
FF4F0278
FE6AFF7A
FF9CFEAB
FFA40087
012A0013
011800A2
FFE3FE63
FF6FFFD6
FF930183
FE64FEC8
0070FF8E
0059FF72
FFC3FF64
FF77FF53
008D00AF
FF20FF57
00A9FF90
00DBFEA9
004CFEF5
01B6FF23
FF62FF55
FFB5FFCA
01A7FF06
00D2FF38
FED9FDA9
001C0081
000900B9
01A8FEE6
FEEC0030
FEBF002A
00B8FF5B
0107FECE
FF41FEFD
0065FF2E
FFAA00E7
001AFFDD
01B3007D
004D0146
00D7FF22
FF49FF11
FF2E0123
00330140
FFD4FF5F
FED400BE
FFF70034
FFB8FFCC
0159FF67
FF180029
00530205
0026FF33
FF48FFC8
00B1FFC3
00350169
FF6D009E
FFFA0005
00A0FF2B
FFCD008F
00D30085
FE62FFF8
005600A6
FFB7FF58
FF10FF48
FF54008C
0177003A
014CFF56
FFE6FED8
012400F9
FFA6014A
00A40075
FF49FE33
FECBFFF0
011A0076
0012008D
FF9400D6
00A9FFBA
002B01BE
FEFF0052
FF79FF94
FF2BFFBE
FF7BFF78
00290059
00E3FFDD
FF54FFB4
00FD0017
00C3FF08
FFD2010C
00B0FE9B
FF510024
000F0033
FF50FFC1
FF9BFFCC
FE6F007E
FFA10110
FF30009F
FF5B00FE
FE7CFFE9
0057FFE3
0079005B
00360094
FFD1FEC4
012EFF65
FFF10027
003700B1
FF90FFCB
FFFBFFCA
000C002C
009EFFA7
013400E2
00660031
0004FF9A
FFADFF99
0032FF53
FFE9FFF4
FFFC001F
FF3500E4
009C005B
FFA2FF50
FFFF001B
00E8FF90
FEC700E4
01D2FF07
013A006A
FF9BFED1
FF43FFA1
FF330058
FE9F0000
FFE00007
FF57004A
00C1FF8E
FF76FF44
FF0AFEF9
010FFEB6
FFBAFF91
FEBFFF2A
01C80031
015D00F1
00A70073
FFAEFFB9
FFAC0166
0080FF3A
00C00006
FEF5FFB9
FF460059
FF67009F
002A01B3
00D7FFE7
FFB0FF97
0128FF57
FFC10161
00A8FFA3
FF39FFAC
FF36006B
FF460055
FF89FF8F
FF87FFB0
FFAA00A4
FEB90168
000D0012
0047008B
FF5600BC
FFF10052
0127006C
012CFDAC
FF2401E1
00E9FF14
00A3FFC8
FF06000B
FFD500F2
FEEC001E
FEFAFF8C
004300CE
FEBAFF4E
0010006F
FEA9FEA5
FFBCFFDC
FF71002C
FF4900AD
00FB0080
FEB3FF3A
0033FFB3
FF710023
00A900D3
FF8900FC
00680068
FFAAFF1E
00D20095
FF70FF8C
007A0023
0051FFCD
008500FA
FF99FEE7
FF8F0083
FFC500A7
009A0045
FF8DFED2
FF1BFF7D
00A1FF0A
0037FE1C
006D0080
004AFEDD
00880141
FF8D00AF
FF38FF72
FEAAFEE9
003EFFAC
FFB0FF61
0100021B
FEFEFF9A
005A0159
FFC1FF76
009CFF00
00620144
FECEFE9E
0057FF90
FFA50011
FF38008C
0073004C
007AFF08
000DFF29
00A0FFAB
FEEBFF23
FFCFFF06
FF12FFAB
0079FF62
FE6B00C9
FF4901D4
FFED00A1
FE40FFEB
FFE000A9
013D003D
002B0040
0025FFB9
0086FF8A
0087002E
FF08003E
FF46FFAF
FE6A0023
002D000F
FEC5FFDA
FFF30105
00400128
018FFEB8
FF4EFF9B
FFA9012F
FF9000AF
012EFE86
0007003D
008A0094
005600FC
00200135
0015FF18
0055FFFE
FF8F00A0
FF1B0181
FE0000F6
0066FFBE
FF5C0055
FFC800B3
FFA9FF01
FF3BFF28
000300D7
0184003B
FF50FEE2
008EFF33
00E0FFB3
01CCFEB1
FF4AFF71
FF6DFEF3
FF7FFF62
FECEFFA4
0214001B
FE4CFEF4
FF920132
FFD3010F
FE7D00DA
00CCFF2E
006EFFF9
FF9CFFEE
FF64FF91
FF55FFD0
FE8A00C3
00600016
FED800C2
FF36002D
002A00D9
FF5100FC
FFE2007C
FF6AFF30
00E50074
0167001B
00A8FF44
00C1FF1E
01C90183
FF640112
FE6AFEFC
FF66FFDD
0170FFB9
003700DE
FF6EFF5F
0001FF9B
0102FFD2
FFA2FEB8
FFDA0003
00D5FFEC
00650012
FFA500F8
FF41019B
0091FF36
00EE00C0
FF6EFF6E
001C00C0
0090004E
00AF0048
01C4FECE
FF79FFBD
00AC007F
FF54FFEA
01330115
FF9A00AE
0109FEE4
00D6006D
00F6FF58
012DFEDF
00610066
0029FEF5
FEC5005D
FF98001A
00CA00AB
FF74FEFD
FFFDFE5F
FF1C015C
00CD0087
003C00FB
010BFFC6
FFB9FE83
FF06FEEC
0153FFA8
0031008B
FE7A0115
0070FFBC
010FFFBF
0019FF30
FF8F004D
0044FEBE
FFF9FF0F
FF4C012C
0051FE99
FEA10019
FF31006C
011301A4
009FFFCC
FE45FFDC
FFD90029
FFE6FFF0
FF530104
002BFF3E
018AFF5B
0027FF6F
FFEC007A
007600CA
FF2EFFDD
0087008E
00170176
0011FF24
FF7AFFE8
FE990061
FFB901AC
004B0199
FF940124
FEC7008A
0057FFAF
003CFFF2
FFF2FF44
FFF5FF7E
00690039
FF6FFF33
00650001
FE83FEF6
003A0220
003B00D5
00CCFFDC
FF5C001C
FF3C011F
FFB5005A
0030003C
FFB0FF21
0172FFE8
0054FF9D
00680129
FFC8FEAC
FF8A001B
FF0EFFAB
FF14FF1F
0056003A
FEAD0083
FF6AFFD2
FFB3FFFA
FFE80083
0029FFB2
FF44FFB2
FF7BFEAA
006BFFD9
FFA70042
0112003D
FF960073
FE30FDB9
FEC4FF91
0066FFEF
FED4FFE1
0016FFCB
FF2DFFA2
0022FFD1
FF1FFFB2
FF40FFA9
FD95FFCC
FE73FFC2
FF38FF40
FFC1FEA5
01B6FF10
FF41FF92
0084FF99
00C2FFEC
016BFFFE
FF52005A
00C50063
01A60086
FFD9FEFE
FFF901BF
FFED002F
004BFEBE
01660145
00E40167
FFAE0082
FF1E0092
FFF501A9
0030FE5A
FFB9FF3D
FEF700E6
FF480159
FF2F0229
FFA2FE6C
FFA9FEAC
FF13FF4D
00F600DD
FF3AFFD7
FFAA008E
FEDB00A1
FF9A00E1
00FD004E
0112FFEB
FFD90077
011EFF3D
FFA0001F
FFE3FEFA
002B019F
FFADFFB8
00BCFDE1
005401AD
0027FFBB
00B6FF85
00D5FEC4
FEE100AA
FFD70006
FF19FF78
FF95008E
0074FFFA
00480095
FF3CFFE6
016D008A
FFD80080
012B004C
00A6FF94
FF7BFFBA
01110059
FF3A0031
FFFD0044
FF4BFF38
00B300DF
00A200C7
00A4FF8F
0043FF24
003B0027
02530058
FF63FF6D
FFE5000C
0181FFF3
FFC700B3
0200016E
00750034
008700A0
FFD40063
FF710121
FFF4FF55
0018009B
FFB0FF81
FFF6FFE6
00650072
FFBFFF30
FF0EFFDC
FFF9001B
00A00172
00C9FF54
00A3FFA2
001BFFEF
00900018
00020089
0055FE0B
00D60151
FF5700CC
FF6C012A
FFA800A1
FF470099
007FFF33
FFD70058
009EFF4B
0035FF79
00DDFE89
00860059
FE77003D
FF80FF21
FFB0FFE1
00E2FFF1
00EE0048
009FFEB7
FF42FFD4
00010061
006600EB
FF13FF81
011F0013
01390066
FF3BFEE0
00B0FFC4
002700A4
FE82FF5E
0026FFCD
FF47004E
FF13FEC6
FF3B0054
FF0600E9
FEE800C2
FF09002D
01990035
00E8FFCC
FDF400F0
FF91002A
0071FEDE
00B7FF38
FF7B00CC
00DBFF4D
0099004D
FFF8FFCC
0094FF0D
FF9A001D
FF3D0110
001AFEB8
FFB30091
FFBF0060
FFEFFF06
006D00F6
0031000B
FF32013F
FF8FFF00
000AFF93
00C0001E
0055FF2A
FE6B01C8
FFBA0016
00ACFF8B
FEB8FFE9
FFDF004A
00EAFE68
006A0024
0053FF00
00CDFF4E
00E5FFFB
015900C0
00D20037
FF5D006E
FE83012A
008DFFF7
00A4FF3D
FF91FF9E
0014FF5F
0021FF62
0035FE59
FFB7FF30
00E10007
014B00D3
FEF30100
002A014E
00B20022
00530033
FFB90119
00E40094
FEDD015D
FFE6FE0B
0090FF4F
009D0038
FEA500A1
0184FE72
006BFE6B
003C009C
0069FFE6
FFC0FFBA
012F0012
FF420116
0044FFED
FF28FF46
007800E0
FFC60101
FFF70079
012300C7
FF4A00AE
FF8B000D
00ABFF9C
FFBDFF66
0063FF87
008AFF94
0032FF96
FFBAFFE3
FF40FFB2
0013FFC8
FF960030
FF57FF94
FEE9005D
001AFFF0
007500B3
FFED0188
0094FED6
FFF200B3
FFED016A
FE8AFF41
FFB8FFA5
0092002B
FFE60048
00A1FF10
FFFE0138
FF5A0098
0186FFFD
FF540081
00BFFF79
00E0FEC3
FF7CFFD5
00D7FF43
0209007F
014300D9
FF7F0094
FFCB00F2
0034FF6F
FF80FEC4
0025011F
FF66008A
FEF701DF
014EFEFF
009F001D
015B0071
FF85FE65
FEA8FF57
FE1A00AD
FEEB0075
FF1000EA
FFB8FEA2
0122FF83
00FE0038
FF3F0106
FEE0FEE8
FEE20036
FF61FED3
FF99FECA
0006003C
0041FFFC
FFF6FFDB
FF660084
00850096
FFAA004F
004C0093
0084FEF3
0017001D
0077FFB7
FF47FE87
0070FF99
004DFFCC
02310087
FFB2FF65
009C001D
00EBFF69
FEF4009D
FF8EFFFE
FF8101AE
010300A9
00E1012D
0035FF3D
FFAA0098
FF440056
0098FF11
FECFFE6C
FF7C0193
004DFFE6
FF2AFFDE
FFED0026
FF420133
FE0BFF66
013B007C
0032FE6E
FF3C00B1
FF04FFB9
FF42FE92
FE54FF94
006800B7
FFFBFF68
00FAFF39
00840187
FECDFFB1
FFAE0044
FF40FF35
0073011B
00BC0086
FFE6FFD6
FF1BFF72
FF9C002D
FFB301B1
FFFC001D
FF7EFFBA
001E017B
00BA002C
0052FE65
00A40022
FF9B0064
008E0058
00C8FF5C
0001FFD0
0197FF86
FFF7FFD6
0075002D
FF5BFF77
FFCB0163
0165FFD7
00D7FFD6
FF240094
002DFFB3
005900A2
013B0106
021300FD
0040FF19
0070FF62
FF80FED8
FFB80163
FF76FE60
FF5DFF12
00B6FF72
001AFF50
FF4EFF85
FFD400AB
00C100C4
FECF008C
FFE90105
005B0177
00F6002E
FE99FFCD
005C0010
0063FDF9
FFFAFF91
FFBBFF06
FFE8FFDA
009DFF59
FF8F004C
00A100AB
00CE0087
FEFCFFB3
01230017
FFA10088
00580120
00EBFF3B
FFE301BD
0175FF4D
FFF2FFD3
00B3FF73
FFDBFF2C
FF42FEFA
FFC8FFA0
011AFE31
005E00E3
00C700BB
00E8FFEE
00480008
0054FFDB
0234FFA0
000CFFCC
005EFFE1
007900E5
00DB0082
FFFCFFD2
FF2400CF
018BFFE7
009E0062
FFFC0004
FEF2004A
FFA800D3
006AFEAC
00A5FF8F
01180120
FFE60028
FF7DFF04
FF1AFFF8
005E0135
0063FFF3
00E1FFDF
001CFF31
FF52007E
0056FF3D
FF9300EE
FF9DFEB8
0001FF99
00EF0000
018000E5
FF9FFFF6
006AFF87
FF05007C
FFA1000B
FECA0083
FED0FF39
FF7D00F8
FFC6FFC4
019F00B5
00210062
FF6400A6
FF88FF6D
FFC8FFDD
01480063
019EFFD1
0019FF85
0086FFDE
00020048
FF690043
FF31008A
FF0D0025
008F0079
FF200040
0140FFDF
FFD8FEE5
006C0028
0080FF8D
FEA40097
FF7F00A2
002CFEE8
FFBFFF87
0196003B
004EFF26
004800CB
005B012B
FF55FFFD
FE86FF22
FFEA004F
FEEE0031
01030074
002FFEDB
014BFE8E
0080FF8F
FFC400D1
013800F3
FEB9FE77
FE6C005E
FF3C0077
FE85FE63
FF6A0157
003BFF5E
017AFF89
FE50FEB7
FFC0FF54
0038019B
00AA0087
FF740056
0088FF99
0004FFF9
003FFF64
FFEA0026
00AFFDBC
0062FF73
00E80052
008A000B
FFC001BD
0040FF90
000EFFC4
014FFFCA
FF9AFF31
FFA70061
004A0114
0078FFEE
00A3FF0F
003E00DD
FF80023E
003BFF7B
001B000A
012DFF56
FF0E005D
0046FF45
FFB8FF11
0033004C
002EFED1
FE20FF6E
00E0004A
FF160069
FFA5FFD2
FF11FF5B
0134FECE
FF7BFFB0
FF26FFF6
00290090
00A400BA
FF02FF8E
FF72FFAC
FFED00C0
FFD40177
FF7D009D
0087008D
FFB70000
FFA000D9
FED6FFA9
FF300029
FF46FFB9
007D0111
0161007E
FF10000D
FF520083
FFB5004D
00220175
FF9E001A
FF360051
012A00CC
FF95FEF3
016FFF29
FFEE00DF
FFC30108
0123005B
006700D5
00990088
FEF1FF16
00D900E7
FFC3FEB5
002DFF1D
FFB50076
FFBFFF35
FF950006
FFB000A4
FFF7FFAA
FF21FFAA
01950027
00DE010E
00390138
000D01A9
00BAFFCB
003AFFC5
FFB70052
009900F3
FF2300A3
FF920066
FFD900AC
00ADFFD3
FFECFF60
FE3CFFB9
FFECFFF2
FF8C00C9
FF89FFB9
FF0200DE
00430095
FF20FEAE
FFE70006
0098FFE0
0078012E
014BFFCF
002FFF66
FE4FFFD6
FF97FF82
002FFE6F
00CE0022
FFE40090
FF8EFF18
FEF50136
000DFFE5
FF930156
00E7FFD2
002D02D6
FEB3FFB0
0054FE2A
FF23005B
01F5010E
FFFAFEEC
007FFEB7
FF5DFF22
0043FFB6
003D01AE
FE120047
00A90011
00130015
004A0132
FF9A0150
FF6500F1
FF280101
00740082
0130FFBA
008100E8
FFF9FFE8
FEF300CB
FFE7FED9
FFE9FE96
0013009C
0058FF85
0060FEA3
FF94002F
00B70053
01490114
0103FF4F
005AFF73
FFE300F7
003DFF55
FFF10042
FF92002E
007D0049
02D90052
004500B6
00B90208
004000D4
FF560075
FFC3FF48
FF4D00A2
FF98FFAE
00FEFFBA
FFF0FFA9
FF02FED7
FFC80027
014EFF22
FF38FEC5
015DFF18
FEF6FFAA
018E0066
00A5FEB6
0050002E
FF870075
00AD008E
018401DF
0074005C
FF0AFF79
FF9D0133
FF13FFDD
FFA3FFDD
FF52FF13
01050030
013F005C
FF380036
004C0139
FFB7FF3E
00630058
0016FFDE
0005FF33
00DEFFC2
FF6E0121
FF98005A
FF250144
FFC901A2
FEABFEFC
001EFF9B
FFD3FFED
FF41004C
006601A7
007FFEB4
0020FFEF
FFDBFF5C
00EFFF6C
FF2A0073
016100F9
018FFF96
FFBF0001
0019FF22
FFB60133
FFC8FF5D
01B10048
00680001
FEDC0014
FFB0002A
0199FF12
003A0056
FF5AFF65
FF58FFDE
00DEFF31
0052008B
FF65FEAC
FFDF0073
FFF80061
FF3C007F
FF55FFA6
00580085
011800AE
005EFF5F
FF72FFC9
FF75FF3D
FF6B004C
00B2001C
0119FF67
FFDBFF22
003FFFE0
FFE0FFE4
FFAA00BA
FFE60098
FEB6007D
002800CA
0014FF98
002CFEFB
00F3000E
001BFF07
FEC6013E
0017011D
0007FF8A
00540058
005E00F1
FF8BFEE2
0024FFAD
FF3E0079
FF81FF69
00650154
00A5003B
00CA004D
00A30074
00DEFFC0
FF9E009B
FFB5FEEB
00B20019
FFE30086
FFE3000B
00C1FECD
0311FFFE
002CFF6A
FEA900C7
FF5C00B7
00AEFE98
FFC8FFC8
001501F9
FFCC010F
FF81FEF3
00310045
FFCEFFCC
003F01A0
001CFF93
FF84015C
FEAD008C
FECEFFDC
FF98FFA1
FF070006
0040001D
FF63FFF3
FF4AFF07
00AB0186
FFE001C1
FEE7006A
FFA8FF42
FFED00BF
006F0002
FE650011
008300DB
00250095
FFE500AF
FF35023B
00910099
FF90FF45
FF63FFED
FFF3FEDE
FF61005B
0005006C
FF430150
FDB60007
FF7DFF96
FFC1FFD2
011DFFA9
FF55FF25
0170FF19
FFF6FF89
00F00039
FF46006C
FF94FF12
0090FF89
004A00EC
FFB100E4
007E0018
FFB10104
00530048
0077FF45
007100C3
00A00009
0008FF29
FFAFFF6A
000DFFB8
00DDFFE5
002BFFAD
004FFEBF
01C900AE
002E00BB
008B0011
FFF80072
0172008C
008600AB
0092FE4F
FF430005
FED9FF96
00E3015D
FFB10157
00F1FF3D
0214001A
002FFF61
FFE0FF56
01E0009F
FFF30037
00F8FF38
FF87010B
FF260139
FFD0FF8A
FEC60080
FF7EFF75
0162FEE2
00CA0021
0097008E
003BFF69
FF1BFF3E
00C60053
005DFFFB
FF680002
0088007A
0067FF83
0011FFF2
0061FF84
FF9BFF71
FFFC0240
0069FE38
FF7A003C
FF8E011B
0002FFF3
0008FEFA
FFF50183
FFA700CF
FFF8005F
FF4A0076
FE0B00C5
0043FEAC
015AFEF0
004B00AF
012500E9
FF11FF2A
FEA3008B
0046FF26
013AFF16
FF3EFECE
FEA1008C
00E1FFF8
009FFF07
FF8600B4
FF6B015A
0082FFDA
0054FF31
FEC80038
FFA0FFA1
FF2A00B5
FF59FEA0
01220036
004000D3
00F400DF
FF8C0139
FEC8003C
FF07003A
FFB6FF79
002B00FA
FED40058
FF78FE50
0060FF87
FFE6FF87
006E01B6
0089FFBE
FF99FF55
006E010A
011EFF67
00DB0026
010200B3
FF0AFF8D
FF0400D9
FF3BFFB4
FE980124
FFFD00EF
01480135
0166FF56
FFDAFF3B
00300005
FD4A0044
FF05FF48
FF1000B0
FEFBFF12
009A00DD
FF4D00BA
FF8F0012
0094FE5F
FF2A007A
0182010D
FF2EFF0A
FFBBFF7E
002F002B
FFF800BD
FFFEFFB7
FFE500C5
FFE4FF30
00EF000E
FF74FFEF
0076FFFD
00E3FFFE
FE8900EF
0192FFA3
FE61FF44
006D0150
00A2FF1E
FF6CFF5F
FF14008E
FFBD00F2
FFC6018A
0072FF0F
FF2EFFA2
FFE9005F
FF6AFFAE
FF53FE84
FF59FFB3
FF1D0185
0071FEC2
FEE9009A
002C0110
01E6000F
FF5D006A
FFD20193
FF90FFC4
FF730017
FFDAFFA4
00AA0084
0128001D
FF060046
0066011D
FF180010
004CFFF2
004900C6
FF4F0009
FDA9FF9B
01740108
0109006F
013AFF5D
FFCEFEAA
FFDDFFEE
FF0CFEC9
00120100
FFF50103
FFD6FFE5
FFDA00C8
FF82FFFA
01DAFFAC
005CFFF5
FF9B006C
FF4EFF00
FFF8FF32
00A1FFFA
FFA2FFAF
FF0FFFC2
0109FED4
FFE30005
01020003
FF9FFDD7
FF7DFFBD
0096FFE7
FF07FF5B
FF15004A
011200A9
FF44FF5A
FF490130
FFF1FF20
003A00E6
FF860035
00D60094
FF0600ED
FFD0FF58
000701D0
FFF1FF93
01E5005E
0074FFDB
FE59FFBF
FF24FF96
FF700077
0021FFC1
00DF005F
000A011B
FF99FF71
00CBFF05
FECCFEE4
01AA0069
00C50072
01740049
0153FF7E
007D0036
008E0045
FEDEFFDA
00B3FF99
FEBB0012
017FFEEF
FFEA004F
FEC800B3
007B0050
0095FF88
FF25FEDA
FF7B00C9
FFAE0175
002800A3
008700E1
FF810112
FEFE0101
0015FF44
00960155
FEEF0088
0036014E
0070FF80
FFD50073
FFCC00BD
00C5FF28
003DFFB2
00E90143
FE96FEB2
FFA400B4
005DFFCE
FE650016
FF9E009C
FFE0FFE4
002DFF31
FF9100A3
FF94FFEC
FFFB0143
FFDE0147
0028FFDD
006D0020
FF15FEFA
0185FECF
0126FFC3
00CCFFAA
FE60FFE8
FF39FF56
0041009C
FFCD008D
0064FE9C
FFA5001E
FF4DFF72
0153FF96
FFC1FE09
007A00EE
FFBEFFAF
FF53FF70
00390022
00620084
FF35FF9A
00BB00C0
00E500C4
FF900099
FF7B0078
0003010D
00BC0022
FF13FFE2
FF590004
010DFFEA
FEE9007A
FFEBFF3F
FF7EFE97
013200C9
FF9AFF01
007D00A0
0072FF77
FEC4FE6E
FF56FF30
FDE300BB
0087FEA7
011E0186
017F0089
01C5FFA0
FFE6FFA4
0024FFE7
00E70035
FFFF0061
017300E7
FF0BFF36
FFA4FEA3
FFADFE71
001500D5
FFC10106
00530077
000E005F
FFECFFF0
0173FF7B
00FCFEC3
003D0054
01CA00F7
FF88FFE7
001300BB
FF76FFF6
FF900007
0054005A
FED7FF8C
FFB40105
FF0FFF26
0087FFC7
FF7AFFAA
FF2BFEC8
FF7000FB
007FFEB7
FFEA0096
FF3DFFE3
FF67FF6E
FE81FFB1
FF3D0066
006AFEDB
002E0050
FFEDFF14
002200B7
0099FFD0
FFF50073
01F300FA
00AE0106
0003FF9C
FEE5FE99
FEDA0017
0078011F
013F0067
FFAC008D
FFFEFFF4
005D009F
0023FFA7
00C1008D
00BDFED4
006200AC
FF45FEFB
00A3FFC9
FF01FFC9
00BC006D
FFC8002E
00EDFE80
FFE0010F
FFBEFF9F
00A3FF06
00DA002F
FF16FF56
008900C8
FFA30014
012C0054
00660148
00C4FFE0
00FCFF10
FE3BFFD2
FFBA0154
00ADFF5C
FF7500E1
008A007D
FF33FFBF
00A70050
FF0CFFC4
FEDF00C6
002900EB
0099FF36
00420015
000A0032
FF780046
FF8AFEFB
005D00BA
0199FE09
FFFBFF53
FF62001D
00A00153
002400C2
0103FF7D
FE990089
FFB1FFE9
007401A9
00A9FECA
FF90FF88
FFCA0030
FEA8FFA4
000AFF40
FFC9FF23
007CFFAB
FF96FFA2
005FFFC6
FFA500A4
FFAC0017
00A3FE8E
FFC400B1
FFC8FFDD
001F0042
FFAB0092
00A1FFC0
000A00AA
0051014E
FEF200AA
0010007D
FF8D000D
FED1FEC2
FF9300BA
01320114
FF8D0027
FFD8FFCF
0113FFB6
005D0084
00DCFFE4
00B8FFD3
FFF0FFA3
FFEEFF83
0089FF9C
FF84FFD9
0022FEBF
0092FF43
FE17FF72
FE13002E
FF56003F
006DFF8D
FEFDFF20
000CFF65
009C005F
FF4A00C1
01E1012A
002201EF
FF5D00C9
FF51FFAB
00E1FF89
00DF018F
006DFF1D
FF1CFFDB
FFBB0172
FEC8008C
FF79FF6A
FE110017
0025012F
FF91FF91
FF7AFF54
00D80085
FF8F0072
0066004B
FF8D01C1
00B9FF62
FF5FFFEC
005DFED2
FFB1FEE3
FFB5002E
019800BE
01B40020
FED2FEAE
FF40FE45
FFF7FF26
FFDE006A
FFB4FF4E
FF080087
FFE20003
002D008C
0051FE87
009BFEFC
FFB600C7
FFE7005D
FE92FEF2
FD96011C
FFB40107
FF5F0141
FF17FEBB
FF7F00BB
FF130068
FFC2011F
004DFFF6
FF1400D2
FFBCFFD1
FFA6000B
0005FF55
0099FF45
0154FF72
FF5400C5
FFCEFFE3
FE44007C
FFE6FE65
0063FF92
00D5007F
006BFF02
0136001F
FEC60147
00D30026
00D0015A
FE78FF0D
FFDB005D
FF6FFF5D
FF8CFFF9
0129FE65
FFC7FFE4
00740140
0084FF7A
014F00A4
FF210055
FFCD00C1
013AFF9D
FFFBFF77
FFC3FE57
FF70003D
FEF1FE27
FECDFF28
00EEFF83
003BFE35
011FFF8C
00630063
FF4500BE
FFF2000C
0047007D
FF49005B
FE65FFA8
00F4FE4A
FFF5FF93
009200ED
00580045
FE06FEC2
FF88FEEA
008EFFE2
0080FF4E
FF58007F
FEFBFEC8
02250013
FFB20061
00F7FECD
0010FFE8
FFDE0049
FFC90153
000C0117
00970081
001F011C
00AF0019
00E5FF8A
0169FF85
FEF30042
FFE9FFFE
001A0080
FFD30037
FF0800AC
00ACFEBB
FF320008
FFB9FFAF
FFB1FF53
FDECFE8F
0064FF82
FF5CFE8E
00CCFF46
FF47004E
FEF1FDCA
FF4E0115
FFCD0016
FFFA0005
0057FF25
FFD2FFBA
00AE000A
00AE00BE
FFE2FFB2
00440067
FF96004A
00900042
002A00BE
0029FFB7
01280020
004C0011
FEC40228
001D0148
FFD50117
FEF300BE
FF3AFF89
0023FFA4
FFF70013
FF14FF15
FF5C0020
FF1F012F
FF4FFF81
0054FFF7
00A8FF9D
0100FED6
FF5E000A
FFFA00AD
00CFFFDE
FFC1006F
FE9D015B
FF1CFF2F
FFF9FFD1
FF1EFEC6
00D0FFAF
005A0013
FF820012
00EDFF52
FF0FFF94
018400FE
FF85FF55
007DFF81
009C011D
FF78FE69
017D005F
FF2300E9
000F003B
FFABFF48
012B00A9
00B5010A
FFD3FF73
FF7F0012
FF23FFDC
FFFBFFE8
01120086
FF73FF7C
FFDB0136
0175FF8B
004AFF82
FFCBFFB9
0118FEDC
FFD5FFA8
FFDBFF47
0070004B
0186FFA3
FE86FE21
022C006D
FF4F01CA
017C00C6
FE04007D
008E0020
008E0005
FE26001D
007BFFD1
FF24FFF1
00F1FF90
FF190093
000EFF71
FE4800C8
FFE4010F
0060FFE5
FFFAFFEB
001FFE8D
FF6EFFCE
FFFAFF2A
00480009
FEE200C7
FDE4003A
FFDF0078
00D9FFE8
008FFFD9
004300F7
FFBFFF2B
009EFFEC
FFE2002F
FFBAFFB6
FFCBFE6B
0029013B
01C90062
0051FF92
00C5009D
000F0175
FFBEFFE0
FF3200E2
FFC9FF94
FF70023C
FF36FF51
009CFF63
FFCFFE7E
002BFF39
FFFF010F
FFE1FFF3
00E3001C
FF80FF36
0005FEE3
0088FF7E
FFB00120
002C0051
0017005E
0226FFD2
FE63FFFF
FF94002F
FFC8FFDD
00C00088
00120113
0022014C
FFCBFE42
FF7A003E
004000BD
FF880040
00F2FFAB
01280040
00EB0054
FEECFF6D
FF7BFFBC
FFCF002D
FF72FFB2
FF79FF9B
0010FF65
0186FFB2
FFDFFF96
FFDF0194
FF110030
008CFFC9
001EFF66
00810101
015AFF7F
FFD8FFEB
FFAC001F
002F0063
FF6700CB
0012FF89
0055FF84
00B8FF3A
FF72FFCF
0019000B
016FFF9B
0016FE42
FF7AFF7D
FF33004B
FFC70181
00FA0111
FEDD0000
00940002
01B7FE29
FFACFF46
003AFF9B
FFF20145
014B007C
0003FFC1
FF70FF9A
00630166
FF6A0084
0007001C
FFD5019B
FFCDFFA3
000E0126
FFE1FFBC
0172FFC4
FE52FE9C
FF9EFF9A
FF5DFFA7
FEF6FEEC
00A9FFAB
00400031
0020001F
00E700D8
01440172
00780001
00C5FF56
005D0081
FF630022
0106FF9C
FFF2001A
FEC3FF92
FF1DFE99
FE9E00AE
0187015B
FF5AFF37
000EFDDE
FFFE0152
FEE5FF55
FFB4FF15
FF91FEE9
005C0028
FF7000E9
009DFFEA
FFDDFF68
FF21002F
FF7300ED
FF9AFFA2
FF71FFEB
FF1CFFB7
0022FEC0
003600B2
00E9001E
FE8B01CB
FF6D0012
006EFEE7
00A2003D
00E5FFF7
FF4F0010
FFE70030
00F5FF9E
01640084
0001FEEF
005000A8
01090047
00EAFF9D
FFCE004C
FEDAFFD1
FF72006C
FF820014
0157FEF9
FF99FF8B
FF6300F6
00F4FF97
00D5FFBC
005DFF30
0028FEF4
00230013
007200E1
001BFF07
000200B7
00FEFE56
FF92FFAA
FF85FF66
FED9FFDC
FFD700D5
004000E2
0274FFCB
FF82FE45
FF8B0022
FFC70158
005D01C2
FEC60149
00C2FFA6
003E008F
FF89FF31
FF4C00C4
FFF4FFAC
FF400072
FFF5FEC3
009EFF7F
00BB000F
FFE100E5
FF66FFC7
0084FF51
FFC2FFCE
FFB200FA
FF7C0059
FF41FEC7
FEF4FFC3
01130054
011F009E
FF1E00AD
01C4FF73
FED6007F
0188FFCE
FEC8FEF2
0090FF60
FFACFFD3
FF32FE17
FF6CFEA8
0083FF08
FFAA0005
FE700130
FFCAFFBF
002A00F4
FFAB006E
FF39FE73
004A006E
0087FF93
FEF500EA
FFB7002B
FFB200C9
FEAAFEAC
FFBBFFF0
FFC20115
0005007C
000FFF56
00BB00F6
FFA0006F
FF04FFB9
004DFF42
FF6800AF
FF6400AA
FFE2FF66
00900082
0042001C
FF8F0022
00770140
00240097
FFE3FF18
0061FFBF
0002FF7B
FFDAFF85
FF21012D
004E002E
FF4D00BA
006A0123
00D7FFD8
FF95FFC7
014EFF6D
FF6EFFB7
FFA1FEF3
00F500D6
00F2FEF5
FFB6FF26
0045FF50
FF9FFEBF
009D0046
FF77FFA0
001DFFAC
002CFF80
00C1FFBF
FF6CFF7E
FFB2FF6A
FF79FF5D
FE16FFB5
00B5FE31
FF59FF06
00DAFE8F
003D0104
FE90001C
FEC30023
FF0C0119
FFA2FECA
0000FEE7
FFB700AD
FEE900AB
0059FE7F
01A5FF26
FF1BFF97
FFEE0130
FFBAFFEA
006B0038
FFC7FECD
0193FFBA
0085FF21
FEC3010A
00CBFFE3
FF2C0036
0138003C
FFB2FFDB
FF05003B
00240047
FF33005A
00AD00ED
FFE20117
00F1FFC2
FEBEFDA5
FFA4FF18
0147FF38
00DC004E
0047013B
FF1F0028
0047FEAC
01180002
FFCFFFBF
0046FF63
005C0032
FFADFFE2
0186FFFA
017EFED4
0048FFEC
012200B8
0021FF53
FF7F023C
0012FFB6
00D2FF94
FFCA0012
FFEDFFC6
0033009F
012FFFA1
FF0FFF1E
FE090207
FFA0FF6E
00AEFFAE
FFF70112
FFC1FDCE
FF6DFFBA
00AAFE27
00F2FE12
FFB1FF4D
006E000E
FFF00022
FED60001
0045FFE0
FFC3FF79
002C0054
FF180003
FF9FFFDA
FFB2FFF8
FFB90064
007FFEA0
FF76FF59
0175FFDD
FF80FEF3
0123006F
FF6B00F9
FFEE0175
00B500B9
FEFE00E7
FF7500D0
FFC60027
01E3FFE7
000BFF56
00BB0067
0027FEA8
0143FFD3
00630194
FF42FE8A
00F3007C
014DFFD6
008B0010
FEF10180
0038011D
FFA201F3
01C40037
00BCFF33
FF27FF71
FF5E0174
FDEA00E9
FF840012
FF7400D1
FF31FFDB
FF44FF4E
FFFE0048
005C00A7
002BFF97
00DB0031
FF93FF36
FEAB0146
009D002A
0060013E
FF8BFFC3
FF86FFEE
00D8FFB3
FFF40115
FFC2FF2F
001900D7
FFC600CA
007D0051
FFFDFF3D
FFD700C3
FF38FF84
01E7FEFE
FFD5FF87
FF0EFF63
00420051
003F00BC
FE7301B5
006300B7
004C00B9
00B20193
FF85006B
009EFF4F
FEED00B8
FFABFF92
FF70009A
FE680003
00A10011
005DFEA8
FF64FDDD
FF7BFFEE
006E00BD
01530076
00710099
0068FEB7
FFCF0066
00FBFF7D
FF26FFD1
00EE0062
FE2AFF91
FF4C0090
008100D8
FF670020
010F0140
FFA3FF04
FFD6FF95
009AFFB6
007900CA
FF510015
007DFEA0
FE920015
FF30FF60
FF81FFC0
FFF000DE
FFDB01B5
FFE800D8
FF6400D3
0185FFFD
FFD3FE4C
0116FF3E
00610023
FF1A00DB
0096001F
007F0050
FF77FF4A
00E4001D
FF07FEFD
FF35FFAD
0142FF18
FE4900B3
0145012A
FFF5FF36
003BFFCC
FF6D01D2
0061FF40
FEA0FF41
FFFDFEF4
0037FFD5
FF820046
00AC00E5
00030133
FEDAFF31
00500065
FFA9FEC3
FFD7FF96
0009000F
009C0007
006C0029
0029FFDA
FF8EFF8C
00A5FFE6
FF8F0087
00560057
008C0059
FFBCFFD4
0033FEB3
FF1E0025
FFFE0190
FD9FFFFC
FFAFFEB8
FFC000E1
FFDEFF9B
FEB4FFA1
011DFF91
0059FFFA
005F0004
008BFF1F
FED00004
001300AF
FFB40091
013BFDFF
FF310124
FFFE0028
FF800076
FE1200D6
FFDCFF44
00720102
FFF000BF
FFF3FF2B
003D011E
FFF20074
0018FF09
02A80033
0162009E
FF2AFFB5
01750136
0075FFE1
FFDE006A
0021FF9A
FF8B0082
FDDD0055
003AFFA3
FD2D0058
FF1FFFE3
FF4C006E
0111FFFA
FF230068
011CFFD8
006CFEF9
FECDFE16
0018FFC5
0026FF60
FDB8FF56
FF830030
00B4001D
0114FFC7
FE5500C1
004600A5
FF8700EB
000D00D6
FFC2004B
FF98FFCD
FFFF007C
00FFFF81
0073FEC8
FFD700C1
00390161
FE9D009D
00F4FF85
0016FF29
FF4AFFC1
FF65FF94
FE860005
008D0035
00950012
009C0010
00D6FF8F
FF46FF2A
0020002F
FFF2FF90
01090118
FFD5FF1F
FEF3FEFB
0115FFCA
00080021
FF65FFA8
00FD0006
FFFFFFAE
00CD011E
FEDC003F
FFAFFFBD
FE60FFF4
FF23FFAF
FFE5FFB3
FF0000BD
FF40FE51
FF91004C
000600F9
FF43FF1A
FF07FEA2
FFCF00DF
00950002
FF44FFF0
002EFECE
FE5FFF43
001B005C
0006FF9C
00B100C4
0047FEE6
00BFFED0
FF5C0001
00DE004D
FE0FFFAB
FFFAFF26
FF9A013F
FE5E0078
0127FF7B
005E0156
FFE7FEE9
FDFF006F
0153FF39
009EFFE3
007200A7
FEB90002
FF99FF30
FFEEFF7C
0000FF87
014DFF71
FFD7FEF3
00EE0057
FF0EFFEC
011E0150
004100FD
013C0088
FEE9FFC1
FF81003A
0042FE75
01160003
0105FFDA
FF57FFFE
00A1FF31
FFC0FF23
FF330004
FFDB00EE
00B0FFCC
00AA0070
0076FFB7
FFF4FFD4
FF5EFEF6
FEC9FFB4
015F0221
0029FED0
004E00D5
0002FEA0
FE3D0058
FF4C003B
00640066
008501CF
014D0060
FEFBFEB6
FFD4FE6C
0010FFAF
FF47FFF4
005DFFD0
0010FEC5
FEE10076
FF23014F
00F5FFA3
FFBFFFED
FF84FF5A
00340074
0106006A
00E9FFE3
000D0017
0050FED1
00850030
FF91FEBD
0100012A
001F00BA
FF6FFF1A
00EC0009
FF07FF68
0187FFC1
00FA000D
000F0231
FE01000A
00E9FF5C
003DFEB9
FECF0032
0094FF24
FF88000F
0189FFC0
FE860007
00340080
017001BC
FFB6FFA0
FFF7FE11
FF0400D5
FF03FFE7
00700027
FF4BFEF9
0094FF57
FFC7FF70
00D9FF0A
006FFEAF
FFAAFFBB
0198FFCB
0071FEB2
FF31FF8B
0074000A
00B900E3
0080009D
00A8FDF3
FE6C0059
0038FFE3
0194FF0E
FEA9FF9C
003CFE62
FF24FF72
01C0FF18
FF4600CD
FFF4FF53
FEC8FFE1
00180124
FDE80023
0023FF4E
FFFCFF11
016C015F
FF03FF53
00DBFEEC
0114013B
FFA1005D
FFF0FF42
0073001F
FF31FFC6
FF0F00FE
006F0036
FFC1FE8C
FF88FFB6
FE880012
FEABFF33
0008FE80
0031FFBE
011B0049
FFFC0014
00F10048
00DCFFD4
FF9FFFD1
FF14FF9B
0097014F
002100D8
00150015
FFFD00B2
FEFA0074
0003FF8B
01140139
0071FF9A
00AC0036
0075002D
FE8FFFE8
0153FF30
FEEDFF9A
00DEFFA8
FEF3FF3A
00EF0063
FFD6FD94
FF87FF10
0053FF45
011FFF60
0058FFBB
FF730049
00270106
00A60009
0092FFB0
00870032
0065FF72
FF67FFA0
FF50FFF2
FF53FEDE
0140FF23
FFB30003
006E0059
0060FE97
0109FF16
FFEC004E
FE350108
00E7FF95
FFB000CE
0007FFF6
0174004D
FFB2003D
004AFE30
015900ED
01490042
FF8D0054
00F4FF51
FEC1FFE3
00E00053
018A01E4
FF44FF64
FF17005C
00F10101
FE880018
FFA6006D
FF0AFFCB
00CDFF43
FF9F0134
FFD500B1
FF04FEB1
FF64FFB8
00200106
FF8F005D
FF760021
FF8C00EF
FFA1FE8C
FF4900E4
FF8200A3
00600200
FF1BFF82
000F010F
010A0037
009AFF72
00E6013C
003B00C8
0037FFE8
0074FF8C
0041FE9F
FEC8FECE
FEE9FEB2
FF94006C
FFBBFF2E
015B0094
FFAE005E
006F0036
FF0F0095
FE950028
FEC8FF00
FEF70055
00CAFF58
002B0019
FF55FF90
FE95FF96
FED9FFF5
0159FE09
003CFF6B
0045FF80
FF87FF76
0036008D
005A0160
0228006C
00EDFFE0
00BBFFCC
FE100082
FEB3FF1D
01E1FEBF
FFB2000C
023EFE99
FFB30081
FF4FFECC
FF47FF98
