016D
02A9
0108
FFDD
007E
0088
00D6
055C
01E1
028B
004E
FFE7
0035
001C
01FB
022D
0125
04FD
FF91
0087
028E
048A
0142
07EA
00CA
03FB
004D
030D
0041
037D
00E7
04D5
014A
0320
FFD5
001D
0203
04FA
045D
00B2
FF35
0757
0193
027A
001A
00A6
012A
0054
0097
00D9
01A5
017D
007E
0181
01E4
00F1
01CF
046A
0413
04DA
03BE
00A7
024E
0316
FFCB
FE76
00ED
00A2
01B6
0328
FED4
0422
FFCD
0109
0385
01D1
005A
00C1
FF5E
0018
00EC
0384
01E8
046A
0240
02F2
01E8
00B9
0109
0038
FFFF
00D8
01E7
FEC5
0154
039F
0312
00D7
0057
012F
