00F7
001B
001D
0096
007D
FEBE
FFD0
FF2C
FFC7
008F
010F
005A
0204
0154
FE4E
01A2
FFC6
01C8
FFB2
0220
028F
0017
011D
017D
01E2
0103
0228
0195
0066
FFA5
FFEC
FF95
0026
0083
0267
001A
0014
FF0B
FF88
FFB1
00D7
0015
FFC6
011A
001B
004B
FE75
FF1E
000C
FFD5
FFFB
FF62
FF16
011B
FF59
FFF2
FED8
015B
01A0
00E4
022F
00D5
0001
FF8B
02F2
FF7B
024A
024C
01DC
0096
FF6B
FFF2
03C3
FFCE
00B5
0234
FEEA
FFCA
FFE6
0011
0074
FF5A
0382
FECA
FF93
FE83
FF1F
022C
FFBD
00C5
0156
0263
0251
002B
011F
01A1
FFA7
FFBB
0017
0264
