FC76
FD05
FF73
0248
00AF
FE07
FB89
FE3D
023D
FEBC
044E
FD24
FD6F
FDB2
010C
00ED
008A
FFD3
00FC
007C
FFE8
01F4
0150
02D7
007B
045A
0347
FB4C
FCDF
0091
FC32
0786
0472
0081
FB2B
01F9
0081
0286
02B1
FE51
FC7D
05FF
FB2F
FB76
FCB4
0788
FE97
FAFE
FB89
039E
045B
FD47
FDDA
083C
F9C5
024B
0493
FB27
0181
04AE
FD66
FA3B
FA3B
FADD
FD21
0773
FDED
05BF
07E2
FCDA
FA98
00CC
0198
FEFE
030B
0318
FE00
FBBC
00E1
FDE4
014D
FFF3
0614
FD77
FD8A
01A8
082B
0445
0507
FB91
0114
07F9
FFF3
08B7
F0F2
055A
0010
0140
FE08
0192
FE93
FD71
FB2C
FC03
017E
0845
0371
EFAA
FF98
067A
0405
004B
FDE7
03E4
FC20
0107
024F
FFB5
FBB9
01D2
0095
F79F
FF22
010C
017E
FF54
FAD6
0362
0095
0E72
F3C3
02EE
FB4F
FDC9
02A3
FF2F
FCDD
02C2
FABA
FDC7
FC1D
FEE9
058C
FC32
FA02
FCD4
01EF
00D7
01B4
0352
F7DB
0206
FFF5
07A5
F5D9
FE20
FE50
00C4
02F6
FE72
FD15
0581
F700
0054
FCC1
059C
FB7E
F8B0
0133
04F5
03E5
01C6
F714
02D5
FB3D
F672
FAD1
FF93
03F6
0169
F97C
FD45
0479
0472
0588
F9F9
00FD
057D
FFDF
0A1A
F171
0094
FF57
0190
0142
02F6
0543
FAED
F8BB
0886
0700
0209
FE07
FD56
00A6
FE93
0284
0246
01A5
FDCA
FED4
0149
0178
0192
FD4E
00BB
F8F4
0012
0301
0A1A
0FE7
F4C5
F575
06D6
0635
0BFE
FEAC
F65E
FB73
FED2
FCCA
0718
0793
FB4D
F91F
0495
0387
FD8E
0463
03C9
FDA4
FFCA
FEA3
0161
FFA0
00A9
005E
083F
027D
033F
F91B
009B
01B2
0139
0A0B
0566
FC51
FF80
FA8D
F863
FED6
FD70
0019
07D7
0263
023D
FFA4
01DE
FA50
FFA9
FF9A
01FA
FE83
FD2E
FF75
FFCC
FECD
0373
0218
03CD
0307
F9D4
FF1D
006E
0738
01B8
0651
FA4F
FCD9
055B
FE9B
FC51
FC43
0332
F868
05FE
FE80
FF16
FBAD
0076
F80F
F5A3
FE08
019A
0215
F9CA
FB25
FDF9
FF5A
FC96
04CE
063A
FC16
FC27
FAEC
FE74
FBF7
0156
FC6A
F75E
06F7
0269
FD23
FBF6
FC2B
F9F7
FD4D
02BC
FEC4
0074
0075
0A7D
0EAA
FD45
FAC9
0260
FB11
0631
020E
FCA7
0160
06D8
F598
FFFA
FFA1
0E7B
F4C4
F208
FAD2
F965
038D
0C61
0DF0
F4C6
F825
FD75
0257
0165
03CA
FE1F
FB20
F377
0238
0526
FBD2
FC23
F95A
FB3D
FF33
FEEB
011D
004D
FB73
F885
06A7
00BF
002A
F770
FBA0
F848
FE99
FDAA
059F
0281
0034
FB23
0278
FFF6
0089
FFA1
FEE4
00CA
0127
FCCB
03A1
0202
FE5B
0508
FF0E
05B9
FAEA
FEE5
0077
0156
FF38
FDA6
FE3C
053C
034C
01C2
FBC1
FFC4
FF13
0508
F9D5
09F6
00AB
FB94
F6AD
FEA9
0372
0560
0295
FF7E
FB73
FEA5
F7C9
FBB3
FFBB
0479
020E
F374
FEC0
0261
FFEB
FF4B
FF9E
FF1C
0120
FF73
02C1
01F7
FF49
FE8B
FF63
0E49
FEE5
F78A
F714
0BD1
FDEE
0027
04C2
02EE
005B
0450
FD06
FD7E
FE27
0060
011B
03B9
FAED
08DF
08BE
FF24
F43C
0014
FC35
F13B
FDBE
FD4A
0214
04BF
FE7F
0283
0088
00C0
03AE
FBD1
FD98
F5EA
FDD3
FF0A
0690
04AB
FAC2
03E0
01F6
00D7
F925
0461
FE0A
03F7
FE5B
0120
0036
FE74
F54A
FADC
FDB0
00CC
FE98
01D5
006D
FFC3
FD86
0967
02AD
F88D
F40A
01A0
FBCE
FC2C
FCDD
0400
FE6E
07A2
FBD9
FEC5
FCAF
0515
FED1
FE85
014A
0079
0A54
FCA4
FDF3
FF3F
00B4
FEBD
071B
F87E
0088
015B
FD52
01D5
FDBA
02EE
FEA6
FFD5
0258
00FB
04E6
FE58
01D8
03D3
0173
FEC3
FF33
FD19
FCFD
F8AD
0479
FDC0
058F
F602
027D
00EA
FF61
FDFB
00B0
0436
001F
0277
F9B3
0029
FE6F
06FF
FBBF
FE9A
FFFD
01A9
F8FF
064B
FFEE
03C0
03F7
03E7
F6F1
FA10
FD42
F916
FDF3
0132
0501
02F3
0164
060B
02BA
06D9
078D
FAF3
FC66
04D5
05EF
FF99
FE9C
FCEF
