0161
02B2
0103
FFE9
0098
00AF
007B
0531
0203
0279
002A
FFF9
001F
0000
01F1
024E
0119
04DF
FF9F
0095
0283
0486
0156
07CC
00C8
0434
0045
0290
006D
0343
0102
04BD
0111
0340
FFD0
0009
027D
0588
0417
00A6
FF0C
0753
0183
027A
0029
009A
0135
0050
00B7
009E
01AB
0140
006B
0161
01D1
0151
01B6
0555
045D
04C8
03DC
00A4
023C
02DD
FFC7
FE7D
00F4
0094
01D9
02FF
FECC
03BD
FFC2
00D2
0377
01D9
0057
00F6
FF7D
000B
010C
034C
01BF
0434
027E
0309
0215
00BE
00DE
0046
FFFD
00AD
019A
FEC4
017F
0349
02B5
00CF
004D
0143
