00CEFF9B
FFB6016E
00720016
FF94003C
00600033
FFB8FF79
FE760057
FF980000
FF46FF9F
FF88FEDA
FFC1FFD8
FFF601A4
002EFF47
FFA700CA
00930141
0063FFDE
00F1001C
FEE00010
009200E9
0057FEF3
FFDE002B
012A003C
FF61FE1B
0019FFC7
FED9FEFC
00CE0036
FF82FFB3
FF120064
FF4EFFEC
FF88FF63
FFDEFF14
FF6AFFDD
FF5FFF59
007F00DE
0019FE9D
003A0098
FF95FF68
01500038
010CFE6F
0102FFF2
FF8801E9
01C40172
0084FE57
006DFFB8
0045FFFB
00AD00BD
FFA2FF12
00740011
00C7FF83
0070FFE8
001F0098
00D10007
FFB3FFDA
0090014F
0079004B
FF4D0086
FEC2FF82
FF5AFFB0
002700C6
FF960030
00660007
00F00098
FFD3FF9E
FDF801AF
002F010C
00FE001F
FF53FF70
FEF80247
008400BD
019BFF31
012DFFFB
FFD30049
FF32001E
005300AE
FFB900D3
0023FEE5
0035FFD2
0044FFBF
FFC10069
00900002
002EFF26
FEE7FF65
008F0031
FFFE00FF
004DFF78
003E0055
FF8001A7
FFD4FEEB
FFDC00B1
0108FFDD
0009FFBF
0178009F
00740056
0189FF8A
FECB00A8
0067003E
00EBFF60
FF24004F
FF7A00D3
FF6A00FB
0057FFD4
FFFD00B2
FE50004A
FF4100F3
FF9D0057
FFB2FFD9
FFFA000F
FFD1FEE0
FFD6FF83
FFF1FECB
FF9B010F
01330097
00AD011C
0102FE94
0016FF4F
0186FF33
0028008F
0071FFFD
FEECFF82
FEC1FF7F
FF0D0073
0051FE1A
0072FFA7
008C004B
FFC000C7
000CFF0F
001AFFA6
FF6F0069
FF0EFF7A
FEE70042
FFCBFFDB
00120019
00AAFF8C
FF87013C
005BFF2E
00120115
0047FFC1
FF39FFD6
FFCBFF53
0139FF37
FD2D012B
FFC90005
00550048
01960127
0076FE9B
004A00A5
FFB801E9
009701EB
FFB4FF51
012FFFD1
FED10066
FFD800B5
FFA00060
FF15FFB0
FEF4FFA9
FF90FFD6
FFBBFF4E
FF5801CE
FF72002B
00C6FFAB
FEF4FF83
0064FFD4
00E400A4
0029FEE9
004200EB
FFD7FFCE
00A801D9
00A00061
FED00053
00F5FF68
002AFF8B
00750015
FFA001E7
0121FFAE
00330062
FF4D00C4
0134FFB7
013EFFD1
FF8E0090
FFD40036
FEECFF39
00F500E9
00C1003E
FF43FE7A
022AFFA4
00CBFF40
0071FF5B
0138FF18
003D0171
FF0D010D
FF66006E
FFB200E5
007000A5
FFC900DD
FFECFFA8
00F40029
FFB6FF91
00470014
0046FFEE
FFA2FE2E
FF8F0009
FFCAFF8E
FF70003F
FF97009A
FF5700CE
FF610103
FFDDFFB8
FF84FF3B
FFCCFDC9
FFA3008C
002EFF82
0004FF36
006F0078
006200F0
003A00C0
FFF00027
FFFFFF6A
011CFE90
0052015B
016A012A
00910039
FEC2FF3E
0125FFFB
FF59004E
000EFFBC
005DFF9C
007C0041
FEE800DC
00D2FF3A
0025FE50
FFEFFE69
003E00A6
FF85FF62
0017FFC2
00A0009F
FFCD00A1
FE33005D
000FFF79
00660049
014BFF1A
FFE500D3
FE2BFF20
0095FFA2
00C6FFBD
FF2C00B7
FF19FF8C
004AFF9C
FFB100F8
FE76FF1F
FE7CFEF9
00CDFE0A
FFED0193
FF92FF07
0036FFE1
FFD90232
00BDFF58
019A0129
00CE0109
005FFFB3
FEFFFFAB
FF3FFFD9
008C00FF
00AEFF1E
FE7D0095
FFCD019D
FFE7FFC9
FF8DFFFD
FFBE0066
002D0068
FED4FFF3
0128FFBA
FFDE012F
FFE20068
0169FF7D
0024FFE3
FF5DFE5A
007C01C5
0053FFE9
FF6A0069
00FF0115
01180079
FF7600C6
FFED0268
00C2FFDB
00180006
FF78FFB6
FF93FF85
FE3EFEB5
007AFF87
00750133
FECD002F
FFF3FFB0
FE060041
0057004A
0039004C
FF2C0052
FFCDFECD
FF59FF38
014E00AE
FF0AFED7
FFF300BF
FF840083
FF82FED9
0103FF9E
00080055
005BFFC4
0057FFE8
007A00EE
FEC8FE73
0040FFE5
FF43FFF0
FF2200B1
004800AD
0057004D
00E8000C
0045005D
0050FFB8
012200B3
FEB1FFC6
017FFF6C
FEB3FFEA
FEE10055
FFD5FFA7
0063000A
FFF5005B
FEF7FF61
FFD70094
FF2EFE7D
00B6FFF6
FEE7FFE7
FFB1FFF1
FF3D00A8
FEBA010D
FFE60033
0075FF85
FF6C012F
002CFF60
FF9A0042
FF25FFDD
FF17009B
FF0AFF42
FF090117
01350054
FE1DFF82
00520108
FF69FF25
FF28FF5B
FF7E008B
FF9CFF97
00DDFF09
FF08004D
FF21FFFD
00CD01C5
009BFF97
00FF005D
00760110
FFDA008C
FFA6FE6F
0110FF99
0010FFF3
00E00230
FEBDFFF1
0104000B
FFAF0022
FF0CFFF5
FFC00085
FF8AFEDD
FF78FF8D
FFB60039
FFAF01DE
FF3BFF4C
FF87FFB0
FD6E00C3
FFEFFF3B
FF31005B
0082001C
FFE2FF7D
00880013
005AFF7C
015EFF10
00A3FF16
00000034
00F6FFC3
FF93FE90
FF2BFE5E
00BAFF19
FEFEFF53
0027FFBF
000A0070
020FFFD4
FF1FFF4E
FFA7FED0
FFE9FFFE
000FFFEB
0079FE17
FF550047
FF9700E6
00D9FF76
00490065
FEB2002D
001CFFA8
FF3AFF86
FFBE0032
0139FF8C
FFAEFF51
007FFDAB
0077FF23
FFBD0093
001E00D5
FFA0FFBA
FFC9FE90
FF2401EA
008F006E
FD160092
FF6C0001
01560052
FF95FE8E
00A4014D
FFBBFF8F
FF34FF91
0103FE59
00C3009C
FFF00073
008AFF25
FFB6FED8
00A90020
FF4DFF27
FFE8FEEE
0085FEFF
00B6FF18
00E2FFF2
FF1F0052
0033FF57
00E1FFEC
FFA900A2
01930121
FFD4FE75
FFDEFFD3
FFE30065
0010FFF1
FF650076
0126009C
002A0061
FF8EFFF8
FFFFFFD5
FFBB0012
009F0149
012BFFF8
FFD2FFDC
FF26006A
0074FF56
019BFFAB
FF64FF7F
FFF000E4
FF7CFFA5
FE89FF7A
00E2001E
FF4C018C
003CFFF3
00020023
FE7C0083
0166FFD5
006A002E
00CC0026
FF24FFBA
FECB00CD
FF9BFF2A
001500B4
FF64013B
FEFF002F
FF88012F
01BAFFED
00030057
FF69FE5B
0092FFA1
00F30001
018BFF6C
FFFC0010
FF8F0021
FFB000CB
00590075
FFDD005C
FFCCFEF6
FF98FF86
FF79FFD3
FFC4FE11
002E0079
0060000D
003FFF4B
00D3FEDC
FF22FE35
0085FFB1
00CCFF92
FFBB001D
010D0200
FFF5FFEB
0006FFFD
FFB400BB
FF810002
FF91FE89
009DFF3D
00ABFFB3
007F009E
FEF8FE6B
FF4A007D
FFAC00A5
000D0047
00690055
0114FEAB
0087FFEA
FFB60127
00BD00A1
0073FEE1
FFD2FF3D
002FFF76
FF970011
FF540047
00B7FFC3
0003FE8D
FEC6FEC7
0028FCF3
FF43FF4A
FED000B3
FFC40017
0038FEDF
00E9FE69
FF370011
FF83FFAA
FF56FF5E
FF180037
FF4300DA
FFF2FF4A
00730057
FFD30051
00C8FEF1
002BFFF0
0017FF5B
01280060
FFD6FEDB
FF9EFD8C
FFEF00D6
004801AA
FF0E00C2
FFE80106
00B70007
FFCAFF64
FE760076
FF97FF3E
FEFAFFDF
FEFB0003
FF9BFF2E
01CB0037
004BFFA1
00DA011D
0022FFAE
FFC2008F
FFB6004E
FE2300CC
FF0BFF91
FFE60008
FFE5FF2B
FF58FEF6
FFB80163
FFCE0123
FFDEFECF
00A9FFA1
005800CB
0188FF74
0020FFC4
FF530070
0008FEFC
FFB30023
00210077
00CAFF5A
009DFFD5
0261FFE6
0005FFED
0065FFA8
FE80FEF0
015C013A
00C4005D
00DDFF17
FFAAFFE5
00AC0096
0051006B
FE9BFFB4
FEE50066
FFE2003F
00EDFFF9
FEF4FF9D
00D1FFFF
0060FFDB
0104003D
FFFAFFA7
FF34FE66
0020FFAC
0202FF93
FF59FE86
FF6FFFC4
FE900150
FF70FF7C
00D9FF50
FF32FF3E
FF70003A
FEB700A3
01A1FF26
0001FF2F
FF8EFEFA
00E7FFFD
FF7A00CC
0007FF39
FF23FF65
FE61FFD9
FFA2FF8F
0018FFF3
002DFF4E
FFC0000B
01E700F5
0042FF94
FF8AFFCA
00D0006A
00B4FF93
0098002C
FFF600B3
FFA8FFDD
00FCFF4A
FF91FF09
FF020107
00FA0060
01ABFE70
00F00085
00660029
FFCF00C0
FF380005
00AC009B
000B0009
FE010105
023BFF7D
014EFFEB
FFE70179
FF0B0288
0005FFC1
FFD5FF6A
FFE7FF99
009F00B5
FF86FF48
FF22FF99
0076FFA8
FF7BFF6B
0062FFF2
FFCDFF6D
FFDEFEA5
00DCFF5E
0088FF8D
FFBB00E7
015600CC
FFEF004E
0024001F
FFAE002E
00A8FE70
002CFFEF
FF1E00E4
000FFF06
FF58FEA2
0107006D
006CFEE7
FF9DFFEE
FF2CFF72
FFF2FFCB
FFED003A
000200A8
FF080062
0061003D
FFECFF9B
FFD70161
003B010F
FFB00151
00E4FF83
FF6F009F
FFBCFE8E
FEB0FF8D
FFBD0046
0125FEB8
FD8DFEBB
FF730065
00DF012D
FF9100A1
FFB8FFD2
0001FF98
FEF90060
0060FFEB
007300ED
0064FED0
FFE7FED0
00000024
0151FFEC
00E0FFBF
0258FEEF
FF73FEF6
FF8701BA
FE8200D6
FEEC004B
FF9F0119
0063FF25
00B50135
FF240149
FFDB005F
000F0007
FE1CFFF6
FF64FEBA
FED4FF1C
00E9019E
FFB6FEF9
FFD10196
0165FF50
005100A7
FF5600B7
FE88003A
00B9FF02
0176FF95
FEDCFFD5
FF000066
014E004F
0093FE7A
FF87FF95
FF8BFFBB
00B4FEC4
FF8A0096
FFF5FEA6
FFB1015F
FF1AFFF2
002D0104
FF2600AC
0077FF96
0066FF32
009BFF39
0076009A
00C8FFDA
FF3E00F9
01410064
0020005B
0057FF56
00D3FEA9
FFA7007E
010DFF9A
010FFE91
FFC70051
FF18FF21
003CFFF1
FF9C00AC
FF63FFD4
FFF90020
FFC1FFFF
FFE1FEA5
0057FF43
FF0EFFD2
005DFF7E
00350053
00AEFFB8
015100D6
FEE0FF6E
FFDBFFAC
FFBBFFEB
01740067
FE42009B
FF3C002E
FF80FEE6
015D01A2
FFAD00A0
FF85FF57
FF0700D8
0011FF5E
0072FF43
FFFC005B
FF60FFDC
01D3FEE8
FF9DFFA4
FF990143
0131FFD7
00DF0056
FF680048
FF2900D7
004A018A
FF87FFA5
FF7C0051
00F5FFD9
00BB0096
00A9FFD4
FFA50139
00370076
FF770057
FF24FF45
FF0A0093
FF5C004A
002FFF04
FF99FFC1
FE1E009A
FFDB00B8
FE84FFEB
FFB8FF49
01A1FF58
0026FF07
017EFF5B
003D0018
FFD300FE
FF99008F
FFDF001D
00D7FFBE
021800A3
004C0151
011D0019
FF57FF04
FEEBFFE3
0017FEF1
00440053
00EA00B1
006B00EA
FF3FFD94
FFF2FFAC
FFFFFF68
00150007
003FFF1D
FFBB00D8
FEC7FFB4
FFF7FF67
010500A9
FF58FFBA
FF500106
FEA6011D
FFB1FF44
00E300C6
FF20001C
FF0FFE69
FF500057
00A20066
000AFF79
FF94FECD
004F004D
FECA0152
009100A3
FF19FF5D
008D017D
000CFF4D
FFB0FFE5
FFA9003E
FF7D018F
003D0005
005601BD
FFFF0148
FF69FF52
00B50019
00C60211
00D5FF88
009E000D
FFC0007D
003C00BB
FE9E00A6
FFAC00DD
FFD2006D
0031FFDC
00CBFFCE
00C5FEE3
FF52FF4E
FFBCFF06
FF6CFF8E
FFD800BD
FFCFFFAB
FEE700B8
FFF801DC
0123FFF9
00C900FE
00C7002A
0197002F
0030FF97
004EFFC7
FFF2FF73
00EA003E
FE79FFDE
FEEB0024
FF5000B7
010B013C
0050FEDB
FF72014F
FFD6003E
FF6F0129
00A5000B
FF3700A7
FF61FEDD
FDDFFF8B
0081016F
000F00FB
FFFAFFC0
FFD9FF27
0009FFB6
0097FFBD
FF67FFD2
0078009A
0068FF93
0046FF47
FFD10020
006EFF9C
FFCD0082
007700C6
FFF7FFF8
003FFFE5
FFEA000C
024BFE2D
00BB004F
FF510029
FF2AFDA1
FE82FF70
006C0022
00C90193
FF58FFF8
FF5B0014
00240003
FE12FF6B
FF45FEBC
FF7300A1
003AFF2D
FF43003B
0030FF70
FFF1FF35
006BFF76
000CFE68
FFE6FF17
FFCAFF45
0072FFDF
FF50FEF6
0035FE04
00590036
FF11FED6
000C010D
01A2FF49
FF9C00E9
FF0A0060
FF600106
011EFFC4
FFF6006E
FF66FFFD
003F0058
000CFE7B
00C30083
FEDFFF5C
FE44FDF2
FFCAFF7B
FFBD008B
FE8EFFEF
000AFF51
00760017
FF5A0166
FFAFFFEA
FF8800AE
FF6BFF82
FF620188
006FFEE6
FF520141
00CCFEBB
00170099
00CBFFB6
FF610069
020100D6
00130010
FEBF012D
00ACFFFA
FDC900F3
0096FFE3
0053FF66
FFF9FFB0
FF9DFECC
0079FED8
013AFF69
FF63FF9F
FFF9FF43
01A90161
FF5F008E
FFE300CB
FFA100DD
0097FE6C
001AFF77
FF1CFEA6
FF71FF74
FFE2FFDF
FFBD0039
FFB50043
FFAFFF66
FF87FF06
FE8EFFD4
FFAC0157
FF38008D
FFD9005B
FEBA0074
00C600BA
FF6D00C8
FFD3FFBA
00C9FF67
FF5AFFB6
FF730140
0102FFA0
001D0023
FF59FF0A
FECEFE3D
00F5FF08
FFA200C9
001100E2
FFE3FF94
002DFEE4
007D0001
004A0042
FFC40101
FFAEFF80
003F0011
00BDFF4C
FEB8FE5A
026E0205
FFD300B9
FFB500C8
FF81FFE0
FF9BFFC6
FF11FEBB
FF4A014D
0069FF9A
00FEFFE5
002BFF77
016A011D
004B01FC
00F3FFD3
FEDCFEDB
FF27FF5D
00980036
0048FF3B
0059FEDE
0155FFEC
FE70003E
FFF8FF04
FF2EFFD2
FFA2FEF1
0190FED0
FF8CFF5E
005FFFB0
0067004F
FF6F0059
FF64FEEB
0008FF8A
0064FE97
FFECFF9E
002BFE51
FF9DFF5D
FFA90002
0158FE93
FFB2008A
FFB4FFEC
FF6EFF58
004CFFA0
FFDD00A2
016D00AD
004FFF8B
00C700FD
01FD002C
FEBCFFC2
FE8B0081
FF6CFFB0
0064FF2F
FFCE010A
FFA4FECC
00BBFFEF
00B3FFF3
001A00A7
007CFEE9
015CFFE7
00EFFFB8
0030FF33
FF1FFFBD
FF47011F
0106FFDE
00B4000A
FF3BFFFE
00F1FF35
0085FF91
0015FFB8
00100020
00F5FF50
FE8CFF66
00F9FF38
FE29017E
00910041
0033004B
00F90095
002D0086
01A60022
FFCD01AE
FF9EFF9C
0004FFCA
00FCFF7F
FEBF0022
0006000E
005AFF57
01920109
FE280034
0072FFDB
008EFF08
FF900035
00410063
001F000B
FFFC00C6
00330092
FF48FF6E
001DFED9
00B5007E
00D4FF25
FFBAFFE6
FF6100DD
008B0149
0034FFE5
FFD90004
FFE6010A
FF750088
FF3201BA
000C0018
FFE80196
FFACFFB4
FFB4FF8A
FE6F0078
0095FF3D
01A4001F
0040007A
FE43FF2E
0040FFC5
00E7002E
FF7BFFCD
FFE5FF1A
016EFF79
FFD2000A
FFE6FF02
007E0133
0099FECE
FFDFFF39
FEADFE86
004A0126
00F2FF33
0006021C
0063009E
FFC3FF19
FF6AFF30
FF9500A0
FFAFFFAD
FF9400B9
00A100AA
FFD600C1
003AFFF5
001BFDF4
FE1CFF6A
000D009C
FEB600AE
017BFFA3
FFD5009F
FFF1FFDC
00DB00DA
0005FEDF
008C00B4
FFAD0096
008D0001
009E0062
FF8301AE
FFBD019A
FFCDFF0E
FF74FFDA
FF71FEBF
00A6FE71
00340056
FFA400A4
008F0231
0057002B
FF59FEE3
FFD4009D
0064001C
00070175
00E3FFD9
FF8B0141
FF000085
00F20194
00F7FF5A
FFFD0052
FEBE012B
FF6DFF33
FFD00098
FFAE01AB
0074019D
FFA0FF29
000DFFE2
004C0036
FE2B00E1
FEC30099
FFCC0067
00AA010D
011FFFEE
0008006F
00B0FFE1
FF96009E
FFC60013
FFA500EF
FF6000C2
00C8001A
FE11FE25
00E4FF85
FEB800F8
0036FF39
FEFD00EC
FF37FF47
0010FF3C
00CDFFA0
004CFF2B
004B0016
0020003E
0023FE73
FF21FFB1
019AFF8C
FFEBFFD8
003100C0
FE8900C8
FFBFFF1E
FFC5FF9B
FFC8FEB2
FF52FFB0
01F1FF08
0044005C
FF53FF8D
FF9FFF8E
006E0088
FEFFFFCA
FFFE0072
FFEAFFFF
0128FEE5
FF290058
0067001A
00FD0189
FE60FF82
FF7600C0
FF91000E
00C200BF
00BA00E3
0029FF59
FF7FFF8C
FF5C00BA
0048FFEF
FF6DFF22
007BFFE1
FFBFFF53
00C101D2
000FFF60
FF3BFF53
FED6FF39
00DCFFD7
FF2AFFFC
FFDC0046
FFE900BA
FF9FFFFC
FFDB003C
FF5600EB
0022011D
FFF8FFFA
FEF50023
0100FF76
FF6AFFD7
FF7A00B0
FFD0006F
01BDFF11
0150002C
FFB3FF84
FE930026
FF960005
FF99FFBD
007C00D9
FFC9FFB4
FF0C0040
002FFF6B
FFE4FED9
00560162
004DFF25
FF880108
FE53007A
FE44FFDB
FF4C0207
FEFE00DD
FFBAFF9E
FEACFFA0
FEEFFF86
FFD2FF6E
FFC6FF44
FFFC00F4
FD2CFFE1
0088002A
01440034
0084FFC9
FEECFF21
FF3F0002
005AFF84
FF4E0026
FFDDFFF5
FFD2FF70
FFE1003C
009DFE79
00420101
00C70085
0097FFA2
FFD8010E
FF4F0015
FFF6FFFB
FFEF0120
FF52FED0
FFB8FF10
0070FEA9
0072FF95
FFCFFF28
FFB2FFD5
008FFF3F
FF1E0061
000C0095
0080000D
00C00009
FEFEFECE
FE360000
0058FF64
014A00C3
0124FF1D
FFE80003
FF88FF5E
FF9A0062
00170082
FED6001E
FF35004E
0009014F
FFD2FEB3
0090FFDF
FF430045
0155003D
FEDF0041
00A1FE9C
005300B1
FED300EE
FFBDFFA2
0009FEDF
00900056
FEE1FFBC
00920096
00D301D4
0088FFC1
0025FEF7
FF6BFF37
FEFD000F
FFECFFB1
FF860095
FEF5FF8E
FEB80045
0021FFF3
FFF9FF70
0007002C
0086FED4
00FF00CE
FEC00093
FF84FF98
005A00F5
000B0059
0022FFFB
0039005C
0019FFB0
FDDA0189
0061FF4D
0076FF8E
FFB2FF96
0039FFA5
01530027
FFD30022
FEFB012A
FF70FFEE
FEC201AD
00400056
FF460076
0029FFD7
000600B6
FE4CFF9B
0005007D
011EFF8E
0033FF80
FE9E0074
001000DD
00AF004C
00760065
0009FF59
FFDDFF3E
FE9800F2
FFF7FFE5
0076FF64
012BFFB1
FFAD0189
FF42FF9A
00B9FFAA
0076FF57
002200B7
003900D5
006CFFE7
0082FF75
00C60103
00870169
0094FFB1
0015FF56
01430039
FFD00044
00A10006
00B3FF0A
0051FF0D
000A00C9
0049FFD2
FFDEFF47
011F007C
FF6300A6
0070FFA7
008DFF8D
00B10114
009A0163
FFB30014
001FFFCD
0054FFAF
FF72FFAB
FF48004A
FF9FFFE9
00000036
008F00C9
00D1FEAF
0095FF53
008AFE85
003A0034
FEA1FFAF
00EBFF94
007CFD5D
FE3D0087
011E0026
00FE004E
00B00031
013FFF52
01D0FF9D
FFA3012E
007400CC
006D0015
FE9DFF09
FEDF0084
FF910070
00A8FFD5
FF30FFEA
FEE80010
0102FFE6
00BFFF2E
FFD7000F
00DE00A6
00FCFE7C
FFFA006F
006401A5
0066FE7D
00F0FFBD
01C9000D
FFEEFFFE
01C10084
FED2005B
FFF4FEEE
0005FF89
00010031
FEEBFEEF
0033FF5C
FFA2FF4E
FFD5FFC7
01B8FFFD
FFBE00D1
00590013
0065002C
FEB701E0
FF22FF38
FFEF00CF
FF07FFA4
FF70FF77
FF3C009C
00D8002F
FFCFFF56
0058FFF2
009CFFF5
FFF0002C
0181FFE6
FF3000A1
FF3E0050
FFBB0003
FFE3008E
010A0125
FF1D0044
FE67FF85
007C008F
017201D3
FFF5FFB7
00820069
FF4AFFEF
FFFCFEBC
01460037
003D00C5
FEB9002B
FFB3FFEF
FE8B0037
001CFFE5
FF9C026C
FE67FFBB
007B004F
00C5016C
0034FFC2
FF2CFFAB
00D4003D
FF7F005B
FFB1FF13
FFAD0130
00320087
FFE4015D
FF48019A
FF68002B
FFA30049
00290104
008B0000
FF8FFF8D
FFCA002D
01B20017
001E005E
FFC2FFF0
FFFBFE85
015C0041
FFF0FFD5
02AF0128
FF800005
FF190124
FF2E0057
FF7AFE98
FEE0FF5F
00CBFF57
00340045
0036FFC5
0021005E
021501CF
0011FF9B
FFD8FF64
0022FF5A
000300B0
018BFEBD
00AB01D8
FEE400DB
0129FEBF
FF86FFFD
FF6EFF21
0117FFB8
FF59FF00
FF8C0093
FEF3010A
0024FEDC
FEDCFF8E
FF5AFF74
019EFFFD
0078FF87
FFB50074
0028FFCD
0031FF87
00CA0113
FFAEFF52
FFDFFF29
00EE015D
006FFE83
FF8D002B
FFD400EF
FF27FF23
003800F8
002DFF96
0041FFE3
FFF60032
006B00E8
FFA8FE31
0036FF94
FF7D003F
00950064
FEAA0029
00BBFF21
FECAFF9D
FF230067
FED70087
00010027
FFF30073
01F6FF8F
FEEA005B
FFD5FF0B
002B003E
0063FFAA
0044FFFD
FF6F0077
0050000E
FE8EFF08
FF9EFFB5
FFBFFEEC
00A9FEA6
0057FF73
FF9001D0
025D0016
FF2F0105
004E0071
00AB00F3
00C101C9
FF1B007B
FF8800E0
FF0CFF6C
0038FEF1
FF3CFF25
0143FF08
FEB8FFE3
FE96FF7F
FFFA00AC
0063FF82
FFCE00C2
FF770016
FFC9FF07
FE2AFFCA
FED6FF71
0086FF76
FE03FF57
FFCB0131
FFA60073
FEEAFFA3
013900E1
004D006B
FF1E00A3
0147FF7C
FF35FF9F
003B0014
FFBCFF51
FEF200E4
FF96002E
0001FF82
0034FFB9
009B0094
FF8F00C7
00940094
FF68FFDB
FF46001A
FFC1FFC5
FEE7FFCA
FFA9011D
00FF001C
FF40002E
FF85FF16
FFA6FF8E
00B80013
00C0FFE2
FF7CFFA0
FF620016
003300CE
FF46FFAD
00A100F4
FEE3003F
027FFF99
00E70127
00D8007D
0174FFA6
004A0050
FEF60071
FE860073
00C7FF95
0024FFD9
006BFEEC
0005FF34
00B1FED6
00100058
FF4E00C7
FF3800A2
FF27FF78
00AAFEC3
FE9AFF9A
01250078
007700C0
00C4FECC
002C0028
FFD900B7
FFE10014
01B700FF
FF4D00D9
011E00D0
FFC00049
FF61FF63
FF73FF2D
FF7BFFA6
00E8FF54
015DFF66
FF9500C5
FF400092
007F0023
FFDEFFA5
0022019C
0040FF90
FF770107
FF36FF4F
00B4FEFA
001F00D1
FF3600EA
001C004A
00050119
0022FF59
FFD7FFF8
FFF4FF49
0029FF4F
012301C9
FFAD0148
01120161
FF5900A7
FEFEFF95
006000A7
00A4FF39
FFC300D1
FF5F005E
010BFFD6
0036FFEA
008000E3
FF41FF93
008EFEC8
FFC7FF7D
0067FF33
00E700A0
00AF0104
0132FFA8
FF86FF6A
FDFEFFE8
FED60045
FEBD01CB
00ACFF9C
FF8A0032
FFA3FF75
01B1FFAD
007D00FE
001DFF19
009EFFF3
00E1012A
000F0016
00FDFF7C
FEEA00AE
01030117
004DFF8C
0153FFF0
FFBCFFF3
00FC000F
FF9F005F
FEE10015
008BFECE
0134FFA4
0056003A
00F90130
FFC40034
FEC8FFD5
FF9C000A
01400054
0098FF5F
0092FF63
FEA2FFE4
002F0119
FF7BFF80
0142FF62
00C800DA
006E0094
FFE9FEE3
010C00C3
FF960006
0004FF39
FF4B00A5
FF4E0086
FFEF00A9
001BFFF7
FF5C00C3
FF8800A3
009EFEF6
FFD4FFB8
FEF8FF9E
00460102
FFD400BA
00E9FE9D
FE29002A
FF470048
FF90FFA1
0027FFF3
00740049
008FFF50
FFC90232
FFB20035
001AFFB0
002F00AA
0068FF0C
002C0124
FF6C0053
FF7F001F
FE3600AB
0026FE77
FFA800BD
014D0031
002BFFBD
0193FF58
00120141
FFF90125
FFEB005E
0152FFD3
FF27001F
FF77FE8F
FEDD0128
0022FFFA
FF3E002D
004DFF82
FFCD011D
FEC6FFE0
005C012B
FF8EFFEA
0090FFED
00BBFFBB
FFE6010D
00EC0041
FF1F0089
000401AA
014CFF8A
0090FF3D
0137FDFE
0130FEA8
00DF0028
0010FF7B
0014005C
FF5F00BE
FF49FF1A
FFC8FFAC
004C009F
00BAFF6E
000FFFE0
FF84FFB4
000B0059
FED3002A
FFFAFFAE
0198003B
FF6BFE81
FF33FFB4
FF6CFF34
003FFFC6
01210040
FFA500AB
00DE0092
FFF0FF45
00FA0139
011700B2
FF33FFE2
00D4FF07
003F008D
FF5AFFB3
FFC900ED
FF6300D4
000DFFA3
0045FFD4
FFD70013
FE9C00C3
0172FEBA
FF600007
FFD20044
0052FEB9
FF2900AD
FE28FFE4
0090FFED
FFE5FFFF
008EFF19
FF1D00DF
007EFFBB
FFC500AC
000FFF8D
01B3FEC3
FFD8FEA5
FF88005D
FFA6FEA5
0035FF40
0188FFD0
00710009
0168FFC0
FF30FFB3
00CAFFB8
006B0054
FFBB015D
FEEBFFC1
FF0D0069
FF100000
FF750019
FF20002F
FE910059
FF57007C
00FCFFC9
FFD30165
FFAC00A1
FFEAFF13
009EFEE3
00BF00C9
0198FFA8
FF2AFFFF
0124FF11
FF78FFAA
FFB0FF74
01370035
FF970047
0096FF9E
FF13FF4C
FFD4FFD0
0034FE2D
FFD9FE48
FF9C00C2
FF7FFE5B
00B4FFE8
00860103
019C00D0
FF2B008F
00BB019E
FEDC00A4
00CF0032
FFB2000B
00390077
FEF900DB
FF8B00E5
009CFF44
0003FF57
FF74FF4C
FF8DFEE2
00970090
000BFF8A
002700ED
FED5FEDF
FF23012F
008900FE
FEF4FF52
FF53FD90
FEDEFF72
00F601A1
FEDAFFB5
00040034
FEF70022
FFF3FEC2
0047FFA4
00980051
FFDCFFC9
00C30156
000BFFBC
001F00BF
000AFF08
FEB2FFBA
FF89002C
FE65FF19
FF49FF0A
01CA004D
FF780067
0064FF30
01820111
FFF600FB
FFD50061
FF7C0036
FF6FFFDA
0001FEFF
0069FE31
0187FF7F
00A40062
003DFFD8
FFC9FF0F
FFA6006F
FFA1FF66
0025FEF4
FF850062
FFDB0050
003FFFB1
0058002D
0104FEBB
FFE3006F
00E5FF6C
FF14FDDC
00C50074
FF1A011B
FFE600AE
FFCF0029
006200ED
00AC0025
FFE70066
FF860058
FF3FFFCF
FFB60118
FFA5FF68
0019010F
009DFF44
FF81FFFC
0114FF1B
0114FF86
00FFFEEB
FFD901BF
0085FF21
FE18FF6D
0111FF63
FF4DFEC2
0173FFF5
00620045
0007000B
FFD0006F
FEFE0000
00B3FEE1
FE590089
003600D8
0019FF48
FEA8FFDA
FF8E0097
FF780043
FFCD001A
01440049
FFB4FEE0
00F6FF97
0042029B
00B50147
FF9B00D8
FEA30126
FF500048
FEB2FF59
FF1CFF69
00AEFEE7
00170083
FFA3FF07
01D100D7
001FFFF2
FFD3011A
FFAAFEF3
FF11007C
FF340019
008FFF55
00C1FFBE
FF73FFF2
00220015
007AFFD6
FF4E013C
FFBEFFB5
01C600AE
FF0BFF03
FF2300A0
FF40FEEC
FECAFEF4
FF69FEE8
00C6FDC5
FFD4001B
0113FFC9
007FFE88
00A4002C
FEF9006E
FF9AFE9F
FF360096
FF32FFD3
005400A8
0073FFA3
FF5B000C
FEEDFF98
FF84014E
FFFAFFCD
0059005B
0018FF5B
FF5B0041
010400B4
FF94FFFC
00B9FF9A
FEE5FEF2
FFE2002D
FFECFF56
FF6400A8
FE1DFFE5
FE77FFAF
0047006F
00CEFFFF
FECDFEF5
FEFA00DC
FE6B0126
FF53FFEE
0049FF51
00CDFEE8
FFF90036
0024FF4A
FED7FFAF
009A0094
00CAFFB1
FF4BFF59
006BFFB6
FDCA007F
FF38FF64
005EFF35
FF1BFFEE
002EFF4B
FFE90009
FF77FF5D
00A70010
00050088
002501C2
FF150093
00E80217
FF6C0029
FFB2FF5C
FF0F00F4
FFE1FFCE
FE9E0018
00BA0017
FF20FF94
00AA000D
FF36006A
00CDFFFC
0112FF3F
FF3E0036
0140FE75
012600A6
004A0006
FFC9014F
FED00094
003EFF82
0066FF8B
00B7FE41
FEBEFF67
FFF4FF03
FEE40060
008AFFCB
00A0FF5B
003FFFEE
FF2EFFA0
FECA0042
01AE006C
FEDEFFC5
FF8B0120
FF08FDCA
FFD20130
00A5FFA8
FF5BFF4D
005400BE
00410125
FF0DFFCA
012AFF7B
FF06FF8E
FF85FF9F
FFF4FF83
FF7DFF84
0018FFB3
FFFE0018
FF8D012C
00ADFEE7
0128FF26
FF6B0048
FEDBFFB7
00C200ED
0004007D
004AFFC6
FE6B00D6
FFACFE93
015CFFF2
FFAE0099
FFA0FFF0
00F0FFE9
007A00AE
FF5800CC
FF1E005B
00370127
014300B4
0015FFCB
00BF00BE
FF9AFF89
FFF5FF3B
0090FF9B
FFE300FC
FFAEFF69
00AAFFD8
00EE0016
0009FF74
FFACFFC0
FE2CFF66
FFCAFFE8
FE9B0070
FF05000D
FFF0FFE2
FF370035
010F0084
00C4FEE8
FFA6FFC5
FF720121
FEEB0095
FFEDFF5F
FE9B013C
00E700F0
0021009B
FF26FF63
00CF00E1
00B20131
004A00EC
003B00F3
FF81FFD3
00110047
0078FFB6
FF61FF6C
0015FFA6
FE66FF93
0096FFDA
FF6500A2
0067004B
FF45FFD8
00C700BF
00B3FE8E
FF6AFF23
005FFFF5
FF16FFAF
FFF100A4
FF29FEEC
00FF016D
00290017
011D012B
0096FFCF
FFE3FFAB
001BFFD4
005AFE71
006D00DC
00AB0033
FFE3FFF5
FFD7002E
020AFEA9
FF23FF62
FF6000DE
FF24FEE8
00400009
00B7FF38
004DFF8F
FF41006D
00DCFFEA
FF7CFFFE
FF430070
FF6300CF
FFE100FC
FF8900A9
FF22012F
FEB2FEE3
FF93FFD2
FF510149
FF56FF23
001E007B
00A5FECF
FF87FF2F
00170039
FEB2FFDB
008301A3
FF5BFF6F
FFF70018
0056FF2F
FE5FFF19
00B101BB
006C0085
007EFFBD
FFEEFF7F
FF5100C9
0004000D
FFC9009C
FE3E0037
FF5EFEDE
FFBCFEC4
FEEB0019
FFA1FFCE
0080FFA5
FF9CFFB3
00B9005C
FFCFFFCE
FF04FEB7
FF0AFEDC
FFB8FEB7
FF1E012C
005C00E1
FEA5000B
FFB7000C
FF69000F
FED8013B
008B00A1
001DFF43
FF0F00C2
0071FFEF
FFBEFF41
FFFEFFF2
FE82FFC9
FF49FED1
FF9FFFD1
00BB0151
FF610088
FFEF009D
FE16FFFA
001700ED
017BFFDD
0078FF81
FE7FFFBB
FE430028
FFFEFF22
FEF2FF51
FED2010C
007300D1
FF1FFFAA
FF220222
002AFF9D
FF9E003F
FFF6FFFD
FF14FE43
FFD3FFE7
FF66FFCC
FE6C001C
FF53FE1C
FFEC0098
FEF4FF4F
FFE1FFC3
FF490054
0110FF0C
014CFFDE
FF3400FC
004EFEB0
0025FF74
0149000B
FF4EFEB9
00F90082
FF330054
FFA80168
FFE0FFAC
01CA0028
01A90059
FF0500C9
00040015
FFE2FFB1
FFB6FFC9
0036FFAE
FF5AFE80
0030FF4A
FF5BFEE1
FFB4006E
00D7FF5E
009B0044
0029009C
005100B9
FEEEFFCB
FF4AFFEC
FFF7FFEE
01BEFFFB
0036FFA8
004EFFC6
FF840157
FED200EF
FFDDFF10
FEA20016
FE770099
FFAAFF89
FEE6006A
00C1FF13
003DFF73
FF6EFE8C
02080023
FF8A0216
001A0002
011300E1
FF69003F
0004FEF2
013DFFB2
FF40FF4A
FEF7FF0A
0025FF38
FF690160
014D00A6
004400D5
0152FEF9
FE610042
FE91FF8C
FF71001D
00A2007C
FF88FF4B
FFA60046
00C700BF
FFE9FFD6
002E0068
00AD0140
0115001C
01A2FE89
FEDBFFBD
FEFF00EF
FFF8FEBE
02440071
FF04FFC3
FF71017D
FF71FFEE
FECBFF3D
FF150176
0025FFBD
FF430073
FFAE0129
FF970078
FF530072
FFAF007F
FEE60088
0066FFD9
002F0072
00BCFEE6
FE4F00E8
0087008E
FFF8FEB4
FF7C005C
010CFE71
FFFFFF8C
FFB7FF01
010000ED
00AB00E5
FFD60002
009300A7
FFD8FEB1
FFA700A4
FFBB006E
FF65FFC9
FEFCFFFC
FEF200C2
00A30123
FF79FFDA
FEF4FEBF
FEEF00F7
013C00F6
FF5FFFA8
0068FF54
011B004C
013601B4
008C001E
005D0088
FFB2FEFF
0060FF43
01380030
0161FF02
FE47FFAF
0151007D
0078FFEE
FF7AFF77
FF51FFC1
FF93FE3E
00C4FEAC
01050012
0095FF2C
FECAFFC4
FECC018E
0018FEA7
FF760082
007200E5
00DCFFCF
FE350034
FF59FF80
0149FF8E
004A0122
01D90251
FE9100D8
0072FFC8
FF960087
00A8FF42
00AE007E
001AFE9C
FF3CFF98
0076FF6A
FF56010D
00C7000F
FFF1006F
FFCB0094
FF75FDE4
010DFF53
FDA90111
003A00C8
0062FF49
008F019F
010000E3
FFA60010
FF0800BE
FEEB021E
FFBD0060
00050206
008CFF13
FEF4FFF3
FEE70105
012F0011
011C008A
FFA3FEFD
FFFB0147
0054FF2D
00C2FF62
004BFFB3
FFB7FFDC
FF4FFF51
001C00EC
FEEE005D
0000FF7C
FFF00072
FF72FF08
009EFF01
FFA8FF95
013BFFE7
FFDAFFF4
00620006
FF9500D9
FFE9000D
FFF100DD
000F001E
00D1009A
002A0207
01B70078
FF3F0043
FFC0FF85
000900D8
003BFFC5
0059FF86
003CFFFD
00B9FFEF
0074016B
FF36FF36
FFC4FEEB
FF8F0079
FF3F001D
FEF5FF3E
001B00B5
FE8100A2
FFF4007C
FF9A003F
00B40008
00A3FEAF
00A3FF90
0081FE98
006A001C
004E0202
00F900B0
00CE00F5
001C0146
FEF700F4
FFF1FF64
FE75005E
0003FEF8
FF30008E
FFE90121
0073FEB5
005BFFC5
00260042
FF87FF72
0114012D
FF99FEE8
00930082
0100FF7F
FE5FFF7B
FFCE017E
FF7D00B9
FF88019C
FFC1FFC4
00490064
00F00088
00880054
FFC7FFFB
FF75FFF2
FF960117
FF3AFFF3
FFA3FF87
FF37FEE9
0060FF27
00E60067
FF99FDE1
FF6300B5
0058FFB7
FF0F00FA
012C0097
FF63FF3F
FF8BFF4D
007FFEEF
FFF0FF85
FFB10088
FEF6FFBE
0025FF52
0042005C
FFD9FF98
00B40078
FE940062
00AAFFC3
0030FFDB
0090FF5E
0176FFE5
0080FF9F
000800D4
FF14FF80
013C0128
FEDD0084
002600DB
FF61FF66
006D007F
FF2B017F
0105FF38
01A30010
003C0147
FF8CFF8A
FF00FFB6
010AFF95
00B7FF3C
0020FF8A
FFE900C5
00FF007A
FEC60202
FFE8FFD3
0154FF91
FF76003D
FF45FFBD
FFBAFF8A
0072FFC2
00B1FEB1
00E5FF76
013700B9
FF81009D
0026FED5
01460041
0024FEE6
FE21FF9E
FF70FF7E
002EFEFE
FFAD011D
005D002F
FF10FED7
FFD8010B
FE25007C
FFC7FF7E
FEB9003E
001A0086
01E8FFFF
016400D5
FF520063
FF570057
FF92FF81
000BFF39
00A4FFE9
00010115
FFDEFF54
00EF00B9
0049FED3
FFCCFEBC
FF2C00C1
00030002
FF99FF8E
001A00C2
FF99FF5B
FF56FE53
002AFF15
FF9CFE8E
FFF7FF52
FF950101
FED4FF90
0045FF96
FF41FFFC
0006002B
FF05FEAC
00A10213
FFDBFEC9
0066FF59
FD5AFEF1
0041FEB3
0072006C
00B1FF59
0010FF62
FEBBFFF2
002FFF0F
FF86FFB4
FF46FFC2
FF41FF22
FF80FF53
FE24FF94
FEDBFFD9
001B0049
FEDA0167
FEF9FF15
003EFEE9
FFAA00CA
00C9FF54
FE7E007C
FF1F00F1
FF0AFFDD
00100093
FF60009A
FFAAFF8E
FDE6FF1D
0052FF31
008E00A1
012F0162
006FFFDA
002CFF91
FF2B0059
0026007F
004EFF70
FFE3FFA5
00B00050
00CF0100
0180FEE4
FFFCFF22
FE87FFA4
FE66FF27
00A0011B
005800FB
00310023
0119FFDC
01220046
0056FF46
001D0006
00C80067
FF4D009F
FEE7FF3F
0026FF1F
FFD6004A
002A0004
006B018D
0093FFE5
001FFF78
FFA6FFA0
00000112
FFF200E9
FFD900B4
FFC2003C
000B007B
00CEFE89
0098FF7C
009CFFD3
0007012C
0073FF95
005F01D5
FF04FF09
016FFFC6
FFB8FEC2
0021002C
FFC101AC
01B1FFB7
FFE90010
FF4BFEDB
FFFCFF6C
FFE3FF5A
FE8501AA
FFB501CE
01AD0174
0113002A
FF610096
FEF400AB
00ABFF68
0061FE05
000AFEE6
FF9DFFEE
00BD002E
00A9FFEC
01340082
FF91FE58
003AFF60
009CFF25
007A0013
008C00DA
0103FF78
00130081
FEEF0039
FF85FF68
FF58FF63
FEF9FF79
0065FF09
FFB30042
FF1C002C
0033FF3C
FD49FF54
FFE80083
FF2BFF93
FF840009
00CB002D
00BEFFE6
0013FF98
FFDC001C
0078FF44
00590032
0008FEC2
FFB10018
0073FF60
00F9FFCD
FEBBFF76
FFA9FFA3
01130024
00A8FFAC
FF0100E9
001A0066
FF250072
0018FECA
FFDC012C
00B8FFA5
FF5D000D
FFB6FFE0
00F3FEB1
001FFFC1
00D1FFD2
FFE6FE85
FEC4FF0C
0104FFBE
FF9D014C
006200DE
0138FF48
FF70FFAB
007D00D3
0026010E
007E00B8
00AA0075
011CFF42
FEE1FF4E
FE8600D2
00B30005
00D6FE81
00250053
FFDEFFE5
FF9DFE86
FF91FFA3
FE9200AC
01F100DE
00B70085
FF560088
017FFFE4
0068008E
007AFF77
00F8FFB3
FFFE00A2
00B0FF60
0163009F
004C015B
0089FFBB
FFA800A7
FE6FFF8C
006001DA
FF6DFEAE
00300028
FF42FFD5
001DFFC3
FFD1FE9E
FDF0FFE2
0052FFBF
00AE0130
001F0069
0061FF08
FFF3FEE3
FF9E0020
FEEFFF21
FF50FE4B
01160054
00620069
FF41FEF7
00F60020
FFB7FF21
FF4D00F3
FF84FFE7
FFA9FF6D
FF75FDD1
000400AB
0094003E
007AFF9F
00EF014D
01DD0016
FE31FF5F
FFCB00EB
FF1BFEC7
FF8EFFF6
FF480084
01C000F1
FF4F0112
00EB0157
00F0FE64
FE520037
0003001D
004EFFF0
0142FEC8
0192FF9E
FFF20123
008A0016
FFA800FA
FFA90087
FEE1FE6F
FE36007A
FECF00B6
005F0154
00E8FFDE
FF7D0032
0001FF59
00B9016E
FEF700C4
0028FF5C
FE76FFC3
FFB0FF1E
01070047
FFC6FF90
0124FFF3
008000C3
FF63FFF8
FF4BFFF0
0081FEAE
FFC0FE68
FFC701A1
00A20017
FFB1FE69
0211006C
0018FFD2
0173FFF8
00490063
FF95FF9F
0174FFAA
FF7C004E
0011FF48
FF16FF99
FF8800A5
FF9100BC
FEE7002F
003DFF97
0093FF17
FFA3004A
015900CE
0061005C
FF030020
004B0024
FFD3010F
FFDEFF36
006EFFCC
0012FEFF
FEC60026
FF85001F
FFE5009C
FF75009E
0067016D
FFB20010
0089FF3C
FEA9FED2
FEE9FF7F
FFBDFF68
FFF30071
FE9CFF8B
008DFFD2
FF08FFA8
00520007
008300C0
01150057
FF640060
00B9FEE8
0007FFD5
0177FFF0
FF49FF19
0002FFAE
005CFF63
007B0014
003AFF32
00850123
FFDEFF86
0011FFAF
00BD00A6
FFF1FF72
FFAAFF1D
00CA01B1
FF73FEE3
FF4FFFA1
00AC0090
007F006D
00160015
FFBC0004
00F7FEDE
FFEBFF2B
FF43FEF9
FFC4FFC0
00C8FFA2
019300E2
FFE80135
0004FF3B
0089003B
FF3000C7
FF57FF67
FF6EFFD8
FFDB014B
00F80091
0118013C
00DC0015
FFFD009B
FE870032
FF8B0002
FF27FE83
FFE20014
00B20105
FEF00074
FF25FF25
0085FF66
00550132
0135FF28
FF210114
FF82FF11
0115FF4D
FF5E0031
FF570002
009A003A
009DFFF0
FEDEFFF1
005FFEEF
01170007
FEADFEBD
FFE80020
FF500182
FF12FFE3
0088002F
FEDA0003
0043FEB2
003C0072
FF7FFFC9
0098019C
0012FFCB
FF42FFE2
00280027
0073FF29
00AB0034
01460073
FEC900CB
FF9B014C
FF470082
FFCFFFC6
01A8FFB3
FFFAFE93
00B80066
004900C5
003900ED
FF60FFF0
FFD6FFD0
FE84002F
FF9BFFFB
FF5DFFC7
FF7900A9
009C0038
FE6CFFE8
00040007
FFC6FEAA
FF28FFF8
FFF50084
0174FEFD
00E0FF7A
FFCA01A6
00F4FFBF
003AFFE7
0002FFFC
0042001F
FF42FEDD
FF7C0054
0087004D
0010FF81
FFB8FF01
00B60123
006B0079
0033FF40
FF060069
FF34FFC7
014B0139
FFA1FE37
0153003F
0074FF96
005E003F
01590113
FF9FFF6F
FF7300E4
FF3FFE06
006A004C
FF26FEE9
01260093
00A20079
003C007A
FEC20052
00700041
0114002F
FF8E006F
0153FF68
FEBFFF5E
0137FF3F
FF66FFFE
FEE400C3
FF5E008B
FECE00B7
005CFFBE
00DDFFBB
00ABFF72
005BFF8A
01FCFF7F
0118FF60
00C7FE88
FFEBFEEF
FF77FE8B
008EFF85
0097FEB1
00AF005D
FF9F011A
005AFEA3
00DA00DE
00DD0010
FFEB0094
00C8FF96
011CFFAC
001DFF56
FFF00014
FFAC00F0
FF550144
FF44FFFD
011301A1
00A4015E
0176FF56
FF3EFF43
FE6DFF93
002100A4
0222FF8C
003FFF72
0090FEC2
0067009C
0016FF9D
0125FFD8
FF8EFF6C
FF4EFFF5
FF89FF22
FEB700F5
FEE40000
FF570008
0078FF37
FED4FFB1
002B0045
003A009B
0027FEC5
0004FF3A
00450013
FF3FFFEA
FEC20006
013BFF91
0003FFAF
FF76FFBC
FFF8FEEF
FFACFFFC
FE82FF67
0027FFC1
FF9D001E
FE14FFF4
FF08FE1A
00CBFFE5
0126FFF7
FF39FE8C
FFF7FF77
FFC1FE7D
FF2DFFE2
FFC40049
FF900147
FF1CFFD9
0042003F
FF27FF6E
FF91FFCA
00F8FFCF
0216FFFF
FF9CFFCE
FF060186
00AAFED3
FF87FFBF
FFF501D5
FFC100CD
FF65FF42
00A100C6
00B3013C
005AFFA4
0067FF73
00A5FF9B
FFCFFFFF
00200165
FF850073
005B0061
001EFFC8
0072FFBB
007C00B4
00620045
FEA5FF7F
009801BC
FF610171
FF35FF0F
00020054
FFB8FF56
FFB6008A
009DFE19
FF13FED5
00FAFE52
0016FF3D
FF38FF08
FF24FE9D
002C005D
010FFE26
FFAEFFD4
FEE0FFDA
008B010C
FE920024
0210FFEA
FF0B0050
FFB70016
FF6E00D7
0004FE74
011C00F9
FFC3FF20
00410033
FF9C00D2
001DFEDE
FFA3FF5E
0069FFF0
FFE6FFB3
014EFFD1
0135007C
00DAFF66
0102FFFD
FFDE00A7
001F0065
FFBF0143
006700AE
01F1001B
FFCF006B
001DFF82
FEE2000C
FFA4FE87
FECEFFAF
00F1006D
FF630072
0155FE74
FE2D00D5
00F70203
0084FF58
FFF8FFFC
FF6C003D
00D40077
FF9FFE49
FF85FFE5
FF170017
00E3FF3D
003EFF57
00470187
0044FFFD
FFA9FEBA
FFEBFFEB
0059012B
003A016E
00300070
FFB50052
FF120012
000100FD
FF8000CC
FF790025
006DFF2A
FF700125
FFA1FF69
FFEA0058
000C00C4
FDA10282
00780038
FF2B0097
FEB4001B
0024FFE9
FFD30087
00AE010D
FE5D00C8
FE79006D
0026FFE8
FF0CFF78
0059FE96
FF630017
006C003D
0010FF8A
005E0079
FFCF00F1
00D2FF5A
FFD5FFE4
FF9BFF3D
00870015
001100F2
009A004C
0148008A
FF3FFF5D
01B5FED5
FFBD0025
FF74FFBE
001C005D
FFAE000B
008BFF38
00C800A4
006A0000
013E002D
FDA100B3
002DFF72
0192002A
00570048
007F00CD
00BF0013
005400B0
FE410026
FF0AFF86
00820074
0151FF8F
0117004E
01630000
FF73FF8D
0005FEC5
0023FF52
001F0122
FF900109
0110FFCD
00890064
FF990052
FF660101
FFF50182
FFE8FEE7
00D8FFA0
017A00E3
FFDD0121
FF72FF33
FED9FF5D
FF3E00FE
00A500B7
0033008D
004AFFDF
0047FEFE
0074FFA6
FF750021
FEE0FF24
FFF5FF8F
00F500B7
FF80FFFE
00D3FF50
00CB00C5
0006FECA
00B200C6
002DFFBC
FFCFFF84
0031FFD2
0164FE5C
00050193
FEA40003
FED8FF74
FFC6FF7A
FF010083
00F6019C
0019FFF3
FE6000C6
00360098
FFC6FEC1
FFC9FFF0
FDD0FF85
FFF80047
FF7C0103
FF9F0003
FF48FE9C
FF62017F
00070066
FECFFF79
0090003C
FF6DFEF7
FFAE0064
FF94FF4A
0012FEBE
FF47FFAB
FEA3FF6A
FDBEFF12
FFAE0100
005AFEDD
FF6C0058
0047FF26
FFFA002B
FF4E001D
011AFF15
00EDFFA9
FF60FF1F
FF21FFB6
FEC0FF5C
009B0061
00DF00CF
00B10026
004E0096
0065004D
FEE7FF8D
FFD40008
FF1AFF20
FE4DFFB2
FEFFFEF6
01D70010
016EFF58
010AFFB8
FEBBFFCD
FF64FEBB
FFF1003B
FF62FFA1
FEC10039
00060055
FFEA014C
00BD011E
001FFF17
009FFFB5
0040FF95
FEF3FFE6
FF80FF6D
FFBF00AA
0025008F
FF53000B
FEF400EC
008500F7
0088FEBC
FE570104
01770097
0317004E
00DE01BD
0153FFF0
00D10061
0040FFD7
FF960132
007EFFB0
FF7AFED0
00900004
0161FF7E
00C1FEC7
FFC8FFB4
0027010A
013D007B
009CFF35
0144FFE1
0048002D
FF28006B
00BBFFB1
0006FE82
FECCFF48
FF45007A
FEF6FF77
00FCFF61
0093FDE8
FFCB0166
FEADFF77
FEBEFF59
005BFE94
00560025
FE63FFB4
FF9E019A
FF05FFFA
FF920064
00ACFDE3
FFC5FFB6
002D0068
FE4800C9
FED4FEFC
00040069
009EFFB0
007BFEB3
FF12FF5B
00B3FF99
FFC600D9
FF75FF48
FFAAFFB1
018F000A
0079FFDB
FE5600A0
0055FFAC
00650275
FF3600E5
00430106
FF68003F
FF4B00E8
FF95FE43
0011009E
00DBFF7D
0055FFF5
0018FFE5
FF2BFEAC
006A0136
FF28FF8D
0084FFF6
01350083
FFBB00C8
FFD600CE
014FFFB2
00DAFF60
00B50102
FF2BFFA7
00E6FFE3
FEBEFF8B
002DFF39
FE83FECB
FFC7000B
008FFF9C
007AFF08
FF8B0109
FF01001F
0074004C
FF6000C6
0109001A
00580041
FFE9FF6F
FF87FF6B
00D5FF97
00CE013A
FF130067
FFD0FE85
008E00FA
FF8D0015
0019FE79
FF650038
FEDDFF74
FF2300F2
0019001B
0242FF9B
00CCFFB1
FFB8FE87
FF680007
0034FFDC
FF27FF0F
FF92FE99
00260052
003FFE68
FF5700D0
0084FF9B
006B00FC
FFB6FF28
009D00BE
FF5C0213
FEEFFF9B
FFE90093
FEF7006D
FF69FFF1
0246FFA2
00D10154
FFE20054
FFDDFF2F
014800A8
0180004B
002B0042
000CFF0C
FF7AFFB9
FEA1FFCA
FE3100B4
FFF2FF3F
002CFFC4
0021FF05
014A00D4
FDFF0158
FFBCFF93
FFD7FFB9
FFCDFF34
00FFFFA9
003300B1
FFE5FE10
FF95000D
FF0DFFDF
0037FF5C
007600E8
003EFFC2
014AFEDA
FF95FED5
FFB7FF93
0044FFFB
FF65FF3F
01D30141
FEF0FEC6
00220010
FFA90006
FF61FF64
003100CE
FFFD0143
FF02FF48
FFD30100
FFCCFF8D
0036009C
FF0D00D0
0128FE93
013400A7
014F004B
FE94FF68
003CFEE4
0172007A
00700083
FFFD0125
FF3CFFFB
00DEFFFB
FF0F000B
FF62FEF4
FF290020
FF69FFCE
FF900010
00CD004D
FF94026D
FFEEFFA5
FF78004D
FFD6FFAA
FE7D00F7
FF6BFFE1
0049FF3C
00E8015F
005AFFDC
0003FFFB
0000FFF2
FE9DFF1D
FF9D0066
00B20032
FE7C003E
FFC3FF18
0074FF8D
00ED0131
FFA7FFF6
FF7E006F
FEB7FEDD
FF1EFEE1
FFA800FD
FE5C0013
FF20FDDA
002CFFBF
00C500D4
0079FF63
0046FFEE
00DCFE84
FF3C0158
015E00A6
00280128
FFA3FFCB
011701B5
0141FFD1
00F200C3
FF7F0060
0012007F
0092FFFC
00080064
FEDCFF23
00F7FEC8
005EFF9D
FEC5004D
FFCB0045
FE8D005F
FF4A005E
00A5FE92
FF88FF17
0079FFBB
00A4FF41
FED9FFDF
FEA800B8
FE380081
00B2004E
FE8D023D
0018FF91
0104FF8B
FFFCFFE8
FFAB01A6
FF9900F1
FF73007B
0037000C
001C005B
0128FFD9
00510134
FFF90068
FFCC0092
000EFFE0
00120010
FF9A0052
FFCEFFE1
FFA3002E
00A0FF2D
FF850054
FFD8FFBF
FFB3FFFF
0089FFEA
FFC7010B
011800C4
FF5CFFB4
0071002E
FFE4FF93
FEC1FF9A
0049FE7E
FFD100B8
00A8001A
FF290119
FF290008
005200FB
006D0029
FED1FF81
00CAFFA4
FFC800D8
FFC0FFC1
FF27FF8D
0068FF64
FF8B00F5
FFDC00AD
FFF7FF96
009CFE6B
00CCFED1
FFFA001B
00CDFFBF
FFB7FF0F
FFDAFFD6
FF8700F2
00540020
0001FFDF
FFA4FFD0
FE330153
FEED008A
FED10056
FF910098
003B00FC
00FDFF22
FFD6FF3B
003EFFEB
003CFF21
FF65FFC2
FFDEFF91
FF2FFFF0
000E001D
FF8A016E
000AFFE3
012B0087
0077FECE
FFF2FFCB
00EB00A5
0098FED8
FE6D0146
0074FFCF
0117FF50
00C8FFDB
001EFF54
FF42FFE4
011A0030
00ABFD51
00BAFF7B
FF2A016C
0153FFCC
FEBBFF54
0053FF47
FEFD01E1
001A0051
00C9FF51
FF900116
01040007
FF29FF9C
012AFEE2
FF2A0114
00B30010
FF59FE84
0032FFA4
00ADFF47
00FA00A0
FF4CFF68
0042FF56
0152005E
FFA5FDD9
FFF9FFE5
006B00AE
FFE8FF9D
FF35FEAD
01D50065
FF95FF97
FFA60084
FF67013E
002DFF9A
FFC7012D
0089FF4E
00C10022
00470063
0061FEA0
00E90187
0004FFEF
FF8D0090
FEEDFED5
002200D0
FE98FE3B
FF7D0071
022AFF32
0203FFF5
008E002E
FE73FFE3
FF5E0004
003CFF61
005B015B
FF450197
0091003A
000B011D
FFBCFDD1
FF5EFDD3
FFE6FF87
FFF6003C
0095FFAC
002000F5
000B00A0
FFA0FF12
FF8E0009
00D1FEBA
00C6FF94
00600057
FE19FF5C
FEBCFEFA
00DA004E
FF2900C7
FE73FEED
01F1FF4D
00570030
FFEAFF88
FE34FF38
00D3007F
012201C8
FFED010C
00CC001C
FF37FF93
FF39FF4E
FFAB0003
00EF001B
FEC7017A
FF9DFF76
00770043
0116FF48
FFD6FF48
00810088
0089FFDF
006200AE
FFF500D0
0073FF41
FF9C0049
FF34FF70
020BFF8E
003CFF48
FFDFFF2D
FF6FFFDD
FF4AFF31
FFCA0033
00F5FEF1
00F70157
FFD900D5
00F60139
FFBBFF6E
013E010D
0066000D
FFA10043
FFC10002
00C2003A
FF2C0151
FFE000DE
00B50046
FF7E012A
01010088
FFFBFF81
FFAE0048
FF7BFFBE
00480019
00B8FE76
FFCAFDCC
FFF4FF53
FEBDFFAF
FE610171
FFA6FFE3
00E0FF21
FFDFFFB0
00DC00D5
FFD50015
00620120
FFE3FF6F
0075FE22
FEE800BF
FF42FF63
0176FFE9
FF48FEA9
FFE00149
FE81009D
FF710011
FF8CFFBA
FE9CFF91
0054FEF7
FFD1014E
018A0145
008EFFF3
006500BE
FEBDFFE1
000A0007
FF40FFC3
FF920022
00DAFF25
FFCCFF41
FEF0FF66
FF6C003A
002B00BD
0109FF1B
00F6FF5C
FF38FF8E
FFD5015E
FEC8FF77
00B2FF4E
FFE400F7
00630005
009D0081
001BFF50
FF2AFEFC
FFC0FE8F
008F001B
00A1FF20
00DC0020
FEE30038
005300D0
FF16FFE8
FFB0FFBA
0021FF04
FF260127
00760150
00AEFDFE
00E8FFC7
FEE2009C
FF04FE3C
0087FFD3
FF5CFEF3
00AF00F3
014600A5
FF99FEF6
0032014A
FEA0FFBD
FF4E0021
FFCDFF6A
FEBB0049
FF1600D4
0006002B
0001FFBB
FF860157
FF87FE50
FF6AFF87
FFFF0066
FF350030
FFCAFF06
FF4E0055
0034000A
FFF9FF33
0033FFA4
0014FF83
FF3CFF54
FE6B0119
FFED00AD
FFEAFF1E
FFE5FEC6
FF37FFAC
00080003
FF650091
0080FF9F
FFA4FEE4
0008FFCB
FF690049
00AF0012
006EFFF9
003BFE3E
0147FFB8
00760177
0029FF71
0116FE47
0001FFEF
FFC901A2
FF9AFF5B
0071013F
000E0148
00B5FF1D
00340004
00FD00BB
0077FF12
00B5FF4C
002DFE86
0033FE4A
FE720036
FE7700B3
FF080087
FFBEFEE0
007BFF1F
FF75FE98
001F0092
FEC500B3
FF4001D2
FFF2FFAA
00D1FE47
FEE0FFBD
0041FEE3
0084FF68
015CFF72
FFDB0126
FEBB0002
0068014D
FF010118
FFF5FEFF
FEA2FF54
FFA4FE24
FEF3FFC4
FF29FFA6
FECEFEB3
FF17FFDB
0085006B
010B0099
00C400F7
00D3FEC6
FFFDFE4E
00B6FFBB
010EFF04
FFE1FEAC
FFE0008A
FFF9FF9D
0061FFFF
FF52FF7B
0010016A
FFB601B8
008F00EB
FF10008D
00670062
00F00048
FF86FF39
FEF0FF7A
FFB9016A
FF720194
00370052
018100F8
00980128
019A00B6
FFC60000
FFCA00BA
FFF700FC
FF22013C
011FFECA
01AF0019
FF3CFF1F
FFE800FD
FFE2FF01
0119FF84
FF56FFE7
FF5CFF8F
FF84FFA5
FE2E0121
003AFF49
013CFFB1
FF2800C2
FFAB005A
FFF10001
003C005F
FFDEFFD9
FF76009E
FF49FFBB
FFE70045
004F0025
001B000F
FF48FE60
FF8F0079
00F9FFCC
00320036
FF7EFFDC
0148FEFF
00C7000C
0041FFCE
FFDD0130
0146FEC9
FFDA0036
0090FF38
0116FEBE
00250039
0161FEED
007FFF25
00E2FF27
FF680017
FED80045
FFB4FFE0
001A0075
FF1600B3
00A3FFDA
FF1200F2
FF45FF2B
01CCFFB6
004A014D
00CF00F9
FF95013F
FFF5FFB7
00D2FF8C
001C009D
FFAF00CF
FF0D00E0
FEB80042
FF52FFDF
00420008
00E3FFD7
0091006D
00730180
00A400A1
FF6EFF32
FF50FEF9
FF910019
001DFF5F
FFEA0056
FFE4FF2C
FF53003C
00C3FFD1
FF8BFF86
FF9FFF1E
FEF0FED7
017A0078
FFAC0072
FF380007
FFDEFFBB
FED2FFCF
00080086
FF1C009B
006E0073
00D600BD
0135FED4
FF7B0060
FFA5FFA3
0087014F
FF82013D
0067010D
FFE00083
0099FFC1
00F4FFE0
FF02015F
009FFF08
FFE9FF92
01B0FFFC
FFD400EF
01350010
01AAFE93
01970066
FFA500D8
FFD2008C
FF7DFE83
000000DD
007F013E
FF39FF50
FFF1FEF3
FFCD006C
FFCFFE03
FFC40093
FFABFEDC
FFB3002D
0197FFC9
00EB0005
FE71FF1D
FFCC0063
FFCC0023
FF1AFFB3
FF58FFC5
FF9DFFB2
FF7CFFE2
0004009E
004DFF83
0047018C
004BFFCD
FF68FFAA
FF2CFEB8
FF88FF82
006D0020
FFF0FF27
FFD40034
0125007E
01B000ED
FFB20186
00460077
002D0033
0136008D
0039FF32
FDE8FFEC
009D007C
FDDD011A
009EFFE0
016E0009
0061FEB7
FEA2FDF0
FFFC0030
00C9FF25
0099FF70
FF3B015E
FE8EFF80
00A8FF67
FF5CFF46
011D0201
0070002A
FF360086
FF7F00FA
008F00D3
0065FEE6
000EFF33
FFAE008F
007E003D
FF7100A4
00D10035
00B70027
FFC30010
00EA00DD
FF40FF70
00B4004F
FFEBFFB7
008F00BD
FFB70036
00730097
0032FFA1
00F9FFD2
FFE5FEFA
FFA6FEEB
FF7F0034
0127FFE1
FF5100E4
0071FF41
FFAF00BE
FFD7FFF9
013E0092
005AFF53
FF2A0109
01A5FF48
00E9FE7B
FFDC007C
FF5CFFC9
010700D4
023D0035
FE6DFEEF
FEF40039
00040023
0038FFE5
01BB0024
FF78FF8B
FFD3FF37
FEE9010B
0099004E
0059FF77
FF66FF0C
FEE2FEFE
00140018
FFE70032
FFA5FF99
005AFFBE
003600B1
0138FF85
FF0B003B
FF29004D
0144FFF0
00310049
FF020086
00FD0085
001300EE
0093FF80
FFCAFF2D
0198004A
FEA9FEC0
FF860076
FFDFFF75
005000D3
0134FF37
FFAA0000
002EFFE0
FF83016C
FFFB0053
00ACFFD6
FFFF004F
005F00B1
0098005D
005B0119
FF2BFFC3
00150080
013CFF67
FFAC006B
FF88FF43
0199000F
FEA000FD
FFD10072
FF840076
00020023
0089FEE9
00E7FE94
FFB6012B
FF4BFF68
0106FF66
FF5EFF65
00450131
0035FF3D
FFD5FFEB
FFAA0090
016CFF30
0005FF65
000700CF
00B20025
FF53FFCF
FF7D010B
00810056
01D101AC
0127FF51
019A005E
FFD500F7
008EFEFF
00D7FFC4
FDECFFBC
FF5B011B
FFFE0094
FF9CFFA0
00B60122
0124FFC1
008D0070
01520146
FFECFF18
FF9E00B9
FF77FD78
004DFE94
FF2FFF3C
006FFEA6
FF960020
0050FFF2
01320109
FE7B0050
FF1DFF1F
FF0A00E7
00740120
FFAEFF42
0043FF92
FF6BFFE5
FFC20054
FFA50014
00A30076
FE4F0009
008800C4
007CFDB7
0095001B
0018FFD5
00D7FF8D
FF8BFFDC
00640031
00D9FFC0
000AFF85
FF47FF41
014300C7
FFFEFFEF
0061FF84
FF23FFB0
0102FD95
FFEDFFB2
00A7013F
0027FEF9
FFE4001F
007FFF72
0026FF78
FEF700B0
00880099
009B002D
00C30049
FFAAFEED
FFE80007
FF37FE76
003FFFEB
FF3F01A6
000401D9
FF7E01CB
0048FE90
0147FF5B
00D900F7
012CFF7C
0113FEE1
FF56FFE3
004C00D2
FFF2013D
008A0107
FFA4FFF1
0028FFEC
00C800AC
FFA0FFEF
FFD4FF35
003DFFCE
003CFF21
FF870091
00AE0060
FEEBFECB
006D0029
FF1C00C2
FE89FF94
00A90002
004AFE5E
FF3F0007
FFD7FECB
FFA4FF9A
0077FF93
008E0080
FF41009C
FFBC009C
008D0015
007F00C2
000E0121
007D0160
FF9600A7
000CFFA9
00AF00D8
0156FF33
006BFF3F
00ADFF81
00E1FF4B
FF5DFF2F
FF31004C
01EB0003
00C300E8
002EFF6E
FF010039
FFB20015
00EFFF49
FF85FFC2
FFD300D8
FFFFFF27
FF3E0087
FF9FFFFE
0020012C
00070072
FEC5017E
FF8E01A2
FFEDFFE5
00AC0036
FFCCFFBC
FFCC00C8
00D0FFCC
003BFFF8
FFE0FE90
003CFF01
002BFEF9
011B0048
FF0B009E
0024FFC8
0174FEF5
FF45FFE5
023FFE74
0098004F
0086FFC5
FF3F0001
008BFEC6
0131FF5C
016EFEB2
0018FFEA
FFB4FD5F
020C007F
01460082
FF8E012E
0032FEA0
002800D3
00080138
002200B1
FF2AFFC6
FFB2FEC7
00C00028
001EFFC6
011B011C
FF9DFEA2
00120107
00BD0111
FFEE0002
014F0070
0049FFC8
FFE90054
0085FF9B
0095FED3
FFA9004B
FFE2FF37
004B0076
0059FFC9
008301EA
0159FE56
00C40106
00D0FECB
009A009D
FF5D0048
0032FFE8
001400A6
FF550030
0004000E
FF8201A9
FF45FEAA
0065016B
00960001
FF6E009E
FF47FFE1
FFA1FFE8
FFEA007B
FF270129
FDE50074
FE410049
00A10078
00ADFEEC
FFA8FFA0
FF780122
0046FF1A
004BFF16
FFB3007A
FFE4008B
012AFF46
0197FF4E
FE85FDFD
00E6FF8B
0098FF83
FF96FFA5
FEEFFF96
FF5FFF42
FFCA0050
00C30005
FEF30060
FF3BFF51
FF3F01D3
008200F2
0006FE13
FF8EFEB5
0014FF55
FF07FEFA
FF240078
006CFEA3
001E0063
0060003B
FFFAFFE7
010500B0
FE77FEF4
003EFFFA
017CFF3C
FED6FF2A
0067FF9F
FFE0FEDB
FF430006
0057FF8D
01AB0040
0061FF7C
FF4EFFA5
011BFEB3
010A002E
0048003D
00BC003E
000CFFEC
015600D1
FFC2FF6B
007FFF99
017E00D3
006BFF25
FFD8FF95
FE8BFF9C
FFE0FFD4
FFDF00B6
010FFFD3
008700F9
01020021
FFAEFF70
01650067
00C4FFED
002CFFDE
FF6EFF1F
FFE200DE
FF58FF81
FFB3FFDD
008DFEBE
FF6500DD
FFECFDFD
0076FF91
005FFF54
FF3AFF3C
FEF0FFC6
003EFFD0
FF97FFAF
FE69FFE4
018FFFDE
FF19006E
FF5C0081
00D6009A
FE850189
0060006E
FFD901E6
FFDA006A
014F0003
01070105
FF76FFAF
FFE3007A
026FFF52
FF49010F
00D1FFFA
FFCBFF29
0171FFB0
FF32FF9E
00B200AC
FFEFFF6F
002C0076
FF9EFF5C
0003FF1C
FFA80106
FE970068
0025FEA6
00F90080
FEC1FFE8
00240021
FFB5FF54
FEEC0082
0100FF80
00ACFEFC
FFC90022
0113FFD9
FFD300A0
01190039
00E40065
00C3FF5E
00B80046
00CD001B
0003007C
FFFEFFCB
00010045
FF7A004F
FFFD006E
FFF1FEEB
FEE5FF59
011BFF5F
FF82FF59
00F50166
FFBD0084
00A8FFDB
00070043
FF86FFBD
0129FDC6
0036FF2F
0044FFC2
FF71006B
0017FF8C
FF8EFE92
FF46FF50
0002FF80
FF1EFF31
FFB9000B
FF57FFF7
00890057
FFDDFE75
01C8FFD2
00CAFF0F
FF820088
0057FF57
0028FFCB
FEF70066
FE4FFFD4
00FC00F9
FF500088
FF55FEEF
FF15FF65
FE85FFD8
00AAFFD0
00790179
FFCD0060
FF65FF19
FFA0006D
0045002A
FEC80086
00CA0111
0070FFAA
FF95FF56
FFBAFF82
011A0143
FD9AFFFE
FF20FF78
FF0AFF99
00A30237
0081FF47
FED100CE
FFCEFF23
FFFC004B
FFC40022
FEA200B4
011A0001
FFC7FE99
008400D0
FFAB0011
FF02FF96
FF34FF5E
0022FF01
000F00AA
01D0003E
01950054
FF88FF7C
0110FFBF
FF15003F
00A8FEF2
FF16FF5C
FFACFEA8
0042FF80
00F500D2
FF4DFE61
FECA012D
004D0016
01AB011F
FF85FE98
FFC70118
FFFCFFAA
FDCD0034
FF51FEBA
FFEAFF59
FE41FF2D
FE95FF94
FF8A0100
005EFEB2
FF1BFEDB
0001FF51
0106FFF6
FF4BFFA3
FFEF00E8
0060FF86
0094FFF6
00C70089
001AFF9B
FFA50044
FF6FFFF7
FF93FF44
0018FF63
00170054
FFB0008A
FDC300E9
005100CE
00FA0092
FFB4000D
FF1300EB
FFC7FF91
FF4201B2
FF1E0067
FEE80005
01B7FFFB
FFF2FFCD
00BEFF28
FF690062
FE8AFFAE
0136FFD9
FF100043
FFC3FFE3
FF68FF4E
FE73012E
005E009C
00920030
FFCE0022
FFF10111
00860018
0020FF53
0069FF3F
012500A9
FF52FF78
FFAE00B4
001C00F1
FE480087
0165FF94
0096FF66
01EC0061
00DD002E
00A1FFAE
0100FFDC
01FA0052
008F00F8
FF51FFCC
013C016B
FEE1000B
FE5800FE
004AFE40
FF7E002D
FEEE0104
FF39FFBF
005A0048
0125003B
0103FF70
00B4FF83
FF63FEF0
00B1FF71
00550012
FFCB0021
FF9E0011
00FC0047
FF70FE8C
0070FDC6
FF4A0045
000D00BF
FF820220
00F7FF04
00420043
FFF60061
FFB900FF
008E0060
FFBC010C
001100D1
FEEDFFD0
0015FE93
00500020
0011FF6E
00630024
00BAFF92
FF75FEF5
FE710001
FEFBFE78
00C8FF0B
FEF70005
FF6FFFCB
FF80FE74
FF1FFF6F
FF34FF66
FF850020
007FFF5F
FF85FF15
00870023
FEE0007B
FFA4FF76
FFF90028
FF91FFAB
0027FFD0
0032000C
FEE40029
FEAEFF8B
00260073
001500A3
003C0039
FF460053
FFA901D8
FF1FFFBF
000B00EF
00400019
00F6FFF1
FEE4FF7C
001BFFE5
000EFEC4
FFA2FF36
FFECFFFD
01A7FFFD
0127FEB4
FF1200E4
009C0168
002AFFD4
FF280064
FF6BFF0B
00C800BF
FF770019
00E5FF92
FFC2FF40
00D8FF59
0031FF0E
00A5FF67
FFCBFE43
014B004C
FFAB0016
FF6C01C6
FF8FFF9C
FFE60125
0030FFE1
01660033
0041FFCD
FF86FFDF
0022028E
FF88FFD1
FF6E01B5
01400117
000600A3
00FC00E3
0028003F
006E0105
FE37FFEA
FEC400E8
FF5D0025
FE28000A
01E9FE0C
FFDD024E
FFF300AE
FFECFF0C
FFC0005D
0108FF7F
0100FFE5
FFEF015D
FF580032
003B013C
FFA900EE
000301B7
FF51FFF9
FEFBFFCC
013B0142
013FFFD5
009CFEDC
FEF70098
FFE1FE62
012600EB
00F9FE91
FF590119
FFD001F7
0087FF12
008EFF52
003BFEE6
FF33FF9B
014A003A
0011FF9A
002DFF16
00400135
FFF90097
00140182
FFBB003D
00630033
FF2AFFFC
00930029
FF66FF2C
FFE8FF0A
0015FF58
FEF7FFA9
0127FE54
FF3C0035
FF2E00A8
0087FFCC
00370023
FFB1FF4A
00CB00B0
FF9FFFA5
FFE3FF97
FF960067
000EFF91
FF8BFDE5
00FAFF12
007C0048
01590061
FF19FFAD
FFF60017
00D4007D
FE8EFEAF
FF1B0109
FFAF00BC
FEC300FA
0074FE61
FFD600B4
00BB00C5
001FFDF2
FFE101AC
FF5E008A
0039FFB7
00D400CD
FF32FE2E
FFC1017E
FFEDFF8D
FFEB0056
00810008
FD9FFF05
FF2100C9
FFBC0001
00CCFFF9
FEECFF4D
FF860119
FE46FFFD
0040FFA1
FFF9FF62
02110107
FF8000EE
FF7CFF6C
FF5AFDED
0042009D
014D01A3
FFB40060
01C6FFC9
00AC0063
0018010B
FFC40130
001FFDC7
0142FF47
FFC2FFC4
FFCC00E4
001F00E9
FFA3FF3F
00840052
015EFEFD
0037FEDB
FEDA00FE
FF3E0106
0040FFA5
FF7D00D1
0079FF47
FF75FF93
FFF90000
012E021F
FF27FFFB
0090FF8C
FE0E0010
01CC0118
FE6AFF7D
FFDDFFD0
FEA30119
FF9DFFA7
009300C4
FF4100F7
01C90137
0109002C
0027FE82
FF4FFF5B
001FFF8B
FF57FFD3
FF16013E
013AFF05
00D60151
0077FEC9
00730035
002EFFE3
FDCAFFD6
FFACFFE6
00AD00FA
003100A5
FF1600E3
0003FFE6
00A50001
00650038
FF6D00FC
FF19003F
00B600C9
00C20052
00A300CE
00BC00EC
FDF9007C
003B0187
FFA9FFD8
00F4FFEF
0020FF1F
FFBFFF86
FF42FEF6
0073006F
FDFBFF47
FFEFFFAD
FFF70079
011800BF
00D10087
0047FF28
FFE2FF2A
001F00D8
FE9500E7
FEB20003
FFAD01CB
00180180
