0148
0015
FFB6
001D
0021
FEE4
008D
FF3B
FFCF
0056
008D
FF9A
0211
015C
FE66
0102
FFB3
01FE
FF63
01BC
0228
FFA6
007D
007D
0179
0160
0175
0202
020B
FF7A
0079
FF63
FFC8
00DA
01F4
FFA9
0196
FF94
FF62
FFB4
0012
004D
FF81
0130
FFAE
FFDA
FE1A
FEC1
0002
005B
001F
FFF6
FEEA
00C3
FFA6
FFDB
FF2F
01D6
0167
00F5
01D9
01BB
FFF7
FF3E
046A
FF8B
01F6
011E
0213
00AF
FF71
006C
0375
FF1F
009D
03B2
FED1
FFE8
00F7
0004
0162
FF71
01D0
FE57
FF6E
FE7B
FF1C
01C8
FF4F
00A4
033E
02C6
0421
005C
00D9
016F
0010
0004
0036
0272
