FF36
0122
FCFA
FE9A
FFA4
0374
FFD2
FC77
04B3
02C7
FBFA
01DC
00B8
01A4
FE88
00CC
FDD2
FEE9
FFDC
032B
FA1E
FF4D
FDB9
0294
FFB5
01C5
FD03
FC05
01EC
FDBC
00FD
FC6F
04C8
FAB0
03BA
00A1
FD03
FDDC
FFFE
0252
02D5
FF18
03DA
FE4F
FB9F
0143
FFFA
FF46
FF27
FBA2
023E
FA1A
FEE2
0178
FDF9
FDE5
03FE
0113
017E
01FB
FEF1
0315
FC7C
00B1
FCA1
008D
FF92
03EF
FEE9
FF6C
FFC9
FEA7
FE0D
FE02
0040
FEEB
02EC
FAAD
0067
FC69
FDDA
FF70
FE02
FE5D
FEDE
02BE
023D
004D
FB32
FAAB
FC51
0153
FF78
FEF7
0227
FFD7
F91A
FB8D
0281
FFE2
FF93
FDBE
FF1B
014F
02B4
016D
0170
0014
FCB1
00E9
0278
0222
010A
0091
FEEB
FF39
011D
0278
01DA
FED3
00EA
FF3D
0069
01F2
0430
008F
FEF8
FF50
0048
0138
FF01
0033
0533
FFCF
FF22
FEFD
003E
02F9
FEE6
FE39
0297
0177
FE25
0093
00F5
FF20
FEC2
0030
0159
FFDB
02B3
FE62
FE6A
028B
00CB
012E
FFE5
006F
013B
01F3
004A
0035
FE9F
FFAC
00EE
00BE
0306
007B
023E
FE17
FE3A
FD31
02D1
FEA8
026C
0136
01A3
00E9
03DA
FEC9
034E
0226
FFBC
FFE3
FFA6
FD0F
0189
0317
FF6F
FEC0
FD41
FFDE
FF62
02AA
026A
FF45
01AC
0003
FF07
FDCF
FCEA
FE0A
03E0
FFC7
FDE4
FFF4
020C
013F
056D
0776
038D
00A9
FFB0
02AE
03D1
03E0
FF54
FEC8
0429
FFE2
01F6
FE68
FF8C
FC11
0522
0269
028D
015B
03FF
FCF7
0072
FC21
0477
02A5
00A4
FE70
01DB
004E
FF09
FF69
0462
0139
FC1E
04EF
0606
023C
FF0C
FD1D
0117
FEAC
0269
035D
FE9E
FD44
0302
01C4
FDC4
042E
FD1B
FEDE
018D
00BD
022B
029A
00AD
01AF
0121
FDE0
FAC7
FEBD
FF2C
FE9A
04DD
FE32
0450
025B
FF54
FF9C
02E8
01B7
00E6
002F
018F
FE5D
FF54
00D0
FE16
FE6E
050C
FECB
FEA5
04B6
FF77
028A
FBD6
0045
FEB5
FF20
00FF
00A3
01A5
000E
0074
02E3
00C8
010C
0075
0089
FEF5
00E2
0325
FCD2
FDF6
0063
FEBF
FD1F
FE09
FF57
0210
02EF
FEE2
008F
FE33
FEA6
006D
0038
02B8
028F
FE33
0337
032C
FF33
FF5C
FE20
013F
FDB0
04D5
0119
008A
FFEC
FE5C
FF39
00EA
FF09
0226
0261
FFA6
00DA
FDAB
0290
FCE0
FDE3
FE8A
0303
022A
FD89
FFCA
FDFC
00B8
0142
FE0A
FE36
FDCC
FF07
005E
03A7
0192
016A
FE87
FFAE
00F7
024C
FD7A
01CB
0421
00FC
0389
FE0D
FBAE
FFB6
FFCD
FD4A
FF75
FE2A
FCF0
000B
0B78
FF29
009A
02BE
FFFD
006B
FE1A
03CE
015E
037D
0388
FF2E
01E4
FD7A
FF78
FF2D
01B9
01FC
009E
FD84
FCBE
FF8A
0085
026C
FD3B
FF83
FF67
03FA
007E
03F2
01D9
FDDC
FAA2
FFF2
FFBA
FC38
FF27
FCC3
FFA2
008D
0057
FDF5
0083
0115
012A
FD71
FFE6
FE58
FDE5
FD60
01F5
FE31
FD33
FEDE
FAF0
FE92
FF92
FD93
03FC
FFB1
FC55
FFCD
FF61
FEDF
007B
FBD8
009E
FEBC
012E
FF1F
FFCF
FEA1
00A2
003A
0377
FCD5
04E3
018F
FEF3
0079
FFD2
FE9D
FEE8
016A
FDBD
00B9
00FE
0400
FED2
FF6F
FA98
0038
04E9
046B
FEC8
FDE8
FE95
FE56
0282
0125
FD74
FE92
05C8
0251
046F
0650
FE73
FEAD
FF37
FA6A
FF57
FF55
FF27
0234
0002
0004
0037
0040
FD58
01E9
01ED
FDD0
009F
FDB8
FEB3
FF0C
01C3
FF01
FEC0
0298
02A9
00CC
0030
FF75
FEF8
FE2F
0206
FFEC
001B
0001
FE9C
FF73
0267
FF74
001A
FFB5
04C0
FF4B
FF28
FF57
FE0C
01BC
FF6E
FFA2
00AB
0245
02A2
0066
FDB1
0071
FF90
035B
0247
FC7D
01C2
00F3
00B5
FDDE
FD4F
FF19
00C3
0267
FDCF
01BB
022A
00A3
FF61
FCD9
FEB9
FDE9
0178
019C
00F2
FFAA
001B
FFCA
FF6F
0114
FF57
FFC5
0055
FD83
0383
01FE
00A5
044D
FEAB
015A
FEE5
FCEB
049C
0118
FE68
FE04
FED4
FFC4
014D
FEB2
013C
FC63
0033
FF6D
0114
FEE9
0270
FE82
0291
FE2C
FF04
036D
FCF8
02E5
02D8
FBC7
0015
FFC9
06C6
FC6C
FE82
FD6B
00A9
FAFF
FF36
FF33
01E7
FEA1
FED8
FE4C
FA3F
FEFF
03C8
FD58
0201
FDB0
00C5
031C
FFD4
FFAF
FE8C
0329
0217
FFE7
FFF1
FF67
0105
FE0A
FEAF
00E9
036D
014F
FF53
00E2
FC8D
010A
FFB7
0150
FD09
00C9
0178
0048
FAB8
014E
FDFB
0008
010D
03E2
0124
027A
FEE9
011E
044D
0023
FF26
FEDD
FEFD
FD8D
FE28
FEE9
FD25
FFA1
0173
0549
0171
FF2D
00B9
02D8
01FF
0342
0264
FB90
01D5
03AF
FCC1
0286
FCB4
063C
005B
0167
03E6
FC7E
0229
FE28
FEA8
0295
FF17
02A6
00AC
FF99
FF5B
0388
024B
00A8
004D
FE6C
0057
FCA1
FEA1
026D
0068
0185
009A
FAB6
FF9F
FE81
00AB
03D7
0111
FEFB
FD40
01AD
FFAF
002D
FE16
009E
FF23
FFA6
FEAC
0066
FDAC
02C3
0190
FF91
0170
FD44
FDE4
00C0
0103
03A4
F845
0181
0142
007A
FBFC
03C1
FEFC
006B
FFFC
0012
FD42
FE17
FF7F
03BD
00A5
0254
0040
FE4E
FF63
FEA0
00ED
FFCE
0245
FF4F
014E
00BB
FE15
FCE1
FF44
0292
0078
0037
FD26
F9CC
FE76
00EB
FC8F
0048
FFB1
02AF
FE15
FDC7
015E
FF27
009F
FC32
0278
FF1C
FEDA
F9CA
00EB
FF07
FF57
FFD6
02F7
02D6
FEDC
00A8
02DB
00BB
02BA
01A5
FCBD
FEC8
FDC3
021D
FEF6
FD1B
0191
FE6B
FC0D
FE17
0012
0076
01A5
028C
FE67
FFE8
FEFD
0531
FFE1
000E
FDB3
FD32
FF89
0257
020D
FF65
0029
006F
0072
0282
FD2F
021E
0274
FF48
FF3E
FF73
0345
FB56
00D4
FD30
FCE0
FDF4
008D
0155
0089
FB3F
FDD5
FFEE
FDD8
029C
FFBA
FFA9
001E
02EC
FD01
01A2
007E
FF80
FC71
FED1
FEBD
0313
02FE
FDB2
FEAD
023E
FEAA
0300
FC31
FEDA
0102
00D4
FF2B
FDD7
FD7A
017C
FEE4
FF2D
FE5E
FDD2
02AB
FEB6
FFDC
FF5E
0010
FEC7
FDF0
FFFC
FF59
FF85
0232
FE69
014F
03CC
FF91
FE0C
0019
01B3
FE42
0173
FFAB
FE57
003B
FFA6
017F
0191
0151
01EE
FF9E
0040
008C
0285
FD89
FFE7
001E
FF69
019E
FF08
00F9
FD21
019A
00FA
021A
0253
FDC2
02F5
FEE5
0180
00A7
FEA8
0126
034D
00B2
0201
013F
01B6
00EC
FECC
02B3
FDEA
0097
02CD
FF53
FF10
005C
FFE9
FDF7
FEBA
0086
FD86
0165
0213
FF49
FE51
017D
FDD8
0131
FFAA
0109
012C
FE13
FE34
0141
01B4
004E
FDDA
FED9
0131
FF1F
FE62
FEF9
FEDA
0109
FF15
00AF
0000
FDBE
FE84
FFD5
01F5
FF45
FFAB
FE8E
FF19
FD0A
01B9
FFD1
0355
01E3
FF13
FDED
FF2E
00E2
0126
FE81
00C8
03F1
026B
001D
047E
0309
00DF
0357
048C
FE3E
01B6
FF27
01FE
FFE8
0248
00AD
FF78
0081
00D0
FE1F
FE99
FFF8
0190
FF6A
FDEA
FE69
034F
0161
FF87
FB49
0165
0608
03FC
00A4
FFCB
FAE4
FF24
F9EE
FF41
FA45
05F1
046B
0545
FCB6
03E5
022A
FC70
0059
FD2D
0360
FE28
FC77
FEF2
05D6
0205
02D4
FF2D
02DF
00F0
0175
FF1D
FF7A
FF26
0167
FF38
FC5D
FED6
FFFD
0280
0349
030A
0374
FFB8
03E7
00D3
FDEE
005F
01E4
0307
FF81
0079
FBEC
F9AD
FF8A
032D
FAE8
FE89
FD81
FFEF
FEB0
0234
FE04
002E
FE48
FEF1
F3EA
FA71
FD34
0072
025E
0181
FFEA
FFE1
FF8C
FB54
FF3E
00AB
FD7D
0111
0516
FDA2
FEEC
02E0
FD19
FDF9
F889
0112
02C7
FF64
FE39
F6D0
0189
0216
01CC
FD2F
FF8A
0130
041B
0351
FD3C
FE56
01CD
0100
007B
00F4
FD96
0164
FE11
FFC8
01F7
FE86
01AB
FF80
FF7F
FAA9
01C0
01EA
0902
FB13
01C5
FD31
0117
0438
FFFB
02C4
037A
FF7D
03BE
FEA7
03AA
FF97
FE61
FE78
002B
FEB1
0200
0383
00EC
0060
F831
0160
FF10
FCBF
01C9
0552
0E93
FC81
FD42
FD04
044A
FF25
FC6D
FFD4
FC91
FE2E
FE96
01CA
01B7
FBD4
FED1
00FE
0044
030D
0365
FF48
0157
FF9F
F7B1
FA53
FBFF
FBF3
01C4
045E
F8B7
FC9B
FC8A
0635
0063
F972
00C6
FD68
F7C0
FAE7
025A
031E
FD0D
FEC0
0038
000A
FFBA
FFC8
FBFF
FA95
FC3B
0072
00D9
FB10
01C0
FBEC
FD74
FA47
FFF4
03E2
FFF2
FC81
FB23
FD69
FFD5
FDF0
FFF4
FF12
FF42
027D
04E2
00B9
01FD
FD1F
FEDB
FD20
05B4
00E8
02C9
FA70
FBA4
0728
FE12
0296
FD8D
FC49
042E
02E8
FD73
FCD5
011F
FC9A
FAE4
FD5F
FEFE
0728
FF7D
0094
0274
FEF7
FD3E
0286
FDED
FD7B
03C3
057A
FFD3
0354
00AF
0031
0055
FE23
00D0
0295
FCE4
0443
FEB7
FED6
003C
039F
F674
0547
FB59
FE22
028D
0077
FD95
FCA9
00BD
0AEB
0530
FD8B
F9F4
04C6
F52F
034C
006D
0080
F39E
FF9D
FEDD
F762
FFE5
FAF3
FE6D
0162
018E
FDB7
FE61
FD71
0245
FDCD
FFA6
FE1A
FACD
0A25
014F
FD9C
06C1
031A
FC81
001B
0179
028A
FA9D
05D9
FFF7
F780
FC03
FF94
034D
00F8
00A3
FDB2
0003
0934
FA70
FEF1
FEC2
0059
030D
01F8
FF54
FE63
0237
03FB
FF55
FCC5
0114
0270
FC40
FF27
033F
FA7E
FDE7
FF02
01AE
FF47
0044
0055
019C
0044
0405
00AB
FA1F
FD98
FF8F
F311
0122
031C
0058
FB38
06F5
0068
FE6F
FE5D
F8FF
FA11
FA5C
061D
FDA2
0C61
0205
FEEC
FFEE
0160
FEEC
00AD
FEC6
03B2
FDDC
00D8
FFEE
FD50
0087
0B61
010B
0072
0029
0395
0427
FF7D
0251
06E5
0856
0200
0569
041B
FF0C
00A6
0334
FFFC
FDF2
02D8
011A
FAA2
FDCD
000D
FE5D
FEB9
FFAA
FD79
019A
FA9A
FD1E
FE31
0082
01F6
FB57
0385
FD9A
00A6
0472
FDF7
FEE9
FDED
001E
02A8
0340
FB93
0238
FF52
04C0
06EE
08A6
FE12
018A
FFE7
FCD1
01B8
0192
0311
F9C4
0036
008D
0152
00D1
FF1B
0548
FFE9
045E
0634
FFAE
FFF0
03BD
0256
03C2
0149
00FA
FB2E
01A0
040A
FED2
FC56
0066
0307
0105
F8EB
01F9
FFF4
FEB1
FCF2
0382
0690
02DC
00E4
02F1
FDE0
01DD
FE41
020A
FE52
FD28
059D
FE88
0485
FD29
0451
0310
FE0C
0749
0049
0282
0747
FF5A
055B
FD88
FD7D
FFFA
FCC3
005C
FA63
F8A4
FF6C
012F
007E
0686
00F5
F9D2
0169
0288
F966
FC81
03FE
FC1C
0576
05B5
FF19
FC9E
FBC1
0938
FB76
FF54
FFEC
0481
FC20
FCD6
06FE
046F
04F8
0587
0177
FE46
F9BF
0323
FF9C
0945
0361
01F6
FC23
03E3
03AF
FE5A
0095
FEA8
F994
001F
04B3
02E4
0112
00A1
FDA8
0375
0ABD
FDA0
FAC4
04EE
FE4E
0044
FC7B
0468
05B4
FC99
0297
FC9A
07EC
0180
0179
FC95
0E8B
01AB
FF65
FC65
FA5C
F7FE
F50E
FDA2
0017
00E1
FF2E
0374
00AE
FFDE
012B
FFFD
FDD9
FF52
017D
012C
FDDB
FE66
FFEF
011A
FE8E
0058
04EB
0109
0083
FF2A
0323
FF2A
0335
FF99
FE28
003E
FFC3
FC7F
0101
01BE
01A6
FE1B
FF5B
FB88
0169
02AE
013F
FD6A
000D
0175
FC88
FD64
02AA
FF33
0054
0115
FF79
0372
FED9
0046
0028
FBD0
FEE3
0123
0149
FF03
FE7A
01FB
049E
FC14
FE9A
FEC0
FCD9
FCF3
00F0
002F
032C
03D5
FF97
0213
FFF4
0080
FF8E
009B
FD02
FFAD
FF21
FF01
FFC4
0095
FFEB
FDC1
013A
FE48
0339
FCC7
FA64
FDD5
FD59
0156
FEAD
FF12
0281
FCFD
FFF6
013B
02D2
0075
FFB5
003B
02E0
0264
0132
004C
FEEF
FB7A
00E5
00F1
0151
FCA9
FF20
FE83
FFCD
FEB0
FE4B
0110
FEBB
FEE1
01B6
0041
FF22
FE8C
FE11
0240
FFE4
FEBE
0038
FCE0
FDEE
02D6
00BB
FF73
01FE
FE14
0126
FEBE
02DB
028A
FD54
01FF
FF80
0089
FEC9
FE9D
FF22
FEC9
FF63
01C9
FFB6
FE29
00ED
00EF
FE8F
FDE5
00EF
FF59
FEFE
FE09
0070
FE50
0385
FE90
0033
01D4
FDF5
FE90
FF7E
FDCB
FD3E
0232
FFA8
FF1D
FDBF
00F2
FF7F
01DA
FEBB
02EB
FD5A
FF9F
0004
FCC3
FD4C
009D
FFD0
018D
FCE1
FE0C
FDEB
FFEE
FFE8
FEDF
01A3
01ED
00B9
FFAF
0115
0108
FE84
FF5B
0128
003C
022B
00F5
FDCA
0219
01FC
FDD2
FD4F
0117
FFB5
FCF9
FD5B
01C3
0084
FD23
0106
FED1
FF00
0249
010C
0343
FFFC
0040
FF53
FDBE
FE5C
FEE0
FDD1
FE53
016E
0111
0142
00DB
FFC9
00FF
FF0D
0004
FFBD
02F6
FEC6
0089
FD86
01C2
FCF3
FFB7
00F8
FEC5
FDB9
FFC2
01E3
FDAD
0022
FDC7
FEB7
FFFE
038C
01A2
00E6
0126
FDA9
FDF0
0262
02D5
FEA0
0271
FE2E
FD99
007E
FD35
FFC3
FCF9
FD40
0232
01C2
0003
014D
FEE4
021C
FF86
FF3B
FFDB
01D6
FDCE
015A
FF97
FD89
FDCC
FECF
FE8B
00F9
0211
FD92
FFD9
FE81
FD8A
FF27
FE2C
FF08
FE3B
0018
FF72
00B8
00B1
FF39
01D9
FFB2
FE7E
00E5
01AF
FFA6
FE75
0219
FEC0
FFA9
FF12
FE83
FEEF
FED6
FDA4
FF2B
02A4
FDEA
004E
FFFF
FF70
FD90
FE5A
0292
00F6
FEED
FF69
FE1F
01C6
00E8
006C
FFF8
FF3C
019B
02C5
0167
FE52
0174
FEBE
FF31
FE4C
FFE4
01BE
FDEA
FDE3
0199
FFB1
0026
00FE
00B6
FF32
016E
01F7
FFF2
FED8
FFCA
0045
0070
FF72
010F
FF98
0057
0032
FE86
FFA4
01D6
FDB6
0176
FEEC
0150
0276
FF43
023B
03AB
01B6
FF2A
FE46
0190
FEAD
FDB2
017D
FFE1
01A1
0008
FE91
FFA1
0293
FE85
FDDB
0039
02D5
000B
0211
FDD6
FB3C
0332
0114
023C
010F
FCBA
0248
FBF6
0064
0131
FE0A
FC32
FD71
FE99
004D
0179
FB8B
FDB7
FD62
FF10
FFDA
FE81
FC95
0248
0108
01A6
0106
0031
FE60
0174
00EB
005A
0011
0044
FFBE
FBB4
0006
FFFE
FE17
FD43
0179
0166
FFCC
FE90
03DA
FD6B
FF08
0361
0078
0317
03EC
0124
FF40
FDB0
FD59
FED3
0292
FFD6
0424
01AD
FFE4
02E8
FEC9
FC03
FFDE
FCD6
0135
0101
FF80
041C
FE51
FFF2
FDA8
03E6
FFD5
FEB6
FDDA
0003
0314
FE84
FDBE
FFCB
02C7
FC15
0094
03E8
FCE6
FE0B
FF3D
FF8E
00DF
FCB8
036C
F9D7
015F
0206
008E
0176
0007
0011
FF30
FE21
0049
FD95
004F
FD86
FE0A
FDB5
FFFE
FD78
FD62
FD55
FE61
00BD
FFA7
FD28
FFF4
02AB
FF17
001E
00DB
01B7
0139
00F5
0152
010A
FFA6
00B8
02B6
FD57
FE1E
005A
FCA6
FF14
0276
FD72
003F
FFAA
FBE0
0245
FE71
0011
FFD6
042F
FCF7
FD0E
00D8
009E
FC88
0238
FF49
00A1
FE04
0060
01D4
FF21
FEF1
FFED
FF5A
FF8A
00DC
009E
FDC2
02F8
00FE
FF35
FF56
025D
0063
00CE
FE5B
FED2
FE7D
0144
FFC2
FDCC
FFE1
FF01
FD41
FF4C
00B4
0003
0248
0024
FEE4
FF28
012F
0234
FEF9
FD41
01E2
FDB0
0063
01F1
FFC1
009E
FE87
FFB0
FFE0
FE07
0265
00C6
0000
00FB
0383
FF03
FED8
02F9
0095
FF7E
FD42
FE7E
004B
0199
FE1D
FF7A
0310
018C
00D9
0380
FF62
05C7
000C
FE74
FA9A
0204
FF64
0187
FD3F
FFFB
0307
012B
FBDA
FAEA
FE44
0071
FF31
FFB5
016E
0191
028C
00D4
0208
01CB
0482
FDBC
FDB6
017A
029A
FCEA
00AA
FE27
036E
00D7
FF67
FF3F
00DA
FF31
FDD2
0256
03D7
FE1B
0053
FDEB
012A
04D3
FE35
001F
0518
FDDD
FDA2
02A3
FFEB
010D
FD4D
FFEC
014F
FFDD
008F
FD9B
FF91
FBDF
026A
FF61
FF65
FF62
FF9E
FEFB
FF5B
FFB8
FEA5
043F
FBAB
03B3
FD44
0198
FED6
01C1
0076
00DB
0040
FB5D
003F
FFF9
0427
FF16
00E3
FFF0
003F
00DF
0614
00A7
0127
034B
047D
05CF
0212
FFBE
00B5
FE29
0179
00B4
FD34
022F
FDDC
FE05
0029
FDD3
FC6B
FFCB
02CE
002F
FEA7
0260
FF3B
024A
FF23
01B1
FF35
02AB
00FF
0222
00BE
FE96
0080
042E
FF93
FAE7
01B3
018C
FFC7
0076
016B
FE7C
013A
0046
FDE3
FFC7
FDFB
0098
FF7C
002B
0324
FF3B
0118
FFE8
009D
FF4A
011A
FCDB
FFB5
FFAA
0000
FE6C
FD70
0086
05F2
0273
FEDE
027E
0141
FD1C
FECD
03A8
FEC5
FF92
FDB9
FF24
FDB0
03B9
00E8
004D
FF77
FDD4
02C5
FFEF
010C
0274
FE07
FEC2
FF7A
01C8
FD40
FED4
FFF0
FF7E
0310
0737
02EC
FC5A
002A
02B9
0699
03FC
FE0D
FFEB
0305
FE8E
0357
00AB
FE91
FFE6
0454
01F4
02CF
FE3A
03D7
FF1B
0004
FE0C
022A
031F
FDFE
028E
FF06
000F
00EA
025A
02EF
FF81
FCEA
034C
04BC
027E
0247
FE44
006D
FD77
00F6
01BF
006C
FEF4
0262
020A
00AE
032E
FEE2
FE1A
0155
0148
FE7D
0017
055A
FDC8
0197
01D3
FDA3
FCFB
FF8F
FDCC
0542
FE38
0573
00D8
00EC
FFDD
03BC
031E
019E
00FB
017B
007B
021B
00BE
FEC9
FD46
0629
FF21
0344
0088
001F
01D2
FC38
001C
00CF
000A
0248
00F4
0071
FFDC
FFF0
FFB0
00EA
FFA8
FF66
0133
FE0D
FE26
013C
FE2D
FDB2
018E
004A
FFCA
FF2C
FF21
FDAC
0286
FDBD
FDA8
FD5E
0240
FEDE
FE5E
026A
0213
FFB5
0268
025B
00D4
FE4B
0093
FD8B
FDBA
031A
FE14
033B
FDEE
005E
FF8F
0218
0153
019D
FF21
00D3
FE7E
FD56
0083
FE12
0205
FDA1
009C
FF65
FD26
FEF0
FF6A
FE24
FDA8
FEAC
FF33
FFB6
015B
FFD1
0083
FDFE
0080
FDAF
02C7
0165
00FB
FD7B
FEE5
0174
00A1
019C
01A6
FCDB
01C4
00FE
FEFE
FF2F
FF3E
FDE4
FFD7
0ABC
FC8C
FDF5
0162
FF42
0134
0016
FFCD
FFF8
005F
016E
0293
0061
0122
FDFF
FE78
0131
FDF0
FDDA
0046
01B9
FAFC
FD04
0754
FCD5
FF78
FCE6
00E2
FFD4
FFDF
010A
FBB4
026F
045B
0181
01CF
00A8
0192
0131
009B
FCAF
FF7A
FCDA
0210
0040
05E0
FFDD
0184
FE6E
029E
FF19
045A
FDB3
0432
FF92
00FA
01A2
0450
FC95
0071
03AD
FF19
014D
005F
01D2
036D
FF0A
017C
025E
FC8A
010F
FF6B
021A
FF4F
029E
FF14
02AD
FFB9
01FF
0492
0414
00F6
FAFC
FB53
0132
FF01
FEFA
FF68
04EC
0057
0229
0200
FF9A
0206
FF49
FFE3
0032
0241
01C7
0154
016A
FD88
02D0
FE4A
037F
FEBE
FE86
FFDE
FC8F
FB21
0141
FED9
0319
FE8C
0185
FCF8
FEF6
FF2F
02C4
0048
01C7
FE3D
02A2
0226
0093
FF33
017F
01AB
FFAD
031D
FE72
02A1
0173
FCE1
0097
04BC
0656
FE19
0000
037D
FEDD
02BC
FECA
FF42
004F
FD2A
FA51
FF73
FFD0
FDBE
F896
FE78
FF4B
FFDA
0545
018C
020E
0305
F8F5
FDB5
FEDA
0393
027D
FF8C
016D
0156
0374
0284
FCB3
FD6B
0488
FD38
0266
FFFA
0529
004B
03A6
FE59
FDF8
FF2D
019A
FF91
01D0
FE40
02C1
FD1C
0287
0256
F84E
012E
FD1F
FF55
017A
FF70
FEFF
036A
0177
FF3E
FD27
FEE7
F6A8
0329
0130
0023
FFC1
00E7
FE20
FE74
03E7
012B
FAFF
FD99
F998
F86A
02BA
FF3B
0166
0233
018F
00B6
FD04
0130
036E
FCA8
FE55
0100
FFAF
FC8B
0418
FF82
015E
0199
FD6A
FB9D
01EE
02A8
FBEF
FD1D
FCBD
086F
02F2
FF66
FC2E
FE8E
031F
FCD8
FFE7
FEF2
FB66
00E5
FB50
004E
0270
016E
0177
00F2
FCBE
F9E8
FD59
FCF1
FBBE
041C
0631
025C
FED8
FF18
0262
0158
FC2A
FEBA
010E
0293
FD52
FA1F
FEA2
0440
FD1E
FD0A
FE27
0163
FC4A
0269
0364
0115
035A
FCCD
0692
F7F8
FE1A
FEC0
FBFA
FDBF
0171
FB56
0047
00E1
F99A
FCF6
0152
FF84
00E9
0336
FBEA
04B1
FE29
FB71
0566
FFB8
0413
FA21
FCE9
0828
FD52
FF81
FCE3
FB6F
0227
0ABA
03A8
FBF6
FBAF
0512
F9AB
01D0
01C6
001C
F59F
FEEE
01CD
F65C
FF4E
FB5B
FE80
0554
03E9
FE34
0269
FA35
0331
FD96
FDA9
F9F2
FA04
0856
FFA2
FC95
FEA3
0390
F729
FCF7
FE0F
00F4
FC2A
02E3
FECC
F8B2
FE27
0272
0192
008D
FE56
FCC8
017F
06A3
F944
01CA
009D
0239
FF1C
0249
030C
FD49
02E5
02AC
FF3D
0118
FFDA
FF62
FEF7
0032
079A
FADA
FDA8
FD42
0181
FC4C
0352
FE42
FDCF
0230
0232
FDFB
FBF9
FF8A
FC23
F2E8
0660
044C
01CF
FBAA
0087
0317
008B
FEB8
FEF2
F770
F9FF
01C9
F933
06B0
FB3A
FF0D
FF5E
0234
FD81
FED4
0013
019C
0103
FE54
0228
FF3A
FE7A
0105
0065
FF01
FDAF
01A9
FFA5
037C
FDFA
01B5
00D9
006F
006A
FE8C
FEC2
FF9A
FE26
009E
FEE5
FF15
0129
FF0D
FED4
FFC4
FFDD
00A2
FF47
FE91
FF3D
FF90
FE60
FFA1
020C
FF2A
008A
FF93
FE52
FFA4
FF74
FFB1
FEB2
0024
0036
FF05
00C2
FE40
FFF1
00B0
00C5
FF64
006F
FD74
00F2
FFCA
FFA8
007D
FF75
FFB2
007A
00F2
FDF4
004F
0027
0069
FF64
FF54
0050
FFC8
001A
FE34
00AC
022F
019C
FEA4
FEFA
FEE9
01FD
00D2
003C
FF5D
0003
00B5
FE9D
FE32
0028
008A
FFE7
018E
FE78
019B
00B1
FEC9
FEEB
FE21
0555
02FD
05AC
FE19
FB23
0433
FF73
0291
FFD6
02DD
FC67
00CF
0374
FC9F
FE13
FED2
FD2D
0485
01BA
0250
02E6
FE42
044D
FD35
FD26
FEF9
FBE5
0241
04F9
FE7B
FEC5
0411
FCBA
FD37
FFDC
FD39
FFA7
FEBB
FE8E
FE09
FE25
04AE
0018
02D6
FEEE
FF9E
02D7
02B8
FCEF
0123
0138
0500
FDA6
0314
02B6
FB67
0261
0440
0089
008A
0426
FD36
FE23
0138
00FC
FF6A
FD2A
FFF7
0250
0083
021D
FBC1
FFBB
0380
00A5
FD33
FC09
FD83
FD6D
FD3C
035D
0165
0425
FEDC
FFA7
0483
01D6
0036
0153
FD20
FC66
FF87
FADA
015D
008F
FE43
FB65
FE0F
0010
01FD
FF22
FFF3
01BA
0124
FFAE
FE29
FFCF
0275
FFF9
019E
00EF
024C
FF07
FE22
0059
FE2D
FFD7
FEB0
003E
013A
00C7
0233
01F0
FDB3
FEAA
FF73
FDCC
0110
FEA7
FFB6
FF3B
FDEB
FFB3
00FC
01CA
00E0
FF53
FE8D
00E7
009A
0266
FDF9
0166
FE67
FE0E
00DE
0041
FDA9
FE39
FBF2
FDBF
01B3
FDC6
02D0
0238
FF8B
FE84
0266
FDE0
000D
02B9
FC12
FC91
0157
FF7C
0056
00DC
01B4
0100
FDA5
0079
FEA2
FCF1
FFF5
FDEE
0198
FECB
001C
FD57
FDFA
FE8B
FFD9
FD83
0174
FF2E
00B3
FF8D
006F
FEC2
013D
FF3A
FE75
001D
FB9C
FFD4
0003
FE86
01B1
026D
FE31
021C
01A0
00DD
00A8
FDF3
FE74
FE9A
FE5C
00B4
0184
FEF1
00B8
FDBA
037B
FF52
01D2
00F9
0179
0127
0092
01F6
FFA5
01B3
FEEB
0185
FF35
00E4
FE91
015C
0147
FFAB
FDED
0155
020A
FDFC
0208
0175
0004
FF37
FED8
0175
0158
0172
FE24
0044
FF5D
FFA2
FEA5
01CD
00B6
00D4
0165
019F
FFAD
00D0
FF81
FE1F
0036
FF02
FD19
0051
FFA4
FEA8
019E
020B
004B
01E8
0107
01D1
FD48
FE23
FFAC
FD98
FFAB
FFC5
FE3A
FF51
00A6
FF10
001B
FE27
0126
FD3D
021B
002C
FDF4
0081
013B
FEAF
00F0
FE86
01BA
015A
0082
0098
FE10
0126
FEBA
03DA
0072
FEA1
0095
FFA6
FC76
005A
FF36
FF1E
02E6
007C
FEB2
02FE
008C
005E
0163
02B9
FE6D
0462
01E5
FFE3
FFC8
00E6
018F
045C
FEA6
00EA
FF76
0191
0498
00E6
FECA
FE6C
FB6C
02E9
FF2E
FCE9
FF1D
052E
FCB8
FF77
FDC7
002D
FC6F
FFEE
FDD9
FACB
025E
0071
FEFE
FE0A
00AA
FEBE
FE9C
FF21
FF27
00FE
FF20
0412
017A
00F2
FEA5
FF6C
FF4B
FFC9
FFAC
FADA
FEDE
031D
FE62
022A
00A0
FD3C
046F
007C
030F
00E1
FCC4
0115
FD66
00A1
FD35
FF7F
FC05
0087
0209
01A9
02D3
FF30
FEFD
FF5E
FE96
00CB
FCFD
FFAF
FE5A
0489
0012
FE1A
028D
01D9
FFAE
005A
FFB3
FED8
00B1
FFFA
FEB7
FF39
FE59
FF12
FEDE
FF9E
0022
0062
017C
0163
FE25
FDDB
0122
0202
016F
FFC8
016E
00DD
FCBF
00FD
FD09
FD62
01C6
00BD
FFDC
FFEF
FF7B
FE4C
FEB6
00E9
00DF
002C
0172
0116
FEFA
FF2C
02CC
FEA2
FE47
02B7
010A
0063
00AA
008F
0016
FE92
FF07
01DA
0145
FEE2
FFAB
0088
FE9F
FFF5
FE94
FF74
FDE8
007F
01D5
FF68
001A
FE17
0098
01C1
0179
FF66
FC11
FE3A
0275
014D
FFDD
FFBC
0051
001A
FF0D
01CB
0144
FFF3
FF7E
02B5
023A
FD3C
FF51
0092
FE8E
FFAF
FF3C
FFEF
01F7
FFA1
FDBD
0234
0104
FE8B
FA3E
F9CC
001F
01E7
02F3
049B
02B5
03AF
0B91
FE1D
FA2F
0180
0265
01D1
FC5B
0226
FF0D
01DD
01EB
033C
021B
FFF4
FCD9
00DA
068C
FDB7
FCAD
0A3E
FE54
FB74
F663
04C5
0166
FCD0
FE72
FEC0
FF8F
FF36
04CC
015F
0104
00B4
0275
FA97
0368
FF63
FE9D
FA9F
011A
03ED
FD98
03E1
FEE2
0227
FE0E
01E3
0256
FE43
FBA7
023A
FDE4
FF08
FF46
0487
033C
FEAC
00D6
FEED
FFB4
00F6
FE6C
055E
F762
003A
0292
FB96
FD20
019C
010A
0475
01B4
04D4
F711
FFE3
00B6
FF82
018B
01E5
0120
FEAD
FCAD
00B8
FD99
009D
0453
F77C
0517
0301
FFA6
FFFB
FECA
FD63
00CD
01BD
FDB6
0126
FE27
FC9E
008F
02F2
FF97
F9F2
0366
FEAD
FD2F
F816
FD90
009F
0147
02B0
FC72
0331
0202
039D
014B
02CA
FF54
FF9C
03B5
FF90
FCBA
FFCE
00B8
FECE
00BA
F885
FCE8
FB2C
FB98
0321
FC31
0313
00C0
FDA4
021C
0029
FEF9
038C
FE7E
FE65
FCF9
015E
0318
FBBB
03A4
0187
FE3D
00E2
014D
FD4A
0413
FFF1
0290
FBDA
FFBB
0350
FF44
FE61
FE89
FA06
039F
00D7
F9B0
FD7D
0468
0374
FE70
00E9
FE41
FFDB
FFBB
026C
0470
FDB6
F79A
FB70
0364
04DA
FE56
0495
FC65
FE3D
FBFA
009B
0283
01BA
02B1
FEDA
FFB3
0042
0277
00FF
FEBF
026A
0017
FF6B
FF89
FD45
FFB6
FF48
FDF4
FFCF
0248
FE88
FE2B
031C
FE17
FE4F
010A
0090
FDF2
008F
0082
0119
FD5D
00BD
FDBC
FE42
01CE
020D
0100
FEF3
FF4F
023A
02D3
FF5E
00EB
0145
FE0A
FEE0
FCB5
01A8
FD4F
FEC0
FDAD
FD62
00B8
01DF
0295
01CA
FC82
FD23
FF69
FD36
FF7F
0113
FE2B
FF1B
0015
FD3E
027F
01C2
FC7B
FE65
FF2B
02FD
FE1F
0453
FDC9
FF20
01CA
FFAF
FFC7
FD28
FD4D
0005
00EC
FFFD
FD9D
FDD8
0137
FDF2
FEAC
FDFE
FEBE
024D
003A
FDE1
FE39
FD14
FF92
FD93
FFA1
020F
FA8B
014D
0030
FDA6
015E
0009
022C
00F9
0093
FD67
FEC1
FFF8
01D4
0291
FFBB
FE93
FEC3
02EB
0177
FFB4
0005
027B
0230
FDC5
FFF5
009C
005A
FE08
006F
FF5E
00B1
FFC5
FEA6
FFC6
FDD9
FF54
007B
01BD
01E0
FF0C
FECD
0040
0115
00E6
001F
01D4
026D
01F1
FD8E
FF00
0063
0252
01B0
FD66
FFA5
0108
01A1
FF67
FF97
020F
FD55
FEF2
015C
0085
FE00
FE11
00DA
FEB6
0122
FFEF
FFAB
008F
FEAC
FDAF
000A
0116
0067
0057
00B5
FF03
FD30
FF18
0149
FE0E
00B3
019E
FFEC
FEF5
FE46
0111
0201
01AB
FE7F
FE38
0143
FDAC
02C2
FF27
013A
0077
FD6E
FE65
0161
0026
FEAB
FECE
FDB8
0381
FD4B
FD2D
0091
FF7A
0176
FED6
FE06
0215
FEB9
00C5
FF1E
FF18
022B
0362
FFA6
FF55
0461
FBF3
01D4
00CE
0336
FDE3
01AF
FC05
FDD1
027F
FE41
FE75
FFAE
0042
FDDC
FEE4
03F4
FF43
FEAE
FDE2
019C
FE9E
FF88
01AD
FD92
018B
0280
FF81
00B9
FE65
FBDF
FF2C
0227
023D
0019
FDB8
FFEE
FC29
0203
FDE1
FF98
FB6F
FFD4
01C9
FD81
FCB7
FF37
027A
002E
FF0C
FDA5
022E
02DA
00F2
FF91
FF9D
0030
FFFC
010E
00C9
014E
0028
0568
02C1
019C
FE5C
0009
0109
029F
00CA
FFDE
FB08
0103
FF00
FCB5
FF64
FEF7
FCC1
0110
FE9D
FFD3
FD9F
0147
020E
043B
0064
FF47
FEE8
FE7B
FC3F
021B
0287
007E
FE48
014A
FF1B
FFEF
FDF1
FD58
FF41
FEE9
025A
0591
0372
FE24
FDB7
03EA
034E
0098
FF10
FED3
FE74
FDD6
FDC5
FE97
FBD6
FF6D
FF9A
0106
FE19
00BF
0287
FE2E
0052
01BF
FAB4
0265
FD8F
FF11
FE91
0728
0178
0031
FFA8
FF56
FDF2
FE98
039F
02FC
FE97
032C
FCE8
00E9
FFC7
FED4
FEF7
FE76
02DE
FCDD
FEB5
FE5C
0068
FBF2
01E7
0032
FBCE
0184
FE08
FA84
0089
0002
FDF1
FEFF
006C
007A
FEFC
FA06
FDA1
025D
03C3
F9CE
FECF
FD26
FF39
F888
FE6F
01F4
04A6
03C2
FF56
FE24
FE90
FE54
0167
FCA5
FECD
0005
004F
0057
FECA
024D
FF42
FECF
02A2
0083
FCEC
FE4C
040F
FE74
FD95
FFEE
FC4D
0002
0271
04AE
03C8
FC31
FEFF
FEC5
02E2
0198
00E4
FE0F
FF8C
FD7C
FF51
011B
FCC3
FDDF
0069
FF02
002C
03C5
0239
FBD3
038D
FA8D
FD9A
005A
00BB
FEA2
01DE
FFEC
FDAE
0261
FBCD
FE1E
FD81
FD81
FFF2
02AD
FD58
045C
005F
012C
FDAF
FCB9
0404
FF86
007C
FEF9
041C
0117
016D
0196
FEC8
0233
0216
FA65
FF68
00FC
FEDA
FEAC
FB72
FC2D
FEBB
008D
FEEB
00A9
02D5
FF4D
008A
00EB
FCDE
FF66
FF87
FC78
0200
FEFE
FDF5
01D4
00AF
00AD
FFF4
001B
0135
FF5D
01A6
00D5
FEC3
FFE1
FF71
FEA4
00EA
02C0
FD89
027F
FD41
FE23
FF05
0048
FFE4
FDE5
FE69
FE54
FFEB
FF24
FF00
FE47
0048
0082
FD7F
FDA6
013A
FFEE
005A
005B
00D6
0064
FF54
FCDC
FEEB
0181
017F
FEF3
FC79
0187
002F
FFAF
01CE
00C8
01BA
FD4D
FEF7
009A
0111
FF05
02F7
02A3
FDFF
FE6B
011E
FDFE
0160
007B
FDE0
FE3C
0014
01D6
FFD6
0158
FE85
0085
002B
FFD2
0065
02D7
FF2C
FCE0
01E1
0178
FFCB
FF7E
0260
FED3
FDCC
FF65
00CD
FFB5
018A
FD93
FF45
FDCA
FE65
FD11
FE02
FE73
02D4
001C
FE3B
00C9
FF10
0287
FFA3
FFDC
00F2
0066
FCE5
FFC8
0790
FE73
FE39
01CE
0272
FF3C
0680
0352
FA79
010D
FF41
0202
FD40
FF8C
FE39
0189
FFEE
03B9
FED7
0192
0123
FFD5
0160
FE09
FFC1
01B8
FE65
01B6
0215
0327
0178
0243
01C1
FE98
FFD5
FE42
0020
003D
00D0
FFEE
01BF
019B
FE0C
FE1C
0171
FDD9
FB69
0194
013B
00DA
006B
FDA7
FFFE
FED4
FC81
FFD6
0116
FF69
FEED
FCE3
05AF
FF89
00E3
FB04
09EC
F8B2
000A
009A
01BE
FD08
FE9D
FDEE
FE2D
FEED
FF0E
009C
FD69
FBF0
0177
FE98
0402
FB89
FD84
FFA5
039A
00F3
FF2A
FDBA
024D
00C2
FF3A
024A
FF11
00BB
028C
0006
00A5
FE91
01DE
FF88
FEF1
0151
00A1
01E0
FEE7
FF2E
0099
FCDC
FB0F
0256
FF31
0223
FE73
022D
0327
0048
03C4
02E0
0009
00A2
FF01
0228
00EB
0011
FE92
0087
004E
01A3
FF53
FBB4
FD10
FE20
0161
FCF0
FE8E
FE75
0076
0233
FABB
FFD6
0229
005B
01E7
FFCB
002D
FFE1
00B9
0315
FE0E
FCA1
00CF
0045
FF70
033A
FF2C
0182
FDCC
FFFC
FF9B
0157
0027
FC3C
FABC
03D5
0285
0013
02E0
FFE5
FFBE
0390
0130
FFCF
00BD
FC25
FFE4
0244
001A
FB45
01F5
FFBA
0429
0037
01A0
0094
0074
FE2E
FEBB
0312
01B0
009E
01EA
0197
00F9
0046
FBE5
0012
00A0
008F
FF1C
FD14
FF33
FF0C
FC51
01EF
0157
FFAB
0056
021B
0129
0116
028F
FFA1
00E4
0168
001A
FD49
02B0
0221
FE8B
FF90
0370
0067
003B
FFAA
FFCB
FD0B
FFFE
00C2
0277
018D
018C
FF9E
FE5D
FFC2
017D
00FD
FFBF
FDDD
0117
03BD
005B
0036
0082
005C
0397
0348
FF7E
FF32
FF4A
FE05
FBDD
01C7
00E1
00AF
FF9C
FEDB
FB41
FF9F
FFBE
FF41
0187
FE5B
0052
01A0
00AA
03F5
0042
FF68
FD97
FF30
FF09
FDB6
FFE5
0186
005D
FC7A
0083
00FD
FF77
016E
FEE4
FEAC
FF4F
01F2
012D
FDF6
012D
FF39
01B4
01B1
00C0
03EC
FDB0
007C
0162
008B
FF89
00DB
004B
FF03
01E4
FD87
FDC8
FE23
FF27
0159
00CA
007D
FDD8
0050
FD9C
FFDD
025F
024A
FD68
02B1
FF8D
0155
01E3
FFAE
01C1
014B
FCA6
006D
FF07
FDBD
FD8E
02A7
0106
0022
0202
002E
FD35
030C
0171
019D
FB44
0198
003F
0034
00E8
FF8F
024E
FDE0
FD7A
000D
0056
021F
0155
0057
FE56
01BC
FF4F
019B
018E
0127
01CB
FF0D
0084
0137
FF8B
0222
FF8D
030C
FF15
FF7D
031C
FFCD
FE05
FF26
031D
FFD1
0012
004F
FDFD
01FF
FF2D
FDFB
FF57
017D
FE5E
FFD7
FFFE
01D7
0172
FAF9
FF98
00BA
FE6C
FE9B
03F3
0028
0088
0088
0198
00C7
FDEC
027D
FF51
000C
FE8F
0004
FFC0
FDF9
014F
0071
FE31
FF2C
015D
0120
FFAE
0140
FDBB
FF66
02C8
0309
03A9
FC60
FE98
00F5
FE61
FE11
015A
FDD5
FC44
003F
0037
02C7
FDC0
FE72
FE1D
FD62
FF8B
FEF1
02FC
0085
00EE
FF23
FF27
FF8B
01B5
0070
0178
FC78
FE21
0073
FF33
0266
FFEA
0095
0017
0116
FF85
0086
02B3
FE2B
FD33
FE42
0309
00F7
01FF
01A0
FE3E
FED2
FE32
FFEC
0009
FCE1
030C
FF74
FF08
046D
FFCE
01A9
0013
FE12
FFFF
0179
007C
FFF5
FE95
FE2C
FD13
0126
FC4A
FF7D
035C
FBBF
0266
FE84
FE7F
FE8A
FE40
00DA
0043
FD93
FF1F
01E8
00BB
FF96
FE00
FDD1
0227
002A
FE7F
0294
FD0A
01F1
FFA1
FF6F
0219
FD4E
01BB
FE83
0023
00C7
00B8
FF99
01B3
FFD5
FF8D
0070
FE45
FE3D
01EC
FEC1
FF5B
013C
FDCC
FF7C
0219
FF24
0008
0135
FED1
0082
015D
FDFB
010C
FF1B
015D
FFBD
FF7C
FE1A
FEF2
FEA5
010E
FDCD
FF1E
0101
0036
FE13
FDF1
005C
0154
FE5D
FFAF
005E
00CD
02C2
00F8
0282
FF15
00FF
FF71
FFBD
FCBA
0090
FF4C
0077
FF30
0267
02BD
FF7B
FD8F
FF67
FE3C
FFBE
01DE
FF13
FDCC
FF38
FFE2
02A1
01AC
0147
0061
01B2
FF0B
FF0D
FF52
FE19
FFE5
FF26
FF2E
FD68
002C
0006
FC3C
FFF7
FDC2
FEEA
003F
FECE
01FB
FCF8
FFA0
F84D
FD76
0014
FF3D
013C
FE60
0439
00B8
FEC7
FFB2
FD8B
FED4
FF09
00A2
028D
FFBB
009F
0007
F9F1
0308
0177
00D0
FEAD
FE2B
00E9
FC6A
043D
0233
00EB
0154
FEC2
00E1
FFAA
0262
0410
FB60
FDE1
FDB3
0584
FF46
FCEF
FCB7
FF45
0099
03EE
019A
02D3
FE5D
006C
FB53
FB5B
0067
00F8
FEA4
FED0
025C
0104
FF57
0047
FFDB
00F1
00EF
002B
0164
0388
FF79
017B
FE89
FF9C
FC23
FBCD
00F1
0226
FF8D
00EB
0079
0146
041A
009F
FE7A
FFE1
FD86
FE08
FDEB
01CA
FE6E
FF93
FFCE
0140
FE93
FF46
01C6
FD79
FF06
FF1B
02C7
01E7
0265
010B
0031
004B
001A
00AE
0023
FE55
FEA2
0218
0216
FE1E
000F
02AD
FF59
FE3E
01EB
FF6B
00BA
01D5
02C8
0008
0174
FDA8
FD01
00DD
01CE
0169
014A
0022
FEDE
00F7
00D6
003F
FE58
FE66
020D
FE1C
FF8E
0185
FFB8
FF54
FDEA
0253
013E
01ED
FDDE
FFD8
01D5
FFED
FF01
FEBC
FF8A
FE7D
007F
01B3
FF32
FEF7
0152
FD23
FFFF
FFC5
0213
01B8
0072
0220
00C2
FE17
FE0F
013C
01AF
0192
FF70
FF2C
01FD
032C
005F
FFD5
00E5
FEC5
00B4
01DC
00B6
FE81
0115
FDC1
FFF3
02CB
FFA9
0088
FEC6
FFAE
024F
0073
00A5
FBA7
FE42
048E
02C4
0295
FD15
002F
FD3A
006A
061F
00CF
013C
FE72
FCCB
FFF1
024B
0140
02A7
FC4F
FCBC
FB00
FD83
00E7
FDA2
FD59
0277
00EC
FF37
00C6
FFAF
FC60
FD0D
012F
0002
02CD
0241
FE86
0167
FEA3
FD72
FE06
01E7
0051
03BB
FF81
00F7
03B9
0222
FBF0
040A
0157
FE24
0195
FE4A
0432
0173
FFD6
FD6F
000F
01CE
0371
FE45
FE73
FD9A
FF70
FBFA
02C3
02A9
FF05
0162
0070
00B7
FE99
023A
FF2E
00B5
FFE9
FFF8
FDEB
FD71
0273
FC12
0193
0223
FFF1
FC76
FE77
FF9F
F863
007E
FEF3
FD63
FF98
0048
FECB
02E9
FF62
FF14
01E6
FDDD
02DB
006D
FEC8
FD4D
0021
0171
015E
0291
02B5
06B9
0048
FC59
FEFD
01A4
FC93
0004
FD6A
FF6F
F9B1
FBF0
0011
FED4
0067
FDF6
FF20
FB8E
02D6
FE8B
FA6B
017E
012E
05D1
01E5
F90A
FF9D
FE9D
005B
FD92
FB77
03B2
0379
040A
017A
004C
0055
0188
02FA
00AF
FEF4
0300
FE78
0176
0020
077A
FC7F
03CA
FC2E
0504
FF5C
FCD3
FF24
FD01
00CF
077B
FD54
FC0B
0009
F820
0154
0051
FB00
0061
0281
021C
0100
0159
0027
01B5
022D
0210
FC97
FC57
0167
FCA9
0514
0008
0276
FDC6
FC0C
F974
FA0E
F9EB
FDC9
026B
012D
FF61
FE2F
FBCB
FCB7
FF40
FBBB
FF58
FFB7
FE9C
FEA4
FED6
FBD2
FDAA
01C6
011F
FCBE
FF42
00E1
0438
07D1
FF7C
FC99
FFE4
00C6
FDE6
023B
01F9
FD07
FD56
00A5
0070
04AE
FDB4
FDC3
0064
FCEB
FFAE
0055
FEF9
00AA
0079
0190
FA7D
0269
FE99
0203
FED8
0248
00CE
04B9
FFB1
FF8B
0045
FC92
FF0B
FDC7
01DF
FD0A
FFDB
FD88
00CB
FDDC
01FA
026C
0283
00FB
FF99
FCE4
038A
FA19
FC7F
FF50
007F
0224
FDD9
FA89
0283
004D
FFF0
0196
009D
04A8
03A7
0123
02CF
0283
03AB
FFC5
FFF6
025F
0291
0366
00B0
FB4D
00AE
FF2E
FFF2
FDD8
00A6
00F5
FDC1
FC49
017D
02FC
0033
FFFA
00BD
0150
FE56
01BA
03F0
FEF1
FD91
037F
0762
02BC
FE57
FF99
00FF
063C
0200
FD32
FC82
FF7C
FE69
0017
FDA4
FEDD
FBAE
003C
0103
FE45
0135
00BA
0239
0549
0162
0357
FE97
001E
0032
0134
FE5C
FC26
01AA
0446
00EE
00CE
03E2
FEEA
0015
00D8
01AE
FE22
00B7
FFC9
FFD6
FF76
FF7E
FE7F
0447
FD42
02B0
0089
FFB7
0258
00DC
0334
04E0
FC7E
FFC1
001A
F9B2
0023
F7F3
FD83
0239
007A
009F
0520
008C
014E
00DA
0494
FA98
00D8
0131
FAC5
FBA2
02D6
FFF9
FA81
0178
FB07
024D
00AB
0052
010D
019A
0152
FF56
FFFE
01AE
FDC2
01FE
007C
FE33
FD4B
FEE3
017C
01CD
FBFB
FDFA
FE91
FE79
004A
00CB
FD95
0000
00C2
0011
FE03
FC63
0031
024A
FD0E
028E
0198
0067
0248
FDF5
0059
002A
FE68
02D9
FF33
00CE
010F
FF6D
FEAC
FF91
01AB
01FF
0010
FEAC
0568
0051
012B
FD32
FF1F
FF9B
0270
0027
FCCE
FC1F
FE02
FEAB
007D
02B1
02E3
FFFD
FE38
FD53
FE3E
FFC0
021F
FE5D
FE78
00D4
025D
FE2A
02CD
FE6A
FF5A
FE9E
FFB9
FF24
FF59
011F
00D6
FD83
0421
00B4
FCE2
0245
025A
01B0
FF92
02A5
03B9
FE44
009E
027B
030C
0117
0090
FF35
FFC2
FE5D
FEFE
FF03
FF88
00B8
FFA3
FE80
FE91
FEA1
FDA5
00D8
FEBB
FE1E
FE3D
008B
0053
FF68
FF85
FEB1
00AD
FD6A
FD1D
FD8C
FE82
0008
FFCC
FE67
FEEE
0096
FD6A
FF47
FFA2
FEC6
FE84
FE01
0224
012C
014C
FE8C
0195
FFF9
0037
FEEC
00A1
026D
FFDA
FF9E
FF9A
000F
0085
FFAA
FD8A
0185
FDFA
FFAD
0073
FEE1
00B7
FDCF
FE57
FED1
FED2
FEEB
028D
0071
FE45
FD87
FFF7
FEC5
FF5B
FF5D
00BD
FC96
FF48
0078
0184
FF43
FF3D
FF11
003B
FE52
FEDA
FE07
FEB5
FD43
FED7
FD7D
0008
FEEA
FE81
01F9
FDAC
006B
FE11
00D8
0019
FDCF
0132
01DC
01D4
0182
0089
FFB8
0467
FD80
FBC7
00E7
0074
00F9
FCF6
001D
FF13
FCC1
FB55
FFFC
00DA
FF78
FE7E
0329
FDAB
FF2D
0095
007E
0040
FD23
00DB
FDF6
04FB
FE21
0137
0313
0122
03C7
FDA8
054E
FF02
0222
0066
F992
0112
02C4
FD7D
FC80
FFC2
038C
05AC
FFA1
022E
FEFD
FCA2
FF80
00C9
FE29
0377
028F
FDBF
FE8E
0182
022F
FF29
FE90
FE1D
003E
FF19
FF6A
0417
FE95
FFA0
FB37
00AC
0251
03EC
FEAA
FFB8
012C
0291
01A0
0501
FF18
FFDC
FE76
0252
FDF8
0320
010D
FEE8
0005
0187
00F8
FF75
0461
FDC3
0004
FBED
FE79
012C
00BC
00DB
FC1E
FC1C
0034
01DC
FDBA
00C7
FBE6
02E0
FF24
FFD1
0202
FDC2
002B
00E3
0234
FF7C
FDE1
0338
0248
FEE2
02C9
FF85
FF26
FE2E
FEBB
02E5
FE5A
FFE8
0183
01C2
0170
00D1
FE30
01CF
FD95
00DD
0195
0103
048D
FFA3
01AE
0110
FF4E
03B4
FFD8
FDCE
FF00
FD8A
00A2
FEB3
FC2A
0039
01ED
FE3E
FEE3
FFC4
0046
FF61
FE55
0153
0024
FDF9
00A3
FE0A
FF12
01F3
01DE
00AF
FF36
00F4
FE2A
01BA
FE4D
0167
FC42
FFBD
0032
FD39
0125
0001
FDEA
0185
FF4B
0066
FC2C
FF1C
FE06
0353
006B
FCDF
FE50
0288
FE32
FFC7
FFF2
FF1E
015D
FD1E
FD6E
0266
03F2
0103
FF26
0154
023A
FFC2
0295
0121
0144
FE7B
FC5B
03BC
FDFE
FFE2
0061
0247
FD84
FDA3
FF79
FFE3
FE9A
0007
FD69
FE6C
FFE3
017A
03B7
00F2
FAC2
FC1A
FE75
FFE7
010C
FE46
FE7A
FCE1
0198
0225
FDA3
03B8
02B5
0007
0022
FFAA
0444
FE1A
FF3A
FFE3
FFB5
023C
FF03
027E
FF9D
007C
0073
FFCA
FC6E
FE83
015C
FF3D
FF62
0260
FFDD
FE53
01C0
FF0E
FBD4
FF43
0058
0269
01E5
FC5B
03E9
00C9
FF3F
00A6
0075
FC4B
FF4E
FDA0
FFFF
FFCD
FDD1
019A
0156
FF66
0129
0340
0150
FEB2
FF17
FF89
0105
00D6
FEF5
FCA5
00AD
FDCB
012D
FFD3
01E6
01CB
FDED
019E
FED5
0108
02E3
0041
FE06
00D5
FF24
00EE
FF5A
0222
FDB9
FE7E
FE67
0204
0072
FE2E
FF36
00BF
00D8
015C
FEFF
0037
012C
0147
FE9B
01C4
FFC4
0175
007C
FFEF
0329
FE08
FDC6
FE9D
FF54
01B2
FEEE
FE30
0041
0138
01A8
02E5
022E
FF3D
00EB
FDE7
FF08
015C
0039
0019
FE9A
FF01
FF64
003B
FEB7
01CA
010C
FECD
014C
FDC6
02A1
FFA1
FE7A
FE76
00E6
FFCE
FE9E
FD59
FFB5
0014
FE65
0259
FE06
FEF0
00AF
FFB6
FFD4
FFAE
0049
01A3
01A5
0096
FE5C
006B
040D
FF19
FF72
FEE4
FF68
FF80
0122
0274
FECB
02D8
00D2
00FA
018E
00FD
FF7A
019A
FECA
FCF9
017A
F7E3
03B4
FD59
0270
FD65
FC52
FF94
03CC
0494
0188
FEE8
FFEE
FD98
FDF1
F6A3
01F6
FBC4
00EA
FF02
FE85
FFFF
01B1
FFAE
0019
FF71
0078
FFD6
0221
005B
FFB2
FA8A
07DB
01E5
FB4D
0201
0751
FC4C
FFA6
07C9
FF7D
0190
0418
0141
03B1
0065
0134
0184
FDE3
FF35
08C5
0095
FC6F
0290
014E
00E1
FF08
FCA2
FDA4
FDCC
FF24
076D
0201
FD30
FBDB
022B
FBAB
FDBD
FE9E
FF34
0225
0296
046D
007C
FC48
FE93
0397
0333
FF5B
03A9
02B4
FAAC
005E
FE79
0563
0095
0140
006C
01ED
01F3
FC05
FF36
0349
00CE
FF9B
FCFD
FD43
0146
0225
FDDD
003F
FF71
FE70
FEA5
027B
FF39
FB79
04EA
00CA
FEAC
0354
0126
01B5
0345
FCBE
028B
0172
0426
04D4
FD35
FF2D
FD1B
FB01
FE87
FFC1
0019
0384
FF91
FB9C
0149
0168
FCFD
0044
FBCB
FE10
0025
FDDD
00F7
FAFF
0254
FDF4
FF18
FBE6
FDEF
0104
FE94
FE3F
0496
0601
0037
FC8A
00DE
019C
FF49
01F9
0316
03E8
082A
02AE
FF48
00F8
05A4
00E4
0065
0111
FBAD
FDC8
0245
01D1
FE96
01E8
FEF4
FFAB
03B5
FF90
FFA1
FBAF
FE9D
01F5
FEB3
03D0
02B4
FD0E
01DE
00DE
034E
04CB
FEA5
FEB8
00D6
FEF6
FF9B
FF9C
FC48
FF50
FEC3
FE0A
FDE6
FE3C
01A2
FC50
FB07
FF2C
04CB
0165
0042
0380
FC38
FAA4
039C
0543
0267
FAA4
FBA3
FEB0
FBF5
0440
0122
FF06
0241
018C
0388
FF53
01F3
0323
017A
FEDC
03F2
012C
0380
FE38
FC45
02AD
005D
0106
0329
0257
02CF
0082
0152
FF93
03D7
0538
FDFA
0241
FD68
0087
02AA
0032
FF27
01BF
050C
FF09
033B
000A
FD6B
FFB3
FE78
0256
0179
0323
FFC6
021A
FFE8
FC3B
057C
01C7
FE6C
03D9
FA0A
08D5
04E6
0064
FEC7
010E
0411
015A
04DA
0121
00DC
0442
FFC5
FA0C
FDF4
0262
0280
021D
01AB
0071
014C
FA80
0685
F6CE
FE8D
01D5
FF70
F858
FCCB
0277
0311
0287
FCE1
FBA4
0120
FCB6
FE96
FEE9
0130
FF14
FF56
00CE
FF56
021D
FE2D
FD49
FF64
0569
020C
00B7
FB07
FC62
FF39
FDF0
F8E4
FEE6
01BA
FE59
FC7B
FD67
0498
FD6D
FF62
FF5E
02C9
FF86
049F
FCE1
FFD3
F8FF
0721
FC78
0032
0635
FECA
FF8C
0371
FAF6
0025
0093
FE6A
FA7F
0235
00C3
FF3D
0343
02AF
0261
FDE7
FFC6
00AB
007E
FE91
FFF7
F8C5
FDFD
0133
0758
FDA4
FD13
FB51
0158
0424
FCC0
FDCF
FCCC
FE3C
FAE1
FCFC
08B4
04B8
0140
FE54
F717
044C
FA8C
01C0
0184
FA10
FF1E
FD6D
FB1A
FCD7
FBA3
FDEA
FE9F
0263
FD81
FF2F
FE01
0032
FD8F
0068
FBCA
FDC3
03EE
015A
0052
FC20
0037
000E
0069
0258
0249
FFE5
FD4D
050C
FD19
FDCE
FD26
FEEB
01C3
FEB4
FA19
008F
00E7
01C8
FC94
FDD3
FE9D
00AA
0145
FD9A
FD5A
FC45
00A2
0042
FFB9
FE67
02A0
FF9C
00F8
00E7
0001
FEF6
FC16
00C8
0265
FEFD
FC6D
0031
FF31
FF5E
0405
FEF5
0218
030A
FC88
0165
FEBA
FE13
FFFF
01C5
FEC7
000F
0043
01B8
0136
00FE
FE48
0189
FF39
00FE
00EA
FC84
FD5B
FC9B
FD87
0175
FF0F
FC73
0186
0412
00AE
FF4D
02E2
FAE8
FDE3
0387
FCC7
FEE6
FE13
FCCB
0008
FD7C
FD8C
0033
0216
FE35
FDF5
009B
FF15
FCB6
FFED
0320
0156
FFCF
0367
FEEB
005E
FE43
02B3
FE2A
014D
0574
02E6
0036
FDE6
FD2D
008F
FE42
00C0
FFFD
FDB2
009C
008E
FFBE
00F9
FEFA
0369
FEF4
02BE
016B
FF99
0348
FF07
010C
0677
FD73
00EF
FE02
02CB
FF0B
0231
FEA1
0038
FCD4
FF52
FE2F
FE7F
01E8
048D
0282
FEAC
FECA
0303
FDB7
FFF4
01D0
FDE7
FEC1
019F
FF9D
FD80
0056
0266
FE90
FC84
0301
0055
FD67
0337
FF77
05F0
0331
01EE
FE18
01E0
00B0
00AE
FD8E
FF08
FFB3
FD17
0240
FECD
FE7A
FEE7
FECE
FF05
03DF
0127
FFAF
015A
FD93
FC66
019E
FF7D
FDE8
FD76
015C
FF6C
FED7
0105
02D1
FBC8
037A
03C0
007B
FBEA
01EE
FB48
FE6E
03F0
FEA3
0297
FFA8
FF38
005F
01A2
FEF8
042A
FE9E
FEC3
0167
0029
017E
FB83
FDDA
02FA
FD82
0471
0343
FEA4
FD86
FEF2
FF7C
FF05
031C
001E
FCE4
FD5D
FE98
FE75
01D5
01DC
FE36
037E
0173
01A8
0164
03A4
FCFE
01A0
FE0E
FD8F
0034
FE30
0051
0030
01E2
FED4
FF07
00E8
0079
FEAF
FD80
004C
0144
FC90
025E
FF44
FE46
FF21
FDF5
0284
FF94
0280
FF5B
FD4C
00CE
02BE
016A
FBF1
FF5B
FE64
016F
0197
FAA6
00B4
FD03
FEA9
FEEC
012D
FF40
00F0
019D
0379
FE3E
FE95
FF16
0194
00F6
FDF6
FFB6
FED1
02DD
FB3D
FF87
0292
FF0B
FF3C
0105
0299
0356
FD1C
FE83
00D0
FF2F
FDB3
FEE9
01F4
FA0D
FD60
0191
FE97
FF18
008A
FEB7
FFB1
FF93
01CE
FE99
FF04
05DA
000E
02DA
FD99
FF87
016C
02DC
02F7
FB18
0139
0237
0261
FE42
FE7A
0109
01A8
0331
040E
FF4D
FF40
FEBD
0440
FFD8
067C
FD2E
0185
FB2C
02BD
0189
FE1D
0164
FE92
0152
04B9
0077
FED7
FF21
F857
000D
FF8D
FD61
0294
017E
025A
0349
FF94
FFBA
00B0
03A0
06FD
FF25
000B
FEE9
FC80
05A0
FE2F
0504
FF6E
01E3
FF7F
FE8D
FDBD
F9E1
FB0C
FE95
FC07
02D3
FE51
0051
00FE
0111
0221
05D7
0572
047A
FF33
0178
06E5
035C
FDBA
FEFF
03CD
0359
027E
FE51
FD44
FE7B
0663
02C3
00FE
0077
00FD
FC08
FBE4
FF5F
02DD
041B
FF7E
FE74
FCD2
FD87
00B2
01B7
01D8
062F
FBA5
048A
0156
019F
021C
FABE
FDAB
FFB1
01FD
04AB
0163
FEC7
02B4
04E9
0335
0366
0516
FDFC
FEF5
02EC
FD5C
0574
018B
004E
FBC7
01CF
FECF
0467
FFE6
FC38
040C
F985
059A
017D
03B4
FFB4
0746
00B0
0199
FE2E
0095
FC4E
029B
056C
FE7B
FD5A
0452
FE44
002C
FE19
04CA
FFC5
FFDE
007D
FD0C
0334
02DA
FC56
FF6B
FEEB
00C1
009F
FFE5
FC7C
00F6
0076
006C
FE7F
0155
FF28
00DC
FF80
FF79
FF15
FFC9
0109
FF3A
FF44
01A9
FF17
FDC9
001D
FECB
FE82
00E8
FF20
01CA
00FF
FF9C
FDD6
0057
FE91
00B6
FE5E
038A
FDE1
0158
FE8E
FE6A
005B
0129
FF89
0183
012C
FE17
FDD2
FF07
005F
00AB
01D9
FE64
FEDC
011A
FE57
003C
FE5D
01F1
FE5B
FEDA
FF41
FD47
004A
FF76
FE2D
0120
0084
FFFE
0109
0263
02EA
FD7E
FD2E
0476
0113
0165
019B
018A
0098
0120
0044
0279
FFB4
01CD
FF9C
0374
FD24
01D1
FECB
00BB
FDEE
FE98
FF39
000A
FFC6
015E
FE2D
014E
00BA
FF00
00E3
FEC8
01B5
FF90
0707
FD00
FDF4
00AF
050B
0917
FD1D
0073
FDF7
FE72
0044
0349
FF2C
FDFD
FAD6
00C8
0395
00A5
FB6E
00C5
FF6C
08E9
FE63
01DC
FC48
F947
FB06
FF19
FE27
026C
0040
00F9
FE3A
0057
FFEF
0218
03BD
FFEF
FCDC
FC22
02CE
FA29
FFE8
FFD8
003F
FFAD
F9F3
0067
01A5
04B8
FF47
03E7
04BC
FF1E
FCA0
025D
FDCA
0359
038F
FE00
0248
FF59
FCF6
00A2
0401
FA8C
04EA
FCDA
02F1
FF88
FCE3
FEF8
038C
FEDA
FE9C
03A7
0116
0187
F9CC
0194
01B2
0245
FDB7
FF40
0375
FE6F
028C
FF03
016C
02D1
FE5B
FF6E
FFA4
008D
FDB8
0034
FDC2
0338
016F
023D
FC85
FF4F
0259
022B
013B
FDEF
02CF
00FE
FAB2
030D
FDF4
0599
FFFE
FFCB
0262
FF57
FF4D
FC21
00AC
FD72
FA70
FCA0
FDD5
011C
FF1A
00EF
FF87
F905
0465
012F
FCFE
006C
065D
FD1C
05DC
014C
FD8D
FC8F
0014
0624
FD72
0106
FE03
FF37
FE43
FF51
017B
0266
FE7D
0603
FFBA
FBA6
FC98
00E9
FD56
0333
FD60
FC14
0033
025A
FF2C
FEDF
FE63
FD33
FF68
01A0
020D
0122
FF9B
012C
FE5D
0147
0399
FCE0
FF4B
03E4
FEF7
FE08
025B
FF9D
0349
FA5E
FEE9
FA30
0671
FDC7
FED7
FFB3
085B
FFAE
0219
F5BE
FE8E
FFFC
FD6F
FF16
02CB
0219
FF38
00C7
FE45
FF1F
015A
0048
FF95
FCD0
015E
0368
FF46
FF53
FDDC
0317
0009
FF41
0180
01BE
FD69
0179
0455
0270
FEE1
FE2B
0032
0151
FEAB
00B5
FFF2
0047
FC72
02BE
0299
027F
035F
034E
FFCF
FE97
009C
02D5
FC33
02C1
FCE4
FD01
026F
FFBF
012B
FDC7
FD3F
FD21
00B0
FC00
FF61
FE57
0089
026F
012F
FF6F
FF0B
FE6F
FDDC
FDFD
0034
FFAD
0338
FFE1
0011
0287
FFEA
FF95
022D
FF11
003A
0406
FF93
FD42
FFF4
FD89
FE3F
FDDD
FDF6
FDDF
FF02
003F
0220
FF4B
FD9C
FE17
FD69
FF0A
FF1C
008A
FC0F
0054
00AD
FFCA
FF78
FF8C
007C
FFD5
FDBE
01F7
0263
00E7
0188
FECA
0196
012F
FED5
0041
FE3B
FE80
FFE9
010F
019A
FF6E
FEA6
FF2F
0226
FFED
FE58
00D8
FF68
FE82
01FE
FECB
01FF
0085
01D9
0001
FF30
0132
0045
0290
FF83
FF47
0092
FF74
FFBE
0020
0077
FF11
FFF7
FDD7
FF22
FFE6
001B
026E
FE78
0103
FDAE
FF1B
FD9D
FDCA
0158
0208
FDF6
00D9
FE1F
FF6D
FEF1
FEFA
0164
FE25
008B
FFFC
FF62
022B
017D
FFCB
020A
FF92
FDB8
FF48
008B
FF32
0215
026E
0156
FEC8
FF17
FFA6
FF95
FEC2
FF4A
FD4C
0230
0164
0263
00A6
FEAA
FF40
0265
FF01
01F4
0210
0056
FDD6
00F8
0119
FE26
FC22
00B8
FD1B
FD5B
FEAE
01B4
01C7
01DA
02AF
0104
0220
038B
0070
FEF1
027D
0275
02CC
FF0D
0570
036E
FE34
010C
FD61
012C
FEBD
0059
001F
FF8C
FF42
01C2
00F1
048F
FC9B
01DF
FF6A
03C8
FB53
00CD
FD3E
038A
004D
FD35
0138
FC6C
02C1
FE95
0091
00B8
02FF
FDC4
FE64
0308
FE3D
FEF5
FE50
FDA0
01D4
FB95
003D
03D2
0017
0143
026C
035E
FCCC
FF17
02DD
FE32
00E5
0166
0008
017E
0075
FE71
01AD
0142
FEE1
0144
FC52
00E8
FE2C
01B4
0116
FFE8
0104
00D1
00AD
FFB4
014A
001E
FD5C
0066
0408
FF7B
FF20
FE3A
00E2
0240
FFDC
01ED
FF30
00ED
FEB0
FE0C
FE78
022E
0062
FF1C
FE16
FEA1
FD41
FF8E
FEF1
FD29
FFFD
0250
FD72
FF80
FFEF
018F
0024
0221
0012
FFA7
FF93
FFFD
FE68
0033
FE3B
FDB5
0156
019B
0170
FEE0
FFCB
FF02
0027
0185
01AA
0076
0237
01D4
0229
0246
0248
00C3
00A1
FF22
FF89
00F9
0127
03F3
009F
00C1
0005
00FD
0160
FF71
0107
00E4
01DE
0008
00D1
FF6B
01F4
FDEC
FD44
0131
FE08
FED2
004C
0091
0387
012C
0211
FFB8
FD97
FFA3
FFC7
00DA
FEDD
FD1B
FB22
FF0B
FDC1
FD8C
0355
00A7
FFA6
007A
021C
03CE
FEB2
02AE
000D
FD32
025B
0064
02AD
FDCE
045C
0172
FD01
FDF3
FDF0
0341
00AD
FF7B
00FC
FF47
FC45
030A
0274
0194
FD42
FEC7
FEFD
FDB2
0099
FD11
03C1
FE5A
FFFE
00BD
003C
FF61
0164
00A9
FEFC
0027
015C
0184
FAFF
FF89
0333
FFC9
FDBD
FD35
03BD
FC13
02C0
01F7
FE55
FF9C
025D
FE9B
FE56
FEF3
FFD8
FFFB
FFAD
FE95
FDBB
FE92
00E4
03A0
FF51
FEDE
0033
FF35
FC72
FE5F
033E
01E5
00A4
FC22
021D
00F2
FED0
01E6
01B3
FC24
FFAC
0107
0387
024F
FF7C
02BD
03CA
FCBC
FE5E
FF0B
0298
00C6
FF9E
FDD6
FFAC
FD70
FDB9
FF59
0277
FBD5
014A
FE8B
00AC
012C
01E7
FE51
FEC1
FED3
0031
FE53
FFEC
0031
011A
FEFC
0187
FF85
FD37
0080
FDFD
01AC
014D
FF72
0067
FCE2
002F
FF5C
0213
0242
FE9E
FE71
028A
FF7A
01BD
FFA6
FF92
013B
FD4B
FE61
FE4E
FFB0
01F0
0306
02F3
FEFC
00B0
001A
FF60
0139
FF9E
FE3B
FEEB
0070
FE67
FF81
FFFA
FE58
FF13
01E6
0003
01A2
008B
01C6
024F
FE38
005E
FFD3
0201
FDDC
0144
FEF6
FE18
0139
0029
00B5
FFEE
FC3D
FD1C
FED6
FD68
009A
FD1F
FDA0
015B
011C
00E1
02D9
FE52
FE4C
FE8A
FDE1
0110
FD6B
FD23
FF92
FEB3
0073
01EA
FFC0
00D4
FE6A
FFBA
FDE1
0198
FDC6
01F2
0232
001A
FC69
FE41
FF8B
FFAA
0040
FC11
022B
FD91
FFC7
0014
01C1
FB03
FF6D
008C
FF71
FE3F
0254
FF4F
FF10
FD7F
03C5
00D5
FD4C
FDEC
FEAF
FF3C
012D
02AC
FD67
FD2C
00BD
0113
006C
FC02
004C
036F
FDD3
FDFD
FE2B
0400
FD7F
000A
003F
FD5E
FDA2
FFC0
00F5
FE04
FAE8
FE88
FDD1
FE06
FFBE
FFD7
FFC8
FEE4
00F0
FE95
015F
001F
FD61
FCA5
FDB4
02FD
0123
03B3
FE2E
037F
FE5A
FDF2
FEE6
FCDB
FE4A
022E
FB78
0184
FD7F
00F3
00E9
FD09
014C
FCF8
FF33
FFA8
0037
FD9E
FD9E
FF6F
FEA9
FE1C
FEA0
007C
FC4C
00C5
FF04
FCD5
02B8
0013
00F1
FFBC
FF12
008B
00A9
000C
FE95
00B2
FE9A
0173
FF0A
0125
00EB
FE9E
004A
0191
0137
008E
FEB1
0113
FF40
0022
FF96
FF2F
008A
FDCF
00C3
FED6
0086
00F5
0161
FF75
FE98
FFF9
0032
FF56
FF7E
FF68
FF17
01CB
015F
00FE
FFF5
0193
0190
FDEB
0048
FE01
FF5B
FFCB
0016
FFC1
FDC9
00E0
004A
FF7F
FF34
FE71
00D6
FD87
FF64
FE5B
FE88
000F
FED1
FEA4
FFFD
0043
FE6E
0242
FF41
023C
00C2
000A
0044
FCAB
0094
0090
FF9A
01F2
019B
00A0
FFB9
000E
023B
0109
0082
005E
0201
FFD0
000E
FD8F
010A
0197
01C6
00C0
025C
0259
FF21
FFB0
FE12
F941
0158
0207
01B6
FFD7
018D
FBE5
FF63
0218
0292
FCD0
0745
FEB1
FDE4
FBED
0061
FD88
0287
FE71
0087
0427
FF2D
FF8F
FA15
00AC
0061
FD3B
021B
FF0B
FE5D
FF81
FD82
FB6E
FC02
FA47
02FC
FCF4
00D0
016B
FB79
FEDB
016D
FB02
031D
04C7
003B
000A
FC6F
00C6
01FB
0005
FB4F
FE64
FEC8
0047
01B4
0132
F7DC
FE96
03F6
FFA4
FFEC
FD65
00D3
FDEA
FF98
FE02
015D
FFF9
FB34
FFB8
FD83
010B
00F4
0677
FED9
03F8
062E
04F8
FCE7
0151
0196
0377
FF19
FA3B
FF23
04E5
FF80
FFB7
0094
010E
02C8
043A
0150
F9A9
FF5F
001F
FA2A
F901
FE61
00FE
00D5
01B8
FDA4
FE15
01CB
FE05
02C9
FFF7
0196
FE85
FF43
048A
FF39
FB63
FE63
FDC7
FFCE
0140
FA04
00F0
FB14
019F
015F
FCF0
FBFD
0060
01C0
02A2
F920
F898
015D
FBFE
0011
FB7B
F970
FBB9
FE0C
FAD0
FC21
FD61
02BB
FD52
0341
00DA
FD8A
0314
017A
FB7D
0002
07D5
049B
F851
0A76
00AA
FCC3
FF89
0501
008E
0627
0174
033E
FCCF
0256
020E
003B
FFA2
FE38
00D7
0646
0398
F88F
015B
05A8
0103
FC7B
FDA1
FD93
FC7D
FF19
0424
05CA
06CD
FC5A
FC21
062F
0139
026A
070F
F9D7
FD7B
FDE9
FEC0
00E1
F397
FF12
FF82
02BB
FDA4
FA0C
FDF6
FB25
FF04
00E1
034E
FF59
FE6F
00C2
FE72
FF31
02B4
FF17
FDF5
FFAF
FEE6
018F
004F
FB7D
FE2F
0228
05D0
01D0
FE66
02C1
FCF6
00CF
FF44
FE32
FFEB
FF1E
0048
FB47
00B3
FC4F
00A0
0514
FCC2
0237
0143
FD8F
FFA5
0499
0828
FEA7
FECE
FDF0
002B
FD46
FFE8
FF3C
0114
0065
017B
0054
FF19
FC6E
FFF2
FF13
FEC2
0085
0278
00EE
F908
FCA1
05F1
0347
0020
01FE
0159
0009
0276
0232
0124
FBAE
040B
009E
0187
02C3
02DA
0108
02E2
01E6
01D6
FA2E
0115
FF17
FDA6
04A2
0343
00FB
03C0
00F3
0276
04F0
0151
016A
FFF1
006A
FA47
FE4E
02A2
0252
0417
FDC4
FD77
FE90
0037
008A
FDFE
FFB9
FC34
FF93
FF1C
0032
FC6A
F8D9
FC31
FEA0
0628
0536
03E1
FCE7
0180
01AC
FF61
FC53
FDC3
0390
018A
FCE3
0064
021D
F962
FCFE
FEF7
FD79
FFD8
FCC0
FAB9
FFD2
FFE9
0876
F77F
0519
FDCE
FF5E
FE8B
049F
FEEB
0221
0109
01B1
F716
031C
05AF
011A
0201
0390
FF4B
0213
0361
FACF
F9F2
0292
05A9
FD37
FDA1
0020
0077
0035
024A
FCD1
FA25
033E
FE8C
F818
0088
FF53
F93E
FE5F
05A0
0578
01B7
FC82
022C
04CE
0452
FD5D
018D
FD32
FE02
FBA4
FDE1
0273
00CB
FEB3
FF55
FE16
FFEB
02B9
FF42
016B
0012
02B1
FD10
FD27
011A
0104
FAD1
FA73
003D
0524
FCA2
0500
016E
033D
0072
0878
FBB0
019E
FDEA
017E
05C2
FCD5
FB3C
FC42
0555
02BD
FBCC
FE06
00F9
02CB
02DA
0193
FA66
FEB2
FBB8
FB09
022E
00A1
017D
FB76
00FA
0463
FE82
0280
FD91
008E
02CB
FBBE
0107
00EF
FCC6
00AE
04F5
FBEE
FCCD
01AE
FE83
023E
00B9
FFF6
FFCE
FEB7
FB9A
0028
0215
FB98
FB3A
FD9A
01A4
FFD5
FE3A
0430
01E3
FD55
FDFD
FCC3
FF1F
FC97
003E
FD88
004C
0022
FCCD
FC29
FD1C
FE3C
014A
00CB
FD5E
FC60
00E1
007F
0650
017D
FFE1
0478
FF59
FEC6
0047
FE41
0201
FD24
FF06
02DD
013D
01C0
FD1B
FFA7
009C
FBC6
00B8
FFBF
02DF
0358
01C3
00C4
FDD6
FCBA
0107
FFE3
0079
FE04
FCFC
FF3D
FF94
FEEB
003A
FDC6
F9CE
01F6
00AF
FC7C
0157
FF81
001E
0213
FEE1
006D
FD70
FE92
0314
FD8B
0173
FD1B
0330
FF56
FC87
FFBE
0034
032B
FF94
02A6
017C
FEDA
00A4
00D5
03D3
0186
00EB
FFF2
FF22
033A
FFEF
FE9D
FDAB
00C5
0250
025F
FF12
FCF2
026B
0219
02BA
01B5
FE1E
FF22
0030
00AB
FFFF
018A
0354
0089
FCEA
00FB
FDBE
0297
FEEE
FE77
FDF6
00EB
FFBB
FF74
FC68
FF00
007D
0008
0138
003C
0115
FE5A
01D7
03BE
00D2
021A
FD19
FF9C
FF2B
FFF8
031D
021B
FEE4
FEFF
0376
FD68
FF87
016E
FE78
FD02
FEF9
0329
018C
FF5B
FFB3
FE41
FE1B
00C9
FF29
FF62
FFB9
FDBE
0044
01C5
00D3
FEF5
FFE6
FD1B
FE13
FD1F
033F
0001
0227
FD45
FE91
0137
01CF
011D
FF07
FCB9
0052
FFFE
FDD2
01EF
019E
FFEC
00C9
008E
FF98
00B0
0142
FF0E
FDE8
FE38
01AD
0163
0167
FCFA
00D2
00DC
FF66
012C
0007
0079
035D
FDC5
01FB
FE4A
FE9A
01CA
FE35
0069
FEBA
FE2F
0001
01BA
FFA2
FDCA
FD40
FF80
FDF3
FE6C
0049
FF7D
0061
FE82
FE34
0339
013B
00FC
FF66
029E
FF10
00E2
0126
FF22
FD05
FFFF
FD6C
FFB6
014B
01A2
0237
FE6D
00AB
002A
FF66
022F
0100
FF99
FEA1
FEA0
FE29
012C
019C
FD80
0023
020B
FFC8
FFE5
0186
FECF
01D8
000C
0271
00D7
FFF8
0354
0182
015C
019F
FE20
FFC9
00DF
01BC
FF92
FE26
002E
00A8
FEAB
FF26
FFD3
030F
00C6
0122
FF1C
0012
022C
01AD
00EB
015C
0212
0214
FDA8
FE61
007C
00E3
008E
0337
FEF5
015A
025B
FD79
FF56
FFB2
FE81
0141
01CF
FF2D
01DC
004D
0168
FE7F
0132
0004
FF26
FCE8
FEFB
FC55
FDFC
FEB4
FFCC
FF8F
FEA0
FE31
0069
0073
FF5D
FF68
02EB
FEF8
01F9
FF27
FE5D
FCF7
FEF4
FD17
0197
02FB
01BA
FF0F
00F2
FECE
F8E3
01EC
011E
018A
01E7
0143
FD40
FF9C
FF56
03CF
FF24
0237
00DA
FDDE
0117
01E1
FFFE
0011
001C
0349
00F7
FD58
0368
0053
FF5C
0306
FEBA
00F2
FD48
0273
FD0E
FF36
FC0F
0049
00D0
FF07
FA26
FD6A
FDF1
FD98
011B
0129
01C8
0083
FEDB
0079
FE8A
022A
FDF5
FEB0
0166
02B2
0366
0010
FEFF
0298
FEF1
0209
00CC
FF87
FFCF
0064
FEF3
0251
020B
FEE1
FE44
FB0D
FC97
005F
FDD3
02A2
01B4
FDA5
FF90
022E
0296
FE0E
FCA3
FE1C
0546
01F3
FEA9
034E
FED2
014B
FE07
FFEE
004C
FD71
000E
FEF8
0150
0525
FEF1
FDF5
02A6
0207
001B
02C1
FEBC
FE4B
FF4F
FF5B
0181
008A
006D
FF8E
FE00
FF4E
FFBC
FEF9
FF7C
0287
FEB4
FFB2
00B2
F4E8
FEC0
0137
01CE
FE5F
FF4D
029D
FE9D
FBC4
01A3
FE37
0023
FF5A
FEB7
FFC1
FF71
01D0
004D
FE62
0109
026F
0199
FE7A
03C1
FE1E
FEF3
027F
0079
FEF8
02FC
0008
FE5B
FFE6
01AB
FFEE
FF3D
0252
FF73
0004
02F7
0151
FE7D
0090
FEA1
FD9D
FFE5
FE42
0033
00C8
FF95
FDCC
FECA
FFA7
0101
FA02
0061
0090
052C
029E
FE14
01FE
00E6
FE14
FE59
F882
FFFD
0171
004F
FF25
0319
FF71
FF79
011C
0294
FDD2
FEB2
024B
0021
FF1C
00F1
01D0
0087
FC0F
FF7B
0264
0010
FE32
043D
00B0
FCCB
00B1
0228
03B5
FFF9
0025
FF51
FD6D
FEB7
FFF5
FFBC
FC93
FE67
FFBC
0138
FF60
0082
00B5
FE27
FED2
FC86
0201
FE53
0059
FF09
FDEF
FE4A
027F
FF0D
029A
FA8A
FF62
0080
FD22
017B
FF01
FF4F
FFA7
01FA
FEF8
001E
016A
007D
FD9C
0032
FEC2
FF6D
037A
004F
FF5F
01D9
0063
000E
FE8C
FCCA
00B2
FDBD
FF55
FE31
FF55
FEF9
0077
FE77
FD0C
FC3A
02E5
0188
FF7D
FEA7
FD93
010D
FF0F
FEA1
009B
FD10
01C3
0128
FCE8
00C5
0232
019E
FF3F
000D
0050
015D
FF5D
FD97
FFC2
01C5
FE71
FF2F
0122
01EA
018E
FF15
02D4
0058
01F1
00A8
FF4D
018C
FDE9
0289
025A
0043
0116
01A5
00EA
FF45
FE17
01EA
0024
0133
022E
0064
028C
FF64
FE7B
0142
FEB8
0013
014E
00BB
0098
FF29
02B5
FE49
01BB
0135
FE96
01B3
FF5F
FEAE
FE6C
FDE0
FD78
FE9B
00A3
FD70
FF43
FF3C
FE14
00E3
01FE
FF47
FDB3
0166
FE18
0127
0106
FE39
FE92
0134
FF22
FE87
014A
019D
FE82
0134
0237
FFC9
0054
FDBB
FF54
020B
FD6F
FD40
FF79
0107
FEE9
0293
FE39
008C
01D1
FDBF
FFEB
FFC7
0117
FFCC
FEE7
0053
00E9
0431
00B7
FF1E
0004
01C1
02D9
FD66
FCC0
FD22
FE3E
FED4
FF3D
FC9E
FDE8
FEAE
01A0
FFAE
031C
0034
FE3E
FF48
F691
031B
02B4
02AA
FD2D
FFD1
FF76
FECD
FFD6
0523
0402
0456
FDC2
0163
FA27
03AC
00D2
01BC
FD75
02FA
FE1D
FC71
00A1
0225
0194
0059
041C
FA86
018D
FE69
FF2F
FE01
FE8E
FF71
FD62
FD51
FD89
00EA
FDF1
01B7
FD9E
01B5
0147
007B
FED9
0144
00CD
FFDB
0050
FE95
0262
FE83
00FA
0221
0262
00B8
FEDE
00FF
0256
00F5
0091
FF88
FFA5
FEE0
FF99
FEA3
0007
03DA
FE72
03FB
0071
0528
0591
FD51
0203
047F
00B4
FEEE
017E
0012
0127
FECC
00CA
018F
0227
FF5A
FE91
0033
FC4E
FCD7
FE83
0084
FFFD
FC29
FF30
0300
FF5B
00B4
FC4D
01C9
FE30
FFE5
FF2B
00C6
FFE8
034A
FFC7
0087
FC60
0230
0073
FF75
0302
FEB2
FFB2
0446
FF71
FF3A
FFA7
0032
FE9E
02EB
019B
00AA
FDB9
0363
FE22
0194
FE47
FCEC
009C
001C
FEC7
FEBA
FEE0
0124
00C0
0039
0124
01BA
02C2
02AE
FEAC
FDB4
FE17
0094
0166
FEBE
FDA3
00BC
FFB8
FF54
0041
FD08
FE1E
FEEC
FF65
FCFA
FED2
FF7B
FDF6
FE98
F865
FC0E
FDB9
02B5
00AB
FFF2
FD91
FC33
0044
02B3
F91D
01DF
0457
008F
FF8C
0068
FD83
FF82
0271
0238
FD89
FE06
007F
FDBF
028A
FD05
0388
FD64
0333
FD23
FBD2
00EB
FF55
FCD7
FE5B
FCEE
FDD4
01BF
FFCE
0229
0255
FEB1
0030
FDA6
FB33
0269
0049
03B0
FD2C
FF1A
FD20
FEDD
F8C8
0038
012C
FF52
FD65
019D
FF78
F946
FE96
02A1
FC6F
001F
0077
02F4
0523
FE2F
0056
033B
00E1
01DE
FD1A
042C
04BA
FFFF
FC99
FCEA
041C
01DC
01D6
FA80
FFCD
FE7D
FEE7
02CA
FCCC
FD4C
FEE0
FF48
FCCF
FDE7
0055
0042
FF86
FCB3
FFE3
01AF
0076
0106
0332
F919
04F6
03A4
0449
0451
0036
014B
0142
009F
FFEB
FEED
02C4
008C
FB83
FC1E
0415
0473
0378
FF6F
FAD7
0437
0171
0346
FD4D
037F
FA6A
FE65
046C
FA5B
FF02
FC23
FA1F
043B
023D
062C
01D5
FC8A
03BE
01C7
0012
FD99
FA26
0088
0120
FC7A
FCE6
04AB
FBF7
FCF7
01E7
FC47
00AF
0057
F9FB
FA50
FB4B
0525
FA73
07B4
FC1A
FA33
FEEE
084A
FA5D
0321
FF6D
FF7F
FB75
014E
0059
FD10
00A9
04F2
0057
FFFE
0072
FF0B
FE04
0793
021C
F95F
FBF9
00B7
05D0
0231
00DB
00C3
01E6
024A
FBD1
01DE
FB2A
FDB3
FAC7
FDFA
0357
034A
0316
0030
0146
013F
FE04
0462
FF62
FF4A
FD3C
F87C
F9E8
0312
FC56
FEA1
0437
0169
FFDB
FD3F
031F
0271
FDB1
FF62
00C7
0499
02B4
076F
0610
FE75
FEDA
045B
06E1
02F8
FDA5
0494
048B
FEEC
0185
0151
FF3D
FD60
02D0
0208
0015
01AD
0593
FDE1
FC54
005E
03F1
0262
FDDE
00BD
FFDF
FE29
016A
02EA
02D6
0097
FBD3
016E
0284
0215
0036
FD6E
FFBC
FF4C
0280
01D9
00CA
FBD1
01EA
0477
004B
0261
FEA6
00F6
FE94
008B
011B
0469
042C
00D9
FF6F
FF64
FC8F
FDFC
0014
FBB1
0362
FDDB
06DA
01E3
FE66
FDBA
03A1
02F5
01ED
00B7
0350
FCBF
FF93
01BA
FB5D
FA43
0733
FF16
018F
026E
021C
FF9C
FBED
04BF
FF4D
0082
0325
FF07
0076
FEFE
FEB2
FFC3
0222
00CD
FD2F
FF14
0190
FFEF
0128
FCCA
FE59
00D2
0012
FD77
006F
FCD0
FF71
FFEE
FE1A
013D
FD3B
00F9
FF76
FFFD
02BC
027A
FF45
027F
0136
027E
01A4
0010
005B
FFF0
0328
FFD6
0607
0127
FD15
FEF1
FF6A
0062
031E
010C
FE89
FEBE
FD80
0461
FDF7
001E
FEFA
FEE6
FE83
FC37
FFA5
0066
0269
FE52
FE0B
FE18
0298
FEA3
0166
043C
FE54
FDB7
FFB3
0073
019C
0247
FE33
00CC
004E
003B
FEC2
FDF8
FCCF
01B5
013F
FE91
00A9
FD9E
FE86
FE22
0A12
FB39
FD17
024A
FC3E
01EC
015A
002D
FFB6
0270
004B
0128
FFC7
0060
0247
0162
0154
FFED
02A6
0113
FF02
FE6D
FFC2
02FF
FC5E
0080
022D
FFC5
FCAD
FEC8
038D
FF01
FF70
0209
FD0B
009B
0242
0423
0243
FFC6
00F8
0026
0088
00F6
FE9A
FD51
FDBB
FD56
016F
FE96
FD73
004C
0491
FEB1
0130
FE68
0091
FFC8
00DA
FCDD
FF85
027B
FF55
FDB8
FD7B
FF8A
FC8F
FEF3
FE5A
01AC
FDFB
FDF8
004B
01D8
FE1E
0217
FE33
FE99
FD82
01AE
FF63
026B
FFA4
FCE7
0295
03BF
FF72
0145
00CA
FD4F
00EC
FDF3
FF10
FC9C
FDA3
FEA3
FDB5
FDA0
FE6E
01A8
01F0
0001
FDF0
FD2D
FE94
00AB
FEAF
FE42
003B
FCD8
0051
FE01
FCB5
FF88
0020
FE0E
00D5
018C
0212
016C
00B3
0069
FE57
FF00
00B9
01A6
0194
FE9B
002D
003D
FF82
02AE
0034
FEBC
017A
0267
FF73
0182
003C
00C2
000A
FE0C
0163
FF42
0152
01D2
00C0
FE86
FD63
01D5
01C3
02C1
FDA8
006D
FEFE
FE56
FD1C
028E
FF5F
FC7D
FF5A
001B
00F0
02CE
01B3
FF84
00B7
FE5D
023D
003F
007C
FE98
00C3
FEEC
FF00
FDAD
002A
0067
01CA
FE07
005B
00FC
FE96
0048
00E0
FEDB
FF03
0078
FEEA
01A7
0144
0122
014A
FF04
02B7
FF33
FE6F
024B
FE94
02C8
00B0
015C
FE00
01B0
FF48
017B
FF13
0253
FE2F
FFF9
FFA4
01CD
0060
FED6
FEDC
0082
0092
FF92
0207
02F7
00F8
010E
FDBE
01BB
FE43
FF5A
FFA6
0125
FCE9
00BB
FF8D
FE61
FD64
02B8
FE84
0164
FF7F
0241
011C
FF4C
FE8F
FF70
010D
00B1
FF6D
FFD6
FE30
FB87
0045
01B0
FC40
002E
FF8A
FED9
00C6
FFDF
03C5
FF93
000C
0132
FF39
FECF
FF18
024D
012D
FD5F
FED6
0163
FBF2
FFB7
0066
FF25
FF39
FF93
FDC8
0491
FEE0
FE96
FF1E
00A4
015D
FF9C
00EB
FD73
FE4D
FE3A
FF21
FF9B
FEC2
0178
FFB3
FDFE
FFD5
025F
FD0B
FE55
FE4B
FEE5
FE29
FF87
0260
000D
FFEA
FEDE
FF69
FEA9
FD15
FF6A
FF51
FCED
FF88
01BE
FECE
0081
014E
FE63
01EA
0046
001F
FF46
FF59
FFF6
FF05
FF52
FF39
00AF
FEE9
FECA
FF61
FEA6
01AD
FFEE
00B1
02B4
01D5
0049
010A
FF3F
FF2D
003A
FFDE
0002
FCFB
FEF9
0076
FE90
01E6
027E
FF28
0051
FEB2
0193
FF24
FE9F
0072
FF67
FD8D
029F
00EB
006F
011C
020C
FF89
0063
FD92
0281
0010
FE7A
FFE4
FDBE
0036
00FC
0332
004A
FFD6
00C7
0039
FCED
01E0
00D5
011F
FE3B
FDA5
FD84
0009
FC81
0129
FDE7
FF29
FEAF
FF2F
0194
015E
000B
FF1D
0176
FF22
0207
0058
01DC
0253
FE47
FECF
016E
FF73
FF91
FE1A
035C
FDAE
FF6C
0411
005D
002E
008E
FCB8
FECB
007D
0431
FE88
FE50
00C6
005F
05FF
0741
01A9
FEF6
FF57
059C
057E
016F
FDA6
0353
0454
02E2
00CF
01A7
FD21
FF91
04CA
0094
00A0
FF3E
0075
FEB5
FEDD
FC32
0119
052D
FEEF
0164
FFF9
FDFC
FF74
019D
00E3
0157
FC82
0464
0346
0384
01ED
FDFF
FE91
FF25
0071
0318
033D
FBF3
02C2
05A0
FEE2
0326
0017
FFAB
FE93
0099
FF9A
0328
0555
00F4
FDBC
02CA
FCF6
0142
009F
FC6E
0713
F9F1
07A6
006F
FF22
FEFC
029D
FFBE
03E7
0207
03D1
FBF7
0328
0535
FE19
F9FD
06FB
FF8E
0069
017B
024A
FF36
FBF3
01A6
0234
004C
03E1
007D
006E
0054
0073
FF9C
016A
01F3
013C
025E
FF07
023F
0133
FECB
FD24
00EB
FF7C
FE91
0085
FC49
FD52
0019
006A
0034
FF7A
0151
FEE1
0087
FEE8
FE9F
FDB7
00F5
00A5
FE53
0184
0102
FE84
FEEB
0175
006F
038D
FEA4
FF64
FD94
FFD6
0244
0118
00F9
FDB2
FF11
004E
0158
FE91
0023
FE4C
FF2E
FF14
FE8E
008F
FF30
FF85
013E
FFD5
FCA8
0132
FD55
00B3
0206
FFB1
FDE8
007B
0193
0071
005D
FD74
FFBF
FEE0
0277
00C0
FDAF
00C6
FE55
0175
FFD0
FE65
0119
FFD0
FEA2
0D36
FEC1
FEBE
0127
FE29
001D
FDB0
FF49
FFAF
0070
0575
010F
00B8
FE2C
FD86
FE52
FBF4
032B
FC26
FF0D
0221
00EB
043C
0049
019E
FD8B
FEDB
018F
FF1C
02CE
00CC
FFE3
FBD5
F9B9
004C
FFA8
FB6E
FCDD
0128
FE6B
040D
FD31
0165
FFAD
FD0E
FB7B
FD8D
011C
FF23
028C
FDDC
FEA0
FE43
01B2
FF29
FE09
002E
FC43
0180
FE2A
001C
FC4E
0010
FE22
00E9
FF5B
FFE5
01C2
FBE5
FF8B
FD13
FD95
00E9
FCA1
059C
0496
FB56
084B
FFF0
FECF
FF09
FD91
00BE
0025
FEFA
FE3B
FCD4
0091
FDE5
0299
00D0
F9C2
0162
0067
FE89
0411
02BE
FE74
016B
FF85
00F7
0367
042A
0214
FD29
0232
FE78
0908
00AE
FF94
0220
FFD3
0204
0310
FB23
FFA6
0374
04EA
FFBF
FF65
FAC3
01DB
0144
FD47
F871
0374
FEF3
F79F
034D
FEA3
0550
F9A5
F9DE
01BB
0124
05C1
FF3B
FC7F
FD40
FB2B
FC6A
F78C
F9D8
0051
018F
FC75
F63E
02F0
FEEC
FC8C
016E
FCDE
01A7
0306
F66A
FEF8
FD18
0593
FE36
0212
0045
F9C0
FDFC
0809
F7E9
0449
015E
FFFD
FDB1
01ED
0205
FF77
0298
0281
02CD
FEFB
0268
FF26
FF05
041A
FFA2
F6BD
F947
02D8
0653
03A3
0050
0227
FD39
0205
F966
FD69
F9CA
0262
FB8C
FD0E
029D
0443
0351
0165
FE34
FEA7
FE24
06C1
015A
FD5E
0081
F960
F93D
FD81
F460
FD2D
0149
FFE8
0277
020D
0308
FE21
040D
00AF
FCD6
010D
FDBD
FEDD
FE3F
FE06
00A6
FD78
FDD0
0058
00F8
01FE
0251
0131
00AA
005C
FF99
FDF4
FDC0
0041
FE7B
00AB
FB65
029E
029F
0040
FE2F
FD2E
FF63
FFDA
0115
0077
007A
FFA6
0302
FDBD
0401
FEF5
FDE7
0308
FD54
01FE
00B6
0716
025D
FB4B
00D1
04B0
FDA3
FFB7
0164
FCE2
FCAB
0113
0218
0198
01A7
00C3
FA95
FC64
0029
0139
FFFE
FFC0
FDD2
0072
FD87
0363
FF72
00D6
00CB
FFAD
FC28
FFDF
0077
0044
0265
0118
FDDE
FBED
FEA7
029D
FF5D
00DF
0020
FEE6
FC9E
FD49
024C
FD6F
019B
0188
F93E
049C
FBD2
FD65
00A3
FEF9
0143
FEEA
002E
02B0
FDD2
01B4
FE95
FF06
0143
FE23
0228
FF01
0087
007D
FC9D
0080
01A9
FFFD
0278
FE4E
FC8B
FFE2
FE4B
FE07
006A
00D0
0078
FE6E
FFEF
FF82
FDEC
00CD
012E
FF56
FF89
0030
FEFA
FF57
FF73
03DD
FEF6
0196
0048
FE09
0086
0204
FF07
0286
00E0
FDBC
FD48
FFD0
0218
01A6
FFFD
03C2
FF61
FDAF
0251
007F
0160
FD06
FEB9
FE00
FE56
0089
0083
FB5B
0258
FE45
FDD8
FF70
FEFF
FF3F
FFD8
00E2
FB77
0201
03BB
FF75
0280
FFA2
00EE
0024
01EE
FE31
FC27
FDE7
0036
0288
FD27
FF3C
FD10
FFE5
00DE
0066
0097
FFA2
FFD7
FCA0
FFF2
018E
FF15
01C2
0456
FFFD
0313
FF18
01A7
FFB6
FF0E
FFB7
FCCA
022C
FE67
0155
0167
0250
0015
00D0
FD32
0244
012F
007D
FF16
0232
FF1D
FD82
0059
00B8
0366
01CC
FD43
0001
FDC4
026D
00C5
000E
0169
FDD0
FF4C
FD0D
0244
FF84
010F
FFBA
00FC
FC63
0180
0263
00C2
FF34
02C9
FF06
01E1
FF99
FC76
037F
FF59
02B0
FB92
010A
FEED
FCB0
000F
021A
0290
00C6
0217
FCF9
FDDA
FC82
0121
FD35
018E
0411
0036
008D
0283
014A
FC8B
FDBF
00A0
0167
FD7F
FA8C
FCBE
FAAC
04AD
038D
0252
01F9
FE80
0128
FE4C
FBDF
0149
0062
FDB1
0067
FF1D
017D
FEB4
0069
0010
015F
0272
FFA8
FF57
0124
FD57
FFB3
FD44
03AC
017E
00A6
FF32
FFF8
0137
02B4
024B
FE6E
0048
02BE
02A2
020F
FD36
012E
0001
FEB8
FE59
0273
FDCF
0450
FDB6
0314
01CF
FDC5
FF37
0009
010F
FF9C
0205
000E
01B7
FEB0
0266
FD55
FF9F
003D
022B
01D6
FF8D
FF63
FF8D
0011
00C1
FE73
FEE4
0197
0287
FD46
FF7C
019A
FFEB
FE10
FC7F
00EE
01DF
FF05
FFC7
013D
0358
0091
0391
0047
038B
FFDE
FFEC
FFE3
FCED
FFC9
FE6C
0269
FCFC
FD85
0204
FFA6
FF55
03A6
FF74
FF5B
013F
0363
007E
FF8A
FD11
FE31
0133
0032
03CE
027F
FF3A
FEFA
043F
07B9
FE75
FA0A
FE5E
FAE8
0352
01C2
FE43
FF95
FF4F
FD8B
FA6A
02E1
029A
024C
01DE
0850
FFCB
01F5
0111
01F1
FDA6
FE24
FF0D
FD0E
08AB
FE61
0518
0164
F6D6
055B
0479
027C
FC91
FBFD
FCFC
00D6
FB86
00E1
FD7A
01D9
0683
FB06
048E
0093
016A
FD33
03AE
FE78
FC79
FB02
FDB3
00E6
001F
FDA4
FE74
FEFB
00A7
0114
030E
FFDB
FCC8
0063
01A7
FDC4
FFBD
FB44
FB3E
0080
0526
FD55
0139
000E
FDD5
FFAE
012E
FA47
FD7E
FE47
F8C4
FD60
FF5A
F984
0614
FF05
FD97
029E
000F
0103
00E4
017B
02B1
FAB2
FF1E
065E
0534
FDB2
FD19
031F
F941
023F
FE8D
FEE0
FF69
FD3F
00C9
0098
0125
0348
FDBC
028C
0138
FB36
FC0C
FFE9
027A
FB37
0001
FEB3
FBE3
0419
0054
004F
0516
012A
FCAA
FECD
FF9E
04BD
008F
0594
00D8
FAFA
FEF3
019F
045B
FD45
01EE
01B8
FF1E
04A1
FC6E
FE9C
FCB6
02BD
05E0
FC2C
000C
0119
0405
FFAB
0052
FA88
02C1
FE27
02F9
FDAE
019F
FC89
FC2B
0098
01EC
FC31
0030
03BB
FDFF
FD90
01B4
FE0B
FEFA
0060
0455
00A0
0067
01B9
FF6B
0114
05C0
FC98
FDD2
FFF2
F74E
0249
FA46
091C
FF65
0564
0135
004D
FCC1
F85A
FEE3
F563
01FB
0097
FE0A
003B
FF5C
FFF4
00DF
0595
FDE6
0351
FAF3
FDFA
FE52
FD15
FDE5
05B7
0224
FC73
FC89
FF37
0185
FA66
FC98
008A
FD45
04FF
FEB2
FA0C
FFAD
040A
01C2
FF13
FA62
FF59
FBDD
FCBD
0141
0319
0088
02F6
FBAE
03B9
0194
FF3B
0339
F957
012A
FB40
FE2D
0277
0102
010F
01BE
03B6
FE01
02C1
FF58
00D2
0007
FCD5
03DF
0106
FC8D
FEDC
01E8
FE86
022A
FDC5
FEC2
014A
00CA
FE2B
049A
FEC2
F9DD
FE73
01A2
03B1
026C
FD54
013A
FE95
027C
FF9E
FC49
FF92
0316
0339
FF0D
01FD
FD75
02F9
03B7
0037
0008
01A2
FE1B
FC70
FFC3
FC86
FF1C
0264
02F5
FF17
FEFE
015B
FE2D
012F
0242
FFCD
0103
0063
FF80
02D2
02FC
FF21
FC10
0122
FEDD
FC4F
019B
FDC5
0117
FCCA
FDEC
0160
FC78
0243
0188
FD71
0361
00C7
FEC6
FD86
FFCA
0184
FF59
FEA5
006E
FE80
023A
0231
FF04
FEC3
017C
0154
0288
01EE
004D
0171
FE86
03B4
FF79
FFBB
0423
FFFE
0277
02FA
0700
FF04
02E0
F920
0001
FF78
02CC
FFAD
FE17
FEC6
007A
FE5A
FD95
FFB1
F7C7
0399
FFBD
FC92
0114
FFA7
0151
017C
023C
026F
FEA8
FEA2
0226
010E
031A
FD68
FC12
0200
FFD3
048D
FDF2
015E
01C5
FCCB
F7D4
F95D
FE75
005B
FAFA
FDE2
FD2F
019E
0306
F4C7
FDF2
0633
02B4
0427
03F9
045D
FAB4
FB1A
0168
0734
0263
0401
0454
004A
FE40
FE51
FE9C
0162
0241
FFBE
FEAB
034F
0026
FDD4
027E
FDBD
002A
0020
042F
FD4A
FFA3
0567
0A3C
FCBB
FFCF
FF02
FBC4
00DB
FE43
FE54
F5F2
FD7C
0420
FA55
0153
FEF7
0035
00B8
0338
0765
03D3
FA69
02C4
036A
FDC3
FE1B
F4A5
0B6D
FF73
FF27
FF8F
0550
FABD
FE76
FC4D
0283
FCA3
000E
0032
FD0C
FEDD
FEB3
06C9
FE7C
FF78
FD1C
FE2D
02D5
01CE
FDD6
0392
001F
FE5C
FD0F
FEB6
FFC5
004A
FDF7
0267
016F
0503
0190
FBE9
0059
03D5
FE2A
00CC
0296
FF99
00CC
0378
0216
FDBF
060F
0354
FC5A
01E1
FE87
024F
0279
FE38
0090
010B
09DE
0106
FEF1
0246
028F
F9EA
FFE1
FE06
FC92
01D1
023F
FE65
038E
026D
FECF
004D
FE49
FFDF
024E
01A1
FD68
FF19
0219
FAA2
02B6
FB97
FDA8
FE02
FF09
FEA9
064B
02D8
006F
FBA4
0023
FED8
FC15
020C
0052
004A
029C
035B
FF3B
FF89
0828
0013
FD7D
FEC1
FD46
02D8
0088
0603
FECF
0168
003B
FAEB
021F
001E
FC2F
FDD4
FEE6
04A3
00FB
06C1
0381
FA9C
0296
0113
0063
0228
0283
FFA6
F8C4
006F
FC63
FDF6
FD40
015E
0047
0029
FF56
0306
0287
004A
FC51
015A
FD2D
FFBE
FF2F
017A
FF18
FC8C
0057
00B4
0129
FC52
01E1
00FF
FEC4
0484
0162
FD64
FC93
FD3B
FF16
0159
FF3A
0214
FDBB
FDAA
048F
002A
01AF
FCA8
FF2C
050C
FE37
00FD
019D
06FD
03AF
FC5A
02E2
FD8D
FEDD
025B
FEBF
0159
013B
FB01
03C8
03A6
FCB1
00B5
015A
0363
0670
FDC3
FCF4
FEFA
FE33
03F0
03A2
03D5
03E0
FCA4
FCCA
055D
0241
F9D1
FC5A
FFC0
0306
FE66
00AB
FB8E
FC40
0130
FC9C
0074
03C6
0149
03E3
030F
01B6
FF78
FD8C
0670
FFFF
FECD
FDB1
00FB
FE24
F9CA
FEC9
0492
02CE
021E
FA44
FF1C
FDE7
008F
01B1
0071
FD58
FE38
0213
FFA2
0076
FE9E
0376
FE92
FD18
0584
FBF6
0021
0097
0151
0499
009B
03EC
FFCB
FD25
0161
FF62
FF58
0046
FD7A
FF2D
0585
FE9D
FFE8
0047
FE84
0116
011A
FA48
FF7C
02FC
FE60
FC6B
FE55
FEF5
021D
02CF
FFE4
F8EE
001F
FF40
FF8E
02EA
04A8
0151
FD88
058C
FDE7
F9B1
0117
00CF
FF7D
02F3
0068
0258
FD75
050F
02B7
FD7E
FE57
FB7D
035B
068D
0248
FA76
03B4
00C1
00C2
0084
FC56
FB28
FD93
FDB6
003A
02AF
0776
0082
FD61
0060
00B9
02EF
0734
FCD7
0056
FB97
FD23
FEF5
F918
FCCA
FFE9
0130
FD8A
FEDC
FF57
0517
0401
0373
FFFF
FAAD
007B
0A20
FFE2
009D
FF4E
038F
0416
0692
FF64
0414
0131
FF4D
041D
FAAA
00C2
FBD5
0555
FEB0
025D
FFF9
FC09
FE9F
FA9C
F6B5
FF6E
0358
FB66
FD81
FDE0
0113
FE03
0032
0262
04B4
FFC7
0136
0256
0575
0198
FFBD
FF7B
0032
0619
02F9
FE9A
FC8A
01E3
05AB
00E5
02CB
057E
FD89
0305
FF7E
016A
0040
01CC
024A
FD6C
FD6A
FE71
FF78
FEA8
FD83
0428
FCEF
05F7
FD63
0102
057E
05D6
02DE
0241
FCB4
0303
F641
FFFC
00B5
FAD0
FA06
0105
FFDB
FE68
0225
00AA
007B
FE33
FF9C
FE34
00FF
01B0
FF1A
0205
FE93
FEC8
FFC3
001F
0053
0028
009A
010A
014E
01BD
FCBD
0287
FF89
FFE0
FE22
017B
0007
0372
01FC
FD1B
F951
FCE3
0121
017A
00F3
FF7D
02AF
044E
FEF2
FF60
004F
01B2
FDFB
FFB9
FDE4
013B
02F4
0111
FF9D
030D
01D8
FFD5
FD67
057A
FD44
0247
FE90
01F0
FE06
0129
FD30
FE19
021A
009F
0025
FDF6
FF25
0027
FCF3
0129
FCEF
FF80
007A
022B
FEE4
FCC6
0395
FFD2
035B
FFAA
0411
FC7E
FE3E
0561
0008
083F
0017
FF65
FEAE
0477
0151
FC77
FF8C
001F
0271
0944
FBBA
FE0E
03CC
FFDC
FECA
FFDE
065B
02BB
01DC
0444
0192
FF9A
0262
0001
00F6
0014
0011
FD86
FEE9
0031
00C2
001B
0253
0023
0387
00AE
027B
FF0B
FC2E
0379
003D
01C4
FEA6
01A2
0065
031B
00C2
FE53
0945
0182
00D0
FE99
FCE0
FF40
0126
FEF7
FF5E
0143
01D7
018A
022D
01F5
05D3
0293
FF12
FDA4
FF99
02DB
FDCB
0542
00E9
FE6E
FFC5
FACD
013E
0492
0150
0333
FCA3
0851
FFAF
00C5
FDBB
FF29
0028
FEC1
00D4
006E
05D4
020B
FCFC
04FC
0243
F911
FE4E
FED4
007F
019D
0065
0014
FD63
FD5D
FDA5
01F3
02DF
0118
04DB
0191
FF51
0013
FEFD
FE8B
0056
0209
FFA1
0598
0010
0295
FCA4
01C3
014B
02A6
FB2F
FB30
FEE3
0313
0045
006E
00A3
01DF
005A
FFC6
00FB
FAC5
0550
00D8
FEF1
0215
01A3
FE8E
0091
FC22
FECC
0514
0FA0
0B29
FAB0
0488
003D
FA2B
FE2F
FE7D
FD47
0228
FEF1
FF1E
00C0
FEB5
00B1
F6DC
F89C
FD1A
FC11
FDCF
FFB6
FF8B
0613
F4B1
07F1
F782
FEEF
FEA4
0241
02D0
055E
0566
FE2F
FC69
FF8D
047B
FE6D
01C1
062A
01DF
08D4
05A2
FC20
FDC8
0804
022A
0180
FE99
F7D7
FFF9
F96C
0AD3
00CC
FA58
0011
F756
015C
0465
FC44
FB0B
FF4E
0260
FF83
0595
006D
FBAC
07A9
0A65
FD9D
0587
03B4
FDBA
F566
FFD9
FF9F
0101
FD9E
0041
004B
FF09
0004
0035
0020
0290
014F
FEFF
0107
FDE4
0101
FEBA
0009
FF84
00AB
FBFB
FF7A
01CD
FF89
FFC6
0266
FF4E
FF94
008A
0258
02DE
FD3E
01FE
FDAD
01C4
0039
01FA
FEB5
FDC6
FD69
0240
FDEA
FEFE
0171
023D
00EA
00FB
FE31
FFE7
FE44
03A8
FF3F
FEC2
00DC
02D6
00EC
FE85
FBB3
FFAB
005D
FE04
0153
FF78
FE27
006B
01B2
FCE0
01B2
FF90
FD70
FE57
FDFB
00C7
02E8
01DE
FDE7
FEAA
00E2
00D5
024B
FDFB
FEB8
01D8
FB81
024A
01FB
FD84
0119
028E
FC44
FF7B
FE25
00C1
FFA3
0078
FF15
0116
00B2
01A5
FE42
019D
FA6A
020E
FEA9
FE9E
0137
0054
FE8D
00DF
FF77
0012
016D
FE2E
FF75
FFFC
00AB
FDB4
023D
030A
FD64
0002
0128
009B
01CE
FD45
01EC
FFD4
02AB
0138
FE73
0205
FF0F
FF4F
00BA
FFE1
FD86
FFBB
0053
FD2E
02F4
019A
FEA3
017D
0136
02FE
00E5
FD56
FDE9
FD63
0327
FE4F
FFBF
0157
FF52
0179
0059
FC9C
FF06
021B
0396
FDD9
FDFC
028D
FCAB
0236
FEBD
045F
FF7F
03A4
FC3F
0154
02DB
01EA
00E8
FEFA
0164
0158
0019
FE02
0071
FDC3
0147
FD8B
028D
014F
012B
0065
FE9B
0306
01F9
02EE
0294
025D
FF1D
0115
028C
FE65
FF09
000D
024D
FEF7
FD6A
FBAD
FF0F
FCF2
FED2
FEA7
0080
FF02
03A4
03FC
FFFD
0012
0110
0277
009D
FE65
03D1
FDE6
00D6
029C
FFFA
FECD
0031
FC18
03C8
FE19
003C
FF58
0001
FF42
022A
FF84
0054
FBCE
025F
FBC7
FD7B
00B1
00ED
FC99
FDCB
FD76
00AB
0202
FD7E
03CB
FF13
036A
FE4F
FF53
FFF6
FE89
FFE1
0238
00BF
029E
FEA5
021E
FF59
FDD8
0160
0110
01B1
000A
FFDA
FD8A
0090
0356
FEE4
FDE3
FDC2
002E
0246
0014
0185
0023
FF85
05C4
FCE6
026F
FD86
004E
FF2C
FE9E
FBD3
01ED
00BF
026B
FCE6
FF09
FEEA
0046
FC87
FA05
FC68
FF9E
FC07
0008
FF06
020A
07F4
00F4
019D
FFD3
01AC
02EA
0212
FDF8
014E
FED6
FCED
01B4
FDE3
031D
01AF
FFC3
0243
012B
FF23
02B1
FEE1
FD08
FFA1
0341
02BB
FD75
FB2E
FDB3
0378
0177
FF8E
FF1A
0171
FFD5
00DF
02DD
01D4
FA71
FE97
007A
01BA
0185
003C
FE08
FF15
000D
020D
FF66
FDD1
02BA
0073
FF9A
FCB0
0244
FBF9
0027
0002
FE7A
FFA5
02E7
013D
FCA0
00A0
FE90
FC1D
FEC5
0100
FD21
00C3
0217
FEC0
FD8C
02C6
0023
FEAD
FE0D
0627
FFB7
FD16
04E3
FEE6
02F7
04AC
FDF7
FE25
03E5
FFFB
FCC2
FF98
FFC9
FEF3
FB8B
FF15
FE45
0416
0183
FE19
FE3B
03B9
00D8
FFD6
FDE5
01D6
00D6
0302
FCCD
FDB4
FE33
0403
FB39
FCFF
FF32
FE17
FB8C
0045
04B4
0126
FC16
FCE1
008F
0286
019A
0409
054F
FC1A
0361
FAC5
FF98
0047
01B4
FBA0
0385
FEEA
02DE
FE6D
FE34
0145
FBAC
0453
FFA2
012C
0362
0014
003D
FB67
0316
FF6F
FACC
017E
021F
0259
002E
FD6A
FF64
FBE9
FCBC
06F1
037A
FF40
0148
0425
F984
0267
FCBC
01C2
04AF
F8C0
0424
0121
03E8
FFF7
0312
FD3B
00F8
FF92
F781
FF3E
FF8C
02F2
FE4F
00A8
F923
FBD6
0042
0235
03E4
05C2
FF83
01AA
04E6
03FE
F9D0
FFAF
FFE7
0332
FF86
025E
FF0A
FF7F
FC67
FCB3
059C
FE12
FE70
FE07
FE86
FC82
04B4
002D
0155
FFF6
FDBC
0443
0180
00F6
FA74
019A
FF99
FE23
0238
FF54
0362
FF63
FCE7
02A5
FFA5
032A
FE5B
FD9F
013B
FC4B
FB26
FEFE
FB1A
0112
05BF
FFA6
FB9B
01DE
004A
F8D7
0401
FC9D
0012
0065
FC89
FE3E
FC87
0434
FE09
FFF0
FD59
FCB6
0232
00BE
FC10
0202
02C9
0279
FD87
FF85
01C4
FCD0
0306
020B
027E
0123
0663
FCAE
00C2
04AC
FF77
FD7A
FB0D
018B
084E
FFCA
0182
FE4E
F8C0
0151
FF58
001D
FE6E
FFC2
FDF1
FEFE
0381
01D0
0317
0342
0287
FF06
FCE2
04FD
FE30
FE59
FCD9
FF94
FD54
FEF1
F79A
F7AF
0207
FDDD
02DD
01F7
0176
FD14
FEE2
00BF
0117
003D
017F
00AA
FDD8
009A
01C4
FE05
FEAA
FE7E
FF02
00E8
00B9
0446
0058
0033
FEE5
005E
FF51
02DE
0072
004F
FEE0
007F
00D9
FE02
015B
FDA2
FF8F
03E0
FC88
0058
00A6
FED4
FF0B
FE05
00D6
FFEE
FFF7
FE63
0244
FF69
0060
026B
0184
FB11
01CB
0288
FD94
00D1
0098
FF0E
01A7
02DC
008F
03EB
FBB3
FF3C
FC6C
02FB
FE26
FE27
0389
030F
0300
00E6
00E2
0093
FF15
FF3A
0356
FDFA
00E4
FFEA
0094
FEEA
0046
FF3A
FCEE
0285
0343
00CA
FC82
FB52
FE6A
F9EE
0153
0025
002C
FE42
0034
02FD
FD6E
FE79
00C8
007A
FF0C
FD56
FE8F
FF3E
0035
FDB0
0083
FD19
01F7
0096
FF3D
00E1
FDE2
00CA
FE16
FF0C
FFB1
FFFA
0068
FFAD
FEA6
025D
00E5
0066
0169
0241
00C6
FE27
FE26
0207
FD27
0024
02D0
FF7B
00EC
FEB9
01B1
FFE2
0189
0119
FFC0
FF43
0104
007A
00D5
0200
00BB
FE62
0222
FFA0
FD97
FF3A
FF49
0095
FE67
FE2C
FD49
FEFA
01D6
FF99
FF9E
009D
02B2
02EE
FEF2
0132
FFA8
FED1
FBF7
FF69
FF79
0121
01A7
FE63
FEF8
00C0
01A7
01A1
017A
FFC9
0040
01A8
FF47
FFF9
FBED
00C1
0022
02B4
0342
013C
02F8
FCF2
0271
0095
02CC
01EF
0322
0273
FC04
02AD
016D
FFAC
F867
00A0
FFD3
FABF
FFD9
0217
FFC8
0153
FF4F
FDC4
0052
FF67
02A7
03AF
017B
FB29
FFBF
FBD5
03AC
FCD0
033F
FDB3
0302
FFAF
017A
FB61
FEEB
0060
04AF
0038
0135
017A
FE28
0146
FB79
FC69
FECB
FE73
FF1D
FE74
0107
006A
06AF
FF5B
FF6C
0190
01CE
FF05
FFD4
FD79
0720
00CB
FE7B
03CE
FEBE
00CD
0233
FCE3
FFFD
0084
FD79
0183
01CF
FF83
0489
05A5
FB18
0114
FF66
02FF
01C0
FC91
FFB8
01BD
003F
0217
017B
00F4
00F8
0030
0315
00BE
FC3D
FAAF
02A2
0321
FF36
0104
005A
FEA5
013D
FC41
FFCE
0246
0016
FCF2
FD7A
FF42
0562
0039
0212
006A
FFF2
03A4
021A
0116
F5DD
04E9
FF3B
F851
05C7
FF15
05EE
0262
FB93
039D
028C
02D7
FBAA
FCA8
FCEA
F840
F714
F894
FB5B
011F
03F2
FFDE
FB7B
0622
0008
F850
0557
0342
FF14
075C
F9F9
0032
FB68
04F9
00AC
FFD5
0063
FC25
FE93
03F9
FBC9
079C
021C
FFCC
FFFF
01AB
004B
FBF9
0547
009D
0511
FB4E
02C0
FD2B
0086
03ED
FEBB
FC6B
FA20
01AD
0F2B
FD4A
0045
FFAD
FE69
FCBA
FDFD
0580
FC87
0086
FECD
FEB1
038A
01B5
050A
0536
038F
FF21
FA5D
0897
FB3E
0158
FCC3
04A1
FCFD
0053
F54C
F9CD
01FE
0253
FF66
02A0
022C
008E
018B
025D
016A
008F
FCEE
FE77
0058
0073
01F9
0171
FFD3
00A6
00E3
FDC7
FE07
0369
FFBE
FF82
FFDB
0255
01A0
FE18
FEBE
001C
FE34
0256
00D3
FF37
016C
FFA7
FEDD
02AD
00C8
FE17
030D
FE24
00B0
FE8D
03DA
FBDD
FDB8
FDF6
00D9
FF25
025C
0011
0154
FCD6
009D
0078
FFAF
FFDF
01EC
FFAF
FEAC
00EF
0078
0369
0206
FF33
FED6
FE76
FF65
01D8
0442
002E
0043
006D
FD8F
FED2
FD37
FC8D
02F2
FF90
FE74
FF1F
00FB
00DC
FD60
FE88
FD9E
FE6C
021C
FFC4
FF2F
FFF1
FFE1
FDF3
00BF
FF9F
008A
FC43
FEC8
0030
FC60
0273
FF2C
005A
003D
FF3B
003B
FEDF
FEDE
FFA0
0012
FE8D
FED3
01C9
FF5F
0140
FE7D
02D4
0127
FF97
FE55
0036
FEB1
FF31
FE52
0081
FEB2
FF04
FEB2
01B4
01FE
0163
FE60
0134
FE2E
FF4C
01D5
01EC
0083
0142
025D
FF87
01C9
005B
00D8
FF48
FEEF
FF38
0120
FFDA
FE2D
FFB7
00BE
FDA8
00E8
FE76
FF7D
004E
0070
0101
FE8A
011C
FFFC
FD0C
0230
0124
015F
012A
0037
0242
FE67
01B1
FFF7
0000
FE1F
FEDB
FE15
FEA4
0134
01D3
00BD
FECB
0234
0042
FEFB
FEDD
FEAC
01E3
FF5F
FEED
00A2
0039
FFC4
0066
FF4C
FE31
0078
00BE
FD03
FFCC
FF5F
01BE
FBD7
FCF7
FA98
FFD4
039B
03BD
00A6
04BD
FCC5
004C
0087
FEB2
FFCD
FC7B
01FF
FC73
FD93
063F
012C
FDA8
02D3
03BC
0496
00E2
00F7
02EA
FF86
FE9E
0251
FBE8
FA2E
011D
0026
FA17
FDB6
0248
FDEE
00C7
FADE
05CE
00D8
FFBA
FBDC
005C
0309
FFAA
034F
00C4
FCB4
FDA5
0066
01A0
03C2
FF92
00F6
0120
0857
0824
F9A3
FE11
FE7A
07FF
FD8D
FC98
FC9C
0619
FD72
003D
0315
07C1
FF27
FFE6
FEF1
0054
FF70
02C5
FDD3
0024
FBAA
00E0
0138
06E5
FAE7
01ED
FEE3
FEF1
FE6A
FA0A
04E6
FE64
FFDB
027A
043B
FF10
042B
005C
FDAA
02F0
FBF9
FFCF
FA2A
0071
FFAE
015E
016F
FF9C
FE01
FFCD
FBE9
0282
FF83
012D
FA05
00A3
FD95
FD35
FC27
F937
FD8E
FFBB
0103
F9D7
05F8
FFE6
048A
02A8
01AA
0057
00D7
0088
FE6C
FAF2
036D
00D9
FCDB
FF14
FB9C
F7AE
FD07
F914
FCA9
FF43
00CC
058E
FB8B
05A1
FD79
FE40
019F
FFA8
FE3B
FED7
02CB
0272
F86E
03EE
0591
035D
FF11
05B9
FE56
0583
011D
00BB
F783
FBD6
0914
FC7B
FF1A
FFC8
FCD7
FDEF
02A7
FBC9
0062
03D4
032C
F928
FE7A
FF73
FBFB
0100
0525
0453
FFCB
F865
FF1D
0941
05DE
FC34
01B0
F90F
003B
FAF4
FD6B
00D5
0408
FF64
FC68
FFFE
FEA5
0243
0222
FF60
018E
FE6D
FB74
FFE4
0851
FE94
FE26
FE16
02C0
FF00
FDC6
045D
FC01
FFED
FD9A
0057
FD2E
FECD
FB8E
F946
FEAC
05CF
FD3A
FD60
0244
FF8F
015C
FA90
FBF0
017A
006F
0109
01E7
FAED
03AE
FC14
FE17
FEEC
0096
F9F3
0152
02F7
FE04
01B4
0040
0279
05E4
FF0D
0250
0236
FDE7
0888
032A
03D2
003D
0189
FDF2
02E0
FAB1
FCF3
FE6A
FCA3
FFE6
FF3D
012D
FDF3
050B
FA80
019A
FAFF
00B4
032F
FFB7
FCAF
FC7A
01B7
FC2E
031B
FD7E
FC70
FBDC
010B
0254
0355
FEC1
FF21
FCBA
08D8
025B
004B
FAF6
FC86
037B
009D
02FC
03D5
006E
FE82
02C8
03CE
00EC
FD8D
FC8A
FFAD
FB8D
0265
0164
FE38
FC41
FC44
014D
FD30
01D6
FEC6
FCDD
FFAF
0010
025C
FE6D
00D2
FD5B
0043
0172
FD6A
FC99
0502
013E
FE5C
00A2
00CB
FC01
00CD
0222
0177
01FC
03E2
FFCE
FE1D
FDD8
0095
FF06
00F0
0049
0075
FF3E
0750
FACC
0179
FE97
FF2B
000D
FE8E
FEF3
FE36
01A7
02B3
FF35
FBE6
FE1B
0072
00B2
00B5
FFCC
FC3E
FC7A
0372
02AE
FF5A
FC91
0174
01B0
00FE
01C3
FF0D
FC3E
FE4F
FFBD
FB62
0082
0145
FF62
0243
0929
FF4B
FC67
02B8
FE3F
F9B9
FCF0
0118
FE27
03F2
00C6
0144
0211
FFDB
0012
02EE
FDBF
FF9F
FDF4
FF24
FEED
FEF9
002F
0038
FD7B
0024
00BA
FF47
FE07
FB78
0240
FBA1
0022
00CE
016E
0037
0033
FEBF
0018
0294
FF1C
004D
FB44
00F4
FE46
FE8C
FCFC
00E0
FCD4
012B
0330
0058
015B
FF95
0132
FE40
00BE
FED1
FF3F
FF92
0242
FFF4
FFF9
0022
04CC
FE59
013C
FE47
FF69
0314
0077
FC6F
00A6
FB9A
0510
0546
FDEA
FECA
FCC1
F9B5
FDFD
FBAC
FB5F
021D
040F
0083
FCE7
FD0F
FFE3
0090
FEDA
001F
FF8C
FD9A
FD69
FC0A
FF0C
FD3D
FE43
029D
019B
01B1
00CC
018A
FDC5
FD37
009A
FE07
0336
FDFB
02AF
04F1
FAD7
0233
0241
00D9
0231
020C
0135
FF02
0180
0370
FCB6
042F
FFC8
0094
01B8
0194
0104
FD51
02DE
0464
0205
02A1
FF1D
0112
0049
FDC8
03CA
FF38
FDCA
FF43
FE50
016D
0027
052A
044A
0093
0114
FE81
FFE5
FF40
FC17
03E2
0517
FB74
00BA
FECE
0281
FE2C
FD80
FCDC
FCC0
00D5
01F3
0179
FF58
FD30
0128
FE5E
FB8B
FECE
0052
0050
FE17
0003
FF50
FFB2
006E
0224
FFD0
FF1C
01DF
FC15
01B1
FC51
033A
04A0
0177
FC44
0136
0560
FFF3
FDE2
0057
FE48
0061
FD29
0191
044E
016F
FE37
FFA4
FF4E
FCBA
027A
FFC9
055A
FEC9
0121
0146
FF51
03CF
FD75
01D2
00FA
FF45
FCC9
026A
0167
FDF8
FC39
FD90
04D4
019E
FB67
FFD7
01DD
FE37
019B
0174
02F2
0001
0082
0197
FE6E
01C2
000E
0051
FE66
FF81
FD92
00A9
02BB
02D6
0087
001F
FF5A
0187
0165
FEAE
0115
FAED
001C
0020
FF2D
FEB5
FCE9
031A
000E
FDFA
035A
0062
FFC9
010D
FB48
FDA1
0226
FF0B
0119
FFC3
FD64
FEB2
FDDA
0075
0277
FF9E
FAFA
FD6F
FDAE
FF93
0189
018C
FF52
00B6
FF10
0054
FE80
FD40
FC45
006C
0237
FFA0
FFAD
FFF9
FD97
01E1
FE7C
00F6
00D2
FECC
0000
FDE1
0056
0016
FD14
00E1
FE25
0210
004D
003C
0152
0095
FD5E
FF23
0188
FF43
00F5
FF4D
FF7F
01F7
0059
0279
FF5D
FD5E
0285
FF47
00D7
0325
01D3
FCC9
0247
FF0D
0191
FDD1
00A4
01AF
FEDB
FF3D
FDC4
FD62
FE20
02E0
FDBD
0054
FFE8
FBEC
01A4
0033
FFF0
FDD1
FECF
004C
FEB1
0066
0085
FDB6
FE50
0224
0079
FF6D
00D7
0257
FD67
02B1
01EC
014B
FF75
FC75
038A
FF91
00E4
FFF4
015A
FFE3
0128
018A
01DA
FDF8
022A
FE53
FF90
00D8
00DF
FEA2
03C1
FF81
FD63
01AB
019D
021F
006A
FF3F
FECF
FFE7
012E
FDF0
0183
01F1
FEEF
FBD6
00FA
0172
02DE
03CD
017B
0229
FFA1
0026
00DC
0096
FEFD
00AA
0086
03B2
009D
FF7A
FF15
0174
0191
01EF
FE51
0087
00F0
004F
022D
015B
FD80
FCDE
0423
0017
FD14
02D3
FE92
FFAD
FED2
05F7
04FA
FF26
0088
FD68
FFB6
FEF9
FE78
00B4
FE0F
FF67
0426
FE2F
FFDA
FC82
FB87
FFC1
FE1A
FEB2
FC23
00FB
FF14
0167
FEFC
0214
000D
FF01
0138
FD14
016F
0235
FC30
FEB8
035B
FF85
FFB2
03A6
02ED
FEB6
FD0B
FEEB
018E
FDAD
FF36
FE32
FE8B
FE45
FF3D
026C
00A5
FF20
FF43
0164
0429
FD72
FF5A
FF6D
0751
01E0
00FC
0295
FDFA
004E
FBD5
0307
00BA
06DF
FE2A
02B6
FFFC
FF6F
FF70
0330
FCED
FD8D
FFD7
FEFF
006E
FD96
0018
FEED
01DC
00E2
029E
0099
006B
01D8
FD81
FD50
FD94
FE4E
FE9D
00EF
000C
0213
FF6F
0000
FEEA
01B1
FFCD
FF2A
01C1
0092
0193
FE64
FEF3
00C2
FF5B
FE23
FF63
012B
003D
FD55
FF44
FEE7
FE0C
01B9
FD35
FDBF
0065
FFAC
00C7
FD50
012A
FF11
0185
00DD
010C
FEBA
FFFC
FED7
FD97
0011
FE31
034B
02BD
FE98
014B
0200
00A8
0191
FDFD
FED3
00FD
0234
000A
FF25
0000
00D2
FEBF
017D
0047
FC02
0047
FFE1
FCF0
FEBD
FEC9
FE66
0095
FF22
FDB7
022B
FF5C
FD20
0013
01D5
FF51
00D0
009F
020D
FBC1
0057
01A7
FE91
013C
FF00
0007
FA6B
FD58
F9A4
03BE
F9EE
016E
000C
0157
FE05
FEB7
012A
FF61
FE53
0279
05CB
FF01
01DA
03CD
FEA9
FEA2
01B7
05E1
0293
0128
FCFC
011F
FDB9
0022
0904
FA8B
FCFD
FDBD
FE90
FC82
0175
0070
FA17
01E4
088F
FF6E
FFAB
0141
FC1D
0067
FF3E
FE96
04EA
0258
FD33
FD87
FEE0
FEA9
0323
0162
FD9E
FCBE
03A8
023C
00A2
FC44
FD1A
FB97
FC9F
02E5
027C
FF11
FE30
FFC5
FFA5
FEAF
FCB5
FC60
FDEF
FFB1
FC2C
FFDA
FFE7
FE82
FE91
FE03
FF42
029A
023C
0386
FF41
034E
011E
F91C
FD5F
006C
FD89
FD4E
FFA9
0328
FE4D
0380
FE40
01BB
074B
FE1A
FBD5
FD0D
01D8
02B6
0187
FCCA
00BF
FFFA
0005
031B
FEE2
0412
FDDB
FF98
0301
FC98
FD65
FF8C
FF37
035C
0441
0614
07BC
FC15
0487
002B
FDEA
FFF7
FF22
FDB9
015C
FC7B
F789
02D3
FE97
0119
FB0E
F91F
FB88
FDDF
00DC
FD60
FF27
0037
FBE7
05A2
F8EE
FCDA
0285
FF6F
00F6
05A9
03F8
021F
FE2A
02A1
0163
FDA8
0072
0403
FDCE
0A1F
0049
FD53
F8F7
0212
01B7
0069
00AB
F826
FF41
0038
09CA
F98C
FD95
03AB
FD1A
FE89
00EC
FAAC
004E
FBB4
0302
0088
0378
FCB2
F84E
0607
058D
FDEE
085D
FB65
FFAF
FD4E
FCEE
00BA
FEB0
0061
FEB5
00C3
FD8C
00A3
0176
0295
00C3
02AB
009D
00EC
0085
0587
03C8
0099
FC0F
FB52
FB4E
0243
00D5
0001
02EE
022B
FD15
FCF6
02E6
028D
FFF3
FBC5
03C5
027E
FDF4
023C
FBCA
FCDE
02CD
FD99
0273
FBDB
F6CC
F8A4
02A3
FCC4
03A1
FEEF
02B0
034F
FD72
01AB
FF4C
02FE
FE3C
003A
015E
FF36
FD70
0070
FEC1
FFA1
FCC9
FC14
076C
FEDB
FFFD
052B
00D0
0498
FD81
FE4A
FC41
FD92
02A1
0197
00F9
00CD
001B
04B3
FE04
F902
FF4E
FDA6
05D5
FF3A
FEA7
FE9D
00C9
FDF2
014B
0355
FF74
05CD
FD58
0091
F852
FBF2
FC99
0455
0104
00A1
FE59
FCD7
025B
FF45
014A
FBEE
0151
04CD
0548
FB41
F95E
0398
FC2F
03A9
0007
0187
FDD3
FFF9
0002
FF3F
FFFC
FD98
FD31
018E
0035
FCEB
004F
FE59
03C8
F968
FD7E
FE2B
FC2F
073D
02C1
FC0D
02D2
0233
FEA7
F9BD
FD0F
0079
FFC2
FED2
FDA6
FDBD
FE8C
FFB5
03FA
FBB5
FDF3
FFDC
0593
0560
FB39
00F8
0145
033C
0065
FE02
0293
FBF4
0515
FFAC
04E9
FE80
023C
FDBF
FDDC
0137
0239
FED7
FD77
FF23
03CD
0175
010E
FE63
F669
02FC
06FE
FA04
FC36
FE41
FFCA
FF57
0035
02A9
FD61
00EB
000D
00DA
FE04
009C
FC15
0213
FCE1
04D6
FE80
056C
F829
F95A
F7D3
F3C5
FFBD
FFD7
022E
FD89
013B
01A5
FEB6
FDE7
FEB8
026E
FC17
FE2C
04FD
002E
FD28
0118
03C0
FDBE
FFF8
0342
FFEE
FD33
013C
0156
FF75
FEBD
FF1A
FE5F
0132
00AA
0193
FD28
FFCE
FCB0
00FB
FF55
FB1B
00F7
FAF1
FEF4
FDF4
0109
011B
FBA9
028E
FFF6
01D2
FECA
FF6E
FEC9
02A3
FEB5
0143
0077
FE29
015F
FFB2
010D
FFBB
02D4
FF10
0336
FF19
FD73
FEDC
0064
FFD6
01C9
02FE
0065
FF21
00A7
FE8F
0036
FE80
0024
FFFB
FD36
010E
FE1B
0099
FE57
FEF8
0008
0025
FE24
0102
FE5E
FEB2
FE9B
FE22
FFDC
016B
FE75
0095
FB4B
0464
009A
FDD0
02B6
0023
0144
01D4
00D6
FEED
0297
FD8B
FEC8
0088
011C
FE61
FFCC
033D
0069
01D2
0295
0347
0367
FFC9
018E
0146
033E
FF0D
FEEE
FD9F
FDA5
008C
FDFC
017C
FFA0
0149
02D0
FEA4
FF42
01D7
FF8C
01D6
0106
FFDF
01B9
FD84
FEE5
FD76
01EC
FD22
FEAA
FD4E
FFAF
FFDA
013D
FFB5
0140
016B
003F
FFF8
FD81
0075
0182
007F
0221
FF46
011C
FF7D
FF5C
02AA
0441
FFFB
FFB8
FCD8
FD92
0110
FEC8
FF00
0357
FDD6
FFB4
FD80
006B
FE61
002E
FFCC
00E1
0049
0046
033F
0384
004C
FE2D
014F
0130
0016
02B9
FF08
FCD0
010B
FCED
FD6A
FD20
FE8E
00B9
FDD9
00DF
FF78
008A
FF36
00BA
FF51
013A
01AB
0017
FEF5
FFC8
FE8D
01CB
01AA
021E
FE5E
FE9A
FDA1
0225
0027
0190
FFB4
FDEA
0015
FEC6
018D
00D0
FD92
02D5
FEAD
FF29
FECF
0279
FDFD
FEDD
FD41
FFAA
00E6
FD81
02B9
FEB0
FF25
FFF7
FCC0
0031
FF27
04F8
FF70
FDCA
0361
0140
011F
FF6D
FE7B
FF0B
0602
FF61
0204
027D
FE97
02C4
0138
FEDB
00B3
0235
FE65
003D
0139
FFD0
0185
FECC
00B5
FD48
FEBA
002D
FE95
0119
FEC0
FE57
FC9D
FEE1
01EF
FCF9
FF08
0082
FF87
FD7E
FF26
FE3F
01C1
FF6D
FD59
00C2
02CE
FF23
FBE4
FC04
012A
00BA
00FF
018E
FEEE
FE0D
0045
FE7D
0034
FE40
FE8F
004E
01D8
0056
00F0
FDEB
FE49
003B
00BC
0286
00FA
0024
FF45
FF7B
FDAB
FFD3
004D
0121
013B
FFEE
0353
FED1
FEBF
017D
0388
022F
01F8
02ED
00B4
FF5E
FD45
006A
020E
00E8
FE61
FD8A
0318
0093
FF36
0111
006A
00CB
014A
FDC0
FF9C
00B6
0183
FF78
FBE3
00D5
FD32
FCDB
FF12
FE49
FC69
02DA
02A9
FE9D
FEAC
FFBF
033D
018F
FD2D
01F5
FE9B
FE43
06A9
FDD8
023A
0291
FDC9
FD53
00DA
FE2E
FD96
FF3D
FEE2
FFF6
FC56
FECE
FF34
0102
0166
FD09
00BA
01EE
02F1
01EE
0160
024F
00D1
0342
010F
0188
010C
0080
0119
FF0D
FEDC
015A
FDD7
0010
0055
FD2E
0228
FF8C
FCA4
005D
00B6
01DA
FDD4
01F2
FFB0
FD2F
FFC8
03C7
04A9
0027
FCB5
FB68
FCD8
FFF9
FEA0
FDA2
FD47
FC94
FEBD
FF7B
FF27
FF64
00B1
FC3C
FFEF
FDBA
00ED
FCAC
00AE
FDD1
00DB
008E
02A8
FFD4
01CA
FC9F
FDE6
FDFF
FCB8
FF9A
00D8
FFE8
FF1C
0165
FDA2
010A
FEE4
FE1B
FB06
FECD
FF81
00BF
034A
FFE0
0049
FEAE
00CA
02F1
FC43
FCEC
0170
00B3
FF44
FD8B
010C
001A
FFE0
FE39
FD94
FD8C
0205
FF3F
FE62
FE43
01AB
0124
FDAB
FDE4
020B
FB64
007C
FF32
FF9D
002D
025E
01BD
009D
FF35
0092
0111
0070
FFA8
003A
00E1
FED7
0044
017F
0060
FDB7
02A5
FFF1
FE31
FFB0
003E
0036
00E0
FFC4
0108
FE5F
FE66
0224
01E3
FF62
FE96
FEE7
0108
0244
FE62
0210
FDF3
0234
02CC
FF35
028B
FE41
027F
01D0
00B3
01E1
FDA0
0290
0022
FE5E
FF1F
FEA5
0101
011C
FF69
0277
FEF7
01BD
FF1A
FDB7
FEBB
FDE2
FF35
0218
FF3E
02F2
0129
FE74
0168
00D1
00A4
02DD
017B
007F
FEC9
FD59
FE7C
FE0F
FEDF
0084
0109
FF8F
0056
FEF6
FE15
0091
01C1
0119
FF3C
FF90
FEBF
FD56
022B
00EC
00F0
020D
0123
FE8D
000D
00B6
FF6B
00CF
0042
FF21
FEF8
01E6
00AA
039D
06C5
0455
FD75
013D
05BF
0079
035D
0064
0098
0049
02A2
050B
FE81
00E4
011C
02E1
00BD
FCA0
01A2
FFFF
02B4
08B0
0024
F9A0
FCDE
009D
FD75
0321
FFB4
0063
0154
00ED
01A0
FCCF
0130
FFB6
0103
FE0B
021D
018A
FCCC
FA99
0076
FD07
03A6
0187
043B
0133
01D4
FB41
0464
0216
FE9D
000E
F9CE
FADD
0421
0217
FF0B
0159
0203
0260
FF8E
0128
FF84
FAAF
FF18
0463
FBCF
0345
FAF6
00B5
06D4
FF53
0791
01E8
01B6
0283
FED7
FC43
0309
03C2
FFE7
F9B2
FE1F
01CF
065B
FEDE
F7D3
F684
00ED
0178
02DA
F327
FAF0
0528
03D5
02BC
FE0B
FAB7
025C
F687
02AE
FCFE
0026
FDB2
FE47
012C
057F
0526
FB37
F5C5
0004
0C4E
03A3
01AE
F67B
0335
FE3B
FC70
F9F7
F9C9
034E
FCD0
F76B
06AD
011A
F5A2
FAF0
F946
031E
FEA8
0537
FC43
FD1B
FDC1
1308
F9F1
01CD
FF76
021E
0340
0814
003F
01DE
00B5
0335
F71F
00AD
0BE9
FF2D
024A
0975
0534
FB56
0A68
FA47
FBC5
001C
0C4C
FBF2
F6B3
01A9
09A1
FA2D
0110
FC6B
F2C0
0B64
FE1F
F531
FFC2
FBD6
F883
039C
0BF7
0787
FF07
FC96
0893
05D8
002E
F9E4
FA45
FF10
FEBF
FDEB
FC41
0253
0663
FFE1
F930
FC06
FD4A
01EB
FF1B
0200
011A
0000
FF71
FFC0
00BD
01B9
FC51
000C
FF11
0255
000D
FD3B
01FF
FD71
FE49
0292
FF22
FFDC
FEDE
016B
FEDB
FF34
FEA6
00DD
FE4F
FFC8
0110
0045
FECB
FD7D
0030
0137
01C0
00E9
FE10
FFCC
0224
00D5
0064
FEE4
0267
FF02
00A1
FEA1
005F
0161
FE55
FD8D
00D8
0031
FE21
FF4F
FEDC
FE75
009D
01FA
FF72
0081
0178
001C
FBCC
018B
0025
01B5
03A7
00EB
0023
009D
FCDE
02D6
0082
FFA8
FEF5
0135
FEDC
FE61
FE63
FF95
FE1E
FF38
0068
0003
FF93
FD34
FD95
021B
FFB1
FF3C
005D
0059
FFC5
FB8C
00F0
FF52
FF01
002E
0065
0118
FF7B
FE4B
FEA9
023A
0117
FED7
01B8
FE52
FF6F
FF65
FF8D
01F4
FE30
0116
0035
FFF5
FF1D
00A2
00D1
FE4D
006B
FE70
FFD5
FD99
0128
FEEB
02AF
00E6
FFAF
0033
0082
FF1C
011A
0140
0116
FE42
0124
FF0C
FE28
0241
0043
FEF8
012E
FE1A
003C
0165
00BF
FF64
000E
FDA1
0170
FF5B
022C
FF63
FF8A
01F9
0091
FDD5
FEC6
0219
0232
00CF
0258
FF7D
FE7A
FFB7
015B
FDCF
FD84
FEDE
0146
007B
FDE7
011A
FE8D
FFCA
0372
FEB0
025E
03B0
FDF9
011D
FE9C
012E
020C
019E
002F
FEF3
FFBA
019C
FE49
FE0D
02D2
FFC3
0089
001C
FF68
FF19
F8FE
F774
0362
030A
F7AA
FC33
FF64
03D0
01A6
06C3
0028
046C
FB45
015D
0351
000D
FE74
01E1
0679
0343
FB96
0B6D
0357
FFB9
FC5F
0089
FC95
0632
FFEE
FED5
01B9
012C
FCD2
FBD5
0350
FEA1
FE2F
FF93
FB40
02B1
0150
0228
FA44
0217
0221
00EF
00DB
FE92
FE2D
F86F
FC16
0020
0095
01A5
FCB7
04FD
FD6C
013E
001F
FEE2
FFD9
FCEC
022D
03E0
FB21
00A7
FE5E
FFD0
FAE5
FD00
00F4
FF8B
FD9C
FC52
0414
004D
FAB0
FB70
0311
FE64
FF1D
FC85
01CE
045A
02AD
FE6D
FC64
FCFD
01B5
01DD
0684
00B5
FEDC
00A1
FD2D
0190
011F
0114
05BC
F973
0036
FD88
00F8
028A
0400
012C
FCA5
002D
0161
0434
0029
FF8D
00EE
0183
FE98
FEDE
FE59
FD63
FC20
0206
0084
0265
052B
FEB6
04CA
004B
FF4B
FFB5
FA65
00B6
FFF1
FFCB
01FD
00E5
FC49
FC45
FD2E
FD4F
00EE
FCEE
0094
FD68
008D
0248
FAFF
03E5
F83C
FE83
00A4
04A0
0120
0322
FF3F
027A
FE28
FC47
0671
FC3D
00D3
03F6
01B3
00FB
08F3
F905
F95C
079A
0549
FD4C
FEB6
FBF0
003B
FEA1
0242
02E8
FA45
0145
FC5C
FB28
0125
0057
FFE6
0186
FFB3
FF89
FE4D
FD59
043C
FD4E
08DF
0077
FF62
038E
FEFF
FDA7
FE3D
0347
0531
009F
FE5F
F662
01A5
0105
038A
02B0
00A2
0653
FFC7
003E
FD26
FC2C
FCF4
FBF2
0105
FAF6
FEB2
02BF
0013
003D
FD36
0BE5
019D
033F
02A2
0320
FB06
01DB
FFAD
0296
FACF
03A5
FDB2
F6B2
015E
FEA0
FDC4
0357
FE4F
0191
FF80
FA98
FF11
FF70
FEEE
FEE0
02D1
FD31
006D
02F8
012A
0540
0526
FE87
FF48
00D5
FE8C
FEAF
0161
FFB9
FF3A
0355
FFDA
0551
FD93
0093
FD80
0384
FB2F
046D
04C1
0767
019E
0495
024C
FDAF
FD64
FB4C
01A7
0332
04F0
0069
007C
0365
0367
FD78
00A0
00A1
0144
011C
FA0F
0237
FB3E
005A
0327
03C8
0273
FC3E
FEF4
0141
009A
FEA9
FEF0
FC56
01AF
03D6
045B
FB37
FBD5
041A
FA91
022B
00DE
00C6
FC8E
FE64
0088
FCA6
0132
FDE2
00F9
03FB
018A
020F
01AF
FC5C
0252
FE2E
00D3
FC00
FACB
0711
01B9
FD7F
FF36
0227
FE12
FD5A
FE10
FEE1
FB2A
0380
0019
FA0E
FCA5
0361
01C7
01D4
0115
010A
0271
047F
FC17
0071
0133
FEF5
00AD
040B
024C
FCE5
021E
01DA
0094
FD9A
01D3
FEF8
FE22
0167
0141
FD5E
FB9B
FEAB
0052
0033
0161
FE4E
FF26
00BB
0413
0080
FF61
FEDA
FE50
F887
02F9
04A2
FECC
01AA
0003
0421
FDA8
00A1
FDCF
FD10
FBE5
03EB
FD40
0346
FDBF
FDE2
FC6D
FF8F
FF82
013C
FFF4
00B4
FFA4
FF4E
F962
00FD
0434
FE51
045A
00E1
027D
006D
027B
033F
FFCA
00B9
FEDE
00D8
FCB7
027B
FD82
04D7
FC13
0169
FF7F
FD61
00A1
045D
00E6
FAE6
FD08
038D
FC34
FB1E
0164
FDEE
02B3
FB2F
FF43
001F
FDEB
FCF4
028A
FA75
FC41
FE72
03D3
FF59
0373
FE7B
FCBF
0181
FECD
0233
FCE9
02E4
FCEA
01FB
FDEE
0177
FEF2
FDA2
FEB0
FAC7
0149
02CF
00BE
0064
0369
00DD
02F7
FE31
FFF2
FAC0
00D0
055B
FF91
024C
FF80
012F
00A7
F97F
FE33
FDAD
FF8C
0262
FD6E
010A
FEF7
07E6
0016
FE9C
FEBB
024E
0348
FE8C
00BA
03BF
01C4
FEA6
007C
01B4
FF58
005C
FF97
001C
FD50
FE45
FEB0
FE81
FE5C
FCD5
FEE7
FA8B
03A0
FFE5
0029
0302
01DE
003A
FC19
01AC
FD22
0126
01E3
FE91
014D
026D
0195
0140
001B
02EE
FF50
013E
01D7
044C
005A
0516
0014
0020
FFE0
FD99
0555
006C
00F3
005F
FD12
03B9
FBDA
FFA3
FC9A
FD67
0349
005E
FE94
0058
FDDD
0167
FEA0
FE60
FEF8
02C6
0373
FF9B
FDA6
FB9B
0044
02BE
00D6
FDF1
FD05
0122
0439
FE10
039B
FF71
FB89
0172
008C
FA5B
00ED
024C
FEE0
FFA4
06DE
FD76
FD5C
004F
FB11
FCDF
0167
0241
FE07
03C5
FF9D
02CB
030E
0563
FFFC
01C7
006B
FE5D
FB38
01A6
FD03
FE52
FD6E
0242
00B1
02F6
FEDD
05AB
FF6C
00C4
0186
FEE2
01AC
0215
FEA7
FE79
FF54
0344
0287
FBD6
FFF9
FE96
00F3
FD36
FE6B
FE92
FF15
FF0A
00F4
0007
000E
FCDE
FC18
FF43
01F9
015C
0103
075E
FF32
05C0
FFF8
FFAD
FD4A
012B
0292
013A
FEAB
FFB0
FF9A
FEF4
FD37
FC30
0167
0129
FCBB
FE29
0194
FD28
FF75
0579
F903
0252
FF97
017E
01CB
FF58
0201
0166
FE3C
00DD
FD43
FA4F
0230
FDC8
0396
03A4
FF5C
0179
053A
FE5B
FD65
F526
0011
FB7B
FD9B
FC2C
FF9B
01BD
001B
FEF8
F973
040F
027B
FA0D
FFD9
FC48
FF12
0127
00BF
FE74
0099
02EC
FC77
021D
FF59
FE9D
FE76
00EC
00C8
012A
FE7B
02B5
FF96
FE49
0095
FE5F
07D8
FAC4
0398
FC90
FCDD
FF88
FF11
000C
00B2
FBE7
0457
021A
FEBB
FB85
FA12
00AA
FD34
FD53
0305
FCF2
0129
032B
FBA7
FFD7
FDFB
0235
08F4
FDED
004B
03CA
04DF
08A7
FBD3
FFA2
0835
FED8
0493
0249
0AAF
0374
04C3
F887
FE68
FE5A
03AB
00A7
0112
FCAA
FF41
FE97
0278
FE24
FCE4
0606
FFEA
FD0A
0156
FAED
FEB9
01BF
026D
014F
010C
FD1A
024C
073F
0565
FAE0
0159
FFB5
FE2B
FFDD
FE0C
FF89
028B
FA88
F6E7
F467
00A1
FF4E
FE84
0242
F77B
FE45
FEA8
FAE6
FBEC
FF96
08AA
FD55
FBEF
0372
01DD
0193
026D
0301
00B6
F904
01C5
00EF
FEF4
FE97
01ED
0188
04E9
026A
02B9
FBF0
FF9D
FA4E
FE64
FE91
FDC4
FB57
00E0
FA1E
02D1
007C
FC6F
00E2
FEBE
014A
FB3B
FF8B
07BC
FF38
FC4A
00DC
0373
0213
0250
FE6A
FD45
F931
0260
FE32
FE1F
FCA5
066E
FF50
FEF1
072D
FD8B
027D
0174
FA0F
FCFF
FD31
FFDB
003C
FD88
0108
FF1D
023C
FC14
005B
019C
01EF
01A6
0052
0274
001B
02A8
FD7A
FE25
0118
FDCD
0140
02DB
FDD6
FED4
050C
FD60
FE3A
FE4A
02D8
0537
FEB1
0285
FA9A
0558
0395
0441
F642
FB25
0C6D
FD6B
06E7
F987
0AF0
01B0
F354
10A2
FA4E
0795
060F
003D
0D64
FEFF
0123
FE1F
FB66
0408
FA56
F829
FAE8
FABF
0290
0D0E
FF52
FB01
0ED6
0022
FBC9
0016
01B3
F8AF
09FE
0190
F5E1
F760
FE53
03A0
FE92
0105
F74F
03B3
FDAE
F85E
0BDA
06A9
0412
0235
0742
009C
F10D
084A
FF8C
0748
00D4
0173
FFAA
003E
046C
FF7F
FAC4
FE02
F70A
098C
0448
0670
FAA8
FF38
FE56
01BE
05F1
FB43
F62E
038A
F7FB
025E
0418
07BE
086B
FE0E
0214
FD35
06A5
0054
008D
F7E1
084E
FB19
FFAE
F3B0
F7DA
FEBE
FEBB
FCBB
FFFD
FD07
01F5
FFB0
02D9
FF04
FA1D
FEC0
0450
FD84
04E8
FD8F
0174
FD93
01CD
FFE9
FFD4
0298
FB1B
0497
FCFC
FF92
FEDC
FF5B
FEA3
0206
00B0
02BD
FF4B
F8D0
01EC
0021
00FB
00F1
FB52
FC2E
FDA4
0144
0202
032A
013E
00E8
04AA
003D
FE8C
03DF
FD52
03EA
FCFB
0527
01BC
FE7A
FA70
FDBF
FEB5
FD27
003B
0195
FF36
FFFF
0204
0081
0148
FF46
FFEF
00CE
FF21
FF62
02AA
FAC2
02C8
FF14
0371
0292
FD00
FD83
FF83
FDC2
FEFC
0590
0252
FE27
FC84
03F2
040C
FC68
0023
00E7
0259
FD69
FE8F
0093
02E7
03B9
FED5
01E8
0435
015C
F923
0056
FB36
0137
0430
0370
FD64
FDEF
05D0
FB4F
0028
FE4B
01DE
00B6
FD46
0234
FE02
02BD
FE8F
FB5C
00E7
01C0
FF40
FD3E
FB2A
0056
FA8E
FCD8
FEA5
FB56
023D
03DF
FCDC
FF9E
0118
FC32
FB79
00B3
02CC
FD7C
053B
FEB1
FCF0
FA8F
01C6
0196
FEDC
005C
FE09
005F
0241
FC48
0414
FEEB
0114
FCAF
0319
01C8
FDD1
03B5
03FD
04BF
FE90
03D5
FD67
FF7C
FFB7
00BF
FC1F
FAD5
FF26
0803
00AE
00AE
FD90
F8EE
0269
00FA
FE1B
FB8D
FF6C
FC22
FC57
0224
0289
FFA0
0238
0212
00D8
FB30
0419
FCF3
FFFD
FE77
05C7
FBFA
0249
FA55
FC2A
FCB1
FBBD
F82E
01EB
FF1C
014D
FEED
01E4
FE77
0057
0245
FF61
FEF9
FDF2
03AE
0442
FCF7
FF1B
0293
0164
FE93
003E
FF5A
008C
FF5C
FE7B
FE7E
FC4D
FE26
0391
0329
01D9
FBA0
FEBD
00FC
0041
03D8
FE1B
FD94
FAD9
FE73
FFDD
00F3
0033
FFE6
FEA2
00E2
0293
FC14
FFD3
FDEB
FEC3
0355
FF05
FEB2
0491
FCC3
0403
0312
FECA
FFAD
0182
FE90
012E
FF42
FE0B
FF72
FF83
02FE
FE7A
01D9
FDF4
002D
FD27
FCD3
01FE
013F
FDD8
FDC9
FFDF
0116
0090
FEF8
FCE9
02EB
FF06
FF0B
03A9
FDC2
FF6E
0142
00EC
FEF8
FFB7
FDE1
01CA
02C1
FF8A
028E
0353
FF54
FDF2
FFB0
FF3A
0216
FEE8
FD91
FEDC
FE96
FEC2
0015
005D
FEDD
019E
033D
00F8
0114
FF1C
00A1
017D
FF25
01B5
FEEF
032F
FEA3
FE8D
FFFB
00D1
FE8F
FF25
013C
0082
008E
FFC4
FDF7
0030
0281
FF72
01CC
011E
00B7
0207
FED9
0072
0182
FE52
FEC6
FE33
005E
FE2C
FF22
FF78
0101
0227
0035
FED0
0213
0007
FEC4
FEC3
003E
FD37
FF64
FF2E
00A1
FF26
023B
0067
00E2
02A1
01EE
015E
FF2D
0031
01B0
FC68
FEDF
FEAD
0014
0093
FE72
FDDD
FF3D
FEF6
FF08
FEC3
016A
0312
FC46
FEDC
0035
0325
FF40
0450
0155
01AF
0061
FC50
008F
FE98
FFDD
FD9D
00D4
051F
01E5
FF02
FD3F
073B
0201
0018
FD5E
04C5
FFAD
00AD
0554
F9E7
FC72
FDE0
00F3
000B
00BD
0357
0028
FE88
0697
0459
0020
FF2E
FE0F
FDEC
FE3A
0454
FE9C
FF27
0182
FD3C
03A6
030E
F8B0
01E1
0276
FD6C
02E1
0087
0103
FE9A
FE2F
FCD3
FDF6
02EC
FB8F
0524
FE8D
FC75
03B2
00CC
04C0
FF10
FE7B
017C
FE70
FFA9
0341
027F
FF4C
024E
F803
059F
FAD9
0369
0527
FFB5
FD85
050D
FC2D
0122
FAB2
F93C
FC09
0099
0265
FB98
FE9F
FED9
00E8
FC4D
FFC0
FF6B
020B
054C
FBB9
FD7B
FE12
FA69
FFD7
02B0
0459
FDCE
0210
FDCD
FBB2
0979
FE02
FBE3
0057
0440
012C
FC85
FE2A
0434
FFBF
0385
FC5E
0503
00A6
FB6C
03D9
FCBB
0117
0253
FB73
0054
0561
037B
FE52
FAD4
FF4E
FCB0
FC17
FD44
FBA4
012A
0206
FC60
00A8
047F
FF57
FDE2
0237
0150
FE5A
04EE
00AB
FDC7
FD07
03BD
FCA7
FE69
014B
FE0E
FEC2
007B
FB91
012C
00F9
0080
FC3A
0247
FEB7
FD18
FFC6
00C6
FFFB
02AB
0168
00A2
FF97
FEF0
FFB0
FC50
FA4F
FFAE
0621
FEF1
00A8
FA66
FE06
002D
FAE8
02F9
FF90
FFBF
FDFF
0032
0311
040A
01CD
0314
033F
04BB
FFD5
018D
FBE8
FBEF
FD92
01A1
FC0C
FE27
FFAA
FEA4
FF78
FFCE
0246
FDCF
004B
0006
FE9C
013F
FCBB
015A
FE0F
00E1
0139
FE7A
03D0
0387
FFC6
010F
02BD
0145
FE25
FE15
020D
FE75
FF8B
01A2
0246
FD5F
FD93
FFB4
FFC1
0110
0108
FDE3
FFB9
0083
0207
0429
019F
001C
01BF
FD7A
00CB
FE55
0342
FF0A
FFE8
FFD3
FF25
FE01
000C
004C
FFD9
0084
0035
FDD0
FE7A
005F
004C
0353
0060
01A6
FFC3
FE56
0197
FCFE
00F3
01D9
FF4C
02E0
0204
0022
FE7E
FF83
012F
016A
FD34
FF69
00FD
FE2B
FF2D
FFFA
FDED
0154
FE5F
FF87
005B
FFE0
0076
00AB
0137
01B4
013D
01FC
FEA3
004B
FEB7
FCF3
FF00
FB5C
FFAA
02E1
FF61
01E7
FF84
FDCA
01DD
0261
FED5
FFB3
0262
FF91
0044
FED6
01CD
0295
0091
00FB
FE6E
FEBC
FE24
FD32
FE4D
0003
FF12
01C7
FF8C
006F
027F
0173
FE6C
FE0E
005F
0219
00AD
FDE1
021E
FFB0
015F
FFDB
FED2
FF14
003F
0213
027C
0174
FE54
FF7B
00B3
0215
FCF7
0093
0202
FE80
FFBC
FE44
0112
FD32
004A
00ED
FF59
FFB6
FE3C
FE1C
0250
FEF3
0100
0087
FDFD
0096
FEFC
0163
FF0F
FDA0
01C3
0403
FE9A
FE68
FD41
0022
02BE
020A
02D7
FF9E
FF57
FDDA
00D3
FF83
028A
FE71
FE22
FF23
FC91
00E5
FF6B
FEAF
01C9
0019
FFF7
0107
016D
0004
FE46
FF4E
FB65
FC36
0206
FF57
FBE4
FFE5
0210
048F
FC55
FD05
015D
FEED
0070
0053
FE8D
0330
FE08
FEAF
FB92
00A6
031C
FCDD
FE68
0285
0007
028A
FF82
FC94
00BB
0010
0196
FD66
FE41
0536
FE42
0538
FA5C
0390
FEC7
FDE7
020A
FE3C
0705
FEC8
FD92
FC5D
024B
FE3C
016A
021D
058E
0606
0110
FE2A
07B7
FC1F
FFEF
FF87
01F4
FC05
FE81
FEF6
FE60
FDD3
FFF8
0101
01F1
FE63
0215
0096
01B6
004E
04A6
F9F2
0255
FFF5
02FD
050D
FFE8
02A4
FD49
FBF5
00AA
FF62
FD86
FAF5
FC9D
018A
01EA
FFF0
0240
0044
0158
FC6D
FBC5
021C
FFC8
FF44
FFEB
FF49
FEB6
0315
036C
FAAE
FD2E
02BE
FF25
02EA
01D9
008A
FF16
0467
FE45
FFD7
F6FC
FECC
02BA
01D4
0219
F766
085D
FF0B
0610
FF13
FFAE
0146
00E7
0268
01A8
FBF6
000B
00EE
FE04
FF8D
F79E
F9D5
FCBC
FAB7
028E
FEA9
00CB
018B
FE4F
FDBC
002B
014D
0BEF
FC11
FDCA
0054
0502
0A44
FBAF
055F
0601
FD9A
024B
012A
057F
03E2
0223
FB73
FCC6
FA8A
0597
FEE6
FDE2
FB2E
FCCD
05BC
00B7
F63D
FDAF
07D1
06D8
FE5C
FE1B
FBB2
FDF5
FCBA
02A4
0049
FF40
F89A
FD51
05A2
03DB
FDB4
043A
FE4A
FF3F
057D
014D
038B
00EF
FC86
F315
F505
FFF5
02CD
FF6D
008A
FF62
01F6
0379
FFAF
013E
FF88
0820
0271
0649
0074
00F6
FB22
FF59
0174
01F3
0311
0034
FB64
02C1
06A6
00F6
FD70
00F8
0029
039A
FFF4
0309
FCD0
FFB7
0247
01BA
01DB
FC77
009F
FD64
FEB7
008A
FF3D
0149
FEBE
019F
FD80
039F
F989
FC45
FFF4
00D1
FBF7
00E4
FBFC
0479
FCE8
FE3A
FE1D
065B
FCAE
FD3C
032E
016F
03DE
FAFB
0031
00D3
0000
010C
05FC
0669
02CD
FF23
FEB0
01C8
0376
04C2
006B
0083
FFFF
019B
FFB3
FF29
FC3C
0198
FE81
0040
0140
01A0
FEED
FAEA
0135
0084
FFC6
050F
00B8
FF3A
014F
FA9E
0317
FF50
0174
01B9
FE2D
FFCE
FFF6
0261
FE33
FD1B
00C6
020A
FF75
0173
FE61
FE2A
038C
0347
0147
FFEE
FE9C
009C
FE6C
FE83
0115
00F2
016D
FF1F
FEA2
00AB
FEA3
FFA0
0017
0341
005E
0068
0097
FFD4
0383
015A
01E1
038A
FF6E
00A2
FEF2
FF69
0098
FEE2
02A9
FE2D
FF3E
01BA
002F
FDF2
00A8
0071
FF1F
0293
0228
0065
FF9D
FFEB
FCB0
01FE
FEC0
0204
FF26
FF64
FFD3
FF12
0104
FFFC
FEA9
0114
01DC
FEC5
016D
FF53
FD9F
00A0
01BE
0299
01F7
01E2
01A5
FDD1
004E
0265
0218
FDFD
FC22
FD35
00A9
01D5
000F
FF4E
FEBD
00EA
FFAE
02BC
FEFF
FD78
054C
FC02
0368
F9B4
08EB
019A
FDE5
FC48
FFC1
0957
FFDE
0143
09A2
FD8B
03C5
004A
03A8
FEBA
0006
FF00
FDA1
014E
021D
0328
FAF3
0287
FB4F
067C
F97F
FCC8
FE3B
0037
FDCF
0343
F835
FDBF
FF53
0210
006B
FDAB
00D8
FFC2
0935
FBC6
FF9B
FEF8
FD10
0082
FD42
00E4
FE79
02BD
0341
00C4
03C8
FC5A
FF6E
0668
FECD
051B
018D
0062
0400
FDB9
04A8
F40A
FBDC
03CA
0223
0115
FBB9
FDAF
01FD
09A3
0070
FCDE
FC83
0270
04FB
03CD
01F1
FD51
FE8A
02E5
00BB
009B
FD85
00E5
FEFF
FB42
F997
0004
06B4
FFD7
FF3A
F7AC
0216
FEE0
FBFD
F981
FBF7
03C4
FDBE
013D
FC52
FEA0
0406
FEF5
0049
F60F
013E
01AE
00B6
0877
FF9A
FFAA
FF2F
FBD0
012F
FFF1
0072
02BF
FC04
FE77
FA80
F6B8
FE88
FD8E
FE9C
0289
FB53
FBD0
03CA
FF98
FA6D
FDB5
FF9E
0065
01FD
F962
0198
FAF4
0345
FB7F
00A1
FFE2
FE66
04AF
FC6A
FF25
05B3
0A11
0336
F86B
0363
02DE
FBE4
052D
0311
0C25
023C
0337
FD07
003F
02B6
02BA
FE31
FF77
0088
0329
043A
FE58
FA43
FF58
00ED
017B
0027
FD52
FDD1
F8C8
00A7
03FA
02C1
051E
003B
01E6
043C
00D0
0564
FEF8
01FF
FDB0
FEDA
FF4A
FD45
F7CE
F84A
F845
FA0E
FC0A
FF0A
0050
036F
F878
FF26
FD4F
015B
FE55
FB05
01E1
FE67
F91E
F8ED
0019
FD80
0145
02E8
00FF
040E
FF65
020F
FFCC
FA11
FE68
00E0
01E5
FD91
021C
FBCA
FC39
F8DA
FEDE
FEA5
002F
FD62
FD3C
F935
FE7A
FFA9
0159
0120
0053
FF7E
0319
FEA5
01B0
FE1F
FFD6
FF4B
020C
0175
0438
FADE
FBDA
05AB
00E7
FF5C
FB7E
FEAB
0724
04DA
FE93
0162
FAD3
011C
FB4D
FA42
00C6
0492
FCC6
01F9
0694
FD68
FE27
02D8
FDF8
FB36
FF84
0617
FD80
FF5F
FF56
FF32
FE69
FD62
00FF
01D2
FD6D
02F7
FF4E
024E
FC2D
067D
F9CF
0307
FA69
02D9
02EE
FD2F
0222
FBCA
FF57
07B4
05CF
F9C8
FF3D
0194
F5C7
0524
02C4
00D4
F7BC
01C7
0192
F832
FD84
FA96
0105
047A
00F9
FB15
FEFB
FEB5
0641
00D4
025D
0128
FD28
08E3
021F
FEDE
04AA
FF54
FC25
FD9C
FEA8
0258
FAC5
0266
0417
F9ED
FEFA
006F
0199
00C9
FF3A
FE27
03E9
05D6
FBAA
0060
FE91
00CF
00D8
01BF
01C7
0003
FFEE
00AA
00BC
FEE6
FF02
FFCA
FE46
FEA3
035B
007A
001C
FDEE
00C8
FF08
0181
FCC6
029B
0162
0711
0130
FB85
FCED
033C
F72B
FEAE
0385
FD75
FCD3
039D
FF82
FF1D
FE57
FADF
F911
FD74
06E6
FF31
09E5
0491
02F7
FD1E
FD75
01F0
0311
005C
FD28
0178
02B2
FEB6
FFCB
FE8A
0051
008C
FDB9
01B6
FEF4
FDD8
FE44
0034
0039
FE37
03B9
FCAF
FED4
0024
0409
0289
FD2C
FF0D
FD47
FCA7
00E7
0148
0025
FFDB
FDF9
01D7
026F
FE88
FED4
0439
FD0D
FDEC
FDD0
02D3
FBF9
FF10
FD9E
FE9C
01E1
0056
01B7
FFC5
FB1D
00DB
FEAD
FC0C
FFDB
FE18
FEFA
0049
006E
0101
019B
0066
FE1A
FB93
006D
026C
0290
0341
00C8
FF3F
00D0
FF8D
0225
0089
005C
014C
FDBF
FEE8
FEFF
FCC2
FEBC
00F7
FF8B
0083
FE18
02C5
FF78
FCAB
FE7A
FE1F
FF8D
0075
FE85
FE2B
0038
01A8
FDE1
FE7F
02D9
016F
FF7D
FEED
FE33
FE32
FD94
0098
0249
01D6
FE96
FF24
FF66
026A
0204
0164
FE54
0237
011A
0236
FFF0
FF4D
FF4F
FD5E
0154
01F8
FF12
FE73
0167
FE23
005F
FDD7
0254
01EF
FFB4
010F
FE19
FFCA
011E
FDFA
0221
FEFF
FE84
FE66
0035
02A5
FE59
FE8A
01AD
FE1B
001A
FEDA
FFF2
002B
0063
0158
FDE7
FE67
00E9
0206
009E
00F3
FD24
FF25
0196
0067
FE04
FF08
FE79
00E2
FDE8
0153
0112
016D
00E7
00EE
FEFF
FE6C
FF37
01BE
0042
0043
0171
0026
FEC5
FE3A
FFEC
FE0C
FF88
FE43
FE70
FD3B
0190
FEF7
0195
003F
FF8F
0131
0128
0038
0208
FBB5
00AA
0109
0356
FAC6
FB3C
0066
FB5E
0A82
FE82
01AD
FE34
01AB
FCF3
0065
FECA
00CC
FFC5
FF2E
F8F7
FEFF
FC9B
036C
0201
FB48
0244
05AD
FF2E
FEA7
FEBB
FC4A
03AF
069C
FEAB
0481
0042
01EE
FAF3
F9AE
FE86
021E
FD70
FDF9
00EE
FCBC
02D1
0234
FFE7
FFF1
0112
02E7
FFF5
01BD
00A7
0AA6
049C
FC70
04A4
FF7B
FE2C
0691
FF08
0089
FDC1
00B1
034A
0152
FC53
0093
0698
FABC
0083
FE24
FDC3
0542
FDA1
FABD
01A9
FE75
FFD4
0106
0187
01E3
00B8
FE15
FF06
FE07
FBBB
FD63
0074
0267
0091
01B5
0271
0735
0287
FDE7
FFFB
0161
00E9
F8E4
0012
0217
0459
0129
FD49
FBFF
0213
FFA8
0398
FA31
041C
FD5C
FA79
016B
FE5E
06FB
FEC1
FB0F
0065
03A8
09B5
FF19
FB82
0090
FF1B
FE52
F7A5
FB46
01B4
021D
FD65
FDAA
03C5
FD0E
FBE4
FFAF
FF8D
FDE2
04B5
FC5F
FDBB
F899
076A
FB89
0395
0038
FCF0
FB69
093C
FAFC
0583
002D
FB93
FCC1
0166
FEE8
015C
016C
04F4
FDD6
FCE5
018D
00B9
FD8F
0177
01E2
FAC4
F97F
0079
0B9D
FDD2
01B3
007E
0577
0045
F9C3
01B7
FE1C
FEB2
F96E
FCCD
0787
00ED
05CA
039D
030F
0306
FB5D
FFD9
FEB9
FB43
FBF5
FABB
F9C0
FE71
FDC3
FE2E
04CF
06B7
001A
FF8E
032A
06F3
FDDF
0394
FEB9
01EE
FDBC
0684
05F0
FF55
FA79
FF80
003E
0098
031E
0042
0513
019C
03BA
FD3B
0154
FCFA
0873
F9D9
037D
04FD
FF7E
FE96
F915
FC7B
FE84
059B
0208
FAA5
0183
FF41
FD3A
FEE1
027C
0306
FCDA
06B8
FF6B
0181
0037
FF03
006E
FF9F
01F0
05A0
FCF0
FBC8
0640
018B
0049
0237
0363
FFAC
0526
FCB2
006C
04C0
02A0
00CA
FDE1
FC7D
FE8D
FF72
FBD2
0205
FF28
04F3
0469
FD49
FEF8
0273
039C
01A6
00D2
03BB
02E3
F9FC
02BC
0211
FA91
FAA9
FDEC
06E7
0137
FE23
FE89
01EA
FF9A
FD42
FF56
FC7A
0030
008C
0073
FD7B
0317
00A0
FE94
FEAE
FC79
0418
FCC5
0040
002A
FEE5
FFFA
FD5F
01B6
0109
0446
0064
FB33
01A7
0016
F8AB
FFC1
FFCB
0063
F8D9
FE14
FEFC
FDCE
0347
0032
FFB1
FF2D
016E
FEED
FB6C
0003
046B
0220
039E
FB64
FF28
FC9F
006B
01BB
FC3D
048E
0224
0414
FF95
FF97
FEA6
FEA1
029F
0261
FEF4
00B3
010D
02ED
0000
0714
FB55
0219
FD84
0341
FEBB
FD33
FCE6
FC19
01B5
0251
FF72
FC5A
FFBE
F8B3
0356
01E5
FAF8
FE83
FE16
FFA8
002E
006A
02EB
FF90
03C1
02DF
FE7F
FCE5
033F
F7F0
02E2
FF52
03B5
FE5D
FF44
F9C2
FB96
FABE
F8B1
FE3D
FDAC
02B6
0327
0004
FC2D
FF78
FECB
FF7D
FEAC
007C
0262
FD12
020F
0120
037B
011D
01D6
FEBD
FA36
016F
FB29
01C7
FDBE
0040
FFA6
04CC
FF73
01AA
FCDC
018A
0369
FAA3
0407
FDF7
FFFC
05B5
FF8E
FE5C
FE22
04F0
02F4
FCB5
03F5
01D4
FEB0
036A
FD20
0150
FFA8
FA53
0618
0298
FBB5
0115
03E5
FB85
005B
FD10
FFFF
03D4
FB63
0505
00EC
0157
0093
FF8D
FC6C
02E6
017D
F906
FE00
FF98
039E
FC48
FED7
FC67
FFE7
0045
FF43
047F
02D8
02CC
0476
03A7
FF1C
FE80
FCF2
0634
0643
02C0
0237
FFEA
FFC0
FB88
005C
04F9
FCD3
0056
FE24
FEF7
FDF2
001A
01EC
01EF
FEC8
FDF8
0251
FF44
00BC
FDDD
01D7
005A
FEE0
03F5
01A3
0441
FE42
FBDA
0056
FFF6
0362
FD75
FF95
019D
FF29
FB40
FBD1
FCB3
015F
0075
0260
FD73
03F4
FDC2
FAE4
03C6
FFC4
FFA0
0154
FEC8
FEEE
FD66
FF79
FC0E
01F5
0209
FDEF
FF21
039E
FD1D
0498
0214
01B1
FE13
01BF
FEA1
FCFA
02D6
00A2
026B
FB72
011A
FC3D
0080
025D
002E
FDFB
FF6E
FED6
04A8
FFC6
FE08
FC63
FBAC
016B
FED1
FEFB
FCE3
FD7A
0061
0049
030C
FEFF
00DC
FFF3
077A
0169
FCA6
0107
FF21
00B4
0057
0020
FF5B
FEA4
FB7D
F9E3
FF05
FD85
FEE6
0043
00B0
0248
0343
023B
FBC4
FEA2
FEC6
037E
02A4
00CA
FFC5
00BB
027B
0003
004C
02FB
0250
0038
0235
FD58
FCD3
FEA5
059A
FF25
049A
FE2A
FEDD
FEA4
FBF2
F866
FBBA
014B
0256
0003
06C0
0177
0182
FE26
033A
FDCE
FEB4
FEFD
FDF9
0007
0120
FFFC
FD4A
FCF4
0007
0380
0574
FC9E
FFD9
FFBE
027F
FCB5
00BA
FD73
0080
0326
FD7E
04F2
0061
0584
FBDC
FB71
02C1
0078
F9AF
FD68
0323
FF5F
00FD
FD6A
010E
FF5E
FC50
FE8A
0010
FD4F
00A6
FE4B
0204
026F
FEA8
FF19
FE45
FE9F
FA06
FF19
FEF1
0005
FD1A
FDED
06E3
0042
0118
03AF
FB8E
FFB1
0235
03FD
030F
FE0B
FE13
0124
0097
0353
FE15
0398
FDE9
FBAF
0559
FCA0
0179
FD6B
FCA8
0350
0144
FEB1
02D2
FAEC
FF92
FC7B
FCE2
FC79
FC3C
FFCA
03D2
FF96
FEB2
01F3
FC2B
FBE9
FFD3
FD10
FB79
FE5D
FC7B
FE56
FDBE
004B
FE7B
0380
FBCB
FA4C
018A
00DD
FC54
03BD
030A
00AE
FBDF
04EE
0232
FCE1
027D
03D1
02C7
0354
0263
FEF1
FCBD
044F
FF9D
FD95
FAFC
FE7F
010E
0212
049A
FE89
0117
005A
0059
0188
FBC3
FBEC
FD99
FE38
039C
04BB
031D
FE1B
01C7
042A
FFED
003C
03D9
FB8D
FF45
005E
FBFE
004E
FD22
FFA3
016A
00EF
00AA
0004
0182
FED8
02B2
02BF
FE6D
0198
009F
FEF3
FC59
FD09
0250
FFE6
FC4B
FE36
01EB
FF0D
00CB
0334
0112
010F
FF30
022A
01D5
0119
FE9D
FE24
FD8C
FEE9
FF9B
FE6C
FBFA
FE2F
0109
0166
00E9
0096
FF2B
FE17
0132
FCD7
0062
FDCE
031E
012E
FFB8
01BE
FEE9
012C
FFAB
FC24
FFA8
FFF0
FD68
FF28
FECF
FF17
01A3
FFDA
FE01
01E5
006A
FDAE
FC2B
00E0
FF27
FF51
0249
017C
0331
00C8
00C5
0125
FD11
FEBA
01C8
FEF5
FFA2
FECE
FF1B
001E
00E0
FEEF
FF17
00AA
FE6E
0135
FE8D
FF2E
FFFC
FF17
FE19
FE5B
026F
FABF
00A4
FEF1
FFF6
FEA4
FF42
0184
00A8
FFFA
010A
0112
0016
0086
FDF0
0145
00DF
FF26
01EB
0181
004D
0233
02DD
020E
00ED
FDB8
009B
FF84
0047
009E
012A
01AB
025A
020D
00C4
FFA3
0027
0279
FFCC
FDE3
021D
FFD8
FE02
009E
FF13
00EE
FEB3
025A
FFB9
0138
FE88
008C
011C
01CF
FE45
0161
026B
0188
01A6
0013
02BA
FFC2
00FB
0049
FF61
FFC8
01AC
FFF2
FE9E
FEEB
0298
FE2A
0004
0190
FFE2
01ED
FE90
FEE5
0122
FEE6
FF35
0033
FE38
014E
0031
FFBA
02A2
02BD
FEBB
FFF6
FE6E
FF31
018A
FD9C
FFE3
0137
000D
0103
0153
018F
0114
FE47
FEA7
00F6
0206
014D
0239
FEC7
00D5
FFCF
FEEF
FEF4
FE78
0431
0185
FD8A
FE4C
FF92
011B
FFE4
0399
FF2F
005B
FE31
FE88
FF9E
FDDA
048E
014E
0114
FB1A
FF5B
FBB6
02E1
0176
044E
FFF1
00D7
FEEE
0030
FDCC
01A8
FE09
0241
FD65
FDB6
FE6F
029A
FF6C
0191
0421
FEFB
FDF6
00F8
F9BB
0196
FE57
0223
001E
0132
FFF6
FD51
FD6F
FA88
FCC4
0234
FDF4
FA9D
01DB
FED0
FC2A
FD5A
0464
0343
FE3B
FD03
0068
0020
FC1D
FEB5
FE2D
FFCD
01ED
FEBE
010C
FF33
FF32
044D
FDE8
0489
0215
0164
02F2
FD9E
0089
02CB
FD3C
02BF
FF6F
FE34
01E1
00F3
FBD3
017A
FF45
0017
FF62
FE61
038A
03B7
0125
FF19
FD0D
0239
FF89
017C
FED9
FE77
FC70
FE73
FF1B
016A
0338
FE4C
FAB4
FCE9
0256
03AB
02B3
FEBD
012F
0043
01E5
00C0
FCD4
FFAD
FD93
00BD
03FF
FE02
FCB1
FEA5
FFAB
0051
0177
FDEE
FB4C
00A0
0191
0594
FB1B
FE75
FCED
004D
FEED
053F
FF76
FFDF
FF14
FC99
FFDD
0024
01FA
FECC
0060
001A
FED9
FE47
023D
FCE4
0056
0304
0248
FE6C
FD6C
FE79
FE02
F94D
FF56
01EB
F912
FE3D
FBA5
FA08
002A
0255
FE48
000C
027D
0295
01A0
01ED
02EA
FDE4
0142
FF1B
0003
FFBC
FDB3
FF3E
FED5
006B
FE60
FEE0
0005
FC8D
