FD3BFA86
044602E5
FD27027F
003CFDB1
FD08FBD5
010601F3
FE63FCAE
0430022D
04F4FC71
FF8E034B
07F7FD1C
05F8FE60
FEFB00B5
FEB303D9
FBB90439
041B009A
FBCCF808
02DAFD54
FAED03DE
FB8301D3
00CA01FF
FC6402A0
039300CB
FDA0FF84
0008FF7C
FD2DFC0B
FB22FB4B
FFE0FEBB
FF15FBA0
013F0033
FDDFFE7C
00C40052
FC50FECB
FFEDFF62
FF4EFD6B
FAF6FCFF
01C1FD8E
FF960609
0108F9B8
000A03B0
FF49FDD3
FFA3016D
006105C4
02D8FCC7
01010134
00C0FC6A
FE43014F
01C3011B
FADD009F
FC070148
FFA5FE30
0552FFC1
FE5403CD
02CA02EB
FE40FDF3
00540263
01F2FE9C
FCE600F7
0265FF72
FE88FC1B
014800F3
FEB0FC07
FB8503B0
00E0FEF3
FF2BFCF8
030704FE
FEBFFBC3
0366FDD4
FC650626
FFCD0022
0380FB92
FE50FEE0
055CFE94
00FEF85E
FA4CFE47
FA5DFD50
FDDD031C
F99F012F
025DFE39
028BFFEC
0006FCBB
FF76FCD8
04B4FDCC
00F4FFA9
FE4602D4
FF8300A8
FA90FC48
FAA50337
FCF5FBE5
FA00FAD9
FF78016C
FF1500FE
FEAF01B4
026C0439
FC5C015E
062E0139
FF3903B0
FCE2FC2C
024F02BF
0309FC34
02BB02C1
FA7BFC6D
FE9AFD75
02ADFCC6
FF10003E
FE9700EF
00FC0382
FBD5FC94
012EFD4A
FEDCFABA
FF31FE8F
FD1AFEE9
0397068F
FF82FD36
02CA0023
FDF1FF59
FFCFFC1E
030B02C6
0110FDB6
028802F9
FDF70321
00A90364
FC22FBD4
0074F966
03A40147
022B047A
026401D1
0047FE6B
FD6A03E0
FAEC0053
0614016F
FFA8041C
FDDC0202
FEB50397
FE48059C
FE56FF70
FE080340
0505FD03
019EFD2D
FC07FED4
01DCFF3C
FE68FC03
03B4FF24
016D04E2
021CFCB2
044FFDD6
0155FEFB
F68F0043
FF6901AC
0625F9DE
FD4DFEE3
0234035B
FDC90217
0031FC46
002BFC95
003EFF71
FDA9FAD6
0196035C
0590FB95
FE5F0317
0673FCA3
0433FD56
01D6FF88
FF310474
FCE60071
04D8FEE7
FF86F9AB
05A8FD96
FB460355
FE480099
FE0504D8
FFB101CE
00F70290
FBED03E6
FF41027B
FC07FA26
FB84FDEB
0477FEEF
004BFC55
FF4D003C
FE4FFCE7
04670008
FECC0110
FEBDFEFD
FF7FFEF3
FE13028F
021CFE96
068F0578
00FDF8DF
033A034A
0413FD8D
FF670392
FFCE0374
0213FEC1
0238FF39
05A1F9F7
FE4C01ED
03E801A8
F912FBBE
FC85FFFF
0294FD04
FDE1FF0F
0232FD07
FF96FF3A
FEA00360
FF7B0165
FE3701F9
026EFE9B
FF56027E
04870150
FE920025
FFCB00D7
FC2EFE9F
FD89FEBD
021301AC
FD1100B4
046A0132
FBBE0046
0164FDA1
FFC1FEA6
02CE00EA
03240018
FD460458
FDA3FD40
02E502E0
FCB70224
0262FD5C
005AFC6F
043502D6
01B80057
FDC8FE33
0414FC76
014E02F0
FEC80032
FDC5FE67
011B0109
010AFDD8
FCFFFDAF
02CE013C
00F2FDC0
FED2FEFF
01730025
FFB1FD4A
FF560019
FE3CFE9D
00790398
0177FEB3
0439FD53
046CFC6D
007FFEEE
001F051B
FFD50039
FC39FEDA
03200097
002400C2
0103FFE7
00B1FF15
FFE50020
01300153
FE5D0394
014500CF
014AFE9A
FE1603DE
FD93FE1C
FF430207
01C1FF64
FDCAFDDE
00BC043B
FD25FED6
0006FD2B
01B9FFB4
00CC015D
011CFEF1
0178FEB7
FF9B017F
F98500E2
007CF9CA
FFE4FED4
F8E7FF7C
04880191
01DFFF28
FFE3055D
FE46FF3D
FD2102FB
FF97FF7F
FEF2FD4F
03F2FE71
FC9D00E5
0026FBF4
FC0BFF66
000DFE65
FDB30079
06EFFDCE
00C7FDFD
02A7F828
FF14FE1F
FF11FEE0
0165FE05
FC3A0080
0384FD48
F9DEFDC0
05C50427
0247018D
FC550117
FF70000C
027803A7
FEA9FEB3
02D1FFE1
0032FDF9
0171041C
0644009C
05700187
014EFE81
FB1B015A
FF0B01A6
066D00E3
01210511
FE07042D
01220101
F8360306
065CFEBB
FBEDFCF2
00BAFFE9
F97CFF23
FC1AFE69
021BFCD4
F79901FE
0132FBFA
032FFBEC
FDD0FD9D
FA9FFE46
0134FCA7
01C104AA
0339FFAE
06C5011B
FB35F746
042BFBB0
06E60504
FCDC00E2
F90107E5
048702D4
03400379
FB4203D9
05E2FF12
FD9A0606
02A407D0
FA34FF01
02C1FCD8
0305FEF7
F97A0010
FF55041B
02E2FDE0
FE490069
FEA4FF31
009E0235
FB520416
FF8AFFC9
FFAF021F
01730211
016700CB
FEDD0345
0060FF9A
00310371
FE30FE04
FE120263
01B1FE0C
FD7DFFB4
023301D9
FE4D0210
029D0374
0422FF81
049600A4
0393FF3E
00F009E8
02D4FE4F
FF9F0265
FEF900CD
FDA40279
FC08FE9C
FE2BFE6B
02C4FFC7
FF3D00E7
FEDFFE95
0178FB32
061FFADF
FF08FDA9
01A1FEE5
FD60FF5A
0238FF61
050DFDB1
FA9B0647
00D7FECC
FDE7FC75
0214FD4E
01A3FC07
FD0CFC23
0277FFA2
FE2902A9
FCE0000B
04E503CC
020FFD24
03E2FFEE
00F10104
04C6FF0F
FCD102D2
FFF6FFEC
0292FF84
003A040E
FEFDFD40
FEDCFC22
020CFE27
02AAFB21
FD2EFE3D
04540096
010CFA5A
00DD02E1
FD71FE7C
0161FDDD
F9A20232
FFA80048
FDFF007B
FFA000F8
000E008F
0198F85B
FBB1006F
FCA0FF4A
00E70569
FA1AFBE1
FCB0FC9C
FD9404CE
FDB70194
03CE0599
FE73FF28
019801B1
FBF503C3
FB890353
FD2FFDB9
FD420335
FF94FC5A
FE73FFB6
FEAAF9AF
02EFFD70
FE14FF39
FF16FF59
FF7C0365
FE9FFFE4
FBBE02C7
FCC6FD38
FAFE0267
0093FBA7
007AFC14
01C1FF63
023101EF
05FB0223
FBD9044E
04AF015B
FF7C01DE
001E0171
0152FFA4
0530FECC
0066FF87
0248FA93
FB83FEAA
FCB100C4
FDE1FCC5
FDC00199
FEAFFE11
00FFFF62
FE760199
FED8FE80
03A4FC71
009AFD90
0297FE6C
FC04FC58
FB5BFF71
FA8BFF9F
FF54FF70
FDF5FEBF
FDFC0010
040F02F4
FE43FE33
00B901FC
00A2FD96
011AFF5F
FC1201B5
0200FD3D
0050FBA0
01100074
005FFD88
FE6AFD30
FF81FBDF
FEE401E4
00EF029B
0214FF33
F98A006D
FE50014E
FE9301B7
032DFC5F
F9D30273
FD4E0150
FFD6039E
00C7FEE2
FC80FF00
00BBFC1C
006CFFB6
FCB103CA
02ADFD0E
02970588
FDB9FE59
F88E0036
0285FC59
015DFFF1
055AFF07
046FFDCB
FF530499
03C2FC23
FFD502D8
FDD8F924
FFABFFFE
000BFFBC
0065055F
02AE04A6
FB8D0338
052801D1
03BA02E7
010100EC
023EFF94
01F6FE2F
016A01BC
FEE8FFA8
01EF0355
0088FE85
FE59FD69
FBDFFEF3
FF55FAD3
FEC907AC
FC40FF02
033901DA
FFB5032F
060C002D
0262FC81
FD53019C
02B70095
FF0BFC54
043E00CF
FE3EFF2B
FDB4FF05
003500B6
0403FE20
FEB30189
FFC60007
01ECFD1E
FD7401C4
02180149
021CFBD1
FEED0193
02AAFCC0
FD810428
022EFEE6
000DFFB2
01CB0238
01BCFC1E
FDEF01AB
022DFF7E
FE96FE4F
01F700D7
FC3CFF89
03D90311
FCC102F2
049601AE
0198FD9D
02A3FF25
02DAFBBC
01F60268
FDF9FD9A
FCF500F5
0026FE99
FB87018A
FAE0FEFC
FFFDFE69
00A40112
FDC506AB
02CEFCA6
02DE005E
FF2B0124
FF62FD9F
FEE2FC57
FDBB0339
FF6BFCF4
FFF2FB47
FF37FEB4
FED5FDD8
00B1FF27
FFDC0004
01C6FDEE
FE65FDB9
FF190103
FDCFFD0D
FE4E00B9
05360117
FD3E0287
067BFD7D
02AA004D
FC4EFF2C
FE39027B
F9250161
FCA20129
023B00C2
FC6305FA
05BC03B7
F9B5022F
FF250556
FC9901BA
FD98000F
01E202DD
FD5FFCDD
FE5701BC
FF4300CA
02D303E0
0365FDED
04F5FCA9
052DFEF2
0509FEFA
FC3908F6
02E702D1
FDFA0727
FE17FDEB
F8C8FEF7
00FBFCC7
044101A7
FDD2FE16
0225FE2C
FD5F0342
FDE7F99B
0450FA1A
FC620574
01BFFDAB
FE6AFC90
FF2C0126
0319FE4E
F8A4FE41
FFF600D0
0548FF75
038BF653
FFADFAB6
FC510411
FFB7FF9B
000404A6
FD62FEDE
04AF0703
0216FF37
FC84FBC0
008E019E
036D008D
FF780239
0244FF9D
FE5A0382
FC9301CC
FD49FF8E
045EFC08
FE6B0010
FF70FAAC
FE4CFD69
00DE012A
FED8FAAC
FE2B0106
FF46FA06
04FBFC9F
FEFDFF1F
024AFDF5
FECBFFBA
FD3DFECF
FFABFEF1
FD0CFA07
FCD102F3
FF1CFE82
FFB60549
FC27FF55
FC1C0235
00A601D6
0104FF95
02260197
FFADFF7C
FF1C038D
FD6B0388
009E01FA
FDD2FFF1
0279FF21
0292FE8B
FE8EFD65
FF14FFB0
006BFCB6
FEAC0011
FF340209
FD17FFDD
FC09008C
00A4018A
FC51FFF4
FBEEFF87
019FFCE5
00290521
043B0107
FC93FD2A
FC0DFF4F
011F01DE
FD6A004B
0051FC91
FFC90076
00280177
FD8CFEE9
0209FFE8
035E01F9
00CD00AB
FD17FDA2
FB79FFCB
0518FF4C
0015FFB6
FE210316
0125FEBD
FF11FEE4
0004FF0C
03F90216
00C7FFA7
FF940471
012B0275
01AB0444
00DB002E
0243FEA2
FF9CFE0D
FB91FEDD
01810018
FE46FF3E
FE5B00C6
FF4FFE02
034F0108
01D5020F
004F023F
01470066
03620005
00F900E0
FD39FCD6
FED8FDA9
FD52FE29
FFFD02D7
0124FDC4
006EFD23
FFDFFDE3
FEC20175
FF73FDA9
0515FF3E
0215FF24
FF60FF02
0215FEE3
FB980433
058FFF42
FA69FBA8
080CFE5A
FA06FA7A
FF510185
FA46FED2
FE150679
FE670054
0006026B
03F9022D
01DBF93A
FD67069F
04830300
FE1306B0
0409FF8F
013B020B
00A4FC64
00FEF9B8
FFC70122
00D602A4
FC31FCE8
02560012
034AFEE9
00850349
05B0FFAE
FFEEFB6E
04D706F4
FAE4FB90
0710038A
036E0369
FAD709FB
061DFD97
F56DFF30
0255FCB0
FC840146
FCE3FF57
049A04CB
FFE8FAE6
03520042
F82700D1
020EFF11
096B0034
FF3D00A4
0043FAA4
03C60201
03A1FBB3
FCDEF997
042AFDC7
FFC6FEB9
FEABFE69
FF470354
FCD00439
FD09FD5A
060B04CA
FB680530
0502043B
FFC101C6
FFED0390
F70600BB
FD05FFEC
023B0761
0283FF1E
0127035C
FCD3FF67
03E905DA
05EEFDD0
03F3FAC2
FF69FE19
0290010E
FDF703BE
04B5FE53
FD110874
FF62FCC0
F5E6FF51
FECFFF0A
04D60672
F889FEA1
FEFDFF99
FEC1015D
FFE5F93B
04B6F660
FBD1023E
042AFF8A
FAB201AA
FD600507
0118FA86
F7E0FE35
FF98031C
0309FE65
0442FDD5
FD86FEAC
FB40012F
FFF0FF7C
054C0252
FD87FF39
04C9054A
007C0205
FFA40028
0144FEBE
00DE029E
01840161
FD78FE57
028EFD64
FF85FDF8
02C3010D
002FFFDF
03250323
02AFFE41
FDEFFF97
FD430260
FEE600E4
03EB02A4
FE7FFE8E
026702C7
FE49FFC0
0184FFAF
02AEFE0B
0103FD98
0006FF5C
FE19029C
FE0CFF60
FE8A020A
0182FE88
FEE0FF9A
FD1EFDF3
007C0142
00560085
FFF40281
002B0354
003C0371
FDFF0227
FF11FCB7
FDAC0075
00EB0021
FFC4FCC8
FBF8FD66
FDF400E6
FDFD0025
0397FCBC
FF5401F4
FF13FD1A
02B3FE59
FEE801DE
FE8C0038
FD7E0168
02A0FE21
003FFF37
FFCDF913
05AFF852
FCDAFEA0
00800482
F9080514
FE4003D1
04A203AE
FE50046D
008C01F7
FD170402
FBB60139
FA53FD92
FEA1FB0E
024C02AE
FC5BFF9E
03A009F9
F7DF0039
0405FD8A
0493014D
079CF952
087FFED2
FCE803B5
FFCCFF8D
06FBFD49
006406F1
FF8AFBA7
FAFF0018
02E4021A
0135FE13
FCAAFF5F
FF75FB01
039BFF53
FDF5FED9
02EDF859
009D02C1
FD0CFCE1
FAEFFD29
F7610522
012AF7EB
FF6BFEFE
01BB017B
00B9013E
04F90026
001E0069
F953057D
FD6FFAD6
03A3FBDA
0535FE67
032E03A2
FF73006E
016B0115
FD05FF14
FCC3FC19
001EFF3B
00400047
FE4DFC5B
02E701A4
0195FC70
FF3D0266
0520FD67
0599FED3
01A5FF99
FFB2FFBB
FD2A0312
02BBFFD2
FCC0FCA2
00E501A6
FD06018A
FD1001C7
FE0F0471
FEDD047C
00CC034F
FCD00009
0138FE84
FDB5FE87
FE3CFD6C
0203FF75
FF59FCEE
01B2FFE0
FB8CFDEE
02B3FE59
FE7401B9
FF44FFED
022EFEAA
FFEDFF7B
02F9FFDB
FE340307
01B0FDBE
FF6A0123
FF61FD70
038102BF
FF36022C
FF39029B
02F9FF25
0121FEA8
FFA6FFB3
00C8037F
FBB9FFC2
010DFF48
02D4FE82
00F9FFFC
0575FC02
033EFB8A
FEB804E2
FB3704E6
F9410359
054CFDEA
FBBA03F8
03C9041A
0068FF23
0191FDE4
FD7EFC62
FA43FD9B
015E06CE
FCDFFF70
000E03BE
FF70008F
018900AE
0265FDF3
04AA01E4
06520388
00350872
FD6404CD
02ED023B
FDB302A4
00530136
00D7FBD6
FFA20193
013204F5
FCC2F83C
06A8FF8C
FF0200B8
FF88FA2E
056BFC08
FF4FFDF4
0300006A
FD13FFB9
014B037B
0035FD90
FBE400A9
037202E5
0284FD89
0493036F
FCB0FFBF
01BA04BA
034E00C9
02F60133
0041FCE0
01FA0389
029C03CB
0378FD11
02F9FE0C
0330FE79
009E0220
FABE0034
00A5038C
FDCB01D4
042C014D
FF5EFF1B
03090148
FF81FCC6
FD6CFE8C
FECBFE76
0012FEE2
FE470310
FF8F010D
027B019D
FE96FFDC
03F80214
02BCFF2C
04DE00BE
0099FFAF
FEE801D1
000AFFB5
FEA0020F
032CFC59
001FFEC7
FBD60115
FF800169
FFF4FD8A
025E00F7
00E3FECF
FF5600B6
FEF40118
00BEFD6B
FC8FFFFD
FE15001E
FFA0FC5E
FFB1FCA3
FD2503E4
018FFFBB
04CAFC42
00B0026F
FFE7FACA
FE7DFD80
01C400F6
FE14FF6A
FC4800C3
02530135
02180021
F991FDBF
026AFBF1
0172FAA1
FCFB0102
01830191
FC3301C6
01A9FD79
FC54FEF3
00F4FEBE
FE25FCF5
FD8100A7
04A5FDAC
FDCFFD03
017203D0
FD3EFD50
012DFF05
FFD5FD26
03A9FC87
01C7FD4F
FAFE057E
02EC0431
FCDF060E
FF1FFE8B
029004EB
0031FF5F
028D0161
04E7FD16
00240697
02F40298
FEB0FE02
03D8FDDD
FC060154
00FC011D
0238FF35
02CC00DE
019B0580
0106FE0C
087F01CC
0205FCF2
FD19001D
0197FF50
0065F9EE
00CDFC91
023CFEF0
0353FE9D
073DFE92
FFF4052E
0022FAE9
01E1FD98
042904D4
009DFD80
FF61FB64
00EB01A5
FF2F02ED
FD8E0115
032FFE94
00130449
F90C02C6
00E3012C
00D604DA
FFAEFFE4
01A80527
FD57FE42
FF71021D
03A0FDA9
00E701E7
0362041F
FFEAFE72
04160309
FF9AFA38
0644FC9B
FD8C0105
FDBC01A6
FE58FF2D
00CF0713
03830229
FFBEFCA4
FE5C004A
F991004A
FF7604CD
F9840105
01A0009C
01E6FC6B
0683FB31
03E40229
00B6FEB3
042EFF38
FFD0FB37
FFE701A7
0130FF8C
FEB50192
02CBFEBE
01D0069C
0298FE55
FEB0FE15
0134FB85
FE3B020B
FB2400F9
051D02D2
03E402A9
FD86FDC7
FE0BFE1D
040800E5
0157008A
FDE1FEF5
04EBFFE9
FE83FFC7
0246FFC5
FC2DFC43
0327FF23
FE87FD10
007900A1
004BFC75
FF98F7C8
0198013F
FD63FDB1
059E020E
FD2FFF08
02E2006D
000300BA
02CC0180
FAC7004F
02B0FA0C
FC58004A
FFF300DC
0468FD9F
FF77FFAC
FCDB0347
FD3C0263
003D011E
0089040C
FFAB009C
FF8A0196
FF500671
FD8E030B
FC3B02F2
02B90338
FE33FBF0
FE01FEE6
0230FDD6
007EFF10
FF5EFD86
FE800399
007AFEB8
00D6FF77
FEF4FEEE
FC7FFD01
FAA603CC
058DFB7A
025BFE24
0154FAB3
041801A4
01FB0001
FCE30585
FF220079
01E3032B
005A039F
01D2FDA5
0481FD15
047F008C
FE7AFCE9
FC06FC61
FE32FD55
00A5FB7D
0143FE1E
006A00AA
0375FBA0
FDCB0002
013A02EA
03810114
053EFE57
014701C3
FCDAFC2B
FC810512
FE63FBA3
FECD03B4
0269FBC8
FE2103F2
FD4F02BC
FBD1FD5B
035C0033
FDEEFF1C
0172FF0A
FF9F0424
0148FD99
FDD9FF40
031E0303
01EEFB86
027AFC33
0133FEFF
0373019E
002A037F
00720240
FF99039E
FE3A03BE
000CFB97
02000060
F954FE8E
FEA5FF68
007003AE
09F2F95C
FF210161
00F50019
02CC01EA
F9D30083
01D9FA15
01570672
FEB300A8
FEC00237
02E60052
01A8F964
FD0A0076
0032FE37
FAECFDD8
05D8FECD
FC4F0181
02A702CA
FA1A04AE
04ACFDC1
02CBFA58
08350059
034905A7
02B403CC
FC3DFDB3
FF6EFFAE
033DF863
000C03ED
FDC3FBC7
FFB0FE39
FB88000D
007D0090
02C2FB50
016EF9BF
056FFE18
014E0430
FE31F94E
FEA10303
FD4EFE7E
02A3F80A
FE63FF88
FF20023E
FD1FFE68
FFB60511
0319006D
FBED02BA
FA3AFE48
0403FD5D
FCFC019C
026A0377
00B20029
01AF00F9
FFE00050
02590175
FCC4FF7A
0190014E
03C600FA
FB8E04BE
00E401B6
0213FEF2
FFD0016A
FF510089
FBBE02D1
FD3BFE93
FE03FDDA
0340FE5C
FF2AFE69
0683FFA5
FDFF0166
0124FFDC
0421FD1E
FDBBFD2A
025DFC87
FD260086
F8F605BD
FC8DFED6
FF2700DE
000BFD5C
FC41FF37
FF89036E
024D00E7
FCF5050A
FEA5FE0E
003EFCA6
FE63FFBD
03320171
FFDC0030
FF390102
FF17FAAE
008F0090
FE140193
FE16FE81
02150030
0103008C
FFEAFEEC
FBDDFDF2
00B1FEC9
FE7800A2
FA32FEFC
FE26FF4B
0140FF60
FDC7FF3B
FE41028F
0533028D
FCBB0137
0376FFAA
017DFF93
FB8CFF29
02C601DD
020FFD43
FFF00146
FEA8FCE5
FDB8FD88
012A0242
FFF6FC30
FE74008C
FE6BFE96
0284FD40
FF970134
006402FE
006BFFBC
02D2FB07
0057FEE6
FD7CFD5A
FEDE0322
FD84FE96
FF45014A
00F3010C
FD5A0264
FBAC02EC
0152FFDD
FEF902DE
0066FFAB
01DA0433
FED7045D
FF7DFD67
00E3FFE4
01B901AF
01350018
FA8EFF6C
005BFF5D
0055FF30
04DCFE34
0027FD82
FFD001C3
FFE3FE94
01FB0160
FDB2FDB4
FDB20188
019DFD4C
024A0676
FC5D012C
FA28F993
031FFC12
01F602C3
FB720130
0091FF8F
017BFF70
FDE500A7
F5CE008F
015DFE94
046CFD1B
02F8FDB5
FF4AFC89
024802D1
02D8FF8E
FCEAFF60
0253035C
FF2BFA67
00BFFB57
FF570485
06B50256
FCB30203
05CAFF81
01A7020C
FBFA0493
041AFE2F
04A5FE60
FA09046F
FC580318
0162FE9B
021A045D
FD1CFCD6
023502A4
0228FF4A
0393FFE7
01980780
FE0DFDA9
0538FE68
FF7C004E
FC5FFC49
FF460028
0275F639
FE8D0435
03E1FDBC
FDC9FA53
0225FDB4
FFA503DD
FD0CFE68
04A4FB4A
017EFC1B
FF0CFC83
051FFF70
049BFEC0
F870039A
FFB20339
FA5B0485
FF91FD23
FC5E0376
0561FDC3
FA9B0061
FCA0FB84
FB76FBE3
00740184
00C0FECF
F7EEFFA7
FF8DFEFF
FD97FD42
02D0FF4B
0266000A
02F3FD38
01F80042
FFC8FF24
FFC8FAED
01A4052E
0098013E
023AFE42
FE06FB46
017C03DB
0342042E
FF51016F
0496FC8F
001D0194
009AFDED
FEDF0308
FFF7FD0A
00ECFF98
FB60FD61
FF510712
FFE5FCA9
F9CD004E
030EFBD7
0412FE12
01B1F44D
FD61FF4E
00CD077F
02F70065
FF5EFDD4
0224FE72
00F90059
016AFF9E
026EFBB0
FFD7014A
FEF1032C
FE8D0126
FF87FE09
046D00D5
FB8A0229
01530065
0262FEF2
007E0084
01870017
FA99FF93
FE4AFE2C
FFFAFE10
014BFDEE
FF2EFEBB
047E0102
FCDE01CE
0193FFD3
011FFDFD
026BFD2C
020CF88F
FD960148
F8C803BD
00A300C6
0065FFEF
FF5DFE0F
FD06FDE3
032402ED
FDE805F0
FA8F011F
00E600D7
02F8FF45
FE650211
05790059
FD4FFE41
010F0096
0058FBAC
FE85FE01
FF98FEF1
0075FDD1
0001FF55
004101ED
004201AD
FD85FB34
FEEFFEA9
01E10184
FA62FFDF
FF95FFDE
028401F4
02D50024
010BFDE6
FF2E03E9
0204FF2A
FF90FC62
0365FE32
FBB7FB9C
FCBD075E
034EFCCB
FCF705C1
001901F9
FE000749
005507A3
FF7DFF4D
02D30409
03F501DE
FD7009BF
0122FE93
0333FF3D
01CEF9C8
0334FAE3
01A0FFAD
FFF1006F
FE040170
FE1E034B
045D00B3
FC3A0119
042CFCC2
04F900F7
069003EA
FB09FC73
01EB053E
FD2302EF
FDB401A7
01D302AD
FEB6FC7B
FFD2FC0A
FC590156
FC3BFC67
016F02BC
FC10FD5C
0951FEE9
FF99F93A
FEE9F6B5
06EEFF42
FEC7030C
FBDAFF20
020CFFF0
0482016C
00E0FBA4
FF71FE57
0243FCA4
F9D10067
007D02B7
FC8A0190
FFB501AF
020AFCC8
FAA103E8
01D3034C
FD770443
FC2B04E3
FFE1FCF2
FC450011
020C02E4
FF8EFD41
02C403C9
FD42FF1E
02F3FD3A
014200C8
041DFA5D
FF30FC90
FF6C077D
FC6E038B
01BD0156
0204037E
006F0229
FB97FD97
0377013B
017FFBA5
FA86040A
F96EFDCE
FFB603BA
FD8AFCE5
0343FA25
FF4E055E
FE9CFC4E
FF92FC47
FD2A0034
02C3FC4A
01F4FAE8
0349FE2F
FAAF028F
0362FEFB
FE360331
01E104FC
0049FDB8
0252FDC3
01CEFC5F
022B03EA
FD23FF27
00340163
02D9FE54
FD070620
03AE008A
FCD4FB96
035BFF2E
FED7FCB4
009D0324
01830594
FBF10594
FF2501DB
00A4011C
0166053A
FFD3FF08
FBBB033B
03C600EF
FA170638
04FDFF0C
002EFFD3
00A4FBC8
FE78FAC0
006B00B7
008F046A
0165FDE7
023F02A0
FFFCFE2A
FF1A0236
0699FDC0
00AFFE83
01450289
FE59F95D
02940235
FEC9FFCF
FE8CFFDE
0405FB21
FD0EFD03
011AFEB7
F97903BD
FEB201D5
027807B9
0088FF67
019F02C4
FD65FD07
00B8FEF2
066E01F2
FF52005C
024AFC01
05CB00CD
008102C2
0519FCE9
0249F8B3
043A02DF
06B8FE5B
FD720297
FD90012A
025900E4
009B0407
0046FED7
01F9FCC9
088DFFA7
FF78F715
F7FEFC48
FFADFDC3
01D1F8E2
01FE01FD
FE5EFF14
0551FCC0
F7F40445
035D00C4
00AAFE4C
06230076
0211018F
0020FAAA
FACD00FC
F877FE18
023FFE5F
FCFBFE6F
FA4A0234
FC3006EB
FD0AFC09
FFC606BF
FF3BFA4E
0538019C
FAE60452
007DFA79
009EFDFD
FC250331
01B2FADA
FAFFFB6B
FEEFFFED
0706FF4D
FCFBFD10
00B806C0
FE3A0483
FFD8FEE5
FEC0FECC
01EAFCD2
F87302C1
0139FF48
00DEFF72
FE62FFC0
0411FFA8
FC4B02D6
FF97000D
FD8B00E0
041F008F
FE10FD0F
FE4B042E
FFD7017B
FDFC03F6
FE4B00E7
FEF0FFA2
FF8101DB
014CFFC1
FD3100CE
023B04E9
FD1E03B2
013CFF3E
0116010D
01DBFDCD
0244FDFA
FEE7036D
01280283
0034005C
FFF2029F
01DE01FE
0042FE25
03A901E2
010C011F
FF7602B8
FE37FBD5
0257022F
FF500175
005F01D3
0410FF2E
FAB90152
02C0FE88
FE4003CD
FBCE000B
010900EC
000DFD6D
05AEFFF6
0049FF08
011CFC75
055C0379
0016FF59
01AFFBE3
0240FE99
025B0000
005C02DD
FE890122
FCB10053
012F00EF
028FFC3F
0014FB68
071BFE28
FDF3023B
0630FE2D
FC56FF0B
02AD0067
019A0352
0041097D
FFDD03FE
FD47013C
06DA0298
FBC2FDF5
02D505C4
FD7801F6
00E5012C
FBB1FEC4
FF02FF58
0013F6E4
031DFE66
FF2AFFF7
00400296
04210065
FC970079
FCA801B3
00FF031D
0579015B
F8D2059C
FE15043C
FC8604DC
FB12FF71
0295059E
FFA5021C
FFDE02DA
FEDDFADA
F858FF7C
FFD7FA87
F799FFCF
0922FDC2
FE010344
FFDDF8E1
FFE3F9CB
FC340509
FB4101A3
FCCF04FD
020CFE02
FBCBFEBA
026903D0
FD090380
FFDAFE07
0198FAB8
0210FE01
FEBBFB69
03BC020D
03B0FDA9
FF6B0266
0569FDAA
03C4FC77
01A2FF00
FF14010C
FBF40458
056FFDEF
FFA5FBB1
043BFDA6
FC6C0539
FC36FDBB
FF88011A
FAE40291
0115046B
FF0204E8
01A9FF42
FDAAF707
FC31F98E
03AA0220
006CFCC5
008F004B
FD70FD53
024CFDE7
FF29FD96
FDB10046
FE32FF57
FEF7FFA4
009EFF50
FFD50445
0120FCB4
FDBE0309
0188012A
020902C7
FEE002D1
0123FFDD
022C034F
03F1FABA
0022027D
0404026C
FB40FE7B
FBDE00D4
020D010D
0358FDBD
FCAF004D
033C02A3
FF91FFFE
FF72002D
02A4FB38
02140197
0213FFF3
FF9AFE57
00190192
00D2FED2
FD980295
006302FC
FD9503B0
03C503C1
FBF1FF2D
FE6F0476
FEC00236
04330071
0387FEE4
024EFFA3
0173FA21
0055031E
FF67FE69
FD5A0290
0377FFF9
FBE9FCBD
FE9AFCCD
FF9801BB
FFE60021
FC7802E3
014AFD6E
01060072
022AFBD7
FC39FFA1
FFA1FEF5
F9BF0275
002CFF25
FDFBFC0D
FDDFFDF2
FCCEFF38
0351FDED
0264FF51
0042FFE9
FE7BFC50
FD720165
FD7402E6
FE6F0483
04A5026F
03DEFFA9
FE1CFCE8
FCD6FF8B
01C001BC
030EFE57
FBFBFBED
04FFFD81
FB9EFD39
00A4FEDB
FA5FFC7F
011F0214
FF910467
0093040A
FF9B018C
0055FB7B
026C018E
0061FFD7
035C04F1
FEE4FD90
04F6FFCE
FD6DFFD7
01A8FE56
FE81F857
FEE4FE7A
FF56FD33
023B02D9
05C2FEFB
002E0005
00D301B2
FE4DFE62
03C503E0
FB76032C
013F045D
FEC101FD
FE360402
02A700D1
FAE00313
032DFEA3
00BDFE42
FA90FEF4
0405FD11
FF51FE56
0143FE9D
FE8A039D
01F9FDF7
00E5FD7E
FC7D00AA
FEA5FC9D
FC3102C5
0702FCC4
030B010E
FB46FC85
022EFE69
039BFD48
FED205F7
FB88020B
FED4026E
FF6DFDD1
FACA018B
0111FF90
016000F2
FD65FE85
00E9FD7F
FBBBFDDD
032DFEED
FE5EFE76
FF04012F
02A1003C
00B1FC11
038B01FB
FFC50317
042A0226
FE5D03A4
FCE601CF
027003D8
018B0449
0482FF13
0122FEDA
FD5F0675
FC2F0190
01330036
0237013B
004A006D
0256028F
01B80103
FFB90044
00D903A0
00D8FDEA
02B7FDAC
00CFFD40
FF1D01EB
056EFF55
0146FB2D
00240404
011800C0
FF7D0133
0647FEAD
FCF90077
FD0EFF23
048AFD8A
FAFBFB04
01C40357
F9BE05CC
FBB800CE
00FAFA9A
014CFEE1
04CCFBC4
01AC060F
07FBFE3C
FD420526
0613FF30
04FBFBC0
FCFC01D5
028605E3
FC67FEAF
0474FDF5
FAC7FAEA
08C8FAD0
F9A903E3
FAB3FE42
002E01D6
FA80FF3C
01250072
FB3EFC3D
F6C70388
FAF8F6EC
F932F7D2
0052FF03
FDFEFE3F
048CFFB5
F9BC0461
FB430083
FCC6FD83
02BAFFC4
FEB301DD
01EBFFE7
00CFFF12
FE8F06A2
FF6CF88A
FDEB0435
02A2FE8E
FF37003D
FCE70394
FE1EFD82
FEAF0248
FFBEFCDD
FB8502BE
069302C3
F76FFFF5
F793FE7E
FFE703AF
0293FCC7
FE9F007E
00E5FD5B
0131FFEA
F91401BD
005DFE8F
FF980248
FFBCFF0A
FD5F0281
022600A4
FFD3FC2B
FF6CFD36
FFB9FEA6
FFCB00BF
FF230136
FD4BFFB7
01B4032A
FD3B0289
01B4030E
02E401C5
03C10159
017802B0
02340833
0158FD63
0028FE92
01CEFCEB
02010396
FC8B00DF
FB420000
027BFE09
01C502B1
FF93FC9C
0104FD07
0165FFFD
00A6FD69
0165FFDA
FBF800C1
01C4013C
0319FB63
FE80063B
0101FF08
FF77FDB3
FF890527
01BF0186
FDE1FB11
02960197
00690358
FD3CFEDD
03A4002F
FFA4017E
FE70FF44
010B0079
03C40179
0081FF49
00EDFEE0
030600B0
FEDEFE53
0208FF22
FFC5FE18
00A20061
FF840054
02160120
013E012C
026FFE29
FDFA01F4
0055FCA7
00ED00C5
FEB0FFF4
00F0FFC9
FDFC0017
0098003C
FF2BFBBC
03C6FDA2
0083FE81
FF010133
014C024E
FF8B0012
FEE9019D
FF180299
0409FDA0
FD4D0314
FEE202CB
FE4E03BD
FB1003DC
00F4FC31
014F01A8
012AFE80
00D9FE6F
FB56FFEF
01E9FF0C
FD4CFF89
0802FE7A
FEC5001F
01E3FB8E
0401FE01
02C501AF
FDEDFE57
FEF1010E
00FEFD25
FEF50233
04F80248
FF2EFB24
FEE9FBAE
020804AF
FE18027E
FCBAFC6F
03830107
FF31FEC5
FFF7038C
02BFFE4A
0524033C
FECC0069
F945F8E5
00DA0376
0994FDD9
01AA04C8
FB0000ED
02BDFF6D
FE2FFF22
FDDC0369
041F03F6
FDF30151
01AF043B
01B7FDD5
FFA903B3
FE84FF70
048EFD99
FE83FD43
FC7002E3
FF42FBCB
03AAFECA
FDBD004E
00D4FCC1
0266FAF9
02A50305
03EF0190
FFF3025A
0243FFDF
017A0058
010F0000
FEC00432
FFCAF9DE
01940986
0474FE3D
F9FBFD26
FFE7FC64
044901E9
03A4FDDD
01ED008E
026301CC
0504FFC4
FE3BFE48
034DFCC5
FF5A0342
FEBC031D
FDFCFCB6
04FFFECB
FD3A01E7
FF330042
0312FD69
01CAFEC2
FC2A01CE
FC27FCF1
FF8C026E
066AFCF8
FF960013
FFB201B0
FE8A02E2
046AFDF0
0345000A
04E6017D
FEF10599
00D10028
029F026D
F9930222
0132FB3F
FF97FE0E
FCB3FDA7
01410064
FFE3FC9B
0430037F
FD02FBE1
FF9BFBAC
0631FAA5
FE250675
039FFE03
FC1C028C
FD34FE0F
0353FC40
0110FDE9
FCB203CF
0433FCA9
06010331
FF74F8C0
FCBDFEFE
FCF1FD57
000101D2
FE5A014F
03390346
00DDFEA4
FFACFD04
FE3FFAE8
05EAF732
018301B4
FD77026C
FA88FEFD
05FEFF65
FAF6FBE1
FECEFDC9
0687FCA4
0324F7CF
00980191
0278FA5F
FD2B007C
063600E2
FDFC00AF
0259FFAE
F8A9FF8E
00DBFC51
FEEC016A
026906BA
FF7D0998
0607FB6D
0214FBCE
F79F0261
FF29FEC1
FF1400D6
FAE90254
FD2904DF
FAB1F98F
053A06D1
FD6CF84E
04F50230
FF27FD0D
FC3903C3
00C1FF4C
FB1BFE6B
01C6FA83
FCDFFE4D
FDADF8AE
FDCC01B1
FDA4FD38
FE4806AA
FD5FFF80
FEF7002B
FD410145
FEA6FFF8
FB9C0116
036EFD8B
FF860182
0034025E
00D3FD5F
023DFB6F
01260015
FC5706B3
FF3CFF80
023B0378
01D300EE
00E201D0
FE6CFFB2
007AFCE4
0076FF36
0013FC55
02390398
FECAFA89
FDC1FF3F
01A30422
002D0217
0169011C
00BF01AC
01C004D9
FEF1FF4F
02910438
007FFF50
FED00217
0296001A
FFCC02B8
FA50031A
FA7501CF
FEF80187
FBC102B5
FFA6FB2C
FFC8FB26
0654F8F2
FCF4FD57
04D60156
FC53FEC2
01FD0311
0345FCEB
F9BC0543
007901A7
0355FB86
033FFAED
01DBFD1A
FACDFF79
041FFCE8
003C02EF
FFCCFE4E
017A036C
0147004C
01D0FD00
01BA00D3
01200244
FE750193
00E3FD41
07BB00EC
FA52FF7A
042EFDA1
023EFD59
00E60352
01F1008B
FDD701F4
FDC6FDA8
FFB6FB5F
02BA0024
FFE8024B
0086FA9D
01F00178
0112FF54
FCCFFC7F
045BFF45
00E8F9F0
FD20FF6F
FA9B002F
FE590092
008F04C9
FD43FE18
FF05FD0F
FCB500D1
FE1303A4
FB22020C
01260211
025D00C2
FD4C024B
037501DA
F62F0034
000F02A2
FCCBFF4F
FD33FCF3
FE2CFF0B
FD8A0089
FFBC003F
004B030E
00F402F5
02BBFE85
00DDFE55
002C0311
FD68024F
0022FC53
FFF0019D
026BFFFF
FC1CFC61
FFA5005B
00FBFF1C
FE7100D4
04E9FE20
03C5FEA6
02A2FDA8
FB020187
02AF020C
02AE00D7
00A6005B
00CD00DC
015F00E7
034CFFAE
FF3A0281
0019FD12
FF430210
00C70228
FF560096
0223FDEF
005EFFD7
007EFF79
006BFE56
FEFC0201
026004BC
01EBFEA1
01A80002
FDDCFEAC
FD150121
FD9A005C
00E6FF62
00EFFE9A
FE32FFB7
FF0AFF4F
00A2002E
01AB03EC
FF0200AB
FDDE0293
029B0021
FE9103C8
0087FFBB
031BFFAD
02AB007A
03F6FF92
FEF5FEB4
0283FCE0
FF030262
02F8FE1B
00C3FFA0
0046000B
FBEDFEBE
01230080
01D7FD8F
FF1C004B
0314FD11
01E6035A
FF7DFDAA
FEAD0142
031F01B5
0051F9BF
039904E2
00E8019E
FDED045A
05F60076
FDF4FBBE
049C0366
FC6402BA
FFAD014F
FF3002E0
00F1FF86
FEBEFFF4
006A0060
FF7EFD57
FC76FF06
00C6FDC0
011C0074
FCEAFF92
FA94FE4B
0051035C
FD18FF9E
FF4D0042
01FE01A2
0171FF92
0096FD35
02360114
008C0435
01F6FC87
FFEEFF1B
020401AD
FE19FF60
02C9FCE4
FF6B0477
0058FDDD
01580006
FFD900A5
FEBA0150
FA21012F
017EFDFA
FC6CFF25
02E405AB
F9C60118
FE4EFA48
0385FA0E
FFB500A1
FDA4FBB6
0449020E
036DFD82
00F40456
0466FE00
0540FEC7
029BFF82
FE290297
FABC06BC
0238FC1F
FC02F6B2
04D0016C
FC4901EB
FCC9000B
012F0561
F9CB053C
019B0151
FE5F050F
01ADFFFC
FB1BFC56
FC82FAE2
037301C9
FFCEFD26
015E0284
00ACFD74
FFE2FF5A
FA400035
FF490232
0376FB8F
FDBEFF7B
0429FF2A
FED0038F
0304FAB8
01380280
0033FDBD
FE7903A1
007001D9
01A701B5
00C2FDD6
00FFFB2D
FFDC0275
03A60377
FA27FF97
FBD70229
FC2D01A9
FFAF05A4
FE54021F
FCAF03BF
FB2FFD0C
06D80026
050701E3
F6D70091
0256FC4F
FFD0FCD8
04E8FD65
0265FE7C
0199FBAF
FD7CFC1B
FCB5FD7F
0756FC7F
01D1035C
00B8FAA1
FF1301C5
F805FD98
FEBA0209
F96AFC32
00C1F9B7
FF4AF987
F6F706A8
001AFDD5
FE3F0530
0142F9C7
0156FE9A
003D0043
03380025
012404E1
00890114
013BFF1B
FBA902BD
0241038A
FC5C01A2
06C00649
01E1FDE2
FE0E08CF
0232FE4E
011F03E8
FB4D03D7
020AFDDF
FDE904A6
016BFF71
0012FB55
FBDCFE0A
02DCFCC4
FBDCFF28
026BFFB2
FFC4FC52
FCFBFDCF
0526FFC8
01FAFF65
FB0F0041
0289FCE2
017404B5
FEFCFA17
FB700023
03ACFF54
00FFF7A8
00370375
018F00E2
FF5DFD25
03FB00B7
FDD8FD36
0737FD21
FA740367
022103F3
FA940045
FF440114
007F00F8
0082FE37
FF2DFAB2
FC900196
0195035F
FCCAFF66
F981006D
FABE0455
FFE0FF7A
FCA202B1
005BFDFE
00010176
FD1A0175
FF1100A1
FE160151
00F604FC
026EFB98
FBF0FE5F
0571026E
FC8B0297
0174FF9E
00330185
FECD0385
0091FD36
FD5F0022
FF7800E0
F79F0239
01C5FE51
028FFE13
0250FDCF
FF730458
02EB015A
FD15FF99
FF99FF65
FF9A00B6
FEF203D8
FD56FE06
0108FE1E
013CFED5
FF7BFB81
FE46FFE5
01AE00F9
FBBFF8B5
00B0FD86
FE53FD61
02F2FD2D
FC4A02EE
01B6FFF5
FDA6FEA1
FEDEFE3E
FFD7FF99
FF18FA6C
F98EFFC8
FE26FDA3
FF5C00C6
FFF9FE34
0049FFAF
0355022F
FBA7FEA8
00C50524
FDAB015B
FC8D00EE
01210452
FD0203C1
FE5AFBE6
01590355
00D0FD78
FEB3FDCC
03AFFA8E
01A2FD8F
FEDA0377
FFB70117
0108024E
FC430546
FD0AFF1D
FF1AFB15
FB68FE0A
FDDC0056
FFABFC37
0450FEFA
0029FF64
FD1D01D1
FE810047
FE8BFE25
0173FFF8
022BFD55
FBFB03C5
00A8012B
FE6B031C
0206021A
FB6B00EA
01BC00AD
0047FE8B
FE450251
02C10453
F9F30351
043B013D
025300FC
0123FA96
FDB7F9EE
018B016E
FD09019A
FF56FEB4
01FB00C9
005901DE
FCE901B8
050EF98B
004AFDCE
FC6C046F
0144FACF
04AD0567
FF44FCF7
FE2FFCEB
0377017A
FF4DFA41
0155FDA2
FC9300E8
FF58FE3C
025A02BB
031EFFDE
FE480104
006CFB0D
FF980354
06BF02B2
FDC9FF01
03F5FD17
01F6FBF7
00FF01A2
0343FD65
FBD1FB3A
04360147
03BB025D
FD3101F5
FE2FFFFA
0231023E
FBC4FD5A
01BBFBE7
0189FA8E
01060006
FABDFBE3
FF53FACE
008FFFD2
0220FB23
FC53007A
0251FC9A
01D8FC7B
00D7FC63
028804A0
F99401F1
01C5FE19
FC12F9B1
FC73F7C7
FCB9008B
00C3FD81
029F049C
FFFDFCC5
FE1C02EB
FE60FFDA
FE7C0366
01CD0086
FE3B0360
FFFB049C
FC52094B
0134FD34
FD0601FB
0272FBEB
0198FFCD
FCBEFB30
0411FF82
0563FC72
FFCE004B
FF7F0090
0246022C
0274006B
030F0038
F947001C
FBC60178
0127FA60
FA9201A7
01B4062F
010D0246
FAD90287
FFE1FD66
05A6FE9D
FBC6FE13
FE6AFD59
0506003C
FE810673
017CFEEC
02F40502
FC8000BF
FB0F0280
00110347
04720135
FFBDFCF3
02C80213
01460468
FC48FE5E
06CEFEFA
FD85FDEE
04BCFA7E
F895014C
F9D30657
FDAE0328
FC08FFEF
FE95FBD8
FFA1FC08
03F10130
03E2FD5C
01590469
FE390373
02AAFE48
00400087
01E6FBE7
0504FE8C
051C02EA
FE2FFDC7
FEC804FA
0431FC3D
FB7A05B3
09650158
03A3FE62
FDFBF995
0356FD29
FF3E0264
00E3FE6C
FF62FEB5
02FD0362
FFA9FD1C
0757FDD3
FD83024F
0355008F
FE2F0277
006E0356
036AFCD2
016C0218
04D6FD66
00CE0087
05FB01B3
0481FCBF
FEB0012B
02340111
FDB2002E
03520254
FF56FF5E
017CFCD9
FE9E0561
02190294
FFBBFBBF
FFB5FF80
01CCFE3B
FEE2FFAA
FC4AFCC5
00ECFE69
FF6900B0
FD360211
FDF6FC69
FC2200D4
FBD200D7
FF4901D9
FF75FED3
0358FDA4
012FFF56
FE84F950
FE4DFA72
00000419
FB7BFC5F
FAC7FD8E
00150114
009000F3
FD61FFCA
0194FF1A
FF9F0395
FE4FFF80
FD3600CB
0014FF78
FEF50898
006B0071
003BFF4B
05E5FDCD
05120074
00300215
FF7C00C8
002301B8
0278FF83
FE130151
FFF4FFC6
072CFFA3
0173FF79
01C101A3
FCC2FBFC
F95EF9DB
00DFFF3E
050BFD9F
00CF005D
031AFE9E
0424FF1D
FD7F0224
01D2FDB0
FD8EFF0E
02E4FDCB
FAEE0082
FA280337
FC6EFFF4
FE0505A1
00BDFCFA
008FFC32
FE2300B9
FD0AFEBE
FF52FC58
FCE005D7
0204FFA9
01F0FE14
035EFFF0
FF0AFEC0
0608FFFB
00620076
003EFF3E
036AFFA7
04D00331
F9C80253
03FD09AE
FD540333
010C0268
FEC3FB63
01180276
FA9DFCB1
FFE2FCBF
FCBD0070
02FE01C7
018EFB18
00D1FC79
FD6D01D4
000F03E5
FBC900BD
0541003C
FD630116
0232049C
FE2CFDE6
013501F2
FAA70205
FBD3FEBC
01620335
FF1D0072
FEB8025B
00B2014A
FFFF0272
01850214
030800D2
026E0202
028901E5
FD1F0A4A
05EAFD53
FB980521
FD7FFFDF
FF34FCDB
FF09FF20
01E00524
0002FBD3
0347021E
FDCDFFE9
FE00FC4A
061EF942
FB910161
02C1FF1A
011801BA
0179FF86
017101A9
FB72FFEB
FF060436
0AC7FDFA
0424FCAD
01FEF9B8
FE94FF2D
037BFE37
023D0266
FE1BFD39
044703CC
FF6101AD
0241FDEF
02A0FBB1
01C8FCD4
FCBA0438
005A02DF
F8850196
017E0398
012800DA
08920268
FE6000E7
FFA2FD24
FAF301BF
FAD1FF20
0074FEDF
01B1FE6D
FDC5FF3E
04560104
FCED0246
04C002FC
FF3BFF54
067BFF37
FF8E0201
F79A03AD
0274FE9B
FBAE04D9
FF2E001D
FD0EFE1E
FC6302BE
FFCC0322
004EFAED
04620477
FC36FE3E
004AFE8C
022AFE16
FC39FC41
00F2FF48
0098FFFA
0063FC7F
FDACFC23
011C00A1
FE27027F
0404FB23
04D502D9
019AFA84
FE2EFD08
04A5FE0C
0102045A
F9F8FE69
073EFF2E
FEFAFB6E
01E20073
041AFEDF
FEE7048D
FDD5020E
FF80FFD0
03420102
028DFB91
FA4B046A
045701B1
FEA406AD
FFBB011C
FB0BFF18
00A6047A
005600B9
FDBA0383
04B1035F
FA2E0356
026CFD85
FF6CFEA2
02EEFAE5
FDD0F94F
02CD0257
FD970067
FDB2002A
FF3F0004
0043FF48
FD95FF2C
0338FB41
0232FF2A
FC8D0483
FFB4F99F
036A0335
FEF4FDD2
FDDC000E
01EEFF42
FD88FC1A
FEEAFDE2
FC440113
FE0AFE45
FF4D0318
023C00C8
FF6B01BE
FFFCFC73
FD3E03EF
078D0472
FC860024
03BCFD28
0192FF1C
FF13024A
FCBD00AE
0416FD0C
010302D1
FFFA04AF
001E0391
FBB9FE2D
032CFDF9
FEA50052
042E00C7
FF8B00D6
02C002F0
01A6FF11
FF0700BF
FFEC014D
FE1401C8
0005019F
FEFFFF7D
FFE000BA
FE07048F
02430094
018BFA5E
0620FE2E
042FFB92
FEDC0157
FDD4FF57
FE55FE18
FE11FDDD
FEE10021
FE5BFB85
FEF3FFDC
FE73FE8A
FFE60350
0165FFEA
00FFFE25
00A801CB
0039FE22
0075FD8E
001B0262
FC76FC87
FE5FFD13
FFE20072
FF57FF34
0152FF88
029BFF18
FFDE00D1
FFADFF4D
FBC1FF8B
006DFF2B
FC4201F2
02100015
FDAB0201
02EDFE70
021BFEF7
FD330372
FD07023E
FE8904CC
FF4D03EC
000E00A3
FD200338
02180327
FE3003E4
FD92024D
FC58FEF2
FB63FFA5
01410459
FC05FB23
013C0221
FFC002D9
02FE0446
031901E2
00D1FBC8
0150FE2A
00FFFF4D
FC2202F1
00180130
00BC0637
FFF6032A
FB21FF30
0187FED0
0173FCB3
FBDB0007
000EFE8A
01D3FED8
FF77F9F9
081FF934
FEB1FFB1
02A2FC12
01AB00A6
FACE035F
02770003
00A40143
0244FDCD
022602C0
08DAFBA8
0107FC83
00F202AA
01A8FC5A
020C01A6
FEA7FDF5
04AD048C
FE770348
04BC0324
FD2BFF0D
01B0FE1D
0291FCC0
0039FFA6
02E1FB98
FBD1022E
03D2FDFA
FE0C02F1
00FE0077
01C7FCA6
02E7035F
0124FBDD
FDF6FFF4
0488FD59
FDF1FC97
05060409
FDECFF6A
FDD2006F
FCC80011
03E701E5
FFBAF990
01B60723
FD63FF79
FE93FDAD
002A0122
03B1023C
FC0FFA7D
FB0F0119
02A8FF23
0204063E
FE99FD61
FEFAFCE7
FF4E046C
02DA009F
00F1FEA2
019E04E9
016EFE42
015300DD
01880105
FE0201A6
01E3FFF6
FF3C04CE
036AFDA6
FDE4FD96
FC94FFD9
01380163
FBEF0285
FF4700B7
02E704C9
021FFE3A
FD69FD10
00C200ED
01B001C4
FF5FFBF0
03B8FC06
002BFFBD
0009FF27
FEECFE56
05B9013A
0296FDFB
FFF30127
00040206
FF91FFA5
04370392
FDA20026
03100452
FD8900A1
02CEFC79
FFFB0107
041401B4
FEC7FFBC
02F600A9
007DFCFD
FBFC02B4
0434FC2D
FEA1005B
FB38FEF7
FD550350
0134FF32
017904EC
022600F3
014902DD
FE410087
FF9E024F
FEBF017D
FDCB021E
008CFC1F
FC2BFB4B
FF25FA75
FCC8FEFC
0404FBDD
FCF5023C
01E8FB33
FE92FC50
FAFA0401
FFE4006E
FD13034C
0493FE2E
FE0401EF
096DFF1E
FF43FD24
FD0BFFF1
0446FDEB
005DFF67
0092FB47
FE260326
F94D0058
0110038C
0171FFD2
0216FF2C
00360052
0087FFF1
FF2A04E8
0397FD65
006AFE32
016102DA
FDDA0350
FFC5FF3E
045BFEA4
0275004B
0334FE48
FE28089A
FAD40242
FB96039F
FE7B0ABF
FFAAFF05
FE6CFA42
FE480325
00E60172
FD5F01BD
F95B019C
02A6FABB
0394FC9A
037E03A4
015BFD7B
04B2012B
FF9BFB58
FFC900A8
0334FF94
FEA0020F
09C9011D
03CCFC7F
FECD026B
FEE0FCF9
FEA0FE08
FFAD021C
FBB000C6
FDF20406
00A604D3
FDAB009D
FF54FB70
FE87FCE9
024B0275
FAC2FF2A
01D70074
FF920049
FBE00147
FBDBFFC0
FBAEFFFB
008000DD
03F5FD20
0052FA51
0436028E
FD26FF80
FEF7064B
017B019A
01B2FD2F
015C0068
FF6B020C
039F03CE
FAB700DC
03A701AB
040100E0
FF830353
0208FEA2
03330156
FC8905C8
FC560059
020700F2
FED20350
FF46FE70
0246FDAE
0131FE7B
00F3FF4A
00B9051B
FE5CFCAF
03DC03EF
0020FFA7
FE7F0109
0091FE72
000AFCDF
003C03DF
01FEFF69
FAA702F3
017EFC74
00650011
FFDAFF5F
05FAFE7C
05E700EC
0254FCCD
0485FB40
03210240
016B019A
FDAA0187
01F9002A
FD08032E
FD4303A2
0526FBCE
FC4C0317
FC6D018A
FC0305AF
FC58FEF2
FF9F042B
FD42FDB3
0256062D
01DB0645
036AFE17
04710270
02C0FD71
0595FA86
FF27F92C
00DFFF8F
FC1705BA
FBE8070D
048400CE
FBB3FB2D
FDFD01FC
028C052C
01A809CD
F3D8FFEA
FBCF032A
03650163
0541FE0E
FE76023A
FFE502B3
012EFAAE
05550368
FEEEFCB0
FCD6FCDB
FE4FFA36
0721FCBF
057DF8EF
FC48FBCE
FF7D093B
0182FC57
F7CA0471
FA5D0353
04E30284
FD78FCC9
03FA02BA
02140176
02150395
016A015A
FE5302CA
0406F813
FFC60641
01770031
04E602D7
0527FFBF
02A802E4
FA9C0398
FA39FF71
FF3C04E2
0815FC26
FFD90302
FFD50279
FE180446
011B0359
01BCF875
0455FD33
00E0FCEB
FA3A027B
FB1B0098
FE2A012C
0012FF38
FB22FE11
00E6F985
FF5100B4
FBC3034F
FAFB0115
FDB00604
0229F856
053BFA6D
FE6F0119
06D9FE92
038B036F
FBBFFBCF
F92800F5
02F2FF42
FE780232
03CF0072
072200CF
FC77FF2C
FD3DFF27
FBD8FC08
FED30255
FD140276
FEE402F5
FDD306B7
0579FF3C
FFA2FCEC
FA8BFEE0
0147043A
F76E0391
FE74FC63
025C032C
F7C7008D
FB390463
012B01E5
01AD0144
006D0058
FD3A002D
FD9E02C8
00A7FE1F
018702E2
FF62012E
FF4F044C
008C0342
018802D6
0659FF7D
00780662
FC1E02B2
0155FDBC
FDE60484
FF96020E
FF1CFEBE
02DCFDD9
FFBBFE76
FEBBFFD9
00B5FCA7
FF5C0384
FE68FB41
0690FB9C
F7490303
02CDFE58
02EFFEE6
00DE0396
02B3FE31
01DFFF72
03C8FFA1
FB9A0097
05E9FC9D
FF73FEDE
FA880346
FE26FA52
03D502A0
FCC5FE31
01D504AE
021AFE7E
00CBFB02
01A5FFAC
005A017D
FF78004F
FC42FC59
058902B1
FCA40100
01E2FDDC
FF21FE24
000D005E
FF99FEA9
FECAFF3A
FF38FF5C
0219FB34
FC5D00DC
FEACFCFA
0375FDCC
FC04FD20
028300F5
FB60014F
01CFFF27
FE04FCE9
FF40FD79
FE12FED1
010900E7
054B0319
FF73FE9F
FD74008E
FEEA00A5
001503D8
FB260311
00020122
FFD00186
FDB404A3
FF7A0000
FB9501C4
00C3FF91
01C7FD3A
FADDFDFC
00CAFF58
0190FCD1
014DFFE1
FE7803AE
02950301
01CEFE21
022D003C
FD06012C
FB00016F
01A6FC51
FC0B03E7
FF540140
01C5FBE9
FD4C0147
FE2C01A8
FC1E00CE
01CAFF40
FC98FCFC
016E06D2
FF5403DD
03B9032A
FFA00650
FF61FCAD
FC23FEF3
FF0D04D6
020CFACA
03750527
FD5C044A
021CFDB1
FE9F028E
03B1FD20
045BFD8F
FDF3F9F7
FB4707C8
0473055C
03350985
FED1092F
FEF0FBB8
01E0FF3A
FC42FD55
027CFEBF
FF7FFFD2
004A03DD
FCEFFC6B
0554F94B
FD23005A
0300FFE1
028C0120
FEB0004A
FFE40218
FFBCFFA4
01D6025D
00D90168
052B0039
0135FF57
0003FF87
02AEFC25
0071FFA5
00EBFD70
FEEF05BA
02CFFCCF
FDBAFDFA
01F2FE9B
00CD0084
028801BC
FFFFFDF7
02CE0282
FD80FC04
FF7404BD
019CFFBE
FDC0051D
FF390290
FBCC0414
FE1703BF
FF480087
FDD20519
03830099
FD820813
0252FDBC
02B5FDBD
0407FE0B
00CDFC38
FF4A02A6
FC39017F
01270237
FCF70257
0230FDD4
FD8AFDEB
028B0407
05F701E6
046B00F1
0004FB0B
00530309
0041039A
FD5B009C
036EFEC5
FEC60120
005BFAFD
FD86FEA9
FB12FD49
FF86016D
FF2AFE87
06C1FE23
FDF5FDAD
FA34F926
051001E7
01220225
FC09FD89
0143FF33
021EFC1E
030E034B
007FF8A2
02C7FF8E
0559FE67
FF890532
F6300680
F8A9027E
049B043D
0063FB81
FCB9FF6E
0452FB80
008BFEF7
001AFA79
FD20FAFE
00BBFF68
FE6AFBED
F9B501C9
0525FCED
FD85FFA3
05B30572
FD9A0018
06DA0502
FF240121
FF98FEBE
0490FD74
FD8304FE
01A8FF3B
FEF2FFAC
FAC701FF
0074006D
F9D8F74D
0817062B
FCCFFC73
FCD2FF27
0573FE00
F5B3FFE9
05E0FF75
FED603D0
FF71FF6A
0073FC00
FE42FDA1
055601B0
FD71004A
06C90271
02330540
F71002B9
FE2CFD0B
FE1AFFEA
FC8E00C9
05F70172
FF55005F
FDFEFF9A
03D5FE54
FE36FCF7
FE52FEE3
FD9C0194
FF2000E7
026AFD61
FE3B0157
02BE0125
FCCC0350
FEBDFD07
FDC3FCC8
0270FEF4
0108026A
F7EF0083
005D04D2
FE420363
0484012F
019FFFE5
FF67FEFB
03E700C7
FC8F04A3
03BD00B4
0281FF9F
01590308
02A1FF72
FEE500F3
00EB0063
FF02FF05
FB740016
00FBFCF6
03D7FF13
FF49FFE0
014F0188
FFE7FBE5
FD7CFE64
FC90FDF3
FE5B06A6
012FFF09
FCF7FE51
031EFCE4
00490178
FFCAFC6C
00CF0109
020B057C
00CDFE67
0539FED8
0322F9BB
01D300A6
03DD02F4
0273FC77
0424FCDD
021803D4
00410315
02780130
007801E4
FABE0376
01A201C6
0479FC8D
FF7E043E
FFABFFAE
FA46FF9F
FA88FCF5
FDC8FE11
031C0014
0239018D
01A7018F
01B7020F
02D00183
0491FC1A
069EFB5F
023AFB62
FB36FE28
FB7FFFD5
FD1E0314
FFE6FD60
FDB3FD5B
FBCB0097
039BFF4D
FF9201D5
FB900084
016901F0
03F10068
03FCFFFD
03ECFC43
FE08FEA9
0159FBCD
FED0FDCC
FDF2FC89
FEA6FE96
FF3E0347
0332FBDB
034900FE
FF2DFDC8
00E2FCBA
0229FCBC
FCE0031C
FA350385
03C7FFBC
FAA2007D
023E0516
F991FFB5
0017FCC0
027DFD6B
FEB40039
FD80FD42
04A502AB
03B0FF54
FE2B0495
071BFD26
059104B6
01840267
FDB70186
FC830621
05C2FD37
FE3EFD1E
021E001A
FD12040C
FD96FD4B
FFA40353
FDDA00F8
015EFEAE
FF4207B8
00A4004B
FCB90052
FC6C003F
0287FF32
FDFEFD59
FE140265
00C8FEA8
02010133
FDFC00FE
FB9B0055
01B9FA8F
FB860005
0425020D
017A0390
024BFB0D
01B40488
023FFE28
FD680318
02B102B4
0353FE51
02450005
FE55FA26
004700DE
057601B8
FBE00100
FD3605CF
016401E5
FF33004F
01090122
0060FED8
01AEFF29
FE74FFB0
025AFBE0
FE7DFB07
01EC01D7
0174FF02
032302B5
0005FF75
FD81010E
FF220303
0029FF4C
033C036F
FCD30081
FEF70401
FEBF02A4
02D0FF52
FE84FB67
00700015
004BFBFD
FE3B0050
000601AD
FED804EE
0059FE69
F9820078
FB3DFE03
00270430
02CD0027
FE510453
0049FEDE
011C02AF
FDCBFFB5
FC80FEFB
FF44FE92
FD5300FD
FD0AFEB3
FCF2FF90
FD9002D3
FCC70029
06B1FE1F
FF07FEB4
FFCDFA0A
036CF9FE
FD6A0421
FADA016C
FE440299
014A0004
0277FF78
0096FCEF
FF6BFE3F
00F8FE9A
063B00F0
FB24003C
FF45FE17
04590428
F78A03FE
010702D1
FD98FFD8
FFEE0184
FC750299
02640139
00F50332
FFE1006F
026D01F7
FEE30484
001AFFB5
027DFF41
03A0FEC6
0410FFA6
FF9C0854
0128041D
0728FF08
FF5A0288
0143F9F2
00A8026C
0117021D
00ABFFF1
FEFB002C
0033FB33
FFAB023D
FF67FB65
FF75FB05
019C03FA
FE43FDF2
FCDF0010
FF7B028D
0586FCF5
FE9A0442
FFEB0070
FFA7FCDD
FF9B033B
00970088
FEC70383
FCEDFF57
01A20033
FE00FB26
00F1026F
FEC6FE4B
0088FBB5
01DC01B9
FED40313
FC0E0405
00A6FFBF
0054FF04
009E045A
FE26FE47
053F003C
01CB00D3
FFE8FC7F
FD13FA3A
FCCB0023
FD7CFE9A
01E4FE67
FF9D0120
01BEFAF9
009F00A6
FC4701A2
FF12FFF5
0280FD55
FFFC0081
FBB0FC28
FC5C0434
FCB3FDDB
FCF40753
043CFDA6
00160097
FCFC01DC
FA9C005A
0219FE2E
FD5A017A
007EFFFB
FF910129
047AFD0E
FED0FCF7
03D70217
028B010A
01E0FB28
017501E5
05260220
FB5E0592
013301D2
FE4A04F3
007F022A
013AFCEF
03F40144
FAA5FBCC
FC0CFE7A
00F100B8
028AFF85
FE49FE49
03FCFE5C
FD7F02BA
01C8FEAA
012CFD5A
019D00A4
02670001
FF050025
026BFE77
0272FD05
FD83FF26
FC650065
FD80024A
02440012
FF4EFFCC
FD52FE8F
FEEE0266
FF53FF30
0109FFFB
032B0006
FFB300D6
FFCD00AA
031F00DE
FAE8004A
FEC9F9DF
005AFD9A
FF3AFEE4
FDEB039A
00D3FECA
01BAFEEE
FEC4FF2B
02290104
FD5AFF64
FFE6FE02
FF590082
FF880177
013DFDB3
FE5EFFC8
FFF30048
FE70013A
0276FB2D
012E006A
00B7FF8E
0157FA7D
00A3FFCD
FE82028A
FCEB0155
022FFE2C
FDFF008E
038EFF01
FF92FE6C
FEB5FDC1
FFB30104
FD1FFEF4
FF23FD21
04C10057
FFFDFB65
01BE03FE
0ED7FD5E
095FF7EB
0163FBBA
FCB4FE3A
FFC70038
079AFC44
FCE8FCFB
03EDFEBF
FBF20207
FEF60184
FBDF0558
02DD0318
FF5B0063
FCBF05FF
FCD2FEAC
FC76FF97
FCA40325
00DCFEF5
00E4FBC6
F34EFD97
F9E8FF7B
0128FF0F
FDC3FF02
04F6FDCF
038D012B
FE81FE7A
019CFFF8
012A0499
0618FF03
0265FE5D
0175FDD7
03B60481
FBBE0213
00D301DB
009D03C0
01B100AF
0021FC5B
07C9051B
FD0BFD4E
FDB3FD76
FA8AFDE3
0A6204A0
FECE090D
FCD1029E
00D1FB7C
FEFC0082
01F1FBCA
FE3002A6
04F9FFAC
0294021B
0D4BFE92
034D01E6
014FFCBB
FE2302A7
FA8C01B5
0473FDF7
FFBFFDEC
0032FC81
FBA50653
FB6703D1
01A5FF96
F961008E
0812FE75
FB810229
F783FF64
FFEBF907
FC1EFEA9
003F0301
0396F6DA
007EFD35
FB4E03D3
FDA9FCFA
FF0800BC
FE42FB94
0455FF09
FE9E00EB
0124FA8D
03710775
FC79FDAE
FFE80435
022EFE46
03BB0136
F94F062F
026F0227
FFB9070C
004B0373
FAE5FFEC
03860100
00F9FF86
FA1D06DD
01DF02AE
0472FBA6
FE800034
FF0F0114
027EFEBA
FF29FEBE
005BFB58
FBEA0230
00AA0022
FF42FFCD
FF9E014C
0289FC4B
FE2502F9
022CFDFC
FDDF00C0
030301D1
FB55FDC7
044A0409
FB9100E1
06E8FD9B
02EAFC97
0337004B
0069FC12
02E90497
FC13FFBF
F9EC0347
038EFE3C
FD3202D1
FAB6FC41
006C0035
0122FE96
FDF00590
02F8F9E9
01C500CF
FFF1FE5A
029CFFE3
FCE9FCA7
FB0D0377
FEBCFC0B
02F1F9F3
FCC20095
FE2FFF1D
00B0FD67
FD5D0268
0059FB43
FB97FCCC
FD2C027D
FE4CFF26
FB1E0190
071FFF40
FF02034C
0A77032E
0203FCF3
07F8FE2B
00C60093
FB21072F
021EFB8C
02B306F0
014C0248
040702B2
0743FFF3
026A0019
FD26FF03
FDC9FDEC
F9B50BC7
04EEFB08
0363069B
FD7F031F
02A003C1
FFBC02BB
0943FB01
0A910264
FEA5FFEE
00280B96
05770427
FEC9017B
FF7E0164
05570138
0157FF0B
FA2D03CA
FD73FC74
0169FF5D
FB9E0085
0051F8BF
09A1F626
FC4EFD44
0938FE9C
0207036E
FBBB0200
FFA7026F
FEEE079D
FEB10214
044DFF70
071CFC52
0299FC31
FD1F0271
FCC4F912
FC240114
03970677
FFA80C73
FED2FB19
03960062
FD9F02A3
FFA60533
00D2FF8A
FD57005A
FF56FF66
FF74FC32
02610359
FE580244
017203B3
043D0257
FF2E07A2
020605F5
021B03B7
FFC70614
0170F8BC
FF52029F
FFADFFD0
02FE01CF
0364FCE5
FDF9FCC4
05E8FBBF
FE8701E8
FE44FB66
FDC203D9
01FA01D9
F8A70323
0389FA0F
053CFD4D
041101A1
FA61FE9A
037201C0
FDE0FFF7
FDF2FE3F
FDD7001F
03BDFBC2
FC42FE0A
FD0DFC93
FAAE00F0
01E50076
F95BFF19
080AFF9C
00F6FB1C
FAD4FD10
085900CA
FD3505C4
FC71FE63
035B0502
032900CB
FB6FFEA1
0197FFED
064E01D3
03D7FF68
FCE3045B
02EB013B
0152008B
01FCFD9E
0565FD9E
064C0022
06F5007B
0378F979
FE19F9B1
FEC0007A
0176FFD7
018C00C2
FE060447
FD66FD70
019D014D
FE3C03D8
00B50196
02D600D9
FE5A009E
FED4FCFE
FD8F0376
FB99FBAE
FCB50309
0389FEC1
00BB0052
FE72FE96
FC91FE4F
00B2FACC
FFF60191
013AFCDD
FDA903D7
FE86F8CD
0188FE01
01A701A4
013D0254
FFFA012B
FF84076E
06E302FE
FC4903D0
00A50172
FD2104BE
01DE0233
FEE9FD6D
047DFE83
FD93FFE6
FD78FE72
0135FF31
FE8FFEE9
0247FE44
01FF010F
FEC3FF46
FADCFDBE
078EFE31
FC56F4D5
FE39024C
F98DFBE9
FBA2071D
FC9D0308
01A700FC
03DCFE44
0136FEFB
FD1E02E9
07170580
FAF10125
0671FB4E
FED804E3
05AEFB88
018EFE1E
FBF6FCA2
03300251
0214FE8F
035CFF38
031C0615
02BC020E
01BB012D
F747FAAB
0750042C
F835FAED
058700D8
FFC70033
FAFF030E
0699FDEE
F8D8FB33
FEFDF784
FC4303DA
FF3AFE86
02680A3C
000EFB33
FA80000B
FC1E026C
057506CB
044DFCE4
011AFFCD
FE1CF8B5
062402F4
00D8FD8E
012F004D
0143FF82
05B1FE10
FF83FF7D
FFC502F3
015A00AB
FA91035D
01C6FFA3
FA1D04E5
04560288
F9F8036A
FBD601E2
FD29FFD1
FF4E00B9
00B4FF57
F7D000A7
03BD04A6
FADF073E
051D0287
0172FD78
0462FD2D
FDD8FFF5
FF0A0695
0062FE71
047502B2
FDAD00F9
001CFFBF
FF04FF71
0353FF7C
032402B1
FF85FBA4
06ECFC38
FF150083
FC94FBE7
007FFC6E
FFA80745
0097FF56
0045FC6D
FD0E06B0
00C2FBDD
FDA2FC6E
FE8E0031
FDDEFD09
FF60FD48
FB26FB9D
FDCA060E
0254FED7
0100FD93
067EFC21
01900046
01C3FF13
FE78FA1C
06ACFF30
00D8FEE7
FAB902D9
FECE0530
FE9F04B5
FE220182
FD010110
0465FEDB
FCD40347
FBD5FC7C
FCFAFC5F
FDC6FCF2
036CFD85
FB77FEC0
FDFE015C
0319FD9A
025B01E5
072D00AD
0259FE06
016BFE3A
00310090
FD99FE95
FF5D03BF
FE9200BE
01F4FC0B
FCECFE90
FBB00328
032D0346
FBD30120
0177014A
012CFE5F
0353FDAE
035802D8
FFC9FD68
009E0198
FC30FF27
00B0031C
FF9EFAB0
F8E800B1
0275FFAA
FDEAFD18
051A020D
FCBF001A
F9A30731
02BEFCCD
FF43017E
FB5CFE04
0334FD04
0288020F
007AFFD4
FE21FFC9
FF860386
003FFE7F
0426FC31
008CFFD9
FB7B03BD
00510489
024F0072
01C60143
0101FEF1
F9F702A1
FFB101D7
FDA7FDF4
024BFFC6
FCF2FC6C
025601ED
FED40128
01E4FC7A
03C3FCE6
FFFBFC86
05A8FD22
FE3FFF76
F8500410
FAEC0398
0131FD0D
FCA6FF33
FCFEFF1D
0447063C
00860178
FBC4035C
FCE7FD77
015601AB
FDF00020
046D01FC
FF78FF62
FE450029
0113FC86
FD8AFBBF
FB3FFDD8
FCAEFFC6
01AEFCA2
FF9DFDAB
FE09FAB2
FD41FD7E
00CA017B
FF8401A0
FD0800C7
0124FF75
0170FF9C
0102FDA7
0187FCE3
FD06FD09
02150487
005A0107
FE97FF93
02BCFDAC
FFEBFF49
0748FF4C
0382FD6D
05930509
FEA802FB
FA48FD58
FD7702AE
039F00C4
01E102D8
FAE80280
018C00DE
015EFF8C
FEF2029B
02910407
002B012F
FE6E054E
00C7FF9C
FAA001D6
FFA3FE7B
0091FFF5
021CFE98
00ECFFFE
FF89FE3D
0231FCCF
FD3E05F3
FE7CFD4C
019EFC12
FFC70118
009EFE6B
0018FFAB
025E017E
FECFFC2B
FF69FD25
00B3022E
FE54FC9A
009C07DE
FF28FEE8
FED60295
FFC50018
FFC101F8
000FFE9A
0419FF1D
012802A2
0128FB0E
03DCFE91
001E024A
006104D7
FB010307
0248023F
FAF902AB
FD1601F6
FEC5FF85
FFEC02DB
FE6E00E8
FD72FD83
FEF0FD89
027F009B
0039FF73
00C9043B
FF9CFDBC
00C401E5
0777011B
00A5FD11
075FFC22
FE72FFEA
03E801A6
0040FF2E
00360539
0297008D
FD0AFE6C
FE4A0083
FEAE0054
FF710204
FDF0FFEE
00FF00B7
0167FC01
01A1FF4B
0341014A
FCA00092
FF7FFE26
FEE40148
0028FAC9
FE7C01F7
028DFF87
01530035
047401F1
01BF0234
FEC70342
FF3AFAD4
FD5B0181
FF6401A7
04AB02B5
FF41FE4E
FE48FF35
0833FE63
FF6E0077
02B7FE79
F9F8FD59
0625FF44
016EFC1F
00BB0217
0041FFAF
F9B605D4
F96C008D
004CFF42
0398FD43
009EF87B
FA7C015C
055B081E
FBB204AE
0633FDAF
011101B9
FE95FCAC
00A1FEE3
FC6A0694
003D004E
003AFD72
01F7FE2E
0132FF83
052304EF
04410092
FFB8FC9B
FCD4045B
0287F9DB
048802D7
01440028
FDE806E2
06AC0038
FA6AFD50
018AFBA9
FBD40814
05ABFD4A
0354052A
0583FE25
FD1F02DF
FBC6FDC6
017F0228
02FA0815
002BFC9C
01FDFA84
039DFC5C
011DFE51
0064FEE1
0624FD7E
011E006E
FAED011B
FE7A02C6
FD27FF2D
FF28000F
FFF202D5
FD33028C
016200BB
00B00345
FEFA02C3
007DFE09
FA45FD44
FECAFED1
00E4FE4D
00E1034D
FE1300E2
FFEE010E
01FB007E
01EDFF53
01A7FE4C
0183FFB3
FC3B025D
01450426
03B70162
00C60167
FFAFFFAE
03F1FD71
FF50FBE6
FBC0FD3B
035DFD50
015E0625
FF65FFDB
009FFF9C
01C8FDEC
FE78FF7D
054A0274
FFE5029A
01140016
02090084
041C01B0
FD4300E2
021F0793
0221031D
FE610478
00A3FD57
04AB0022
006BFD23
02FFFC9B
FA35FF87
0098049F
FC810259
FDF3FE23
0097FCC9
0358FFC2
FD13FE6A
052100D2
FE28FE81
019E03BA
0640FD0E
0562FC95
01C6FEE8
006D041D
FB8C017D
02AF0079
FEC6F9BA
0324FF5E
FB0002CD
FBEAFE38
FEA2030B
FE7502FA
006B04A8
FD1C03B6
01E1003E
FEC4F91B
FA6EFD6D
053E0177
00710003
0068FCF6
FE0DFD69
0331FE6E
FDCBFD20
FCECFFA4
FE9AFEA8
0164FFE6
02CFFF1F
00180309
0238FC08
02900459
0217013E
01550213
FE6D0249
FEA8029D
01AF0211
0627FF9F
FF790250
04AF004F
FC39FBD4
FBF603E9
025D031F
FE13003F
0328FEED
030702DE
03770142
FF96001A
03CAFE81
FDEFFFF5
00110199
FF5CFD59
0120032F
FDCC01BB
FF66FEC0
006BF934
FF11FB48
FFFFFF68
035A03EF
FFAD008E
0060FB43
0129FD0F
FF6DFC61
01FCFED8
FCB7000F
011DFE6C
FFD402DB
0101FD9E
0489F9C9
01FD0292
FBCE00FD
007D0392
FFF50457
FD84048B
008FFF02
04D5FED2
FFE90049
037900F6
FAE3024D
FDAAFD23
FD33FEC9
FBE8FF49
FEEE00E1
FE77FDCF
FF89FF1E
FBE40186
0303FE46
FD4DFD55
FD8BFAD5
FFC3F9F1
FF0301BC
035AFEC5
