02C30422
033DFF01
01050106
0206FF5C
FECD023C
FFC8003C
0182FD02
FC6EFFC6
0510FE89
0097FF3C
045BFE6D
03DDFDC1
FF9F012A
FD030066
FD2EFF04
055000C3
FF610017
00FA0075
FCCD02A1
008E0080
FF320032
00020095
0005FE73
0047FDAC
FC2B0044
FE5FFF8E
008AFD8F
FD92FDEF
FE1DFB99
FEE9009A
FF25FD46
017F03FE
FF570125
00FE041F
FDF301A4
FED5FF40
FDD7FEA2
FEF705E0
FFCBFD18
FF0EFED6
006DFA8F
0091FFE7
FB71FEEB
01DF0236
02DA005F
FF7FFD33
FCBF016B
FE72FD8D
FB0C017E
FE5F0006
FE87FED2
031001B5
00F302C2
01C2FEA4
00D4FB70
039AFF11
026FFD58
022100A4
0010FF4B
FE0EFFDF
002E02C4
FEA2FAD8
FC69008A
0320FEF1
022EFB20
02C40248
0138FB32
02800117
FE8606D1
0096FD17
FDEEFC28
FBA1FCC8
033D03E8
006FFCB3
FAA2FCA6
FB83FBBE
FC6CFC82
FC4606C5
0010FF87
03E30225
0080011B
FE95000F
0149FE67
0058FE34
FF3002FC
02C8FEFC
FD60FBBD
FA320096
FC8AFE61
FF45FB84
01CB0490
FD2101A7
FD51FDE6
FE270243
FE5DFFB0
0618FDB8
008A03E9
00B5FC22
FC85FF37
FFC6FE21
05F601F8
FBA5FE20
FE14FE53
0380FEF8
FF99FFE1
FFBDFEB7
034A0118
FCB7FEEC
FFBBF9FD
FEE8FA83
0174FE00
000AFE96
02960276
FF2A00D9
0035FCAE
009D0082
FD16FB98
044D00BA
FE8AFE79
024E012C
FB8803C4
FE7B02AC
FC3AFEF5
0308FAD6
0153014E
00670016
04170269
0203FE88
FC010410
FB2A01F3
05800332
FF9F0659
FD00FF7F
FD9D0749
FCB8061D
FE90008E
FF75046D
0308FD91
034DFCF9
FC9FFF4B
0409FF6A
FD8EFE54
0232FD5A
FEFE0212
0505FFC2
0259FD04
01BCFF7A
F7B1FF60
FB7602B9
026EF941
FEFA00F0
0287025D
FEE901AF
0083001A
FE66FE8A
0001FD99
FDCEF96E
015400DE
0527FF1B
FE970337
04C2FE65
0510FDF0
00B50136
000400F8
FDE300AA
02A2FF3F
FDE3FC4C
0316009C
FB1D057D
FE14FF6C
FECF01FD
FE960206
01800315
FD9F013B
FC84FF41
FC8AFC02
FDCBFBEF
FFE3FE3E
FEAFFD77
025B0062
FECBFC38
02AA03FA
FE1AFFC2
00C90167
FCCA007C
FD97FFC9
02E8FF64
036B03F6
0010FBF6
002A019E
0423FE42
FDCF0320
FF1C018D
0141005D
FE99FED1
03BCFBC2
FEB50253
02D600B9
FCD5FE40
FDE10126
FF18FE21
FF5BFEE0
FEAB001D
FF33FFF2
007B00FC
FF79FEE8
FF00016B
0082FEDF
FF940338
01700225
0019011A
0203FD4D
FC4CFF20
FDBB01E2
FE72FD54
00CC01F3
FEC0FE77
001000C0
FE0CFEC9
FEB9FECE
03F4FED3
0147FEF6
0320034C
FE7BFBCB
FCD30287
FF01FFD2
FDB6FC52
FCB8FD52
FF63FFF5
032FFF3A
FBBCFE6E
0163FEF6
0269FE77
FE98FEA7
FD1B0229
018CFDDE
FEC5FD92
003D0005
FF6AFFED
FE35FE3C
FF38FB12
012D0217
FEA2FE6F
013E03FF
FD83FE35
FE8F0207
FF4FFF29
03D0FAF2
FF8FFE3E
FF69FE93
FEA90540
02360042
FCB10285
023D01AC
FF23FE8B
0257FFC8
0135FE52
FF20008F
02160360
00AC03AC
02150205
00B8FEB7
FB610708
019401BB
FBC3FFFF
019F0139
FEEEFBD6
02400443
FC6601F8
0028FD8C
0397FCBF
FFE8FD77
02DAFE15
FC0701A4
FDFAFE80
F99CFF7A
FDA0F9A6
FED7006C
FC91FDF2
05AD00BE
018802D0
FD1B053E
0372012F
FF450128
FF53008E
012FFC4F
019AFE71
FD54010E
FE2BFBFF
FA71FF52
FFC8FEDE
FA980189
0348FE71
01C5FF9D
FD85F782
01D8FF7C
FD7402E0
FDC9FB4B
FB33020D
01C2FF94
FEBB05B2
0450FFCE
0180FDA8
016FFE7F
001502E8
013901C7
031FFE25
FD08FFAC
FEA1FFA1
FF9FFF06
04920284
0533FE5B
FF8C0120
FF03FD00
011100E5
04F7FFB0
03C20593
FCD4056D
002501BC
001902A2
FFB0FECC
00660024
FC38F75D
FF5300E7
FE25FF30
041A00FD
00EA05EA
03CBFE47
006DFD11
FB060044
FEC10182
01F7010E
FE4EFFDD
01C6FEEF
015AFDEB
FF52FC4F
0022FFF2
025403B2
FE98FF93
FD74FE77
00EC0426
009E0090
017A00A9
056BFDF7
012200D9
FCF10133
FD76FC59
FE0700D0
FD1E0046
00DC015D
FE9C03C4
03EDFD86
FEB50127
FF12FF7A
0080013A
FCD702E2
FF2DFE8D
00010183
00F90102
021E0194
00120236
FF86FD42
FE83FFB1
FC91FD0E
FE0C023A
FF36FE3D
FD94FDC7
017401F7
FEC5020F
03530239
01A8FDDC
03F500AF
0586FE8B
00F00AB0
00DAFEFA
FE9BFF85
FF8DFF12
00E803E8
FB78FEAF
FE80FE15
015DFF0F
01930192
00E2FE01
03AFFD66
032DFE5A
01A7FE19
007EFFF8
FE42FD8F
0021FC7D
0344FAD4
F9D608F6
00EDFFBA
FB98FB7C
0238FFEF
0025FFCA
FF71FABD
03EDFF8D
FFC102A5
FCDBFEC9
0514025D
01A30020
012FFF66
004F0107
0377FD38
FA290216
00A20007
004B00AA
FF3A03B4
FFB5FE43
0016FC66
01A4FE87
0312F9D7
FB9FFFD1
0228FF63
0256FC04
FFFD0375
FF0EFD1E
0053FBEF
FBC802D4
01FE0017
FB60FFDA
0429FFAD
0011FF7A
0074F5AD
FCAC0091
FBB200A7
02B001E3
FB02FD92
FD73FEA2
FF3704D2
FDE00220
046A05A2
FF0C0003
03150282
FD4B04D1
FB72013A
FEE7FEF1
FBC20170
FEEEFC10
FD22FEA8
FDEDFB70
0057FCB5
01C3FE02
FF34FBF4
FF9C0227
FEFDFDA4
FDD802C1
FEB2FFF2
FB610263
027DFC92
FDCAFD1C
02DE0104
FEA903CA
01720451
0067FF86
033CFE1F
FF3EFF58
FF990372
03C1FF77
00900463
050701AE
0355FC4F
FCAE032A
014401F2
FCD4FA3C
03CA01B2
FE93FD12
040904CD
FE3F0308
FE7F0087
003DFBCF
FD5AFADC
03DDFCFA
FBD8FE77
F9ABFEBB
FBBDFC2B
FE12FE8E
FC1A01F3
FC53FC65
05140229
FFC6009B
FF22037C
00D9FD9E
01D4FD67
FEB0028D
FF9AFD9D
FF4DFA6B
02A00269
FE77FD17
FF200148
00FC0231
FCF80004
00A105C2
00C4FFB3
FB2B005B
FE510058
FD0900DF
0342FB47
FB4E02E5
FC14FFE7
FEF30072
00270324
FB3BFE89
0082FC5E
0260FAB6
FE5202E1
FFAAFE53
04AE0474
FE9BFD71
FCA3029D
0270FE3F
028EFD70
0376FF21
FFAB011E
FF0C04F9
035DFA0F
FD35FDA4
03CAFE1B
FE0900E0
FD8FFECD
FDA80501
FDD10266
FFA5026E
FEE803E9
0392021F
FD2EFD28
FEC3FE25
02ECFCBE
FF8000E5
014600A6
013C00B8
000DFFEA
FDD2FE70
FDF3FE9F
000AFDD2
FC5704AB
FFCE01C9
030F02D7
0110FE5A
02140298
03A0FDE8
FE6903B8
030A01E9
01CAFD00
02A7FDD9
FF67FBDD
0090FF1E
00910616
FADFFC32
FB1C013A
015B02BB
0142F8EC
FF2200FA
0287034B
FF9AFF11
FF0C010D
006DFC57
FCDB02C1
021A004F
020FFD32
00DF03B0
FFB50034
FF6C052A
FF69FFF5
FF0EFC56
0331006D
FD4EFF69
034F0248
FD3002FA
04B703E3
001FFADB
00DAFC10
0143FAC4
FFAAFF31
FD7AFD27
00600211
01CD0193
FA6300A4
FB20008F
01470063
019700AA
FCAE0540
014CFFA4
031C01E6
FF430126
FEBEFF73
0095FDC5
FED00156
FC45FDD6
0113FBA2
FF91FFB9
FC4EFE04
02ABFEEB
0120FFBE
000FFF3F
FD07FC1C
FE100049
FB32FD18
FD3B021E
054D0094
FD720343
0424FD7E
03C9FFC2
FE53FF58
FF4402DD
F94B018C
FCE5FF86
0178030B
FE89047E
0635035A
FCA5019B
FE9F0188
FBF2006A
FE17FE72
005E027E
0023FE16
FE37022B
00FF0271
01A104A0
001500FB
0330FCC1
04FEFFAC
0377FFAA
FC7509F5
01B7043C
FD200570
FD38FDC4
FB4BFFA5
FD0800E7
022000FF
FE90FCB6
028200B7
FDC8FDB5
00C4F9C5
0430FA8D
FE880073
0087FE61
FF1E00C4
00250003
04B6FCD9
F7F700ED
FFA20360
04F901FC
0121FC36
0214FC7A
F893FE5C
0225FDAA
00210707
FB68FEBF
03E702D6
01E1FCB0
FF9FFC57
FE68004D
0313025E
FFFF02AD
026EFF44
0156FF1B
FCC0FFD6
FFDEFF5D
00E7FCD5
FEB90177
0194FCA3
FE20FFA5
01060108
FE10F851
012B00CB
FE66FC39
057CFF5F
FF3AFE3E
037DFD78
FD57FDC4
0029FDD4
0186FD33
FDCEF9B9
FBC60178
FD5AFDA0
01280406
FBCCFF45
FBDF0096
0160028E
FE7BFF33
FF260267
00ABFEB3
017003E0
FD4104E1
03B0FCCC
FE26FE73
01CBFF8A
FEEAFCC5
00A8FCBA
00B100BE
004DFED1
FF5AFEC0
006E0248
FD70026B
FD74FF06
FEA701A2
FC48FDA4
FC59FECC
01A1F96B
0054086A
032700F3
FD85FC84
FDBAFB91
02460199
FC77FF51
FF3AFD72
01F20336
FFE3FFD4
FBFA0107
0405FF51
0477FEBF
00F90060
FEC8FD43
0033020E
04E0FFE2
00380187
00B0014A
FDEBFEE3
FE19FE76
010E01CA
06E80208
FEFC01B0
02970697
06870269
014D0445
FF530249
0336FE80
FD49FE7B
FB440102
0097FD9F
012F0339
FF2BFF73
00510091
0256FEA7
00790190
FF8701E9
02170170
0262FE39
015A020D
FD1EFF14
000701C2
0154FCA1
FD600363
02BFFD4A
FD4FFBAD
0210FE2C
000F0280
FF5AFE48
042AFF89
01FC0425
FD64FED3
0259FE4B
FDD8035D
0348FF74
FC60FCEC
07AA004A
F740FCD0
009401DC
FBA1FFDC
FF230457
FD2AFF45
00D0FE74
025E0107
0272FA77
FF0203E9
01C50184
FE3F05EF
01BDFED2
0439019C
FFF5FDF1
03AAFC8C
FE2C000F
01BD02B3
FDE2FF2C
02E901CA
038AFFD6
FF72019B
01AC0211
FEB5FCA7
0601057E
FDF8000A
060C015C
026F0407
FBB50892
06F9FD75
F7890260
0224FDB7
FD6E027C
FF1CFDBD
04820244
019CFE64
048CFE27
F9CD055E
04E5FB46
06F2FFA7
025200DB
FD7EFCB9
01470120
051FF935
00BBFA34
02D3FB85
012F007A
0010FF12
FB9B0392
FCFA00C1
FF5CFCC9
02200378
051D015F
047E01ED
03F5038C
00A004EA
F8C802CC
F919FD51
FF8B037A
05DDFD1E
FF0B0339
FCD90059
03B5030E
0300028F
02A3FD2E
FE7AFDD1
01CDFD2B
FBB401A6
002FFFF1
FC8306BB
FF71FB8E
F7ACFCB0
FBE6FE53
009804EE
FA4DFFE3
FDD6FF3B
FEAA03CE
03A1FEC4
031BFA94
FE6FFB4F
0284FE50
00B802A3
FD8D003E
00E0FC72
FF3DFD7D
FD8C046E
02C7FEDF
055C017E
006BFD3E
FB9FFC69
FFDAFBA9
FFC0041E
FA67012B
045001C2
03150127
FFF5FDC1
0087FFA2
04CCFFD1
0089FF77
FBC9FE42
013CFCC4
00BA021C
01670107
FE9B0039
05A001CD
0230FD40
FA48FFA1
FC680146
FF49FE5B
0592029C
FF1FFF15
03420492
FA6B0210
01D101C0
0213FE9C
01B0FE30
00810551
FFE4FF42
FD85FCB3
FD9AFF05
02C6FBC1
FC080233
F9D200C6
FD9402AA
FA9701E7
02EC0478
FF82FE14
03BC0159
01990318
FE46FD0F
00F7FDBD
FC180425
FBE1FC7C
FD3FFD6E
009BFFAD
FD2FFF0C
FF97FCBF
0090072C
FE3BFE59
FE29FE97
FB8C0041
0307FEE9
FA70FF31
036CFCD2
FDE4FF7D
0442FB32
0451FE34
0025FDD5
FE7A035E
FAF6049E
FD6002AA
03C30543
FDDF04D4
01B5FFCE
FF1D0383
0130FCBA
FA0AFB30
FEA8FE64
021D0440
FEFEFFF0
015F03A7
FD650014
FFDC005A
021900B5
05EEFAE5
02A6006B
01C704BB
FC290276
03010020
FCE90375
FDAAF968
FA4CFF62
0127FF38
01F20191
FB86FDA2
014DFCE5
FF5BFE0A
01D8FD39
03FFFB6D
FF5D001A
FE93FC7B
FBBBFDBF
FBAE01AA
01F8F991
FD50018F
022301C5
FEEE01EB
03F9005A
FCD2FFBF
F8B10484
FF5AFAB0
00E1032F
FD00FC9A
FF20024A
01640518
013BFE8B
FE23FD56
039EFCEA
FF09032A
FF18FFFC
0057FDE1
00CCFE3C
03B3FB5F
FD19FEAD
0868FF51
0428FFA3
007601A2
FEDAFD78
FE7F012C
03B1012E
00A80056
FCBE01FD
FCD8FDDB
003701A3
FD8E0439
046A039D
FC1600BB
01B0FDF5
02ACFF94
FE5301F1
013C0506
037FFC88
FF0CFE97
FABC0160
FFA3FBD4
035F03AA
002C033C
FDCA027F
FE7A0042
FEE50080
FF21009E
00E90324
0087FD57
FD8CFEAC
0181FC38
00970065
01BFFF49
024D037A
046300D3
0050FA91
FDD300AE
FFC3FF2A
FE3A02E9
0226FCAF
0200FF26
FFD7FFDA
0694FBAC
FE1DFB98
FE750679
FB32035D
FB2C0490
049AFD3D
FED50367
03750238
FBE801F1
008A00EF
FD99FD82
F7DBFD1F
00F80559
FBC2009D
FF5F041C
FE830126
0337FE12
001E00C0
034A0221
038F035F
FF2E0511
FD3B058B
020B0201
FDAA0242
01A8FDBC
001BFB37
FFA4042C
FF7C0179
0007FB01
0506FEF3
004C0187
043900F4
03E2FF69
FFA4F821
020902B6
FEEEFE60
0395045A
FF41FEC4
FE46FD72
01DA0255
0009FAE3
01A0075D
FEA1FFB3
012A0320
06A6FF0E
031001A4
00FDFF3D
04ECFCFC
02320358
0448FCEC
01320191
044F0111
FC9802F5
F9E3FFAA
017E0127
FDF901FE
053F00DA
0149FEAD
0519027E
00C0FEAE
FDA2FDD4
FEFBFF53
FC7DFD62
01D80047
FE12FE56
02A8040D
FC490196
045303D8
03A4006F
03820056
02BF0068
FE06FFED
FBBEFE5A
FECAFF3C
0115FD70
FE00FC6B
FD4BFFA3
FE9FFF94
00B4FED7
02E502B4
0442FFC4
0185018E
FFB1039F
FE93FCB9
FE0FFEE0
00100404
FCBBF9BF
FD6DFCE2
FFBDFF1B
FEB8FD65
0165FCE4
024B0679
FF64FCF1
FE81FEC1
FFB1FFA1
FE08FEB5
FC2403AF
0466FE05
021D003C
FCB6FF0A
01F0FEF9
040CFC1B
FC42030A
0223FE1F
FE5E024D
0247FE66
FE080134
0009FDD1
0053FDC6
0007FEE3
FEB3FCD6
FFC90116
FF9800D2
FD9CFEC9
FF93FF71
0093FE3B
FFA0FCE0
0171FF56
FEDE0394
01FA0009
FD61078A
FEFBFA5F
FFDA0505
FD210088
018F0126
010FFE78
008703C8
02E3027F
FF0EFDA6
044AFED3
FE170027
015F0595
FD0E0080
FFB8FCFA
01BB0176
005AFD98
0445FFB0
FE8FFE0B
FEE2FE38
00E4FEB7
0148FB7E
FEE80040
FF51FFE2
0272016A
042800EC
FE840241
FF61FBC7
0179FC60
002C068B
044E0081
00BDFB96
FC75046B
01F1FF09
FCCA004E
03E0FD8E
01790473
FB8D036D
029603BD
011F0580
009BFF8B
FFEA0709
FE1700E6
FD0202B0
03C5FD0D
FF1D0470
02030904
01910156
040B0042
FEFFF9BF
0545FA7E
0136FFFF
FFB40402
FEE3FCFE
01140960
01E500E7
FC0F0048
FFECFD05
FD76FDB3
FC5704C0
F66D00D1
013301D6
0354FD9F
0804F964
00CD037E
FED6FD4E
024B0065
FEBBFF3A
FF5700D1
01520047
FD37FE4F
03C7FF73
02F7018B
01C3FC3D
0178FFC0
0084FC6B
FFBF02DC
FA33FF63
06A1038B
02480050
01BAFF5C
FE5C0286
02F001C8
0177FE24
FB7800E1
070EFD7F
FF3A044D
03860083
FC55FF2D
04B80227
0141FBA1
FDA801CB
0164FF0A
FF8EF7CF
064D0063
FF48FF1A
043702CC
FCE3030F
00B8022D
FD84FE49
0056FD91
FBFC0480
FD89FA0D
F9ABFDAC
00B7FD8F
01C3FAAE
FE2602D4
FD430042
00200430
FD7101B4
027301B9
00EDFD31
028BFB8A
FFDA03E2
FFDB00F5
FCCF0027
009301A2
FC1AFCE8
014DFD3D
01F601BE
FEE80055
FF14FDEB
FFDA00F3
00EA0006
0052FFB4
FC4DFDE3
00E2FD91
F9A103A6
008BFD86
FFACFF44
0176FCE8
025101FB
FFA70012
FE35037E
01D5FF43
001E01AB
FFA80141
FD380102
0472FF19
01780241
00B6FE6D
FCA8FD52
FAFBFDEF
FE2FFE0E
026EFF6F
0141FFCC
0077FECF
0030003D
020E0035
033D013A
01BDFE87
03C0020D
FA7FFFD3
FF2002AD
FEBDFD75
FDE702CE
01B1FB1B
FDEA005C
FEA70128
FD72FE1E
010FFF1C
FFBAFF79
0349FDEB
FE790161
0543FE60
FE7AFF69
045BFFF5
0215FD8B
02F7FD3F
FEE8FDC2
01B701ED
FF1C0048
FE6101E5
FF7E02F8
01B600A8
0162FBCC
04FB026E
FBC6FD30
FDD7FD99
00970135
0544FD56
FBAD0188
FF15FFFA
02CDFF64
FFD70034
0296FC28
FFBD078E
FE26FB8C
002CFFCC
07D5FF9C
04A6F922
FF2603BF
FE73FD9E
FBE7FA2B
0900FDAE
FB5CFC34
077EFF48
F95F0592
0195FF3A
FFF8FBC8
FF9602A0
01C202E1
FE38FEBF
F6FFFF10
FA92FE2D
FE3FFC11
FDD8013E
FB4BFB10
0092FE9A
FBA5FF24
FE6403B5
FFD8FB60
042400A7
0074FFF6
00F703A0
FD9EFD24
0328044D
FFB0F960
FC9DF8D8
01D6FB25
FD2FFFA6
F8310041
005C0662
FE6F0249
FC4E00C4
FA4CFDBB
02B7001E
F7270361
01B8FD77
01EA00FE
023CFCBF
FFF2FF5A
02E404E6
FD6101F4
030AFF3F
028F0070
FB2D02B1
01A600C3
018CFE1E
FF7B01FA
FE4AFFC8
FB310360
FDFEFE06
FDBBFD7E
015D001C
FD97FC86
04A0FE81
FDB9FFE4
028BFEC9
FFD6FCA4
00C6FB1A
02FCF8D8
FECDFFA6
F923040D
005DFFE6
00E40042
FD03FE59
FB31004E
FCD301FD
027F0330
FB580465
0074FF5E
011BFFAE
FE1801C4
031002D4
FD540039
FFA7010A
0071FA7B
FFBDFD7F
FFD401DE
FCB5FEFF
0134FD90
0152FFE0
008A0074
FC60FD1C
0006FDFF
FD1E00C1
FA3B0411
00BFFCEA
01CD025F
FE8FFFC6
FD8D00B8
049B0407
FE5CFF76
02C7FDEB
01D0004B
FAD7FFE6
00A4FF2B
FE89FDF1
FFF60080
00FEFE82
FD280260
017A026D
FDB1FE45
000C002A
FE61FE47
039CFFEA
FDF602C5
021A0081
022CFDB4
018AFA62
FF33FE1D
FF3AFE9E
FCB20155
0008FF65
00F40291
FE0F0142
FF1E006A
FC660134
052D00E5
FDEF022B
FDFA01A4
FFD70305
FED40231
01020073
FC2CFED9
048200A5
FF5CFF3E
FB61FC8E
02D2FE5F
FF19FE16
040BFF06
FFF3FE3B
FFC4FF6D
0343FE58
00250096
FBF7FF8A
FB9602A2
01BEFB60
03160915
FE5B004B
F89BFBED
05EB0012
012F0104
FCA5FF2A
01D8FDB2
FDB2FE94
FF56FDF6
F72EFE21
01A9000B
0306FB70
02130338
028EFEDD
00430068
05D60171
FE27FE0D
03520590
FCD1FB21
006AFC39
FB4E037B
02C90248
FC62FB63
0866FC45
0194FD60
FDAD0506
02B7008B
01D7FE89
FC340380
FB0901F0
079C02BF
FEF50873
011CFDB3
02180853
FC7CFFE8
00FCFEA0
010603C3
FDF5FE39
0209FDD6
FBD7008A
FE64FC56
F9C5FEFC
036AF8B3
FBEBFFD7
02CCF9C0
01FFF61E
00530104
FBD100E0
FC170208
02C3F8B3
02F5FB2F
FBA6FD54
07DEFE3A
0372FFE8
FAB403CF
FF9F025C
FBF2041D
FCD0FE38
FB4D01D0
058DFDA7
FB980133
FD7BFE1D
FDA5FC29
FEDCFE3C
022FFDCB
F6DC0089
FFB401EF
FE50FE2E
0500FD9E
03B800C2
00C6FDD8
019A00E2
FDE5FB7D
FF27FAC4
FE860520
0076FF95
01ECFEA5
FC96FBBD
004B03D0
FE9D02AE
FE0E01F6
04C9FE87
FF46007D
048E0348
FC7A0401
02C1FC30
004D02A0
FE76FCB4
02300701
0112FC9A
FCECFFCA
0347FD8E
0241FB52
015FF816
FCCBFEA3
01180448
04FEFE18
FB25007D
010701AF
0184FB3A
0310005F
0353FAE9
FFEC0231
FE2E059A
FF3C01C0
FDDBFE93
066DFEE1
F91901E3
033B01CA
00F9FDBC
006F03E7
FF86FFE7
FB080129
FFA70009
FDD8FDB1
00CAFFBA
FEB9FE0C
030202D1
FD5901BF
03B6FF04
0116FC07
039DFC39
03CCF894
FF0102BF
F847011B
FFA1FF43
045FFEEF
FF6AFF8F
FE2EFE14
00E001A8
0078058D
F9AF0122
01A6009E
012DFFCA
FCD601B4
04560032
FB78FE5A
FE7B007C
FE5FFCB3
FF3EFAE9
FC0B01F6
FEAFFDEB
0240FF6B
FECD00C6
0026FFCF
FEF5FCDD
01C9FF95
FF370111
FC240140
0119FFC2
00A003AA
03CDFEE9
FD920131
02490225
030B0030
FDFAFD25
0383F949
FEF101AA
FD9C01D7
028100BE
04B004F1
0408FD46
FD7C0474
033707CB
FCBBFF00
071A01B8
FF2BFF21
037C04AB
FB4F0246
052FFEF8
FD34FC9B
02C2FCF7
02CB0073
FDD4014C
FBB7FEC0
FD0C0356
0499FE1C
FB780288
FDFAFCA4
012002A5
01C10267
FD5C02AE
FF7DFF7F
FE2C0128
007AFE0F
FF5602EC
FF3EFDE8
027D015D
FC09FB21
F99CFB7E
016400DF
F972FDB6
06ADFEC3
005002E6
0254FA0C
032CFD46
FD9D03F6
FB380284
FDBB0357
03DF00F1
FF87FE43
FC7E0290
0074FF21
FA9C0311
0047FDAA
FFBBFD45
02230079
FFBCFC02
FB9D0345
FE740427
FE820409
FF490376
FFF901E4
02C70535
FFD6FF82
FE12FFA6
00BFFF94
FFAF00D3
0102FC16
FE910033
0120FC8C
FEDDFA0B
FEBB06B8
FC78FFFB
00770094
01EA04EE
FF690623
FA46FC39
0457FFAE
FFA3FF9C
FE7203EE
F73DFCB8
018103AF
FADAFDE1
FF02FAC2
FFCF05CC
FCB4FCB6
0313FBFF
FE6D0043
FB5FFFD2
063FFCD8
0123FE74
FD3C03EC
00B60131
FC500144
062E02C9
002A0045
04EFFBAF
0390FB5D
FF0701FA
FF67FF62
0121FFB9
00DDFFF5
FD9304AE
030EFF86
FE6BFCE4
02A0FF1E
008BFC49
FD6D045A
003306D8
FEA4070A
00DCFEA1
FE280187
03D703B6
FF4CFE56
FD890420
0153014E
FD400622
00F1015C
01C7FFA0
0015FB84
00F4FC41
022C0409
FE87042C
FF590002
00D20168
0024FED5
FF720346
02E0FDAF
028AFF21
00A70315
FE42FDA3
0380FE9A
00CAFE67
FE43FFE6
03A6FFCA
FCACFD2C
02CFFE23
FA1B0012
FF44FE51
008B0524
0074FEBA
029602AE
FEF5FE81
FF8FFB73
051CFE2B
FEB300B4
0126FEC9
02F4FD01
FFEA01C1
03A4FE34
03A7F6F0
01A202DD
08040191
FC0504B1
FE0EFFEE
05A9FD7D
0033050D
006BFE55
03D1FCC0
0A8F006D
FFE4F523
F805FABB
FEDFFC79
FEF4F971
039A023B
FE25003E
0574FD10
F9DC052E
03B203C7
FFBFFDB2
06BAFF35
02B10093
FF37FBF6
F99FFF7F
F8FCFCB4
FED0FD6F
FCAC00E6
F88A02E7
FBCC053D
F9BAFE43
017B058F
FFD8FD16
099B01F0
F96306C3
0279F4D3
FDE9FE22
FDE80608
FF2FF970
F8CBF9F3
018B0318
045501EB
FA70FE50
FFAA0BC5
FE260510
003BFC50
FFB7FF3C
027FFA71
F6FE01A0
FD28FA86
FF24FFAE
FF120024
0053FF0B
001601B0
FE9701F9
FDADFE20
024F01F9
FEE1FDF6
FD0302A4
FFD3024D
FEF804C8
FEFF004B
FDD2FEB8
FD6B0073
FFF4FEE1
FE010151
008202E9
FF650332
00910039
00640181
01A3FC4A
0260FE1C
FD37044C
FEA7FF52
FDFDFFEE
0015021C
018101BF
FEA7FC63
02970008
FFD7FE65
001100A8
01C7FD95
02C30213
01FEFFBC
FF93030F
0227FEDC
FEBCFF3C
02FBFFCD
FD4D012B
FDC6FF0C
032EFC55
01F2FF23
024C0127
011103C3
001FFE40
060801F4
005BFF64
00E4FB2A
0187FF7F
01D800A9
01D00404
029EFF78
FD070282
FF140109
0390FD1B
0082FB61
0646FCFF
FB610185
07A2FDA0
FB4900D5
0533FE4E
03040261
00480780
FE9F02D9
FBC7FFBD
066C013A
FC41FF63
03C80656
FB6C0220
02A00094
FDC1FE6E
005C006D
FFC1F95C
0381FF2E
FDFF02E9
00F901D4
0549FFC1
FF55FFC2
FD3EFF18
FD8E00BD
0831FDAA
FED30769
FDED04C7
FD2C04B9
F9E3FFCD
007E0162
FEC0006C
02FD0608
FF19FAEC
F78CFF31
0255F96D
F64E001B
064DFDE1
FCCF063A
053AF87F
FF48F841
FA800474
FB94014C
FCD90362
042FFBDF
FD95FFCB
02410135
FF1F01EF
FE3EFEC0
0093FECD
001CFE8F
FFC9FE2A
02090234
0367FE9B
FE8A0340
04B2FE6C
04A5FBBF
00E8FE9E
FE3D02A1
FCFE009C
04AA0043
FE8AFEB7
0307FE9A
FB9B055E
FF76FEC4
00C900B3
FF8B0244
02380440
FC9D0239
FE97FF30
FDDCFC92
FE15FA15
020AFFC2
FF62FAE2
02A6FEBF
FDA7FD7D
0365FF5C
FE2F01EB
006600E5
FD7DFEE6
FF0FFE86
0002FDC5
00170368
0014FCB1
FF360126
0270FD3D
007002E7
FD2E01C5
03AF0350
00640019
0148FD80
000D028A
01C7FF01
FD5FFDC9
FF420158
0164006F
0528FF09
FBEC0010
02DD0158
00FCFDA9
FDE1FEC2
FF7CFBC3
04AA0344
01F5FFC9
FE36FFE3
02AA010A
01A9FF7F
FC180457
02DD0649
FC69032F
02770197
FBE6FE43
01C7039F
FC81045A
03400277
00F0FDB1
03A9001C
0084F94E
024FFF39
FF13FF32
FC4F03A2
02E5FF2B
FA90FE75
FE64FC00
FEA80164
00670109
FBCF03BB
00C2FEBB
00560059
033AFB87
FAB30103
001BFC5A
FAA505B0
005EFD92
FE59FF32
FE13FD10
FCB4FD68
0576FDD0
011A003C
FE6FFE81
FCA1FE90
FD5C0153
FB8F0112
FBF20475
04DE00FE
049F00CE
FE7FFB35
FE08FD6D
05E601ED
03BD002A
F940FE55
069EFEA2
FE1A01B2
00CCFF4B
F95FFBC5
04C60262
029601C8
FFFD00E6
00550060
0287FADB
04DA01F2
002701BD
03E50196
FD76FE76
054203B4
FD8EFE2C
03C4FE1B
FF39FDBE
002DFC3F
FCF9F9B9
027E0287
0627020F
FEE20094
FD93011C
FB6FFEBD
FEEF0461
FA5603A0
014A02CF
FE2501E5
FE33042B
FF50FDB0
FB21FE0C
036F014C
FDFFFE08
FAF5FE25
0717FDE2
FFB3FF5C
FFA1FE7F
FCCC0850
010F014C
FEECFF10
FB1AFCFD
FCC0FBFC
FC0C02F0
044EFB74
027D0186
FE01FD44
013AFBC3
0227FC69
FF3B06D5
FC3400CF
0081020C
0105FE13
FC4DFEFC
01BDFDDF
00F5003B
FF72FF19
FE38FD23
F9CFFD40
0179FF7C
FEA20071
FDE4FFB2
02C700D3
FE830068
0522031D
FF0801C6
05590043
00CC0625
FCF5020C
013400CA
FDB103CF
0306FD4A
00A5FEDD
FD2903CA
FD740194
FE52FFE0
FF8E029F
00EDFED1
033D00F3
037F0341
FFC2FE6E
0130021C
FFAAFF1B
05EAFB34
00AEFBBC
00DC0116
03CEFF68
FE74F9C6
02D40591
01A60254
FD8FFF12
0565FBA0
FE5F01DF
FC64FEC4
04DDFAB5
FAB7FBD5
033803EA
FBAE04F0
FBD20271
FF3EFC00
027EFCBA
01FBFBD7
01FC0359
082E0061
FF2E05C3
0559FD8E
0502FB51
FDEF024E
FCCD044F
FBD80041
039CFF9F
FBEAFB74
05A8FE15
F91806B8
F9E40096
030300AB
FBFFFC50
0395FEB1
F7880044
F86401F8
FA5BFA04
F83EFB69
FB66FDF9
FFC0FE3A
042DFE97
FEDFFF1A
0063021C
FE2700EA
FEED0043
FCCB0032
FD63FF2F
009DFBA7
02630757
FFFDFA55
FEEC0371
030C007F
FE1503CE
FE5A042E
02F4FE35
FD7F0008
033DFCA3
FD800469
0585026C
F7D9FD5C
F9A5FC50
FFB003AE
015AFCF9
FFC0FFB3
009AFED7
FF1F00E1
FB6FFEDD
FF1CFF8A
FE690132
FE4900B5
002B004D
00F60050
00CEFBBC
0074FF4F
FE32FD26
FFD3FF96
FFCE0168
FD3DFCBD
04F1028C
FD2A0202
01FAFF17
FFF200A1
0425FF2D
032E013C
01A8071E
FF2BFE67
FE2DFFDE
0286FE09
00DA0327
FC51FE6B
FC4B01D2
055EFD5D
015E02AB
0028FFB7
02A9FE8C
00EA00D5
0416FEA9
FF75FF88
FE8500A6
0116FE27
000FFC8A
FD0E0388
FF48FEF2
FF76FB6A
FF0608A2
0079FD26
0016FB84
02D8017F
00D20539
FD45FE8C
04A0FF48
FFF702ED
FE9A008E
FED5FEDF
04040062
0111FDED
0064FDF4
02F1FF74
FF55FF40
01BB0140
0062FF38
015AFF3E
00FC0207
FD6D0263
00810393
0043FDB9
004D00E5
FEE7FD6C
022C032B
FEA2FFF5
00B00002
FDB30095
FF40006E
FFFC0065
010EFD73
FEEEFE67
FF81FF6E
01FE0335
017800EF
FEE0FF6F
FF0F0289
0413FD3D
FF3402B7
00300600
FAF603CF
FE630157
FE42FE47
FF2B00D6
001DFFAF
015AFE2C
F9F0FFCB
01FAFBCA
FDABFFA6
0444FDDC
FED7FED5
00B6FD5E
01E6FEAC
FF1C02D6
FE16FE7B
FD0CFF4B
0138FE1B
0158035D
FDA3010D
FEA7F831
0455FACD
02DC02E4
FA4801DC
FFBFFDD3
04B10273
FECFFD4A
FE820409
0643FD49
0593FF09
FFCA0017
FE16FAA2
04D90622
0797FD49
0011031F
FD9400C6
017AFBB1
0094011F
FD330351
07160602
FB1100D7
055008C0
0973FF74
001A0310
0213FD3E
05D80071
FC9B022D
F7D30475
0064FD9E
000D0093
FC40FBB6
0149FE87
00CDFCA2
052F0048
02B0051B
FE3600B6
035D01F6
03C2FE9E
FCCF0642
FCD403D3
032EF8BA
FEAA05DE
0758FE9F
F9CDF4E6
01B2FC7A
024303E8
FFB30133
FF890085
FEAE0136
05E0000F
FDD90240
FEE8FEA4
0217007A
FFBB01BD
0279FC4B
0333026C
00DBFF7B
00620532
04E90057
03A5FD13
FC120034
FBCFFE41
FD7F0248
0987FC78
FD62FE22
02E300D7
FE1D0709
00790336
039EFF21
02C0FFB4
03E70602
FD75037A
FB0800F4
F9DBFF99
FBF1FB07
FD2BFFCE
FD28FD77
FE8A0097
FDDFFF02
01960293
FD06FEC3
052EFCF2
0457FC4D
FF6C0226
02E1FE66
030C01DB
FF94FE10
01CFFD57
015D016B
00150478
0054FF38
028B0638
FEAEFD73
0053FD5F
FE64FD52
0316055C
F94D012A
FEC1FEFC
04FC055D
FFF3FDEC
FA4CFEF7
0A9EFAA3
014701E5
FB10FF9D
FF6CFDCB
03E7FD0D
0180F976
FD28FAE1
0872FBC2
0025FCA4
042905AB
FF9AFC35
FBD6FD47
096E0207
FFBF01A7
0374FFCF
F9CAFFBE
01DE0246
FB1802B1
06AD0673
FC52019A
05FAF7D4
02E4FC9C
FAC3032F
03EE0566
FE25FFCF
FB110140
F3590312
04C8FA90
01F0087A
FBE8FC80
01700B12
F94D031D
FF0D0463
FE9C0390
030A037E
039CF840
FC16FF9D
03D2F68B
FAAD01B8
019DFBF0
00D70B84
02DEFC58
028EFA3A
FD6F0337
FA50FF46
F86004C7
0667F93C
002A0478
00290120
0090FF41
007EFE6D
03E7FCC1
FDCC02E9
FFBCFD7D
01030005
04320096
FF150255
FEB900C4
0093FFEA
0377044C
FFD8FC90
FF430376
012DFD8D
FE22004A
01410456
003B0054
01710155
0190FF66
02270163
00B1FB17
01600416
FFD8FE34
00340068
02990388
01F803C4
FD7B01A9
FA8A010B
03EAFF2D
FD1D02A8
FEDDFF11
FEA7FF52
0457FC34
FEC9FC0F
03B4FF4C
01B10088
0109022A
00B7FF04
00550296
FDD00446
0228FC2E
005301F5
0164FBD4
FEA4FE3D
053CFECB
FD33018B
01410027
03520254
0226030D
01FCFE86
004402E0
FF79038C
FFA4036C
005B000B
05E0FFB6
FE11FF6E
05FEFD90
FEB2FD47
01CF0429
009501B5
FDF000B7
005FFB54
02E5F8DD
01BD0010
01C104BB
00DDFCC9
003D0181
FFA300C3
0059FB60
0379FF6A
FD93FA69
0048FF41
FC4CFDAB
03430008
00D706B1
FE6B0121
FF10FC84
FBB9FF1F
FF990310
FBE200C9
043200C2
02BDFEBD
FE9E066B
01D600FB
F6A4FB1D
00770125
FCBA01FC
0048FE55
00A8027A
FF11FEF1
FEC50109
FEBB0162
030C05E9
0153FD6D
FD54FD17
00EDFFA9
FF9902CE
0021FC90
FF020397
FFE300E6
FB25005B
0097FF86
FFD7FC5F
FE8400ED
04A6FE67
03CE00BB
03D3FC55
FBDF0416
03B4FFF0
03CAFEB5
019D01AC
FF110127
FDD80319
044A0135
FE3EFFAF
00AEFE67
FFE50118
FF110199
FE29FFA8
00CA002F
FF8DFD38
01BEFEC2
FF0AFE6F
FF7800B3
01B900A6
024BFF6F
FDCFFF00
FD2FFF7A
FF3F00E7
FD6B024A
03ECFC29
FF92017E
00FEFDAE
FD69FE8B
FE8B00C0
011203AC
FC5AFD32
FFFA0271
02F40125
FE7C0146
0405FF33
01B50280
01640021
0097FE48
FD740006
024CFF20
FE1103B3
00A0FFF7
0001FEE4
0309FF54
FC0C010A
02540098
0276FEC7
04E6FE78
FFCCFC7C
01640136
FC2E0258
FFC0025D
FFBB0012
0433FA2A
0137089B
03630461
FC480071
04E7014D
FC93FA7E
03E80541
FC300340
FF6AFC04
02330088
FFA2FDB1
010D01EC
FE5300AA
FF7DFD06
F9FDFE07
FFBDFB82
FCB801F5
FF24FD79
013EFDE7
FFEB0004
FE13FFA3
01CEFD37
017F0478
00A1012C
01DA0239
0119FD03
FB1004CF
0059FB40
FC3C000E
001FFBB5
F8A6011B
06A8FDEE
FF270017
FA10FAE1
045E0180
FEE801E0
0082FCDC
FCD400C0
0393FD30
FD8A01AC
03A30231
FED10219
FC9CFDA7
0061FE39
FF50FF23
0119FCD1
000002ED
05D0FDD5
FF4D01FD
026AFEFB
047FFF81
FF3B00D7
FEC9FFF4
F9560172
04A7FE45
FD4CFB06
03410184
FC370054
FEFD0078
00FD026E
FED501EE
023E0028
008C0205
FDAD008B
0047FD57
FEF2FCC5
011600F3
FEB7FF66
FE6B0218
0067FE26
01BD01B7
FE7B00CC
0124024E
00DDFF7D
FEBB0101
FEE5FE3B
FF2104C0
0144FC38
FEE200FB
FF83FB8F
00CC0266
FD7800E5
029C0661
040AFED1
FFE0FC4E
FE550228
01000086
FBB3FE97
FFE6FE3D
FE0E02AE
FE6C0506
FCABFEA4
04A7FE8C
01A3FEA3
01F3FCA1
0559FE97
008E039F
FF11FB5D
FD39FFE7
051DFBAE
04EEFC19
0349FF11
01CAFF4A
FD2B0322
0678FF46
FFCA0303
00E6FDE8
FAFF011B
FC62FD31
FC270493
FC470293
FF9CFD3F
073CFE42
03780024
002DFE8E
0120090E
FDEEFF87
FF64FE1B
FAFCFF14
00F6001D
01330293
FE8FFEC5
FFD201CB
F522000D
01970648
FBAAFF49
05800650
03A3FA47
05CA044C
01F50469
FC27041F
059C012F
FC2AFC75
025804EC
00DCFE44
FE50FF8C
0082FFCC
FED6FED5
FC190271
019CFFFA
FE7BFD3B
FEF1FE4D
014FFDC1
FED0FFCD
FE73FFD0
00F700DD
016E0106
FC50F97C
FF23FF5B
FF99FE84
FFC3F90B
0147008B
FE7BFC43
02F0FD6C
01A7FDB0
FF5FFE34
04BFFCDA
FDB20325
028D0322
F86C035F
FF75001B
FF0B02D8
FE39FE98
FDBBFDFA
FFA10110
02250214
FD24FCDF
FA620305
FDEE03E6
FE9003AE
FF9A02BF
FCE5FF62
0234FF88
FDA603E8
03230028
FEE30401
037402CB
0520FB58
FEF8FF76
058FFE1C
FEE50215
00E4FE5C
02ABFFDC
015301E6
0452FD99
02ADFCE8
FFEC00E5
F744FEFD
04CBFC09
04FE021B
00D3FE28
FDF40271
03CA03AA
FDC300F2
FFEEFE51
00640183
FCE403A9
00DBFD40
01ECFD22
03C6FF9A
0136FA16
FC0D00F9
FF9C0125
FBCCFB1D
004BFFC6
FD13FCCB
0409FF43
FB760265
03290066
FA30FD8B
003CFF1D
FFC6FE06
FF59F9AE
F98CFFFF
FD8AFD44
0423FF83
FC37FE75
FCBEFED0
FFAF03F5
FE6CFF40
FE94041A
FD7C00FB
00EF03D1
01580603
FC89018B
FCB6FEFC
FE3D023D
020EFCE8
FD49FBCB
011BFCDB
FD32FBEB
0322FFD6
FE0F002D
02F4FED2
FD280335
FDCA0139
FCC0FE18
FA0F00F5
0046FD43
FE87FEA7
04D1FD5E
0200FF91
FD850244
FF15028E
FD87FDF0
02B1FFF8
0006FE1E
FC250229
0200FF54
FDA3068C
FFE8FEBD
FCA20012
02750082
017AFD97
FCE302D9
014E04B8
FC8D0339
02D00252
0269004B
FD87FAC5
FF00FBC6
02F60156
01D702B0
FD8FFE0E
021EFE45
FFF30037
FBF402D4
02ACFA71
FEB7FDDD
FD1C071E
FF3CFDB3
02E70175
0249FB95
FE86FE7E
0442FF00
FE26FAAF
FEDCFF0E
FE170392
01E0FDAF
006A07F8
0214FDE9
FF17FF8E
FED3FC12
00C6043D
04530251
FC65FF68
0324FDC7
0249FD32
0184041F
0389FDDC
FD64FC7F
0200FFB9
02E1007B
FD34034C
FFF6FF4A
016101B9
FD75FE4E
FF7CFCF2
0087FCA1
FFC602F0
FCE5FD47
FFE0FCCE
0097003B
0248FBB3
FDD700F3
0170FC2E
0244FCE2
FFE1FCCF
02430258
FBFBFFA0
0163FE72
FECEFE92
FB7BFD80
FD7E00B2
FF68FF41
034D023E
000FFDFB
FDFA0203
000B0160
00280360
0142FFB6
FFCA0157
FF8B0329
FCD40450
FFF0FECE
FE2700E7
019BFE72
009BFFB1
FDDFFB42
02BCFFB1
0366FDDE
0015FF17
FF14FF41
00AD012A
01A9FF7F
0203FFD0
FBC6FED8
F9E50073
008AFC9B
FCCD0280
03E30335
FF7CFF0F
FED3FD1A
0101010C
0097FE29
F9B2FDF9
0367001D
00BBFE36
01680AA4
00E7FC70
03970276
FF1FFF98
F927FF36
FC140641
03BFFD39
FE93FFAC
026E0211
FF9E05D2
FED7FCD3
014201F0
024D0032
028801F8
FBF6070C
FEB50349
FCC60202
FF38F9DA
FED7FCEF
FDA5FE59
FF0304B3
FFEBF476
056D0242
FBA70030
02BAFFD1
FFE5FF0E
FFF1FD00
08B4FBD8
034205E6
010AFE5F
034102BB
0206FD42
FD310903
03F4FBAF
04AD0558
FF43F9FB
FEC6FBEB
02B400B9
04F702D5
FD2FFB45
02C0003E
FF9A0106
085BFE27
FFF5FFF4
0174FF58
01C8FFC9
FCFB031B
0532FCD2
01A40075
05C70102
00BD0118
04C4046C
038FFB76
FA9AFE0B
03A000F4
FD680037
05180363
FDD300A6
FF6501F0
FD6300BE
01DB02DB
021AFBBB
0236FF4B
0260FDC0
FECC0380
FFB3FB4A
FE83009D
FDE5FE4B
FFBF0215
FE04F9B5
FD18FF58
FB7C012A
FF1C002E
02E3FD85
0392FCFA
0320FF08
FBF1F98F
FE23FA22
FADA035E
F9C7FE1E
FD26FCDE
FCF80750
01E2FEAE
FF7400F9
FFDAFD84
025C0426
FEC600AB
FB5DFF19
02F9FDF4
FC100611
00030074
FF25026B
0758FD44
03280166
FD5A0028
004900C5
FBD9FF9E
018BF9FA
FEE00379
FFC60195
02510163
05980196
024A01C1
FB42FDC3
FDFDFB5F
FFCD024C
083BFE28
011601DB
003D0158
FFE7FE9C
00B601C1
0226FCEA
021A017D
02EFFD8F
01560497
FCEB03FD
0010FF50
00590145
023701D0
FDA5FD9B
FFB90261
FF5600B7
FD240043
FDDA020A
022BFE35
01E5FE8C
05230203
FD28FEBF
0272008F
FFECFE2E
039BFCE1
FDEB0597
00F30134
FF44FFAF
005001EB
FFDCFF37
FC40FCF7
FD0EFB7C
00C40353
FB8B012D
FF0D0040
FE7A04BB
0028035C
FF4DFE21
0075FD33
FF0E0210
02EC01D9
FE28FEC7
02300084
021BFE4C
039903B7
00BFFF89
0122023B
02060467
FB71FBC4
FF5802F4
03B00041
0074FEB3
014804EE
0003FE92
FFACFFD4
FFCF02B1
FFC6014E
FE99FD53
FD5204C6
002901B1
FC73049D
000D02D8
004DFA9A
FBF400BA
FE22042D
04D8FD09
023C0409
FC8F02BD
FFC6010B
02BAFBE5
021F0114
FF4C0384
08290128
02DCFCD4
FC060240
0165FBA9
FC440302
0948FA0A
026D0204
0313F7A4
00E3F9E9
04ACFC5D
FBE00313
FC53FFAA
05C10047
028F02E3
FFE0FB20
020FFB35
01DBFD21
FC8901DE
010B02B1
FB1902AD
0162FF43
FF0E003E
097000D9
FE24002A
FFE50045
FBE10217
FAAFFD5D
03A1FCFF
00D2FCB2
0161FF47
018C02B0
00A100A7
04FF0014
FF59FF89
05ABFF0C
FEE1025C
FB1D0109
00D602B4
FCF403D1
007EFE5F
0169FAA9
FBA903A6
0011025C
0090FCBB
049F0145
FE57015C
FD730080
00EBFF29
00E7FDB1
00D30218
021700DC
017DFEDD
0268FB4F
012BFFF2
FEF001D1
059AF9E5
05ED01F8
023BF917
FE81FC4F
06D3FD7D
FEAC046E
F9FCFE3A
0835FD72
FEE3FE81
039B011E
02430246
FE240439
FD5A0241
FE58FEAA
02F9FEEE
00D1FEB7
FED50386
010C0206
005F0776
013E01B6
FBC7FB17
009C02EA
FF49FF25
FFF503F3
01CB02A0
FDA30162
02B4FF7A
002200D3
0053FA45
FD45F973
036702A5
FDAE00FE
FED5FE0F
00DDFD9B
FCEDFEF1
FBFAFFC7
02FAFB09
000BFE0E
FBB70262
FF86FCA4
04780178
007FFE72
FF03FF45
027AFD04
FDFCFD09
0047FF26
FB6400BC
FE9FFFA8
00FC0578
03B30098
FAE3025E
007E00C9
005B0389
0393026B
F9BBFDCC
0261000C
0175FDB3
FF0101A0
00A100C6
06ECFC7A
00D103D6
02A1040B
FF4A01EE
FB66FF35
04ECFEAA
FDC800AA
0A8A007E
FE920051
04BE025A
017DFDB0
FD96FED4
01BD041B
FD84FD36
007202C4
FE2501EE
00C50198
00140373
03F800FF
0444FA7E
0721FD0F
0487F943
00A90133
FDF6FD50
FE3CFDCA
00C6FFF6
FEE2007B
FEB8FC18
FD79001C
0028FFE8
FED90139
01710005
00490017
001302E2
FDADF9C3
FEC3FA50
FE890555
FAAB000C
FCC8FC32
FEB602F8
FDBFFD81
028601D4
0114FF49
000F025C
FF4AFF9B
FBC70095
00D2FC29
FE87033E
015EFFBA
00BF02BB
016EFE16
00CFFCF0
002B037B
FE6C00F4
002901CC
02BA0263
FDC30308
FB3B0293
02AD0222
FF0C0580
FE350079
FEA90045
FE44FE7F
02870379
FDD8FF2E
FE660244
0261037E
017C0249
04290142
FDB5FC84
0376FBD7
02D1F9FA
FD1A0260
FDA300FA
FFB507B2
01CA0513
FA4DFECA
FF3C004D
FC5EFE23
FDF00761
FB92FF9F
00210021
04CEFDDB
0468FA23
00DDFFD6
00E4FF1F
0367FEB5
FF2701A1
01F6FF91
FE4A0148
FFA2FB88
029A0099
02FEFD29
015CFEE5
FF07FFAA
052FFB8E
0165065C
FAECFED7
056D01DD
004F0444
065500F1
FE52FAF7
0254FC5F
0591FC7A
FDBCFFBF
FEB7FAA7
FF27001B
0062FEA1
FE9100AA
FD50009B
0055FBFE
00C40315
027EFBFA
FCA9FC97
03BB0023
FE3C00C9
043B072A
0088FEFD
0192FF85
0062FD0A
03E50316
00ACFFAD
032E0508
043EFBDF
005003AD
01E3FDA8
010303E8
FB63FB2C
FD72FFE4
0112FDE6
00C7029C
024DFF9E
FFE2FE6A
034B0198
FF7DFE86
FECCFDA0
FE1A000D
FFEE01CA
0395FE00
FE7B0008
0057FEC3
0150FBCF
FCB603EF
01A9FC41
FCE9FF46
FB14FD67
0183FED7
FBE3FF12
02FEFEC6
017C0806
0187FE9C
FC87FE6F
02C0FCD0
020C0229
00A0FC78
0417FD55
FD610055
FF44002B
FF1AFDD8
0335FF99
02BEFE22
010304E5
FEE1FDD7
FCCEFCE8
0A800286
009D002A
013E06B3
FF1DFECA
0153FBAF
FD5EFF84
0227015A
FBB4FC56
0466FC82
FD21FF8B
FF3E0257
04420586
FFE8FCF8
FB3EFE44
F88B05EA
04FE0098
FEDF0592
FF1AFF0A
01D603DE
FB7000E5
039E05D6
FA38FF13
FF9E02AF
FD91FB5A
013BFFE6
0057F9B0
F9C800FD
0768FB46
FD9104F3
01CCFC4E
FC7DFDD5
FBEE01C7
FED1FD09
FC0F00AC
0137FC31
FEE10417
041400B8
FDFAFD29
02780284
0394FE0E
0398FECB
0315FC6B
F95100C9
F88D01C5
021000BA
02EDFFF1
00DFFEBA
004F0507
FFC8FDA3
FEE202FB
05A1FFE4
0106FD97
034105D3
FDA500E1
FF9BFE76
029EF999
0216FD2A
017CF9E9
00110445
FA7D03AD
FC4A03E3
02471168
FE69FC28
FC07FCA8
FA680532
08FD0555
F9E10498
FB62FE57
01D2FE03
0252FD17
07180A24
FE77FF0E
058EFF40
FEA0FA41
029400D3
0065013C
FB5B00E4
0C030064
03210145
FEEA01B6
FF4CFB2B
006CFE9B
FA85FFA8
FA7703F3
003F0323
01B205AE
FDA2FDD0
FCDAFC1D
0017FEB6
00390119
FCD7FFCC
04F0FF60
FDF00031
FE8800C7
FC5DFD8A
FEC400F7
00A901FA
012C09B3
0151FD0C
01AD00FF
01290143
00EE03AA
02CB073B
016CFBD2
02A1FE99
FF120032
0278012B
FBC5FA89
037CFBCF
013DFE76
016005EC
034C042B
FDC30027
FDDB0329
FE5BFE98
096F0345
FB030381
0033025E
0208036E
FDAD0126
017C0444
FD58039B
FF8AFE8F
0360FF4D
FDD6FFBB
00BAFBE8
F9FEFE8C
0429FBA0
FD240143
019EFAB9
FEE8FCBB
FF7CFF80
FA2BFE51
FEA201D9
0530FAB1
0660027F
0383FAF0
0656FBEC
01C3FEBE
FDEE05EF
FD270387
038600DF
FEA405D4
FC6BFFB8
045DFF23
003D0174
FA6EFF04
FB2EFFE9
FB32FC84
0147036C
FEEFFD7B
00850327
045600C0
0065FFD7
0613037B
FFBFFD7C
06C7FD16
0014FA26
FFDA014F
FA5400F1
FE7B0528
05860136
FB4EFB8B
FABA0415
FB6901C6
FC1D08D2
F86301D0
FDC20159
08A1FDA9
0506FEB5
027500CA
FE03040E
0069FD01
040D01D8
0326FC47
FCE40106
0294FD1A
0240FDAF
03670043
FE140196
FD8D002D
0602FA48
FDA7065D
F65F0243
05CD008D
FED8FD34
00CA02B1
04BAFB3A
FDA9FF69
01CA00D1
0433FE49
FE78FBF7
0379029E
FC57032E
07E7043D
FBE300BA
0213FEA2
F9C804D8
FB5801FD
00210302
01F90055
00B700B2
FD940910
030801F4
FEECFEA7
003AFDF5
00A4FC79
04B5034D
F881049D
FC48FF4C
FE030320
FD04FE86
F81CFE1E
01A8FC7D
001A012D
FC7F0263
FD11FADA
00D1064A
02BFFF33
0250FB37
05C7FFF1
010EFC16
01F6FDEF
031DFE46
FAB4019B
0081FD11
FED60403
0092FFD6
01A70298
FAF8FECC
045B0049
04AE008C
066BFFF7
FDC8F967
FF2FFC2E
FE6207C1
06C5FEC3
FD80FF0F
FA6AFF39
014E008B
F9C90085
0252FA5C
00AF0473
FAD8015E
FB1001EC
03310055
01CF013D
FFE0019E
FEEAFF2D
FFBC02DA
038AFE08
FE9E0249
00F90167
FE060302
00C90095
014EFF64
05CBFE61
FF630108
00540589
000D0123
FEC20386
FEA7FF96
0021FEA4
00CEFDC7
FD4DFF5C
0044009F
FDA900D7
FEB3021F
FF0AFBA3
0753FB32
FBBC02ED
0048FE3C
0176FEE4
003200A8
0381FF3C
FF0F01C2
FFECFF1A
003FFFAF
030FFBCC
0107FF55
F9AFFD93
FF29FC77
01140430
FB58FED2
006D0356
035A0028
FE8DFCAD
0201000C
00EB00C9
00700314
F94CFDEE
03FC0123
FD9601AE
01E6FEC4
FD35FEB9
00DC024B
FDBAFD3E
FE26FE86
FFE0FDE8
0107FB6D
FD6600EB
FDC2FD07
02F1FF17
FE17FC7C
031A00E5
FB62FFD7
01A9FF0B
FD4FFBD0
0328FE82
FF2CFFF2
01D600BF
040501C4
00B2FFE7
FFB900CC
FDF2021B
00CC0367
FD620260
0137FEE0
013C020E
FC2705CF
0200FF23
F97E016A
FE42FF2A
0030FCEF
FC08FB9F
FEB1FEFA
0001FEAB
00EE00BA
FDA8047A
03230128
FED7FE0A
0180FE4E
FE900086
FB2F01AF
019AF9FB
FF75012A
00490255
FF76FCD9
FEE703F2
010AFE1F
FC180014
037AFE7D
FDB0FDED
00980764
FDB402DA
04F005FB
00B2031A
FA09FEFE
FE9E0136
FE10037E
0567FE0E
020F025E
002D0730
0081FCFD
001E0159
0503FBE9
0458F989
FE20FCB0
FD77089A
FF8205F5
FF940587
FE6D05FF
FEC7FDB7
FFD9002B
FEFF0341
FFBB023F
FD81004B
FF4D00B5
FEF8FAB4
035DF918
00820172
FDB4FE62
0193FEF6
FC82FF25
00CB0113
FFE50187
FFF90065
03790115
008DFF60
003BFEE3
FD65FEAB
FEADFC26
002BFF06
0122FEB5
FC47064B
0270FED7
FF390089
FEEC0156
02CF0108
FF090172
FFB8FDD7
03990028
FFBE0106
027E0340
FEA8FF2A
0551028C
039AFF90
FAF302C8
FEC40472
FB7A024B
01EA031C
FE71FDC4
00FA03EA
FCC2FEE5
0146FFEE
02500017
FEF8FF3D
009600DC
FC98FB93
FC63015D
FC6BFD97
01EB0023
FCDDFDDF
FF3E0110
017301C2
04A0FDCA
00470137
FFB10217
FE130439
FB78FFDA
FFD0FB4E
000C008F
0441021D
FDD8FBD3
F831FE8F
019200B9
FB7E00CE
05DBFF07
014F0310
FED3F8C5
02F5FDEC
FF270564
FBC9FCB8
FDB6026E
0161FCA0
0419FEEC
0010F83E
009C0086
03A300FF
FFBB0562
F7AC0348
010901EC
FE1102E0
021DFD25
FE50FCA5
02BE0123
FE46FF49
FF7DFFB5
FD93FDB1
00FDFD1F
007D0062
FBCCFF52
04E1FF74
FDB70057
069E0591
FE39FEF7
0384001E
FF78FBBF
FD14FD30
FD44FCF9
00F00285
03190501
FDE5FEBA
FBB501EF
FE41FE34
FDA8004C
FED8051E
0183FEAE
FF83007C
02FD02C1
F9A4FEA7
0018FFAC
019800B7
FFCBFC5C
FECCFA8E
01B6FEB8
00A2FE17
FB95FFED
02500238
FFB501C3
FA13017F
012DFD60
FD10FF95
FAB2020D
083DFD2B
FE74FF55
FC510066
0296FF2C
FCD1FE1A
FE9C0072
FE520151
01AA0355
01B1FC91
FE120157
018C0132
FD610441
FD6CFF8C
FE97FC91
010EFF94
02AB00CB
FB68FEDB
015202A9
FE1203DE
03FBFFB4
FF6403F4
0110FC2C
025DFD57
FE3503AB
0242FC94
00600292
0238029C
02F701AD
FE26FC34
041B011D
FE78FD9C
FD570065
FF83FD01
0378FFCE
040901F8
00ED0032
027BFD33
FCE4FD2B
0049FF48
FEB8049C
FFC9FEFD
00CFFDE0
03E6FE80
FE160176
019CFDA9
FF4D01C3
030F032A
03C5FF6C
0620FED8
0274FA50
00B1FF14
042B02D0
FF21FF08
036CFD94
FEB6044F
FF87025D
041FFE20
0026026E
F986FD7A
FEE40589
0548FD73
FA3F0598
FDD100F1
FF78039E
FB88FF38
00BCFC87
FFCC0364
0496FF0D
00E605B2
020C0032
004F0040
0471FC82
0427F716
0520F75B
FDDFFF56
FA7EFFD2
FDBF0458
00C302DF
FBD5FD7E
FF6900AE
04A8FD34
040A04FA
F6F0FDCC
04BC05E6
024703ED
FF3603E3
059BFD6B
FABAFF35
0207F999
01C4FCBA
FEBAFCBE
FFF5FEA4
004BFF02
FF54F9AD
FFA9FAC7
FCD4FB82
0816FD60
0420FCEC
FE5803EF
FD22FF79
02BAFCDC
FAF20030
04350479
FC310083
FF530052
00C7FCF4
FF34FE7B
FFB4FBEA
01C404DF
06F1FCEE
FB1C0648
09E8FF0B
0651FFF4
00D1FEA8
00390038
FC2E0269
07C80032
FD6FFCB2
022B0277
FB2A0406
FCC5FE9E
FFE70139
FC220183
006F0137
FDF504F6
FC35FEC7
FDBAFF47
FC7FFE96
02E40056
FE2AFBB0
FE9201C1
FED7FF1B
FFD202F9
FFF70132
FE6FFFBF
01CAFCF8
FE880092
0160FFFA
034B049A
0086F932
FF2F0315
03AEFE22
FE4F01E2
0074021A
004B0263
0341016A
FF24F8E3
FE2600BA
04EEFEFD
FB9100D3
FBD2048F
0085031C
FF8BFF4E
FD7A00C0
002AFED5
037FFAF4
FF3BFEAE
FF31FAA3
FFCEFF66
01280327
020BFF90
03320332
015BFF8D
FBB20591
032705CF
007AFC84
059701FE
FDE2FFFB
024E074E
FD320444
04D20232
FE97F98A
FD11FDD9
FFE7FE93
FD4C011C
FF7CFE5E
FC820543
FED9FE59
F92D005A
FD62FD6E
01300239
FF23043F
FDFE0300
FE9400E6
0094018C
018BFF17
FBF4FF6C
0112FD32
FE040122
FAC2FCEF
FE7FFDB0
004FFFF8
FCCCFB49
068700CE
0111FD62
FF58FC42
0201FA8C
FEE40312
FF990156
FDEEFF86
00A100B1
FE6D0041
01000427
FE3CFBC8
FB4BFA95
02210112
FDB0FE8D
FE7C0000
033E0539
FC14FCD8
0140042B
FEB6FDF9
0446FE99
FCD60181
FB78FAB4
01F8046D
0226FCB3
FCBEFA3F
026F0294
FCEBFDDA
FCB9FFCC
00190412
FC1D02F0
01FC0589
FCB80295
FFADFF45
014E0131
FC19FFCF
FD62FBC9
FD320317
FB54FD66
FBC8FB94
0185FFC3
FD4AFE83
0685FF34
00FFFCCE
03A70121
00190266
045A0435
076DFB70
022D02A7
00DAFEA2
00A0069A
F9DC01A3
FE81075D
01EC0443
FE5DFFD1
0178F961
05A906D3
FAEDFB2F
FFC3FCB4
0016FEF2
029AFB3C
012B0192
FDE101C3
FE1004D2
0308FC19
FF57FDFF
FDC0FF74
FDCDFF56
00EEFF73
0368FF9B
024DFD8A
FDE6FDA2
FC9101BE
FDD4FCA1
02E30020
FFF9FF0F
FFF9015E
FF9EFE35
FEC60229
FD310064
0217FC0E
01DDFF15
FD6AFD6A
FB03044A
FC56FEAA
FE7A04F1
0145FDEF
0117FFAC
FD980074
FDFC0240
FF8FFD90
FCCC0168
0249018B
FDAF0218
0501FECA
FEFBFF14
0435036B
02120085
003AFA15
00B00293
0287004A
FC5902A5
0143FFCA
FFE601C4
026BFE99
00E3FDD4
02B20198
FE75FD5C
FE8AFAE2
01D00104
01C2FFBC
FDCEFE9F
05ACFDD2
FB7701A7
0048FF38
01EFFDB7
0079FFE9
034200F5
FE0FFD55
034AFF53
0068FD2D
FEB201B7
FE42FFC8
FE440012
034200DF
0026FF0C
FD21FF14
FEAC011E
01C1FE79
02C4020B
05CF00B0
01D9FE85
020AFFCF
00300183
FCDCFF68
01BBF982
0102FC2C
FEBDFFF8
FB5100E1
004DFEC8
FF520086
FEA8001C
03070230
FE85FDEC
0010FE3A
00380260
FFF3FF9F
00DCFF28
FD22FEDA
FED7FF5B
FCC1FFCA
00EBFDBA
006E00D7
FFD9FF57
01FDFA1E
016C00EF
FE8400D6
FEE8018C
01D9FBDF
FDDA013F
0259FEDA
FECE00AD
0160FD13
00A900F4
FF80FF2C
007BFE1F
05D80053
0059F9DF
01620561
0E74FE30
0965F598
0073FB36
FFF3FD34
FDF8FE89
0588FCDF
FD11FC9E
01BFFE1B
FB6D0174
FCEF016E
FA4F0479
FF070351
FD930358
FCC605BC
F9FFFDCC
FB71F833
FCFC0273
06060102
FF2EFE77
F3F40204
FCA3FFF7
028C0228
FDF3FD33
02DFFEE8
01E00325
0136FB8A
012D0052
0044044C
03F7FD59
0113FF14
FF3801B6
018400A8
00470206
FE9C013B
00100245
FE84FE8F
FFBFFB98
05CD047F
FDC0FC89
FAE5FD2A
00A700A4
067A002E
016A02AA
01D8FFCE
FBE902F6
00B7FEB5
02470192
FCBA0116
0156FFFF
02670098
040EFFDE
062AF9EF
FC06FDD5
FDB2FF29
FC9AFD18
FFE3FE92
0035FC20
FF62FFDC
FB360351
FFADFBAF
FDC1015F
FFAB00E0
0197FF3E
0167FED3
F6A20174
FF86FDC2
FEB0FDFF
0175FC4F
FDBAF980
FD3804B0
FE51FCE0
00440289
0053FEF5
012A0093
FE420218
02EFFEC3
FCAEFE8F
FD24045A
01C2FBEB
0000FFB0
FFACFCC5
0301FF40
F9DEFFD5
00B9026A
018C022B
FFFEFFA0
FFE10031
01FDFFBA
FC25017B
FF9600F5
037402A2
02F8FB1F
FD65018F
026901B0
0353FF0D
FE8AFDE2
00DEFCCC
FBE10576
FF39FD9F
FF1FFC15
018A02A5
0103FC70
FE6E050E
02B80169
FD25FE23
048000EA
F9A9FAD2
05F70502
FAA30569
0695FE4F
00F2FBC9
00C2FE42
0240FA27
039EFE19
FA4DFD91
F65E03DE
038CFFC3
F914034D
FC20FEAF
00D10115
03940230
FC540781
0010FD32
03700341
FEB300F6
02EA02F4
FB5BFF18
FF850261
FECDFB02
FE82FAE8
0077FC7C
FA19FBCE
0584FCE2
FED3023D
FF3CFB58
FD5DFBA4
FC120342
F8A80146
F8AF0441
07BEFC94
0095FF7E
020702CA
06B1F946
018DFDF5
011F070C
01FE02FA
0317FEA8
FEB801E9
FD48FE05
0DF1FF50
FD3BFF6D
0118FDBE
FEF6FC08
FB0AF9A9
01530697
0172FD52
02FE0651
FEB90311
07AE0070
FD13FEDB
FED7FFDD
0390021E
FED700DB
FFD30727
FDC40607
FCC2000C
FF5F031F
01D3FD91
FE290132
F9F1073B
FF1201C9
FCF2FCF8
F95B03A7
0413FDE3
02D1FB88
0B06FC92
03D8040F
0731FD00
00C803CD
03C803A2
00CC02A7
03400717
00A2FDA7
03270462
FEA201DB
02DBFC7A
0870FADA
FF0E0643
FB99FE1C
FE1F0411
0177FE37
03410043
FBFC0095
FFEB0170
0172FDD2
FCEFFFDF
FEBEFD24
FF10FE7F
00F401C0
FD180143
006901BA
0388FEF5
FF600430
016D0261
000A0189
03FF0241
FFD9FAA2
022000D3
FDD80119
03DDFE62
FFA6FE3C
FE76FCFA
02B0FF03
FF2C0273
FF08FE15
013F0107
02B20070
FB130453
FF44FD4F
0388029B
025D0165
FEB800FC
00BD0140
FF9DFEC6
000A0018
FE9400AA
032AFE93
FE76FFF8
FCEDFCDF
FF88FDF7
00BF031C
FB93017C
03A5FEC5
0046FF2D
FF46FE8F
0315FB92
FECF034C
FB62020E
FFED0218
027C00E8
FD5CFEF4
0467FED0
03F2FFF4
0451FF70
FF200301
01400011
0124FF0A
01D2FF4C
01ADFC59
029D0067
089EFF04
0561F750
FB99FA75
FD3EFC6B
0164FF8D
013F0070
FBDDFFC4
FE54FCE0
FF860121
FDFF016C
FEDE024D
0441030C
01ED0166
FE0E0114
FE4D0326
FA71FA0F
FCD4FF75
01B7FEB3
FE460037
FCE902AC
FDFFFE43
0209FEF7
FE6EFE01
041D00A7
FD5903B4
0283F9D4
003AFE2F
FFC30460
0369FEE9
00F4FD55
FB82071A
035302A3
FC0301A0
005101A2
FE9202ED
024000B2
FF6EFC2C
037CFFB4
FF1DFEEE
FEB7FE89
FE970041
02DCFF27
033A0245
FD150407
FFC60116
FAA6FBD7
06DCFDBB
FBB1F67C
FFD803C1
FB16FFD5
FBE00803
FEF50113
FE830282
02D401D7
007EFDF9
00670405
06E804CA
F98501E0
05BEFD95
014C031C
035DFA52
FF47FB1B
00F2FB18
FF9802AF
FF1BFD3B
042EFE31
005B04FF
FF5F04A8
031FFB62
FC19FB82
0649037F
FA7DF9C0
03DF04C4
FDBB013D
FA510218
0602FB23
F87AF90D
FF86F989
FA7C0268
FEE5FC60
02B20C4E
023BFD67
FB3702CA
FBCE00B1
02CD04F2
0761F9EB
FF70FFDB
00EAFC35
04FF024B
FE4BFF5E
01A5FE85
028FFB5F
02EBFBE7
01B6FEDD
FE870528
FDF00474
FBD8029A
00D1053D
FB5904D4
03B8FDF8
0135023F
FF1F0051
F9C1FD59
FD12FB37
FF49FCA7
006BFD53
0210044B
FFA00245
FF83FDCE
01520113
046DFAEC
01F7FD88
FE6F07FA
FCB0FBD4
FDCF01F6
FCD70155
FF74FEA6
FA05FCC1
FD880209
003C04E5
FC9AFBC5
03CD0278
FC49FB4D
035FFC71
02B6FA7E
00490272
0208FF44
FFCFFF44
FEBDFEBB
017BFA37
FE2DFCDA
0108015F
FDDCF9FF
02840838
FB91FCF4
F9D00133
FF97F7C3
014BFD60
FD34FD61
0314FD29
035CFD9F
FD75FB1F
0446FF59
01D50016
FAFA024B
FF090328
FF690354
FD5A0012
FE460263
04F1FD83
FF1A03FD
FC04FCA2
FD00FF26
FFD9FC59
01DFFBA7
FDE0FF2F
FB4FFF9A
0263FCD0
005301B8
0405002A
FF76FE41
0218FD5F
FFAB006C
FC23FD1E
FECE0441
FD7C01AE
01FF01AB
FD8FFCF3
FB3B017B
02AB035F
FC5000E0
FFB80229
0021FF91
04F6FF5E
030B0401
FF94FB9E
FF24039E
FDC4FE9A
014A0165
0131F91A
FA6601B3
0230FF08
FEE1FE80
02680447
FE11003C
FA17028A
02A3FD1C
001A02F2
FBEA012B
039DFA42
024B02BE
0302FE80
FACF024F
FFFC020D
FEB4FEB0
036FFDB9
026900E5
FCD60485
FCB40634
FF08FF64
018A0269
0286FF79
FAB503D1
FF5F030D
FC14FC39
009CFEF2
FE22F9CA
02EC0220
FBCBFED2
02B9FD12
031EF908
FDD5F9C9
0420FE78
FF00FEFB
F84D038F
FCE60289
009AFE32
FAD6FEE8
FD67FF94
03D1049E
012F016B
FAAC04E2
FE40FF91
FF2C003A
FEC4FECC
01A8045A
FD4CFE4E
FBB500B7
FEF8FB3B
FD17FA9E
FBFCFF34
FDEAFD0A
039FFED1
00B2FE04
FD61FCF6
FBFAFFAA
FE2D021E
FE24FF9C
FD1EFF66
0218FD34
009F001F
02B2FE1E
009DFB6F
FD67FBC4
008B03A7
FBE50188
FFC9FD9F
069A000A
0421FED3
00F401CE
0767FF49
057803E3
FCE4017A
FDFDFCEB
FDE703CC
06CB00B7
00870471
F93DFF1A
00140130
0322041A
FFA0024E
03EC0593
FDBA02F1
01180346
05B0FEA0
FF35031D
00FFFD0D
00AFFFEF
02290057
FE1EFE7D
FCDEFC83
042EFA9F
0085030F
0110FE42
0205FCA4
0005014D
004FFEAD
00930399
000A0136
FDCEFC67
00B7FBDB
03D10128
FEB8FE26
017305C1
03470079
FF45FEEC
FD00FE4E
00F3014A
015BFFD1
05EAFFF1
025E0337
02A9FA4E
039CFD99
01970120
FF17037F
FB280284
046D0070
FB9200FE
FF6EFF17
FEFAFC59
00220288
FED9FDF2
FE44FF31
009EFD58
0191FDB1
FF9FFFB1
FEE803CD
FF050117
023B009F
051400A4
FF8BFCEB
04ECFDE6
FF37FB2F
03FA01ED
FFD9FFE8
00B50290
0523FFC7
FBDA0159
FFAAFE76
FEB9FE7F
FF4500F2
FCBB0164
01FAFF41
01C9FF46
022300EE
02C3024E
FA460056
FEF5004E
FD96FF94
0025FB0D
FF0600EC
FEAFFCAC
01EDFE90
009F0339
04A5FFE9
FFA6FFE6
FF16FD33
FE520116
FEEB027E
0627FFC6
FE720266
0061FE26
03A9FFE4
FDDF013B
04A6FECF
FC9FFE23
0605FD17
0140FC91
0068028B
FFC00036
FCA805FF
FE28FF9F
FE8DFC62
0604FB7D
0164FA37
FCA00238
03D3053A
FD7403D1
02690170
00DB01D5
015AFA8A
037AFF76
FE1E05F4
04E001E7
00D3FE3C
0161FF77
FFE3FAAC
04DD08B7
0180FEBE
FCA3FE91
FD2F0213
0128FDBD
0738FC68
028FFDFD
FEBF0592
04D0FDB4
F9F3FBC6
010FFE61
F97801FC
03C0FD1E
020A0A5B
0336FF13
FD680469
FB35FF70
02B50093
060F028F
FD14FD0C
04B1FB27
0093FEAD
0181FDFC
FFE5029D
0363FD52
017500CB
FA04004F
FF0900D1
FB87FF92
FEBDFEB2
00EB043A
FE9501AE
018701ED
00A500D7
FFC1027D
FCFBFFAC
FB4CFD3D
FCDD0166
008BFB2C
FE9D0305
FF280397
013502CD
03E1013B
0282FD1E
014DFFCA
03AC00AA
FD3605AE
0072041A
01EC02F5
FF70FBD2
FED4FFA2
FE59FE8B
0169FD5F
FDFFF9FA
02B7FF23
FE61016E
03F5FD40
05660043
0361FD62
004A0067
01D20271
FF7A02B4
0153FCE9
FCF2FE90
015500DB
0112FF2A
02EE0642
011DFB80
FD8B00EF
0016FB5E
016203C9
003EFD6A
05B5FD8F
FBF4009E
00040267
FC5E0106
0254FDD5
FFBFFE7B
0249FFC6
FD0CFBD7
0499FF99
FFB5FDD6
FD07033A
07A3FDCB
063FFC4B
02A5FE84
009401D8
FDDF026D
03DD01C3
FF89FCA1
021700DD
FA9C01F0
FCACFE76
FE420246
00760227
FF600502
FEF5027A
026AFF6D
FDADFCBB
FDD7FC28
046801D5
00F0FDAE
FEFBFF35
FF4FFC39
034AFF24
FD29FA9A
009402C9
FDE501F3
003BFFBB
FFDBFF54
FF130426
0029FE1A
0080025D
0198FE6F
015902EB
FE5701B0
00A1FFB1
022702DA
039F0107
FE5C01AA
0452FF24
FDB9FD22
FC880169
020C02E9
002B0050
FE9B00AC
05000246
02F00072
FE3DF9F1
0532FD5C
F993011A
FEA8FEC8
FE36FE8F
02C602CC
0176FF38
00E703F4
0542FDA7
FC5BF92E
032E0280
02FC0141
0299018B
FE48FD7B
00A8FDEC
FE6CFA62
FE8C0011
FD01FA34
046EFD6A
FB45FE53
01C2FF1F
05E5009B
FDC8050E
FBAB005E
FE23030E
06340314
F9F10532
026D00D3
FEDE0193
F9980366
080201BC
F759FFBC
FDC2FDCB
FC2FFC4B
FC63FFFD
000CFF6F
FA2BFDC0
FED9FDE6
FABE04D7
03A3FFAB
FC28FC4A
FC730151
FCDDF91F
FD44017B
01C1FFD5
