0530
F973
FFED
FB7D
0365
0210
FD53
FD69
FE3E
FA44
F541
09B7
FE8D
011B
0449
FA63
FB5D
04D8
05B4
FD66
F9DD
FB04
06BE
F737
FDE9
05A0
FF53
035C
FF52
FD28
054C
01F6
045C
002D
F685
FC8D
0036
FE93
028A
029C
FA39
0028
0046
FBD6
00C4
025F
F98B
01CB
00E9
0660
FCBF
FF3F
FAE9
FAC3
FFA4
FFB2
F943
00EB
FA34
FB5A
03C2
030D
FF6C
0338
01C3
F301
FD19
0160
FEE9
FFD9
FB69
0077
02E3
FC89
0140
09F6
F873
FE26
FCB3
0687
FDF4
08BE
F41B
FB37
02F5
F828
0034
FD41
F79B
0524
FD7A
FED3
0777
FFE8
036D
0021
FFD0
FCA8
062D
0CD5
FA44
FEBE
FF47
FBF7
FFC1
0071
FD21
FF1C
F9A9
02E4
FF07
0CEB
FB85
F7FB
01D8
FBF5
0333
02EE
F959
0214
01F5
021D
0044
0759
FA48
F98E
0128
025C
FBB2
001B
0026
FCCB
0013
0292
01A9
0707
0512
FA14
02D0
FBE6
0907
FF38
FB9A
FD9D
FFF1
FFD8
0399
F863
FF20
08CA
0009
00F3
FB24
F9E2
FE92
0260
FA02
F9A6
FF98
0D68
012C
F152
FF59
FDDA
FDC7
FE81
F806
FA77
FDCF
FFA6
FD72
0144
011C
F881
FF8A
05F3
03F9
00B0
0724
0296
FD27
08F0
FD7A
0796
F980
FB6C
FB84
00F9
0014
00AD
FEA1
00D7
FA70
0143
0AA9
FEFB
FD97
FC4F
FA39
FBAA
03B3
02A3
FCFC
0068
FB98
FD3F
07B4
FF91
FF2B
00A5
FC7D
0187
FA4B
FED6
02C0
03B4
FD40
FF71
033C
0224
0317
FB87
018D
FAA1
07FA
FB8D
F4CE
05C4
05B8
FB17
FD55
FFCD
09D7
FF87
FE18
F9AF
04B5
0140
FFC4
0388
FC79
FD53
0393
FBA7
FF9F
02DD
0062
FE21
FC5B
FF8E
0275
019E
0200
F5C9
FC9D
FE11
FED9
F2F3
0140
014E
0421
FF72
FC6F
F888
01C9
0425
0523
FD83
FB78
025E
0333
FCF9
0456
0421
F92F
02E6
FEB1
FFA2
0196
0873
FFCB
FBD1
FF5D
0616
FD29
04B5
FDD8
FF8A
059A
0362
071E
0977
FABF
F831
FA1E
0231
FC63
FE43
FE9B
0A32
0072
0056
0703
003A
06E2
04D5
021B
FAC6
0088
0003
FB37
FF05
04EA
FA14
00BA
FB63
FEF2
00F5
03F5
FBE3
FDB0
F8A7
F39F
0C47
000C
FA4B
01A3
FD1A
FFEB
0148
FC5B
FFF9
0054
021A
F92C
FBDB
FA53
FAE4
03C5
0576
FDEF
FF7D
FC45
02F5
FE39
F6BB
05E8
FE94
0093
FAD2
0392
FE7B
F9E5
00C7
FDF7
02BF
010D
FC84
01D3
069A
FB7A
F9B4
FF07
FCD2
EE6E
0983
0550
FC8C
0170
0737
F44A
F0F3
02A7
FF05
0227
05AE
ED12
F97D
F9AE
0145
0597
022C
FB43
FE7A
FDB6
03A7
FEC6
029F
0471
061E
FA90
FA86
0546
06FF
FADD
F9A1
0211
02F4
01E3
F3C8
0598
0526
00A9
FF33
FE97
FEFA
04D1
0000
0333
FF48
FDE7
0546
F45F
01B7
FD57
027F
06B7
00CD
0383
019D
FF79
FBE9
0084
FF6B
FCDC
FC1A
FF86
F596
FE53
FE71
02A5
FC13
0049
F6EC
052D
077F
FC67
FE92
FBA4
000B
FFBB
FBD4
00EF
0152
0057
FF4F
FD8A
FF75
0074
064A
02B5
02B1
01AB
041D
FF6C
FB41
FFA3
03A7
FA20
0184
0A95
FE11
FDA8
0615
02A7
06B4
0331
FA31
FF95
0453
0067
0304
0224
FA61
0643
F7DF
FF7C
028C
01CA
FCD0
0237
0331
FFCE
FCB3
00BB
0058
03C4
FA8C
00DE
145E
FC9E
F053
FEC4
0011
FC27
0289
FB82
FEB4
03C6
FBFA
00D2
0439
FF79
FC12
FE93
F904
FC7C
FE92
00CC
02BA
03DB
F678
FC15
FBCE
0078
FEA8
FB87
FFEF
0128
FE74
FCE5
0500
049E
FC53
FBDA
0392
F7D7
F838
FD8B
FAFD
03ED
FF3D
F8F1
FDB6
FE53
FC37
FA9B
FA94
028A
03D5
F9CA
F984
067D
00F5
04FA
00C4
FA04
FCE0
0044
068B
F407
01E2
FD6E
05D3
FF50
049C
01FF
FBB4
FE73
FDE0
00C5
FC73
000D
FFE9
02A8
FCAB
0054
FBCC
F7C4
092E
FADA
0623
05F4
08FB
0691
FE7A
FB2A
FE86
0816
0356
04A9
FC9F
003C
FC7C
0289
05D4
FC44
038D
04F9
F8CD
FBDF
FE6C
FBC2
FE10
FF0E
0263
0315
013A
079B
FE8E
