0492
FB32
FD15
FE94
0120
FD57
FCBB
008F
FE63
01F6
F66F
FB2F
FFA2
0664
0677
F0E2
0032
0461
0620
F906
FBB5
FAE0
02C6
FDB2
0098
03E7
0010
07B5
0AD1
FAE5
03B1
046D
073E
FC35
F819
0059
006B
FD57
027F
FD25
037F
070C
FF89
FD8C
01AA
054C
FC65
F443
FDB3
00AA
FDE3
FD9A
05CE
FD4E
0162
05BE
F853
FD97
03DA
FF18
0275
082B
FFF2
F1A7
1265
FED0
FD64
FFA1
FE46
000F
FDB3
FE44
01BF
FF32
FCF4
044D
074B
F55F
FDAA
031C
FBF4
FE53
055A
FE85
FFC5
F8C4
01A4
0205
076B
F750
FAFE
01C7
05A0
F688
088E
0375
FF7E
013B
025C
FE46
0A53
01D1
00BD
FDDE
002B
FF36
FB24
FE10
F9C7
0508
FE1F
FF61
1137
FD2E
03DA
F98F
031E
02BF
FE10
0043
00E7
04AC
00ED
FEF0
07B4
FE49
FE31
0270
FE87
0076
FD71
0016
02BA
0081
0037
05D2
06EF
F71F
02DB
0041
058C
0A0B
03A6
F6A6
0347
0952
0416
02F7
FC0D
F747
FD02
05ED
F7B5
06C9
FE0C
F784
FB7C
FA9B
01A3
030C
15C9
0CEE
0077
02F3
FF4B
FC0C
045A
0922
00DB
0429
FC49
FF1C
FC68
FAA9
039C
0623
002D
FE60
00E7
0604
FF28
0863
FC49
FC1B
FEE7
FAA3
FE92
FEC5
FBDC
FEB0
0343
FC4E
FF87
030E
0932
0356
036F
F9A4
FD50
F602
0A20
08C7
009A
F8DA
FD94
F9CE
09A4
0378
0A0A
F74D
F94C
002C
F9E3
FCFC
0595
0570
FED6
FD43
068B
0265
03BC
FE29
01EF
FF0E
06B7
F535
FA05
03D4
06E2
F81D
FD51
FAE0
0496
0193
FC99
FCCD
0425
02F7
01EE
0140
FD98
0171
03AB
EF98
FD0F
0D23
FF9B
04F6
000C
FDE2
0021
061C
03C4
FCC4
FC9C
F91E
FC97
00E2
0115
FEC3
03E6
051A
FBAB
FCDC
0046
05F8
0292
EF04
FA2E
084F
0096
F856
00B5
01A4
06C4
FCD5
010C
0491
00DD
FF33
0209
F979
FE24
022F
FB8D
FAB9
EFE0
07CF
02FC
0469
0273
041E
F26C
F7B1
FC4B
FE21
022C
00CE
051C
01B4
00B1
02D2
05F7
01AF
04C0
FEB3
014C
FBE6
046B
0848
FB35
F8E2
0548
F911
0236
FB0E
FE66
0083
01A7
082F
FD6B
FE36
065C
013A
FE13
FD82
FE01
0000
EF7D
F945
FD9E
FF02
FFBF
F491
037C
FFDB
F77E
FD88
038D
039B
07D8
02A6
FDB3
0404
FFF2
F37F
0442
FC6F
0073
0B2C
02D7
F992
01A2
05B0
FEE1
026A
0033
0371
0514
F92B
FCD9
FFB0
FAEA
02DB
0AF9
F6E5
018B
FA97
FD71
04C2
055F
008F
0443
03F6
FDF9
0B60
F491
F6E0
FAD7
FB0A
0290
07CB
020A
0187
FF28
01DD
FED3
0241
0C48
FB60
FCE2
0198
03D6
01B1
00F2
FA6C
04F4
01FD
038B
0182
0680
FEDA
01BC
008F
03A5
0018
011A
03AC
FF48
F88B
FFDB
F652
FE6D
0162
FF8C
02C1
04EF
FDAC
FF6C
FEA1
FDB9
FB7C
06DB
FD4A
0240
FBD4
0167
FDB8
0272
FF24
008C
02BA
FEEA
F7BD
0285
03F4
0BEF
F1A0
FA62
FF5D
00F1
F92C
0B65
04EA
030E
00A6
FDDC
FF4C
F5FB
F84B
FF15
FFF9
01AA
FB6A
FD39
FEB2
FBEC
0458
FFC0
FDFE
0A0E
03D3
FDD3
06A2
042D
04EE
02CD
FB9E
FF7A
03B2
FC6C
FCC9
0192
0506
0659
FC12
00AD
FCD0
FDBD
FED7
000A
FE54
0135
F85A
F642
FC8D
003D
012A
0228
F548
FFC6
0334
FE0B
FDF4
F8C9
03CA
FB95
FC8A
0194
FC7B
FCE7
09EE
0075
F9AB
FCE6
FAD1
FD8C
05BD
0D32
F87D
FF47
F3CA
FB50
0199
FD97
025C
0130
FEEC
FFE3
06D1
0D2F
F516
05BA
06CD
01C4
015F
0811
05B1
FE16
04EE
04AD
F818
F947
FE9E
FD5F
FECB
F845
040E
006A
F873
FEC1
FDEE
067C
FBF8
FCE7
019C
FE75
085E
FF77
027B
0002
F9C0
FBB1
0645
00C6
053A
0B20
0003
FF97
02E7
02EC
02FD
0670
08E3
01BF
FA92
0301
006B
01D7
FC20
FB66
03F5
016C
063E
124B
FF1E
FAFE
FE60
0748
05EF
0A54
F997
0079
FBC1
FFE0
022C
02ED
FAF9
066B
FC73
FEC6
FEE0
0226
FF0E
0358
00C9
016D
FD38
0751
04B1
