FBABFC57
05010266
FADB0297
FF78FF7E
0249FA42
01160175
FEECFC6C
01F702BB
0514FEAD
00300393
06EDFEAE
05000005
FD810264
FEA8046C
FBFD02DC
05DAFDB2
FDD0FB8C
02C10172
FD1B02A5
FC5A024A
01B0FF03
FBFE0084
02C4FE21
FC47FF20
FDF3FE77
FE4CFD7A
FBAAFF2C
FE900037
01D7FA6F
00D4FE94
FE08FE1B
0113FFE0
FEFE01BC
FE97FED9
006DFF33
F9EBFF79
016FFBDB
001B0491
FE6FFB9A
FF2C0479
01C5FAF1
FDCB0352
0320042E
03E5FF89
0264FEAD
006D0148
FA500277
01D7001D
FDB60176
FD39035E
FF86FAAB
04DDFD62
01A90388
02A9003A
FFFDFFA7
03A2FE12
01F5FE1C
0280FEBD
FB6401FC
00ABFF0A
FDFF040C
FC31F9D0
F66E0210
029E01E9
018DFCBB
0066043F
0445FCA2
01260049
FECD080B
02D1FE95
002CF832
FD70FC92
04B2083E
00A3FCD7
F94FFAD3
FA41FC06
FD71FC77
F8940579
0128FEC5
0375034A
FC81FF7F
FD7DFD2F
017FFDA0
0480FBBF
FCE5FE9F
003DFEFC
FDC3F88E
F847FFA0
FC51FFCE
FC16F9A9
FF8701CB
FEF100A0
FF1DFEAF
FFC400CD
FAFE0438
06FA0176
FDB80265
06BFFA82
FDE2FCD2
0016FFF3
0413042F
FB60FBD2
FFF3FE11
03D2FEAA
FD8A01D7
FBC7034C
0286033A
FCC5FF56
FFD0FB20
FEC5FA94
014CFDBD
FC71FD1D
037A00A4
FE7CFD29
030AFDC2
FD66FEA0
FC600072
01DDFD70
FFCEFD6C
04940311
FA6203A1
0173031E
F9C7FF02
02F8FC3D
0313013F
036900DA
05D80269
0279FF26
FE0C04B3
F9A400A6
02820277
01260416
FD070164
FCC2051D
FEFF09AB
FC6AFF09
FD480247
0040FE3B
04B20014
FD75FD92
0097FECD
03D7FC29
0060FDB0
FE7304A8
078AFEB8
FFFAFD39
01A2FFA5
F9BD0485
FC390199
03A0FB39
FDFAFDC9
03E60348
FE220226
FF5C0067
FF32FACE
FFBBFD8E
FE18FBF6
03C002BE
0489FED7
FDAD02E4
040CFF08
0396FEB1
FFE601FA
FEBC0395
FCE2FF57
017DFF60
013DFB1F
049400C5
FCC30369
FCCB0128
00E400DA
004301E4
00FD023C
F9AD0043
FBCAFFA3
FDEEF9FC
FAC4016D
01A0FF41
0221FCDD
00B4FE1E
0019FD12
0294FF60
FEFE0309
FE26FF96
FF8E00BD
FE22FE59
0121FC1C
05D304C2
0104FB07
00DA0390
046DFF04
FE160317
FDF004DF
006B008C
0105FFA8
0609FCE1
FE460064
03E70021
FE3EFE78
FBC3023A
01B1FE83
FF95FF3A
01A500CC
FC470006
FDCF00C2
FFCCFEA7
FF43015B
FFC6FCD7
00B902D8
04CC026E
FD5F0096
FDB80186
FDB9FEB0
FF01FE58
00DAFEAB
FE28FF43
00D4018D
FF1301D8
017C00A6
017FFE6B
0143FF7C
02EDFE74
006102B2
FD6BFFCA
FF5301AC
00D0016E
002CFCC0
FFC7FCA3
026B00F9
03A5FD82
FF0EFFE5
0138FC9B
01810278
00740038
FFAD02D1
03080278
FF44FEDB
FEA0FED5
00C401E1
0026FB53
005EFBA8
00B3FEE8
FD7FFD73
009102D0
FF35FC33
FFF60380
FFB3FD55
032AFEE7
02E1FE42
0120FEE8
FFC80598
FFBE00C6
FDA8FEFD
01B0004D
FFE50093
0087015B
FEEDFFA2
0151FFC0
01120142
FF3C021E
0071FFDC
0195FBBA
FD530467
FFFEFEBA
FD010079
02C2FE79
FDC0FCAA
02070401
FC1D0150
FF78FF46
0393FDF8
002600AC
00A9FD13
FD8C00AB
FF1101CE
FA22FF6A
0040F93F
FF95FF8F
F9B70076
01CF00FA
02E3FD95
02ED059A
FFCE00EF
FF280167
FF2F002C
FEB0FDED
0206FDC3
FE080165
00B8FAF3
FC7300D2
0087FEF5
FCED00C3
0268FE73
FFB1039C
0191F71B
FF1EFDE4
FE40FFBD
FF0FFDF5
FAC2003B
0195FD95
F8860052
064107A9
FEEA0290
FA93FF40
035DFB86
001E02B0
FC8CFC34
0590FD7A
FCE30041
FF99089C
03130139
06CA03FA
001D0396
FB04035E
FCE701C8
04CEFD46
02760375
FD0A0643
013B00F5
F91801C9
02A8FFDF
F7DCFD6E
01020203
FB490404
FD70FD47
01E9FE5F
F5CEFECF
0141FDA2
04E6F900
0404FD0B
F991FF15
FF19FA47
0115051B
0090FD55
0899FDAF
F874FE77
0489FC61
04A70444
FF0A0206
FD8C06FB
01EBF90D
00AB0302
FEE005A1
05BE0006
FDB200E0
03C903A5
FA78FC43
089BFE05
02F6FBE6
F9190257
FFBF0435
00EBFDB5
002B0064
00B0FE34
00390151
FD76FF93
FD5CFE57
FFA802AD
00F30087
01B0007B
FFCA022C
0010FB42
0034FEC9
FED4FCB5
FF240241
00A7FF76
FC0AFEA1
029B0277
FCFB018C
0419FEF4
016FFE79
034EFE93
03E1FFDE
03710790
014000F1
FE6DFD9C
0017FCB0
000203C8
FB9DFF31
FFB8019F
01BBFF28
021001D2
FF60FBC6
04BCFE3E
001BFF12
0365FD0C
0135FE03
FDC9FFD9
00E3FF47
032EF93B
FB920844
0084008C
FDA0F9BE
FF2CFFD8
0033FE97
FEFFFAAD
02BDFF9A
FFBF03C3
FE4700BB
03E20282
0177FEDC
02C4FE33
FF4A0106
0565FCD1
FCB600A9
FE86FDC7
0041FE8B
013303FA
01AEFC14
FED4FE6B
03E1FDFF
030BFA79
FEFAFE9D
03CDFF53
008CF97E
01D600A8
FE40FDB4
012DFA79
FA81036F
03150172
FC5FFE86
02D50132
FE2EFEFA
FF94F616
FBB00059
FB60FEB5
00E40032
FC23FE7C
FAF3FE39
FE2504F9
FDEC01B6
036C0524
FF3AFE53
00F003C5
FB5604CD
FBDFFEB5
FDA3FF09
FC08035F
005EFBDD
FE8CFF1D
FEECFCD9
005AFDD7
0142FE2A
FE0DFCA5
00A00227
0042FD09
FD110384
01AEFFF4
F8FF01B3
0038FB35
FE9AFC38
0332004B
FE7603E7
02580263
0062001B
04B80030
FED5FE80
FFCF04CA
02F4004B
023B011E
0188008B
00E1FCD5
FBB70092
FE4401AB
FC92FC65
FF0501B2
FD7FFA7F
062C0180
FDA0018F
FE4101C9
028BFEA2
FBB7FCF2
04FCFE4C
FA52FC07
F8F2FF90
FBA3FDE2
FBE3FFA1
FDE4008F
FBB5FDB8
075C00EC
FB96FEF6
00330222
009BFF6A
02D9FE28
FF040110
FC70FD48
0112FA8D
027B018A
0078FC2D
FCC1FF7F
FE8BFD6A
FEFD010F
FD440525
011D00FA
FADAFF19
FD0B016F
FD6101D0
044AFDF8
F8FF0128
FC2302A1
FDFB032E
00ED04F0
FAC4FDFD
FE57FD73
04C9FC0F
FC51FF8A
000EFAA5
03C40371
FDB4FA73
F86504A9
0391FD00
026C00A3
08EA0194
0282FF9E
FFC703D8
03C5FB95
00880216
FF29FD95
FECE00A3
FC99FE51
FD2D04C0
00DA019B
FAF7029E
02C1057F
051B00EB
01960317
01040230
03870075
030D005E
FC54FBA9
07900055
00EEFEFD
FCC9FDF2
F50EFDFE
FFCFFBAE
FECA0881
FD9F01A0
08CA0459
FE30005E
061B057E
0638022C
FD0F04F5
04A2011C
0172FF47
0A33FE4F
FFBEF871
FE5DFE10
000B02CB
0266FD7B
FCD80349
01F8FF94
00BAF9D3
FF730278
0200026D
FF8DFC34
FE9C005C
00DFFD67
FB6A0308
015EFF3B
0286FD67
FFC902F4
FEA500CB
FE7C055F
010902B2
FDFFFD92
03550012
FF63FE73
048A03FC
FC340209
064602B3
0238F9BA
FF5AFC6E
013FFA73
FF6AFE9F
FCF8FD2C
FEAC03DB
030601A5
F99F00A5
FEA5FF49
007A0025
00C6026D
FBC303AF
01880049
019E027C
FF150132
01030011
FD65FEA1
FF570239
FDC1FD72
FEE4FA4D
0049FE88
FA91FC67
0302FFB8
025EFEBB
FF28FE76
FC9EFC94
FC24FE6D
FC4BFB54
FC78028E
07A201C7
FDB103CD
04E4FEDE
007E0147
026C001C
FDAB00D6
F9430076
FF75FFA9
FF3003E3
02FA0033
028D00EF
03920001
FF73FE6B
FE6B01D3
FE86FF20
FFC300E5
0383FC77
FD9100BB
054400D3
FE8901EE
01ED0058
015CFD0D
054E00AD
0283FA18
FF2E0481
007A0597
00690041
FE9FFE7C
FF54FEE3
FAA5FF88
FD8102D9
018AFF4D
0337039A
FE38FB83
FF4EFFD6
00DD0069
00F9FFDA
FE6AFF7A
028B029C
006EFBA8
03B6FE04
FD710285
FEF600E6
0603FF1F
FF33FFCF
0458FBDC
F9FBF9DA
02A4FE61
FD7107E0
F7E401B1
03390059
046EFF46
FEB9FA5D
027A01AB
0367011F
FDB701F7
FFC80010
00B2008B
FCAC0089
FEDDFEA8
037CF9FB
FFDBFFC3
FFB6F93A
FE33FEB6
0066FF19
0061F7FE
00E1002A
FD82FDFA
03CAFE2D
FE6EFFAD
05490001
FA210052
04A4FE84
FE0AFDAF
FDEEF722
FE230052
FFD9FCBC
014902EC
FED501DC
FB6901F0
FE2E0129
FF3C00E0
015C0255
00BB0041
01D80521
FCB40672
0077FF2B
FD1CFFBF
011D0035
01A9FF42
FF85FA84
FFCE00F5
0152FC3C
FE12FDDD
FF33057F
003601E8
FC23FE08
01F8FE86
FDC3FFE3
FC08FFB6
0386F798
014A06D9
02CB01ED
FED9FAD1
FF94FD2F
027E02BC
F95600B3
FFB1FC3F
019003F7
FFB9FED2
FC6C024C
039CFE71
03F6FBF6
0146FECC
00A6FD4F
011A026D
0165FF97
FE780528
002501AC
FD59FD95
FFFAFE6D
017D01BC
08730450
FEC7042D
04960610
08020393
02C8022A
FEC0FECB
044E00FF
FC5F0010
FC4301A1
00FAFD2A
032C01AB
FE27FB8F
021C0095
0059FD8D
02C501D8
01040182
00E2001A
0303002C
027900ED
FCAB01C6
FFCD009C
0163FE8B
FDAF033C
020E0210
FAB4FDBC
033AFD04
02090394
FD1DFDFF
0094FFBC
01670289
FBF1FD9E
0374FE89
FD1B02E3
0118FF23
FD24FD63
090B018C
FA6FFACD
00830052
FBC4FD93
FF1F042D
FE4BFE8B
01200128
004B00A1
0441FA05
FD5E06D8
03A60228
FD590372
03D8FECC
0286022C
FD62FE79
030BFD2A
FF17FE99
020501D1
FDE6FD13
039700CB
02D400AD
01300045
04090172
FF81FA3C
05AB05DA
FC7EFBC8
05EF0445
02410595
FA430AC1
05FBFADA
F76200F2
02E5FE6C
FE4301FD
FAFAFE24
0437042D
0036FC76
0190004C
FA9000CF
017FFDD7
0A21FE33
00AA0018
FED6FBE4
017C019F
032DF9BF
0503FDDC
01C3F87D
FE35007A
062702E9
F98A01D6
FC10FDA8
0626FEF3
FB47030B
09B5FA7A
0046FA5E
0508FF5D
FFD8009F
FF6304B5
FBAFFF4A
0105FE89
086EFC95
FDA8FD72
0096FEC3
FF3200A2
05E705C5
FDA9FE9B
0534FF20
FFFCF382
FC69FA4E
FAAF0289
007C0057
03A0019A
FF03FBC9
FAA400A5
FBDD0353
00F0015B
FE930511
FE800131
01F2027B
FBAD0492
01CCF9E5
FED90276
043B0486
FF98FB14
FD63FB92
054AFCA7
FA750177
04D7FF62
004603DA
0326FD4C
FD32F8EC
0195FE5F
F9EB0391
F6DE075B
0833FB88
016C0029
00EEFF14
FEA9FF22
028E01F2
012701BA
FAD9FFD9
0041FD14
02CDFF6E
01AA0237
FFF000FF
041601A2
000EFFD6
FD0F01BC
FEC4047B
FF96FD03
03990283
FFC20095
018803F7
FE80FF79
02A6003E
0059FCEE
02B0FE42
015C03DA
FFA3FED6
FCDBFD5F
0031020A
0390FD31
FBDB0183
FD9FFFFA
FDFD033A
FE2901E9
002D0223
026F00B3
020F0031
01270102
FECDFBBE
0132FEDB
FDA20037
FBE2FE26
FDBCFCED
00D4FE5F
FD8AFC6D
01B5FC4D
FFD90326
FDC6FE39
FCFA0264
FC63FEF8
0139FBE3
FDDFFFCB
04940076
033EFEE9
0428F93A
0521FB24
FD63FF66
012A0417
F6EB0126
01C2FE97
002603D3
FFAB05BA
00AC0124
FBEA0593
FD150159
F92A007F
00BAFD97
042A0022
FFE300B0
009405C8
FB350164
0474FDBC
066F00B6
06EDF878
0743FBDB
FF22FEAE
FE4A0300
036CFF13
FFD305CC
007FFEBF
F9A80187
026AFE4A
009CFEE1
FFB70401
FCD2FC8B
02FFFFB1
00EBFCA4
0130FD62
029E00FB
FBDFFAA6
FCA8FC3A
F9480253
0138F710
FD3B0385
0061FEE5
01A8FFF1
01AFFC68
FE3AFF69
F80CFF63
FE67FB56
FF5BFFA1
03470198
0583043C
FB5200D2
046C03F9
FB61005C
FF03FCAB
017FFC53
FFC4FE35
FEC3FC01
061F01CE
03AEFDD6
FE86034C
0760FC5D
06B500EE
01A1FFC4
FD4400BA
FC4802B3
076DFDC2
FEA0FD27
01C301D3
FAD600A8
FCDD01A2
FCC302A9
FE3E0339
FF9802C8
FD5D0278
056DFE6D
FCFCFF69
FCA1FC4D
0334021B
FFCEFBBD
0038FFC6
FD2BFC06
03BFFF5A
FE9301AE
FD6D0135
FFBCFEDE
FC8E02D7
033D0072
028E0546
0365FBD5
01020552
0258FBC9
015C022A
FE8A0412
0107014D
036FFF39
FF4DFD8D
FC9AFF5A
046801E4
FC2DFDD1
FB750021
01F6FF6D
FF2BFF14
0545FBEF
030EFC5B
FD880561
FA3802F7
FD550251
045FFCBF
FF3EFF24
033D0146
0008FFBA
FF520120
0059FC38
FA0BFCBE
014A047D
FC6E012A
008B054A
FF30FFE2
016BFDC0
0243023A
0195033E
0597028C
FF000414
FFC4004E
0343FF72
016000A0
024BFDB8
0165FBB1
FF850286
FE360069
FEE4FB63
04D2003D
0068FFA5
067000E2
038A00AD
02BBF914
024600DB
0144009C
02090166
FE7EFD18
FF7F013A
042E03DA
FE28FADE
013806DD
000BFF9C
01C00254
03E7FBA4
018503D0
00BB016E
0324FCD1
02570211
0345004A
036F012F
0406018A
003E01BC
FA9502F4
008902A3
FF2C016C
04860145
0202FDD6
03CE021D
FFD0FEE4
FE60FFAC
FF38FF12
FE2FFEEA
00770138
FF2CFEC4
00E20290
FDAAFFCD
02210519
03F100B7
018DFF9F
00D0FE07
005200E3
FCE7FE59
FF7FFFC2
0021FE54
002AFFAC
FCB3FF33
FC7AFF0B
01A8FD99
01B201EF
0213FC7F
FFE80189
001C0239
FFF1FC16
FDE100A6
0017052F
FC8AFB34
FF69FF0F
FFE10285
FDA5FEDC
0166FCAD
00B00469
027FFE50
FC6AFDD8
0086FFBB
FC7EFE99
FD150291
0221FFEB
032F01C1
F874FD26
0406FE92
0169FC91
FC8C038A
029FFF5E
FDE3015E
00BAFB90
FD71FE49
015FFB6A
FF8CFF08
FD93FF7B
032DFD5A
FF46FEEF
0163011E
FD97FE4B
029A011D
FCABFF95
034FFC02
0435FDFD
FB070415
051602DC
FBF603B5
019BFCBE
02500163
FF2BFF10
0231035F
04D3FD61
01C905C2
FF330025
000C0174
0032FD73
FEC70194
023E0330
FDEA0282
03CB0029
005803F9
FFE3FDE5
04BD01FD
0356FB78
0005FFFF
05BEFDA1
FD05FD80
FF02FF38
025B01CC
04F9FE87
034EFEE0
FE5A044D
FFB1FCDB
0344FD6A
00490684
04A7FF7B
020EFA08
FD230277
01D5FFB0
FA9701BB
FFBEFD80
010D021B
FC3602DF
03610277
FE860430
FDA101C7
043D03D7
FBBEFC9B
FEC9054E
0258FDBD
01CE0656
FDC00740
04BA000C
03670588
FFE5FB30
0574FDBB
0023FEF4
FFB60467
0479FD88
01530A3C
02730347
FDFA00CF
01AEFE54
FA7EFBB7
FFC700DD
FAFFFE63
028D0278
01B3FDF9
08C4F973
FF4EFF1F
015BFC56
022AFF84
FF6F02D8
FFBD015F
02CCFFA4
FEA5028E
0215FFCD
041702E8
0584FD50
FFDAFF98
FFD4F975
FC760330
FEA2010E
077C03EF
FFF2FD28
018EFD72
001AFFC5
01AFFF77
00D7FEC0
F9B40077
01D4FD6D
036403D7
009901AC
FBA0021A
03BE0265
007AFCF3
FB6A0034
025902CF
FFD8FBD3
041BFDE2
0041001D
02370261
FCCB0351
02230103
FDC9FCBE
FF79FCFC
FBE007F2
FDA5FDC4
FAE5FCDF
01F30324
01DFFCA8
FD15047C
FE990075
011F035C
F8140401
01910322
0071FFA0
FE91F8C7
04EBFEAE
FCE30025
FE5FFD4E
FCF30109
FADDFDD0
022FFDB9
00BE01F5
0111FE92
017D0130
00B0FDD2
FF860110
FBBE0399
FB7CFCC9
03F3FC4D
FD3CFCDD
004C028B
FE31FEDB
0190FBE7
05B30125
FC6E0153
FD5004B9
02BAFE77
FF0E0099
FE87FD6C
FE4600BD
05F100D8
FEF900F0
0031007F
FDA0FA75
FA46FC07
FEE2FDAC
FE4DFEB8
01D20255
FFB3FD71
0299010A
01310114
03FDFF5C
0205FFAA
038D02EC
FC4203C6
009A0320
0010FC66
FDF600E4
0118FF6B
0172000D
005CFEC5
FADF0047
0354FE03
01A1026D
0586FB5B
00760187
07A8FD5F
FE7BFD90
00B1FF78
01CE0299
0365FBEF
FFE5FE69
04F20176
FD1801B4
0064009D
FFBA046B
017E02F5
035FFA59
053901C5
FE6FFA9F
FFBA0014
046302BC
031FF9DB
FEAB012C
03C00158
02CA01C0
009CFF68
0237017C
FB930274
0014FAE8
004FFA6D
0143014E
00EEF99E
026304E6
FE55FB13
00D7F929
03CE0047
FD1DFCD7
0558003F
FDD90372
0231FDCF
FC9AFD7D
0025FF70
0079FE59
03F9FB0E
F819FD14
FD76FDE3
0261FDB2
FC8901EC
FB4AFEF8
FCFDFE71
009A0194
FC4705BB
027EFC10
04720362
FD5502C0
04D8041B
FE04002C
02A30092
FFB4FB93
FBE8FA00
02E6FD9B
FACDFCE3
F922F9D3
FE3A0605
FFF40285
FD6EFF1A
FEB3FCEE
FBACFE28
FB460500
06D8FABF
00E6FF1B
01A2FDB6
FF3900EA
012603D6
FCAE000D
00A7FE94
026101FE
FA84FF77
FF820233
0267FD09
FFB70212
FF1F01BD
FD2F02D4
FD4EFD56
FEB5FC91
02E700F0
000EFBAD
052EFE54
FFAEFFAB
00C3FE1D
01B8FD1C
FF42FBA5
000AF7BF
FF5B0003
F9AC0359
FE930055
00090013
FD02FEAC
FB99FFF1
FE5D0181
01B80247
F9B30489
FF26FF60
0260FDA0
FE3F0173
05340337
FE140074
00020080
014FFB69
003AFD20
FEA601F4
FDE4FED5
FECF0025
03270403
FF45008B
FEBBFD40
0051FBBF
FD01008C
FBB201CC
01B1FECF
0223023C
FE92FE94
000302BC
04F3032F
FDE001B0
03B2FE03
02A5FF63
FB96FFEC
FF85FEF1
00B7FD3B
01D401A3
FF18FD1F
FE5E018A
01B50082
FEE6FA87
00A6FFC2
FF36FE99
03B9FF36
FDF6021A
034F01B2
FE7EFD2D
03BBFCB1
FED0FDB3
FE51FCCB
FD860201
016DFE70
02E30352
018D0120
FD230247
FAF70035
03650057
FEC50182
012E00A5
01230405
FE0C0615
007D00B6
FC77FCF4
04C70288
FFCEFF01
FB07FDD3
FFF4000B
00D4FEE2
04D200BD
FFCA019A
039FFFCA
0185FCC5
0072FFE3
FD1CFF22
FC750227
01CCFC29
03B50A6B
FD80006A
F7C2FC53
075DFED6
02D4FD18
FD60FE01
01D8FD0D
FEE3FF6C
FF53FE5C
F4B3FCA5
00F1FF0F
03DBFCC1
049D0586
022E0013
FD64014C
057A040B
FB4FFDD1
048B067E
FB48F79F
0029FD20
FD7E011B
04BF0150
FAF0FBC5
076BFCBE
0347FDCC
FEBB047F
064B0510
0274FF86
FAA7014C
FB2E02C5
09DE013D
FEB30761
0046FE89
FE5E0A6D
FC36006A
FF7000FA
FF2B0447
FFB5004C
019FFC86
FAA30198
010BF94F
F78FFD89
0602F902
FDDEFFC3
0300F74E
0220F779
FF6F0551
F820006E
FA7D03BB
0412F7B3
04F8FDD8
FD51F9D9
0429FE75
0625FE87
F94B0417
FF9204B0
FE280332
FC91FD74
FD35FF7E
066DFABD
FF3300F8
FD4BFE53
FDDBFDDC
FEB2FE97
03CFFC0C
FA08FFF3
FF0801D1
FD73FE97
02DCFD9F
03D103BB
FF49FE86
0546FEAE
FC04FC4E
013BF91A
FD9D0439
0263FEEA
03D80241
FCA1FBE1
FF3804A2
FC590214
FF8D0187
00AC013A
FF7400B3
02AB0314
FE8F0529
0226FB35
FCE40183
FF4FFDA8
01820771
00B6FD3A
FD32FF9C
0207FC64
0284FC9B
0034FB79
FED9FFF8
FE8604D4
0399FF12
FB05FEDB
00C00274
0372FCD0
0373024E
058BFDA9
01FA017B
FD63047D
FDB0FFEC
FEC2FE97
05D80118
F8B901DA
03F60192
0305FE66
0080048A
0075FEAE
F9B00041
FC60FE3E
FCB2FD45
01A60162
FF09FC67
028C0438
FE1101DD
0131FDF8
0381FAC1
027DFBCB
03FEF507
FD58049A
FA8C02CA
FEBEFEFE
02C0FE70
FD040084
FD74FC7D
03FBFFE5
FFC402C9
FC5A0252
020AFFBC
020DFEF1
FF090143
05AFFD71
FB38FCA6
000F010E
FEE0FBC5
FF1BFCA1
FDFA02BE
FE31FEFC
007B0059
FF9A0274
0052FFBD
FFE4FD25
008AFEE5
FF3F00B5
FBB00131
01C500F8
0273021E
0500FCDA
013AFFFD
FEF302F9
02A1FEBE
FC38FD8D
0400FBB3
FC47FDC1
FE4D0606
01BDFF56
FCF5060E
FE8103D4
FFB405C8
022A04A6
FF850072
01790381
035404DA
FAFF078F
0211011A
05A2FF97
0267FA91
024BFBE6
0085FFFD
0156024F
FF47FE2F
00660467
03910084
FDD702DA
0354FA23
010DFF3C
05890533
FBAEFDEB
026B044C
FE98001A
FF6C0073
0000014D
FD82FBA8
FF29FCA6
FB4A016A
FD7EF9BD
01C1027D
FD24FD1E
05B2FDF4
FF52FD09
0188F98C
06CBFF16
FD5A00D3
FBEFFD5C
022D0288
06C7023B
01D40053
FB80FCBD
045DFAFB
F81C030E
05260300
FB4EFE7E
01E50349
0327F7ED
FD4203C3
019C0235
FC99045D
FB790987
00C0FCF3
FB36FD77
02C6008F
FE57FAB7
08E70588
F7AB0061
05FAFA97
0295FF3A
0334FF41
02ADFCCA
FCEC08D0
FDDE0173
0652FD8B
02BD0343
0507046F
FEF3FEC5
069F02A7
006BFB70
FD21011E
FD41F92F
037B0849
FBC0FE75
023FFCA6
00F805FE
FC49FD89
048EF838
FDCA03C4
0347FDAB
05A6FDC0
0483002D
FB080045
01690478
0290005F
02980566
01F2FB69
04AAFA07
07BAF9FD
04DD03E9
FD7901AA
01A901E0
0242FED9
FA2504CA
0334FEB8
FBDAFBCF
0123FCE3
00B1FD7B
0055041D
00A904CB
FCD5070C
FF3102F9
FEE3023A
FFC602D5
00C9004E
FDE603C8
01FE0478
FADC0638
0516FF09
FF6901D1
01BCFAAC
01D5FC14
FEFAFFDE
FFB90234
0355FCB2
034E03DA
00FBFF2B
FFD5FF2E
0771FC35
02E6FD97
00580186
FCD1F960
059102C7
FE03FE4B
017A00B3
0089FE44
FCDFFADE
000EFE6F
F90A03CB
00AE00BF
029306A0
FFE1FF62
024802CF
00C0FB7B
0116FD4F
03D70170
FF15FE09
0296FCD9
05E2FF1C
022E0403
0305FB42
06FFF6FE
016002B6
07090144
FCFB050C
FA8E011C
039AFEF5
FF6F04A5
0193FF53
0641FCB2
08E20291
FFC7F8CB
F455FCB5
FD09FD24
FF61FAB9
06D502BC
FD6DFF72
066BFBBD
F8E604FF
048404DE
0235FCC1
071AFD48
0436FE86
FBF9FC40
F7BF0017
F9C8FEAC
FDF8FE30
FC0DFEAF
FA00FDAF
FC2704FE
FA5DFC5F
FFAA05FB
025EFE11
086D002A
FC3105C8
00FCF51C
FDFFFB50
FE380540
FE1FF982
F940FA27
FEE800AB
032C0079
FB0700B5
FFD70ACD
FDAA0562
FFE5FC6B
FDE4FF05
01E6FD72
F8AB034F
FFA1FD9A
00C300A6
FF45FE24
033FFD9F
FD6001B0
FEA60075
FF0FFF5B
FF370160
01E1FD80
FD990218
027FFFED
FE04036E
FC5E0202
FE5DFF79
FBA700E1
01B900EA
FD98FFB8
021E03F1
FCAB02FF
035CFFEA
02E50444
014BFF4E
0225FE21
00B7045A
FE39FFA5
0047FEB5
021E0293
04370167
0037FC55
01E0016F
FDB3FD7E
FEC4FF00
00ABFD42
02480252
0029FF60
027C01CB
0138008B
FCF1FEF2
0385FE60
009A02F7
FDA0FB2B
038AFD3F
0239FE34
0002FE9D
0319028F
0104FC8D
042E03D8
024FFF1B
0138FD03
0261FCFC
02D6FE9F
02C50438
FEA0FF01
FD060115
010CFF13
0220FDF4
FE6DFC82
04E5FD82
FA4A00D5
04F6FF53
FE72FE15
01E30095
0273038B
FEAC06A2
FE5401B0
FCA40335
0436FF10
FBD8FE3A
008D0628
FF190040
03CE00B3
FC30FFAD
024B00B1
FE86F8D8
0230005A
002E007B
016F017E
07B7FEF8
FFE300F9
FC17FFA9
FFA3026B
058E00C5
FD5C05D8
FE0E0234
FDB70455
FB540088
00CA01A6
FB600264
00FD029C
0078FD22
FBABFC73
FFE3FD9D
FAC7FF03
06C3FD45
FC7A04D1
03C9F90A
FEE6F9D5
FEBA0315
FA5003BB
FD180196
026CFBB4
FCF7FDD6
05DA036E
FC8804E3
FE30FF73
FF5AFA75
00E4FEB2
0065FBFD
01B4053A
04CBFEB2
FF0F027F
0690FD54
03CEFD14
016B0089
FF910481
FAEF004D
0420FF2B
FF35FD5B
0289FDC2
FB8F05A0
FA80005D
00D003CE
FC1B011B
0264015E
FCD7027A
FE39008A
FDEBF871
FC30FC8C
035201DE
019AFD4C
FF5EFE54
FE40FE82
01EDFFFD
FFC8000C
FE9300CF
00AB0093
FE56FE3C
0242FE4B
047404D5
FE8EFC04
FE530451
03AFFEA0
02AC0357
FD6B0458
028501AF
014E015B
01B4FDDD
FEFA0250
02FBFFD8
FC24FE98
FBC301DA
02A601A8
0561FDCF
FC510005
03680187
0251FCE5
FD98FFC9
FFDBFD4C
02F304A5
0488FF4B
FCFFFFB9
02FE00F1
0338FEF4
FF11019C
011D04C9
FC48025C
03DF024A
F918FEB5
02D20431
FC4902F6
03ED016D
FFA6FD1C
03A0001A
0310FBA9
01D501D3
00EDFF95
FCA103D3
04D400F0
FB7BFDEA
FCA2FDC1
FF40015B
FFC1FF98
FE35050A
FFB7FE95
FF8F0010
02E9FDAA
FB0B0014
0031FCAE
FC4D0580
FE35FD91
FDC3FD01
FCDEFEA5
FD87FD9E
0590FE80
00B2FDF6
FF2FFD52
FE88FD61
FB200337
FE60020B
FD830435
03BD0126
0594FE23
FDBBFB06
FF19FC92
04FBFFF1
03440275
F667FF03
0788FEB6
01A70033
018FFD2A
F92DFDBA
03BE0235
FF0B004D
FF31FF9A
FE78FD2B
0334FB6D
04AF016B
00D7044B
021C01E1
FFBDFC74
03D00308
FC2CFD8F
0546002A
FD5200E2
00B6FBDB
FE77FAEB
041D03C1
0819FFDE
FDFE0039
FD81032E
F9B5FFCC
FCB90536
FCF70431
0253024F
FD89FEDC
FE240663
000EFF95
FA390193
018C0028
0011FE73
FBFCFD3F
05D3FF7E
00B9FDDA
FC40FF5C
FEB20779
02990431
FCFC005C
FCC1FB9A
FF27FA87
FBE102D8
03D1FDB8
056A01B8
FCBAFC5B
0171FCC1
02FCFCEE
003B0783
FAFB0223
FD1300E8
01DE02A9
FB9EFCE0
00D3FE6F
013AFFD4
FF91FDDD
000BFD1A
FB6BFC9C
045FFFC2
FF1AFCE4
FCD4FE64
0216FC3D
FD07FEDA
04190209
FB7E0357
06B000C3
FF7D0337
FF45013B
00E200C2
01990238
0498FF23
00D7FD24
FC3E04A2
FA3C00E2
FF5300D0
01750383
FEABFDCE
02210154
FFB3014F
FF20FF0C
00C004EC
01B6FF0C
04ACFBA8
0098FE7A
00C1016B
0347FF75
FD51FAB8
019D02E3
01DC0167
FD62FF9A
049CFD34
FFAB02E4
FAD50015
0521FDAF
FB9BF8BA
037F0407
FDBC0573
FAD302AA
FE36FAE7
04CFFE82
0077FBEF
FF550453
03D90013
FF070765
02130030
0417FDB0
FEA90233
FCBB046B
FCEBFFF7
027FFE41
FC92F9D7
048DFF12
FC2D082F
FB1B0030
0303005E
F7D2FD2B
0565FFAE
F74B04F6
F91C023D
FD30FB37
F9A1FB75
FD9F01FE
01CAFC1C
059FFCD6
FFE1FC5F
0074FE30
FFEC027E
01140132
FD3E02CA
01470147
FF87FC68
04A00569
FFEDFD11
0007065A
06580094
FE3B05D3
FFA602C7
00BA0248
FFBC00B1
0579FEA0
FF650220
04D201A7
F992FD55
F9B4FFCD
00D00411
FFC2FFAE
FE54004A
0080FF3F
000EFFBD
FF25FE78
FEACFE3B
FCAB008B
FF58012E
FED60123
0012000A
0135FE31
034BFFCF
FFAAFDF5
00090044
001DFFFF
FD2CFB83
041E0274
FE5F033F
0268FDAA
FF69033A
01F90030
0207FFE4
011A04BB
FB340085
0051FDAC
030CFEFF
0118019B
FB0401D1
FB11014D
05280026
002D03F4
FF5BFCE5
01ECFFB0
FF4B0121
04170005
FFCE00F3
FEA3FFD2
0431FC4D
013DFCD7
0073013F
FE4D0011
FE2FFB2A
FDFB085F
01D3FEA2
0044FA37
05C600CA
FCEC02E2
FB86FFE8
03F6FF3B
0143026B
FDDBFF80
00DD003D
041CFEBB
FF8B007E
FF9DFEC8
00FBFFD4
FF2BFF70
0049FE9F
FF1FFD25
FE38FFC3
FF9E01C4
FFEA0251
017E0193
006FFE91
FF6DFFC3
FDC1FE89
01640287
00A1FFB9
01FF0136
FCAC00E8
01490043
FECCFE58
0247FE1D
00EBFE83
014EFF4B
03960083
FF530102
FED70197
FDAC0341
01E3FDC9
FF8E04B1
FF9603DF
FB1502AE
FC670270
FEA3FCF2
FD18FECE
01F40130
003600DF
FD8EFE8C
0236FF0D
FDF3FE35
05FAFFDB
002D00F1
0288FB9A
02A8006E
015E0200
FEF300CA
FE2FFF94
016AFDFD
03830525
F75EFF1F
FFBFF5A9
07EAF724
FFAC05CA
FAB1003B
FF9101CC
0336FFF9
01B1FB55
FF27FDEE
0784FA04
065AF78C
02BAF7D9
FDE9F7E9
074B0038
007AFE0A
FE490108
000EFBBF
FFDBF985
000CFF26
F7DE092A
0A95087B
F53C00BF
090801F3
081F0263
FF47FEBA
05F00108
099BFFE6
F8D30959
F5AF0399
01F6FCED
04E4054F
FA4BF753
00F50495
FB8C039C
0731FA43
FF1107F3
0122010F
08A9FC78
022CFEBC
01400299
0041049E
0221F7B3
F8C102C5
0B2000E1
FC93F75D
0814FD4E
005C060D
FBE602AC
FF1AFC0F
FEA703F6
055000FD
FDAFFFF3
FFFD00EB
014DFF62
FCF5FF2D
04F4F95E
018E0450
01F9FD38
001102CC
051AFECE
037AFED2
FFCA00FD
FD7FFDA8
FD2A0102
0A5DFDA9
FDB3FDED
02E70181
FDC80358
FFB5033E
FEDDFEDF
0176FF4D
0063034B
FFF5FEA5
FA740047
FC9FFD7E
FEECFBA0
00C400AE
FC5FFC94
FD6EFFFD
FD69FF34
0052003B
FD44FE73
02DCFE40
0292FEB6
010802CF
FFB6FD12
025A02EF
FED4FBF4
001D00FC
048C00B9
FF8004DD
FEFC0023
02950892
0183FD85
FE77FDBB
FCC9FD80
004F023E
FBC10296
01D00217
060A03ED
FC97FD6B
F935FD4A
0C96F91D
FFEC02C7
FC40FD22
003AFD82
0030FF8D
02DCF891
FBC9F8C5
071EF7A5
0264F808
05AD05CC
01B5FE5E
FC30FC40
07C1FF26
FEA2FE9D
0553FCA5
F75FFDF9
02E3FFA4
FA45038E
047E05AB
FA16FFBC
07ABF5B7
0410FDC2
F8CA047C
03650261
FD3EFF0C
F8AE0290
F4BD024C
07F4FB9D
00C60868
FA66F9E5
FD2E0AB3
F6630549
FEBE05BA
FE9B04C5
04C70461
04AAF6B0
FEFCFDB2
0583F940
F7EEFF42
0250FBD4
FE210352
034BFD47
0279F4C8
FE3505FC
F9CC0100
F630074F
04A0F85D
003605DA
00CC0120
FE4AFF30
00EFFDE2
03F2FB8B
FDDC00AD
FDE8FB54
FFA600BE
0644FEDE
FD4E0088
FFEFFF67
0205FF07
04380656
FEE4FE52
FD9902DF
0368FD90
FE85FD36
01E0050F
00480162
FE7A00B9
FEE4014D
FF0702FC
002BF939
0284022A
0136FFA4
FDD802C3
0256058A
FEF7027B
FC1BFF8C
FCF102A1
05F0FEE9
FD05041F
FE52FE70
FF0300CA
01CBFD16
FDFDFF38
049F000D
00F0011F
02AFFFFF
FF05FF0A
FFD9FEEB
FA6A0229
04C5FC38
019F004F
0274F99E
FDF6F9BF
039200B3
FC4002A8
FEC3017B
030AFEBA
00CC033E
01AAFD3D
011F0037
005801C2
013E0223
FD6B002F
06B4FEF8
FC400151
04DAFFE0
FEA7FEE8
00A50273
FEFAFFA2
FBDAFFF2
00F9FC68
02DBFA12
023200B2
FF870730
FEE8FDEB
019B01ED
02D2030D
011CF969
053BFE08
FE82FDD7
FF98FF44
FBEDFE1E
02A500A7
00F00606
FDA301C2
FFE9FDBC
FD9FFD5E
FEFE041D
FC3901F4
046FFFBC
FF90FE2C
FFFA057F
017100D7
F717FB86
006B0215
FB7C0361
0091FE73
00160289
FFFDFD81
0047019B
FF1002B0
017104D4
0197FE5E
FD38FBE1
0162FE8B
FFD70078
FFB2FE02
FE07007F
00660185
FC1EFF93
FDFD00BF
0018FC15
FC5BFFE2
0535FE90
0321FD33
0272FD91
FBBE0484
0454017A
0424FF80
FF8E02F8
FE6900D0
009B0305
03FEFF2D
00510468
FF6A0010
FFC90093
FF220351
FF8F0071
00E6001B
FF89FE68
FF72FF88
FFD1FE70
007D001E
018203D7
026DFD3A
0126FF4D
FC91004B
FECC0100
FD8DFF92
01CA0062
FE25000E
01CD0023
FF6DFD54
008BFF11
02ED057E
FDFA01B7
FE1501C0
0321FEFE
0175024A
02EC015C
039A01C1
040FFFA8
028A02A8
FBF300F1
0309FCF6
019C000C
0066FFBD
0053FF6C
009B00E7
FCDE004F
FFEAFFD2
04A9FE72
0403015B
FF95FDBC
03AA0111
FD56011D
028700DC
FF410088
0196F8D4
019405B8
025D030C
FE1500A4
02B001DE
FBDAFABD
04F3060B
FB8B0437
00A7FD7A
FEF40246
FF3EFF4B
010902C9
003B0006
FEF6FE23
F9830111
FFB6FAC6
FA8EFFA8
FE10FFE6
FF1C0002
FE170086
FDA6FFB1
00C6FEFE
04A9067B
01E2008A
00990200
0036FFA4
FD5501DE
02E8FB9F
FDFFFE5C
FF57F760
FB2FFFCA
0745FEC2
FCD8FFB8
FB9FFA6E
021F015D
FFB20125
005DFF44
FA6000F7
02DAFB94
FA98FE11
028404FB
FC5402EB
FCE7FF1E
0477F87E
FF8F00A2
0017FC6B
038D0539
0386FE5E
FD7E0458
051BFD84
0577010F
FFD601AA
FE1202DA
FCFE045A
0270FDBA
FE7EFB82
02A8016C
FD2100F4
FB320068
FF6B03B7
F9D402E4
00BA0294
FD610508
011600BA
FF6DFC1D
FAA8FA9A
02E70158
01C0FD3E
018CFD89
FFA8FD7C
0129FDF3
FE450043
FE2D0122
01FDFD68
FD720137
0114FDC8
017103AA
00A8FCE8
020F04A6
00E3FF1E
FE8E0298
0265036D
0143FFA8
02DEFF80
0201FE6A
FD19019E
03A20249
FD2AFF5E
FB6902E2
FD9701BF
02900299
FF12FF2C
03F3FBD0
043B005C
FD8FFFEF
FF73FB2A
0969055F
FDABFBAA
FB23072C
0AFDFBC7
0AF2F8FC
FF08FA09
02C6FEB9
FEB805A2
0750FEDD
FCE805D0
FF0BFE83
FCDB037E
FDFE01F4
FBF3022C
03FA0309
01060407
05EB02EE
01BFF935
FFA4FA5A
FFEFFB58
FEE102F8
FDC3FD41
F807FEB9
FA0DF907
073E035A
FEE1FB62
03020032
FF23FF16
FD7EFB66
FEA5FDCC
000E086A
0283FE3A
04D803D5
005903A6
002407AF
03DE00AB
FC2B010A
06BC0993
FF02FD10
FA52FD38
0C89FF6C
FD02FE27
FB2200A3
0318FE5D
FB9BFD80
FD89FD2D
00FD0090
00CBFF94
FF8DFEEA
0217FFBC
01BF001C
FBBAFC1B
0052FDD1
FE80FFDA
FFEBFB92
FC6003A8
FD090091
03C1FE27
037B01D2
FDB6FB66
0498FF5E
FDBB0044
0364FD5A
F9AF0101
FE8AFFEC
FE6C01E8
FCB1FE54
FC76FF2C
F9670278
02E3FDD6
FAC3FDFB
FABB0455
01020863
FF1C0587
FA7D03DA
FD3F0124
03890559
FAEC018E
0104011D
FDB2062D
FCCE0078
071FFA70
FECCFD47
02E8FCA7
FC03FF50
053CFBD7
FF88FF26
FECFFF81
04B6FAE9
01A30007
FFDB020E
F7E8FE8B
0395FAD8
03C4015B
FFFAFDD3
FF3003B5
0353FF95
FDCE0118
FCB2FF26
0074FFF2
FD3804BC
02CFFB99
028DF9B9
04A7FFAA
012BF9FF
FE7B0164
00EAFF0E
FD07F985
005F0012
FC71FBB9
033DFDEF
FD010118
0355011D
F86AFEEF
0199FF57
FFB1FB6D
FFA9F9F7
FACAFFDE
FEB0FC52
052CFF9C
FEA8FFC5
FB02FF3E
FBAAFFA9
00760011
FF4A04F1
FE44FE9A
0091051F
FDBF0942
FEAFFF79
FC9E0038
FFB9054D
00FCFD1F
FE83FC64
0494FE0E
FDF6FEB3
01F00008
FED70017
031100C7
FC10FF53
FEB9007E
FA7BFF8C
F9D10445
FFF0FB35
FF93FF78
0690FEB5
020600B5
FC170423
FF350075
FF68FD1E
019D001E
FDB0FF89
FE82FFB4
01F9033C
FE1A0316
005700EE
FE610003
01D900D3
00A9FCD7
FC930288
00D50287
FDBE0021
04320345
007D008C
FE8CFB90
0114FAB2
0529FF5F
FF7A01F4
FB8EFE80
00C3FEDC
007301E0
FC9A03EA
02E1FB06
FE0BFFE1
FF6D067D
FDE9FD2A
02F90163
0200FD47
FDBBFF06
01FCFDF8
FCDDFB8F
FF2B0064
FE1102B9
0198FDEE
030B03B8
029EFF06
FD93026E
FEB6FC42
005502FF
080C0201
FF03FE63
032CFE46
012EFE66
FFB100DC
036DFFB1
FE11FB84
0326001A
0355FF9A
FC0E0415
FDB300EC
FF890196
FBA700E3
00DBFE02
019BFAE2
0196FEEB
FE7AFB8A
00BEFA3A
0018FF35
0289FB99
FBF9FE97
FFEDFE0B
0274FC7D
FF1DFDBB
043E0244
F9AF00C7
01C1FEC1
FCEBFBDD
FD05FB94
FCA2FE67
0194FED6
03C30372
015CFEF1
FE520030
FDF500E5
FDDA01CD
0484009F
FE6D0118
FE83019F
FDCD07A6
FE32FC2A
FE1F0024
0113FFC1
0286FEBE
FEC0FA74
FEB500D0
0659FB4C
FE73FF5E
01A300F4
03F50182
00F40147
01E8FF55
FAEF01BB
FBC60078
00B8FC8A
F968FF25
077D0867
00B90206
FB5AFD68
004BFCE6
FCB90009
F788FBFB
0369FE35
FE8C0018
FEDA0A31
FF48FD6C
01E6059A
FF0AFCA9
F809FE55
FD8404F6
0450FE92
FF1500B9
01960242
009908F8
FBE0FCD2
031BFFFB
FEA50012
031AFDBF
F78E07CD
FE920001
FD9400CB
FB7BFD26
010FFF9C
0050FC13
FF1A02F2
FF2BF254
07200222
FDDB01CB
FDBDFD48
026F0063
0114FF36
08ADFBC4
03860587
FF21000E
02730854
0202FC12
FE1E099D
013802B4
053A0935
01F7FC38
00E4FF58
02A1FE97
0519FD6D
0098F787
FD7B009B
FE30FE71
07EDFD98
FF68FF5A
01FAFFD7
022B00B4
FCD604F2
050AFCB5
042A0143
04D4024B
FEEA019D
04DE054A
04DEFC42
F912FC8C
0471031B
FCF7FF56
01DE04CA
FE01009D
FEB80354
FDD6043F
03990330
041FF9A0
01B9FD06
01840065
FE8701D6
FD2CFDF6
FEDBFF61
FF60FEFE
FE3A01CF
FFFCFA28
FECBFF22
F9270516
FEF300A4
0368FE52
02F7FDDB
0469FDF1
FB04FB48
FCCDF99A
FB610305
FA94FFBB
FF91FCCA
FE8B052D
023AFFCA
014D02BB
0255FBAE
00F20409
FDBE027A
F920004D
02F9FFEE
FF5602A6
FF4F0236
FD67FE1F
06BCFDD3
0587FF35
FBCB00F0
01AEFF6F
F9AA022D
039CFA2D
FF0604B8
016001BC
03A102D9
054804D9
022EFFDB
F8B3FA7F
FF03FB64
00CA02F7
07F4FEA6
01880802
FE720106
04CD010B
FFB40149
028AFBC4
0088FD06
0191FE30
FFEC050F
FE040504
00C0FD6E
FF3CFDD5
02AE0267
0076FDDF
FFA10245
FAAA0260
FC5CFB87
FE7302ED
0466FA3D
027AFE81
061BFC0B
FCC7F9FD
00DAFF45
FCEE0167
04CDFCA0
FC7B06CC
07640087
FDF10112
FFC9038E
011A05DF
FA9000A7
FBD2F9D7
04710023
FDA2FE35
FC2302BF
FF5E0561
FFE602EE
0290FB42
0489FD11
FE3803BD
03350181
FDCB03C1
FEABFD60
01E9FFC7
04B40098
FE64FF75
FF2DFF98
012800AB
F7FBFADE
012C02AE
FF4DFDA6
FED1006C
00AE03E4
02BEFD8F
FD9E0128
FF050399
00940327
FD0EFB80
FFF60448
00850429
FFF5014E
FFD402E9
0436FB2C
F9D402BA
FBB10431
05F2FE12
01990442
FD43FF28
013904F9
012DFE60
056DFE39
00AD068D
0522FFDA
03A2FE4D
FE9003D9
FED0FF69
FFFD024F
02E7F91F
01AE0506
04C4F6F7
0132FA1C
073BFC7F
F9430539
FF630260
0351FC19
00FE0153
FF05FAAB
045DFAF6
0148FE62
FE42044F
0061028D
FA5D0314
004BFEEB
FEEA02EC
087701AF
FCA001E2
FE2800F6
FBEB01EC
F820FC29
013DFE3E
0187FEC8
021800E2
FE540393
02C100A9
03D3FECE
005DFD8F
053EFDD6
0002FE06
F98F001E
007902E1
FDA903EB
FFA6FDC8
FE12FDCE
FE8C02CB
01DC03AE
FE98FDCC
031BFFB9
FDC50087
00FAFF9A
046700E1
FE6FFC34
00AC005E
017CFFC2
0163FF74
0107FB3A
FE7EFEBF
FE2300A7
04DCF984
052D025D
0093F880
FEF3FD5D
05D7FCCE
FD7602CD
FCE1FDE1
0947FDFE
FF8FFB97
043DFF88
00710106
FFAC0383
FF260300
FD27FE43
0305FEE1
FF6CFCFF
FDDF02FF
009E0031
FE9007AA
FF85FFEC
FC8E000F
018005CB
FF16FF85
FE4A049D
03C003E5
F9A60302
01DD0125
009101E8
008AFAF4
006FF984
0324FE6F
FEAAFFA9
FF02FC2C
0016FEB4
FF2F02D1
FD530086
0419F9EC
FEEDFD59
FD0D04FD
FF46FAEE
04C002E8
FE61FFB9
00EB00B0
FECDFF4E
FA92FAAE
FDB2FE11
FB3603A3
FEB0FD7A
01120254
00FEFCA9
FFFE0030
FF21FA09
FEE90265
05BE0374
F9EEFD8A
0255FCED
0199FECF
FFE50325
FFC50109
071DFD26
FFBD0442
015201AB
FED201EA
F8F9FF9E
0304FCBC
FFF200A4
08550130
FE04FEB1
05C70162
01B7FE46
FB84FF16
03590371
FEF9FCAE
FFCB02D3
FDB300DC
008201A7
FE9D013E
04460212
0480FBC0
090CFE51
022CFAE9
FEFE0238
FDA2FEE3
FDF7FD51
FF94016B
00E10087
FE5BFAAD
FEECFFF8
FE23FEF3
FF9F0041
02CDFFCE
FE59FF14
01130344
FA93FCD3
FE98FB26
FFB904FD
FC00FEB1
FD96FD1A
FEE90434
00C5FFC5
03D80210
0255FE66
0138FFB1
FF4A004C
FABB027B
FFEDFD1A
FE65021A
00490009
007201D4
011FFD5E
019CFDC1
FC9305CB
FE1B008E
01A001E5
03150215
F9C40212
FFE0011C
03B001BE
FD460420
FD62034C
0109014B
FB97000B
02AA0318
FEA1FE5C
FFB8008A
02A0005A
00C002E8
034C00BE
FD30FD66
FFECF97A
0195F92A
FD69FF65
FAA2FFDA
00510566
FFB303A7
F9E7FE76
007EFBE0
FD45FE69
FF8C087F
F6BFFFC8
00A3008A
0370FD2F
0368FECF
FFE60081
00F2FFCD
042DFE8A
00BF00F3
01BE0065
00FE01C4
FE7EFBCB
0183037A
0230FBBE
FEECFF29
01E2FD5F
0555FB35
FEB40725
FA850193
03650275
016803B3
03E3FCD2
FE5DFA78
01E0FD47
0585FD16
FF6200EA
007BFAEB
008700FE
00C501BD
FD99FFE3
FBDB00CA
FFB9FCA5
FFCC0198
02CFFC5D
FDB3FD7B
02BD00AB
FEC100FB
022A060D
FF3FFEBB
0451FF5A
FF57FDE8
03E50171
FEFC0138
032E04AF
044FFCD2
FC9E02FF
02C5FEC7
004F029A
FD74FDE9
005500BA
FDF0FC4C
03CB037C
030E0001
FE02FEAF
017A0244
02790147
FF60FCB4
FC5D0133
FE9C0388
02E3FD44
FC58FE35
FEF7FC2E
0088FADB
FE5103F2
00C0FCD0
FEB4022F
FB85FDA1
01ECFE63
FD65FF40
0208FE5B
022F075E
0171003E
FCD5FCC6
03A6FDB8
026E008E
0104FF78
02E8FC93
FDE5FE09
FD5BFF40
FFCBFE08
0372FED5
030BFF09
012D02DF
0037FD89
FB01FD67
083C0063
002B010E
030307E6
FEF0FCCE
007FFA38
FD15FEDF
03520316
FC99FEB6
04C1FE14
FD69FE32
008A043A
03930584
0034FE86
FA95FE0F
F698037F
038E0169
FFEA0471
FEB2FF95
FD9B03D0
FD530261
04040554
FA6A003A
FF2F02B8
FE64FB1E
0182FEA0
FF8FF7D1
FA97FE68
068DFC9A
FFEE04FA
0220FE14
FBC5FE44
FA9802DF
FF8DFEC8
FB2AFEB3
0116FD8A
003E0283
0203000A
FE6AFE77
07B800E1
FF060129
0269FFBF
05E8FD93
F8A30026
FEF6FE52
0482FCAA
03B0FC52
FF38FF2D
013701EA
FF5BFF51
00160020
06660041
0241FF13
0384030C
FEF3FE9F
FF05FEBA
0406FDCE
0373FEEE
FEB3F7D3
FED2FE13
FAA70736
FDEF009D
022A1330
FE27FB00
FE2CFEC4
F8C30482
080704F7
F7DD035F
FB310231
016E041E
F9BC01EC
07960780
FC500183
0BB500A9
0035F8C2
FE53022E
026AFCFD
FA2C03B8
08D000EE
01B40558
FEE405A8
FFD4FBC1
01EDFE4C
F9BFFE5D
FCB704D7
FE8BFF14
03920552
F99EFF1B
FADCF974
0323FDF8
01FF02C8
FC39FFA8
03630524
FC61FD52
FD1FFFDF
F890FA86
FE75FEB0
FEC201F6
02090757
01D4FDFB
02200013
009F0036
FED302D6
036705DC
FF7AF930
0129006A
FF99029F
005E012B
FB68FDEB
03BCFA30
02EC014C
01B70724
055D0800
FF7BFC43
FE9E03A3
FD24FDB1
09B2037D
FCCE03F3
0161FF11
001F03BB
FAA20055
03540725
FC0904D0
0092FD4A
03F1FE0B
FEF8FE38
01ADF7D0
F9BDFC49
0512FB40
FDAC0136
038EF8B3
001AFC13
0157003E
F96FFD26
FE1E00EE
0608FC8C
050A026C
02D2FA1E
0379F993
0010FE62
FE6005D9
FA4D04F0
022B023A
FEDB0474
FAC901A5
01E8FD59
FEEA005A
F9E402B3
FB480005
FBC3FBF4
027604C3
001DFB7F
FFF0062B
0318034D
00D8FEEE
05AA03B6
04C2FC05
08F0FDA7
FEE4FA40
FE76FFF8
FEE201CB
FF9E0809
04BD0484
F853F81C
FC40FFEF
FD04003A
FC0D05C4
FA880031
009904B2
0427FE69
0620FD08
FF9703CD
00DD01F8
037EFE45
02DB019A
0252FE2E
FE12FB36
045AFEA1
0051FBF6
064504C1
FFDA01E8
FB7407FB
038DF834
FD970376
F8BFFCF1
08230024
FFCAFB4A
01DB0162
0304FC35
FE6AFFE7
FDF80175
0192FF7C
FED900CD
014A0026
05A30098
068E000C
FF3DFE07
00A501DA
FBE306FF
F6CCFF79
FCDBFE92
032CFEA6
FF8801F4
FC650603
03340022
FEFF0235
01600061
02A9FE34
02E2FD59
F5CCFC17
FC3EFE25
FF2A0974
FD0A0334
F7E3F8E9
04CEFD01
FDA9FFCA
FCA0FC24
FFD7FCEC
002E0AD2
03F80129
0079FF68
00920123
03C1FBA0
05650328
0128FF24
F920038C
03E4F4D0
FD4505F9
FD1B012C
046F0613
FE14FD88
04740123
0150FAA0
FF7AFE3F
0219FF4D
0393F9D9
FFDE076A
0380FFAC
0161FDA1
FB8B0088
FFBD0158
FB1C01A9
021300FC
FEF70260
FD2B0203
FEB3FFCD
01E4FEE1
FFA30032
00A1000E
FB36FED6
FF82035B
0258FCC7
FF910340
001901AF
00BD00AD
010101C4
01E4FF75
0387FFA1
FE98033F
FC61059E
004E0374
FE9F017E
FF9FFEF9
016BFCE5
FE7AFEE6
FECA00C7
01F80053
006AFD9B
FE5E0307
0003FD11
045DFE29
FE80019C
002002AB
0336FFCC
0305001A
025FFD05
FF9000EE
0355FFD0
00A90071
030601F4
010EFD58
F92CFEF4
0111FB0E
FFB70470
FA7DFD63
01AE018F
02690143
FE77FC2E
FF6C0112
01AF0163
005D016D
F9D5FECF
04AA0192
FC1E0194
0190FFBE
FD8AFE1B
02AA01FD
FDC0FCDC
FDA2FC6C
01EBFD9B
0170FBB8
FF0A0268
FD01FCBE
0201FE82
FE1AFC0F
02DEFF80
FA1EFFB3
028A01BC
FD39FC29
02A0FFF7
FDD9FED1
016EFFCC
067E01EC
016FFEA1
FE31012D
FCFD0226
FF6D0427
FA890232
00A8FFF1
FFA101E6
FD1F0480
00D800DA
FA4A0079
FE70017B
0110FBAD
FE08FD4A
FFDBFF94
00A2FC23
0098FF4B
FD9B0419
043402A3
FE96FC0F
FF98FC43
FCBC00A4
FD07037C
018FFC5E
FF23012F
029B0235
00B5F927
FF740018
0216FE11
F99902DE
02D0FEF5
012F0233
01ED0380
00570391
02B60446
FDF201B9
FCE9FE19
FF68FF8B
FFAC0328
0576FCAC
02A00302
FD6607CB
FF6DFCF9
FDE30271
036AFC95
05FAFD2E
FE27FE77
FB7C07DA
01A50292
FFDE04FA
FF4602F7
FF22FD86
FECBFF9F
FD0502B8
FC99017E
FEB90028
FEF9FEC0
FF94FC78
0502FC57
01A3018E
FF52FD47
0310FEBD
FDC7FECF
04D400FB
008000B3
00C0FFE0
069B0260
013DFF99
0555FCC8
FA26FE2B
FE53FBA9
01B900D5
FDDCFCD9
FC1F049A
02C6FF8B
FCA5FDE0
0484FD34
024C00AD
FF280157
0195FE24
024A0504
FD7EFB04
010F007B
0353FC24
FE740217
FE3601A5
FD45049B
FBFB005C
026FFFBF
FC9001EA
03740001
FD57061C
0361FE2B
01A1FF66
FF9701BC
0148FE57
FF4B018A
FEC6FD07
FC9F0356
FE7200C3
046F007A
FDB7FAEE
00C003D7
0157006C
046D0122
FDCDFE1F
FF7504B1
01EE051F
FC16034D
042DFE7B
FCDB0161
028AFBE0
025600B7
FE8AFDCE
FF51FC79
FE3DFFFC
02C2FB31
FDCF0169
FC32FA85
0561FF75
04760087
FB1D009E
FFD102D6
0282FADB
02360481
00D3FAF2
FF5FFEE4
0438FBF1
019F04FD
F7D403B8
FA4000D0
05DB05C5
002EF918
FB9400B0
073DFAE9
01F4FBC8
033BF907
FD59FB24
0008FFD0
0252FC0B
FA14FD58
044DFA5C
FAA8FF16
04A70148
FAD40411
062805C3
FF820233
03AB01A2
0312FCFF
005600BE
02D8FDB1
01FB015E
FB4CFF95
FBC50030
FBA4FA39
05000652
FDE7F99D
FC7BFFFD
03C1FEF4
F6200083
0389FFC8
FDF003E3
02DAFDF3
0201FCF6
FEA7FE6E
036D0117
FB30FE34
03C10497
058504F4
F852FF3B
FDFCF9A6
022D02CB
FACEFE8C
0153014F
FFD80130
FDFDFE88
04C1FC7D
FDDFFF7A
FF0E028E
FC9B009E
0131012A
FFFFFC3D
024300AD
033D0147
FD2D033B
FCC5FE80
01FCFDD2
FFAEFDF3
03120334
FB0C0150
FFF605AE
FC6803D0
039DFED4
029C04D9
FEB7FDB2
04B0FF46
FC9C0173
027AFCBA
03D5FE31
03C802D1
010E025F
005AFEAD
02710129
FACCFB7F
FF6FFFD6
FE99FDE0
02EB0043
02F30272
01BA01CF
0200FBCD
FDA3FE40
FFD1FEC4
FF6707D4
FEC7FE37
023E0132
0248FED8
FAD90102
01ABFF70
03CE0177
026F023A
026CFC62
0281FFB8
03F8FEA1
0044FCFF
02180394
015BFE39
028BFD2F
FE3B0570
FF140131
042700D6
FDE200F5
FB07FEC4
FF630416
0695FD65
FA5204F6
FF5902A0
FE8E01D4
F878FFC0
FC50019A
012FFFEC
037202F3
002F059C
011B00ED
0236003A
083AFBBD
02BAF695
05E7F620
F895FFA3
FB6A00DB
FD020402
FED80147
FBFFFC33
0105FE9F
03DDFED9
023201ED
FA13FD74
04610692
03010167
0390FEAF
051CFF36
FE21FC77
0024FCF4
FFAEFF39
FFF5FEDE
FE2FFB0D
FEF90133
0215FBED
030BFE11
FC6BFCC2
03B10077
03D7FD28
FC940361
FE2D0026
052900C5
FCE10113
03FE04BB
F96B00CD
0081FF10
0135F8F3
FF55FE22
010DFBDA
02E104BC
0796FA9B
FB540354
08A6FF08
03A700C9
02D0017A
0019032A
F9D3015E
0728FE22
FFD6FD59
03F00184
FC360213
F9AC01DA
FE7801BD
FE5A0085
0091FF7F
FED701E5
FDC10006
0036FC7F
FB830167
04CC015F
FFAEFA92
FC60FDF2
FFBDFF97
FDE30294
FFF301B8
FAE3FFD8
FF80FE2D
FE2D00FA
016FFF01
041604FC
FEACFAA1
013C0664
06E0FBC6
FF2B01FC
0055039C
010801B8
0566FFF4
FEF1FD4E
FD130170
0336001D
FDCB015D
FB8CFF1A
003B0230
0099FF33
FE45012F
00D80034
040AFBE0
FF360116
FFBCFAF3
FE53FEBE
022702E3
019C000F
020703EE
01A50015
FD870571
03DF0722
FEADFF2F
063B019B
FCCD004B
034B082E
FD2402D4
02E200FD
FECFF827
FD98FBD5
FF1CFCA6
FBF9FE41
FFB7FC2B
FD8F0604
FFAE006E
F7E80058
FD6BFBC5
0108004B
FF510346
FCDD05B9
00FC0119
004BFF13
03B5FD88
F99BFE9C
00B1FD0D
FD6502C4
FAD0FD51
FC9AFD09
008BFFA6
FC8EFABB
043E0278
028EFB54
FF9CFAF9
FEB5FD0C
FD5C051F
FC1B0230
FBA90021
039D00B8
FFD102AE
033001FA
FAB5FF44
01FBFE5F
FEA902C3
FE43FDA0
0150FFDA
FDBC02F7
054AF6B0
0025FD70
0822FC70
0446FEE1
05630402
F89CFBD3
FF4501A6
03ED0261
FBFCF88B
0139005A
FD5FFE43
FB2C03CD
FD270416
005A036D
0044FAE4
FEE30014
FB3F0235
FF71FB16
FE5904C0
0023FC81
FB8802A1
F6A7FDDC
0505FA5D
FD6C02D3
FCD7FD3A
06E006F6
FEF80726
0700FE7D
FD5B038E
087005ED
04C1F8AD
FCED07FF
025AFFB0
FDC70765
FAEA0087
FF4B0A27
059404C3
0063F9EF
027CFBBF
FC9203A5
FD9205C6
FFA3F814
001F005B
0114F7F9
FFFE0169
FD6304F1
FC400247
00FBFCF9
01FCFF5B
FCFAFFEB
012EFF4D
0218FEF4
047D0373
FFABFEBB
FC5BFB6F
FC9BFFD0
FE42FBBE
030AFFA0
00D2FFD0
FFD3FD90
FF1FFFF5
005002B3
FEDFFE1D
0193FB9D
0235FCF5
FC6EFCC7
FD0203E3
FF0BFCA8
FF960642
0151FED9
0022FF1A
FBA2FDDF
FC690174
FF01FEA6
FF7B017A
03D300C3
FA9804E1
06FCFB75
FCB3FFA7
05D90266
01D1FF11
FF73F960
01E503BE
041101C9
FC850394
009E032D
FF50046C
0179FE48
00AFFF8C
02E0011D
FC7DFE1C
FF65FA81
FF0A00D8
02CB0073
FE23FF18
01DDFE15
FCFD015D
02C0FE7D
014EFBE4
FFCC011C
029FFEBE
FFCEFF41
0500FF95
01E5FF24
FEC70214
FC02FF63
FCA70122
03BFFFC0
0039FF0E
FF8DFFDF
FF010367
000FFF39
018801B9
0334025C
0030FFC1
0072003C
FEEE015D
FE7FFEDB
FF99FC01
00B0FE51
003FFD7F
FCA70111
008CFE11
FFA2FFD7
FFDA00F4
02AAFFF3
FD8D00D6
0057FF49
005901A0
FE9A01CE
FFC7FC69
FF64000F
FF8DFF61
FCB70133
0193FC65
0112011F
FF42FDA2
0278FB7F
009A006A
FED60056
FD4F0134
010DFD2E
FB9E01A9
00860262
FE720243
FFBDFD7C
012F0270
0090FFDB
000FFF50
02A702DC
0371F954
03780405
0DB2FFCA
08B1F698
010EFB23
FE97FC60
FE7FFBAE
0555FDCC
FB0DFC8D
03FCFEC6
F84C021C
FCD2FF24
F8C104D8
FF600270
FFBA01C5
FEBB047A
F9C7FCC9
FD67F72B
F8FAF9BE
048700FB
FD06FE9D
F80C0237
FC2B00B5
00A90142
FD0BFCA3
04880070
03FD04DE
017CFD89
00D8FF4A
FE5B0309
0644FB50
0157FE5C
FECA076E
02660230
FAC7023D
0006FFBC
017B0273
FF28FE9A
FE58FC86
0786047F
FC3DFF6D
F84BFF3B
F900FD0E
083A04DA
FC2407D2
FC0F0292
FF8BFB11
01C900A3
0101FA21
02BF052D
06CEFCE0
FF1104B1
0B99FE52
076E0079
015900F0
001A01A8
FCC0024A
0502FF29
FD0BFCBD
030EFCEA
FA22067E
FBE304D8
00BFFF24
FA700020
05F1FD56
FED3FF24
F8DCFCC4
FD9CF9AA
FAA7FF4E
FEAB02D4
0047F50F
03ECFFED
FD2A020B
FD9AFF3C
FFBC0081
FF5AFCB2
033BFD82
FD160156
01AEFB27
00010865
FC1CFB55
01D305AB
00280090
FE4B01E3
FEF508ED
044BFD5D
017C039D
0127FF6B
FA5C01D7
034D0242
FD5101E4
F91C040C
046D0189
01A9FA7A
FE31FFA9
006E0118
02EBFE42
FDFFFC84
01F3FC83
F983042C
FDAF0133
FF34FBE6
00FB01E4
FFB2FA88
FE9905B3
041A00EE
FEDBFF1A
019E02C7
FBA9FB2C
056205DB
FB9202B9
04B8FDA1
0069FABB
005FFFF3
0325F9C8
0216FD38
F905FE16
F7DC0354
01ECFEDF
FA8E0328
FB14FDC9
009001B5
03B802C4
FBFA05B8
FFCAFD09
03940297
FDFD00DC
046B038F
FA8BFFCB
FDBCFF9F
FEC8FA62
FF07F7DF
FEB7FB2F
FA76FAA0
0435FD81
FF5900DC
FC60FBFA
FB19FC24
FB5901DD
FAED00F6
FB1103A2
0744FD40
047CFF85
FFA8FEDA
0697FAE0
FFF702B1
FD0E07EE
04790256
061906F5
F8B3FF4F
FDCDFC44
0C33F7E3
FA160186
FA1B0140
027FFD84
F710F7B5
02790063
FDBCFB63
01C705BA
FEF8FE1C
0681FF04
FDD7FEF8
FE08FF91
049FFEE0
FE99FBA4
0031FB45
F6660670
FF7D0048
01C200D6
FDDFFB26
FDBA0122
F8CA0593
0097055D
F5EFFFDB
FAD404D5
05CF0098
FF56FF6C
0C69FC10
0038055C
0582FE04
00D20235
007B0017
02D8FF55
00FF029E
F946F9A0
04300915
FE09027C
02F101EB
08CDF999
F95F02B2
FDFD00DE
03BDFCBE
0114FAFE
02950198
FEF3003D
FEC10185
00FEFFDC
FC6F008D
01D7FD05
FECBFD0E
FFD90352
FD670163
FFA90497
013B0050
FD7704AB
027C0318
022000FB
01A90387
03AAFB9B
FD650068
00640101
02B1FFA4
0128FCEF
FF36FC3C
0238FF90
FDE20114
FC4DFC62
02CB0093
0173FFF4
FAD30455
02CDFBDB
025DFEE0
0313049C
FB1DFC39
009402AA
FFD5FC71
FEC90091
029000E0
00E8FB4D
FEF1FD42
F9D60107
FD8EFE40
015904F1
FE370061
0303FF2B
FEF5FC93
FE6500D0
04FD01E6
FD46001F
FDAEFE75
03D502B3
01C80060
FD10FE1A
045A0028
036A011C
0259FFFA
FE9A05EF
0351FFBB
0031FEF4
0404000D
018EFDC9
04550132
09E60046
069CF844
FBA6F93A
FC71FE81
FEEE00F2
03B5020C
FBA3FFA0
FFA4FB4A
FE11023E
FE9301E8
016DFF3E
0342018B
02A50097
FEB40027
FFE0011F
FA9EF70C
FC2EFEAB
016C00D2
FF64FF27
FF3F0129
FB62FBB9
007AFF30
00D2FBEA
05360044
FE7E03D6
01A0F9EB
FFFFFAF2
FE260364
FFF3FC9C
00B0FE8D
F90A03E9
049C041D
FAA10124
000E000F
FF1405C2
0139FFB4
FB9AFD3C
050F008D
FEA30042
FC2EFD3B
00A30102
FF92FF6B
029D0061
FFF0023A
FEDB0264
FA20FD4F
071EFF4C
FC4FF811
006A027C
FD39FE2C
FE1206BE
FF1F0039
FF450079
FF51FD29
03FCFEE6
FCEE0362
03EB030C
FAB6014B
06E3FB47
02BA041F
04BFFAD8
022AFDCA
FEB3FA8F
00C9022F
02D2FEE2
01EDFEE5
009301AA
FF360179
01C0FEA5
FC8BFB1E
06A40354
FC93FB42
057D02C4
0086019D
FC050474
0493FB0A
FB08FC1F
001EF88C
FD2302CE
FE01FCD9
00E50B45
01ABFDD9
FDD7001A
FC720097
0458041A
0788FBE0
0277FF8D
FD2EFDA4
022201E8
FFE7FDFF
0612FC27
FC47F74A
093FFB4E
0280FC4A
FA2B0843
FC4B042C
001B0609
0250FEA7
FBB600B6
05D7FD2F
FC4F0089
F8D9FEE2
FB51F992
FF25F9C5
06C6F9AC
F9B0FCC2
05D90A20
F9B3FB9F
07F2FF02
043E0493
FECCFF05
063FFDA2
FB0B06DA
FF68FA45
FE7A01B9
0219FEB0
0466FE54
00E3FDAF
00D6076B
FB130426
FA7201AE
0372FF0B
FF590194
059BFC4E
00B50251
0294FCC3
FE180193
FED1FA27
FF800B24
0210F871
026D0121
0607FF11
F868FC59
011001F4
016F0697
FB91054D
041FF7C3
0539FB87
03E2FB33
0264FC55
00B2FE3A
FDBDFA68
03F2FECE
0286FF97
FAF9047A
FD2A044A
FEBA0538
FEF70113
FE3A00A9
04FDFFF3
FDBE02A9
FB38FAD6
FC28FE23
FD9DFCE3
0141FB28
F984FEB7
FC54FF2B
035AFF06
FFFF0091
04A50044
0007FEAB
031FFEBA
022AFEBC
FE87FE57
001B0367
FE4C024B
01F2FC49
FD1CFDB7
FC4503EC
0132033C
FC5EFFBB
FF4C0205
0030FCD2
042DFFF6
01C604E0
00D6FB8D
FDF100E5
FABCFEB2
010D00C2
004AF8A4
F8B9019D
033EFF99
003CFCA8
027EFFC8
FDBF0268
FC4200D3
02FCFF14
FDA703D7
FCDFFEA0
0409FC9D
011200B1
02CDFD71
FC73033B
FE6D042E
FE4FFE75
015BFE4C
01BCFF2D
FC5003CE
FDB6038D
017D0032
005E027B
00B5FFDB
FD5B01DC
FEE40059
FC54FD58
0211FF0F
FD88FA68
03DC01DA
FCB1009E
0264FC2A
043EF970
FAA5FA7A
0660FBEB
FE9FFF4A
F77F02E7
FAAB0281
FEE201BD
F9D6FFA2
FD7AFD39
03DD03B7
013F022C
FA750365
FF3BFCF2
01A3FE69
00870010
0366019F
FBF1FC7D
FC3EFF85
FECFFC34
FCECFC2D
FCA2FCE4
FDB8FD85
01BB0207
01A7FF92
FCE9FD7A
FB81FCF4
FFF3FFCF
FD82FEC9
FE0E01B1
007CFF25
FD76FEA8
045CFE80
029AFFC3
001EFD14
01370382
FA5F0043
0089FBDE
087E01C7
043DFD80
01780526
07D6FE45
056F000C
FD98F974
FE39FB7B
FDD50198
06D8006D
020A0564
FC38FEFB
FFF80203
01400721
FDAC01AE
03A6073C
FEFC0559
02710497
07BAFF1D
00ECFD1A
FF99F936
02B20250
01DEFC92
FD07FD00
FBB4FCA1
05D6FB7B
FDBCFF2A
02D0FFC0
0229FDED
00C4FC36
001EFF33
FFCE0216
FFC6FEDC
0182FE87
0206017A
04A103A6
FC8A0068
FECB0418
039D034F
FDA0FC8B
FC1BFE4C
04890044
FED3FF4A
00E6FFC0
0125036F
0372FAF2
00D5FFCF
00E201B2
00800077
FAF80092
04F60084
FB110193
025F01FF
FDA3FF81
007A0280
FF590267
FCE9005F
03AAFEE6
016AFD7B
025D009C
FF620571
FD68005D
01B9008C
04AE0191
0139FD62
05B6FC0C
FE0CFC1C
0535FF2B
00D0FE71
01D10462
05010120
FC8902A1
00A0FEE1
FF31FFA5
008B039F
FC32006E
014E01BA
FDB3FEF9
01A10187
FFB5FE22
FB2FFF09
FEBEFF8B
FC43013E
FEE7FA5C
FEBF022D
FFFEFC6F
0278FFF9
008400A5
01DC0154
FF6B0086
FD64FF8A
FCCBFED5
FE69028D
04BC015F
FF28001A
FEF0FD93
030CFE7B
FF3A01ED
01A3FE37
F955FF28
0321FED2
00E6FC85
00BC003D
FFB00032
FB580621
FB8F00BB
00A40116
048EFE20
0126FAF8
FCE403F6
03E306AB
FC7B0635
03B7FF7F
02F2028A
0008FA31
03F5FEB8
FD2A02F8
04C40177
01BAFB30
02B2010C
01B4FD48
03FE058C
0207FE84
FD24FE5B
FE800346
0233FDB8
04ECFE80
0359FEBD
FFC903AC
0390FF04
FA5DF9B7
FCFDFD01
F9BA0607
0371FD95
01D604CA
01CBFDBD
FC8F02BB
FDE3FCB8
016FFFEA
02E304D0
FCA9FDD6
02E2F9D3
0486FFB2
0283FE87
FE03022B
05C9FC43
007F012B
F9A50047
FDF5FF27
FB01001C
FDE8FEE3
00F902FB
02250215
02AA03C9
039E0253
018E008B
FD0FFDF6
FAE7FDF9
FE7400D7
02B2FCC4
FD9602AB
00220233
FE5102BD
004C0336
015CFD15
002CFFB3
04DEFE07
FEE0050B
00FC0285
01B0002F
FF74FC11
FF64004C
FED6FD72
FF6EFD3E
FEA3FBDD
04D1FEF8
FFFAFBC7
0458FD68
034DFE68
0520FCC6
FF0F000E
FF29059C
FE75FE58
0023FC68
FF6BFEBD
00940197
00BB00B7
041E0705
03FAFD07
FDF4FEE5
002BFC6B
01480538
FED6FDF1
03B7FF4F
FB8201FF
FFB20488
FAFB03F9
00FEFCFA
0248FCE6
00C0FF01
FEE8FBD9
037B0044
016BFC82
FF53034C
075EFD00
064BFB5D
0539FD26
02410212
FDBE0077
0213017A
FF09FB48
0335FF1E
FA4A04BB
FB53FF97
FE14019A
FD6C03A2
FF020456
03930398
0397FE57
FEE5F806
FE20F991
067C01CD
FF78FF4A
FE8EFEE8
FE55FCC8
0333003A
FF05FA57
00190243
FE9502C8
007FFFE1
0071FF2C
FEE503B4
FFADFBD8
008F04E7
01D7FFCC
FF190357
FE3502A6
FD1C00B1
0477038D
0432FD29
FD76FFA0
0413FF6D
FC980017
FBA40114
018502F4
FDDCFF9E
FC4801ED
071703E3
FF30FFAE
FED1FA86
02A5FE78
F854FC9F
FDC0FE2D
FD35FA03
0034FFAA
FFA300FE
016F0A29
033F0165
F9DCF6DA
03410191
03340068
02230421
FDD5FAC6
01BEFFFB
FAE3FC75
FEC3FD78
FB37FB20
020DF88A
FB6BFEF8
017400C1
058E05EF
FCFFFE2D
FE770153
FDF803D9
081F0325
FD6506CA
01EE038B
F9E104D2
F942047A
028A0650
F9BD00CA
00E5FF7F
FC0DFCA0
F83601AC
033AF717
F6F6FAF1
019FFDD0
003A027E
025EFBF5
FE24FDF5
FCE2036A
F996F9CF
FE9F03C3
0318FD18
