020E
FE7C
03AC
0061
FFB7
05A1
FCFE
FDCC
0128
FDCA
05CD
FFA7
0291
0339
0546
0317
FE9F
FC98
0017
FF42
FE49
FDD6
FE30
003E
FBA5
01A0
FA41
FC54
0616
FE92
FFCD
FDCC
FE66
FCFD
00EA
01DD
008D
FD03
012B
FEC6
FE5D
F9E5
FF6A
0045
FFD9
FDAE
FCBB
FECD
FE54
FF1F
FEF0
0379
FC9D
04CC
01F3
FFE3
FD95
0373
FF25
0169
01B6
02D3
03A8
FE57
FEE6
FE63
FCC3
FD2D
FC14
FD9F
FC0E
FC6B
FF01
FFBB
FF45
FED2
0014
FD5B
01BE
FD47
04E6
05F4
00E9
047E
00B7
FCCE
FD60
FEAE
009B
F9E4
FF14
FF57
04A9
0044
0238
0694
FC48
01CC
FB40
FDFE
FE3F
FFB1
FCED
FE52
FE98
FE09
01B8
008A
FF56
03D6
FFF1
FECE
011A
FBD8
FE6C
035B
0187
FFBC
0138
00E5
0166
FDE4
01CD
000E
FED3
03A2
FC84
FF37
FB6F
FCBE
03B6
01A1
FF29
006C
00C8
FD59
FED0
FDE7
FBAB
00EE
FD43
FBE0
FF69
031F
FD25
FB98
FEF1
FE59
FFAB
FDCC
FE66
003F
FAB3
FEE1
0313
FF24
008F
FECB
039D
008F
0266
FFA6
0287
F569
0411
FCBA
FAD2
05E0
FFEE
FE04
011A
0210
007B
0262
FE26
FE40
FE71
01EE
00A9
0322
02C1
01D5
035D
0399
0365
0023
FDA9
FBB1
FE97
005C
FE67
04E9
FE01
FE98
FD84
FE54
01FB
00FB
FF94
FE17
01DC
02CF
0695
FF6B
0198
FD48
FFBB
0283
04C4
0115
FD41
00FD
FDC4
FD32
FEC6
FDFA
FCD7
0127
FCBE
FDCC
004E
02C7
014E
0272
0129
00EE
FE3A
0250
FE09
0141
FD03
FB40
FCD5
FE6E
FF97
0110
0205
FE83
0035
0017
FE6B
FF0D
0481
F996
0027
FDB6
FEDE
FC66
0489
FE10
003B
02EB
FBE9
FD2C
FA61
FEA0
0199
0041
0242
FEC1
0583
0474
FF48
019F
030A
FEAD
00C8
FEF0
FBA0
02FF
FF7E
02A4
FE82
011C
02CC
0189
FF17
0128
00FF
0337
01C4
02E7
018D
FDBF
FD63
FDB3
00DE
FB26
FDF3
FFB4
FC22
0193
FF90
0058
FD57
0058
FC14
FD92
FE4A
00B6
0106
FEF6
FDA8
0243
02B6
021D
FF0A
0159
0115
FD7E
FC33
FE7F
029A
0489
0613
00B9
027B
053A
FC32
FCC9
FD47
0037
0388
028D
FFC5
FDE2
FD83
FCC8
0142
030B
FD57
04DD
FB1D
FE26
06A4
FC6C
0389
03F7
FE76
00BA
FD6C
FB32
FD74
0269
04B4
029F
FFC4
0079
FF9D
F8A6
018A
0206
FF2B
FCC7
FF08
016E
0174
02B6
0094
FD7D
FF88
012C
FDD1
FC64
011B
FB4A
FE24
07B5
F9AA
FC8E
FBB6
FCDA
02DB
0018
05EB
00EF
FD6A
012E
00E6
FE0A
036A
00FF
FEED
046E
FD87
FE2C
0101
013F
FF99
FDBC
0029
009E
FE84
0127
FFB7
0421
03E6
FF38
FEFB
0353
FED8
FC35
0219
FEBF
01F4
0368
FF19
050E
FEBF
F8BE
0491
FD1A
019F
0562
FFE4
02FC
FEB8
FBD7
FB9D
01CF
0343
FEB9
03D2
00CE
FD74
000B
01E3
050D
0471
04DF
FF62
FEFF
0174
0081
FDB5
037A
037D
012E
FE34
FFB6
F94B
FDD7
FD2B
FF1A
0216
0423
FE2A
02C8
0331
0026
FF21
FE9E
02EE
FE0B
FE56
FFBC
01C6
00AA
034F
0440
022D
0188
FED9
FE39
00D9
FBFD
065D
FE7E
FDF2
00C7
FF3D
006A
024F
FBED
01D4
FBAE
06E5
FEF8
FFD0
03B1
0165
0081
FF33
FFAC
0265
FF58
FD2F
FF84
FE8E
0324
00E6
026D
00D9
FFB4
0377
0465
0000
03A8
03D5
01E2
0459
032C
FFB5
0175
FEA7
FF5E
FE16
FCE6
FBA9
FFCA
FE64
FA91
026F
FD88
FEA7
0123
FFAA
0329
FA90
FD41
04EA
FD12
027C
077A
FEF8
025A
0540
FBBC
0150
FFB0
0368
FFC7
02D5
FE73
FFF3
FE89
FCE5
0117
01BA
FF76
0242
012C
018F
014A
013F
034F
FF54
FD0F
00C0
FEE6
0012
0014
FCFE
0017
FE53
0081
FFA2
0228
031A
034B
0344
026F
0218
FC95
FE50
0571
FB6A
FE51
FB80
FED6
FE0E
016A
FEA0
FC56
FD12
03E1
FF25
FD44
FFD5
FF21
0110
FE23
FC6B
048F
F800
FE21
035C
0218
FBFF
FCB1
FE55
FDE6
FEC2
028F
005D
011A
01B2
FD3F
FCB7
FDA5
