0168
0090
FFE4
FC75
018E
00B9
FD94
0158
014B
FE64
FF59
FF4C
0102
014A
0076
019E
0147
FC51
FF82
01A4
011B
0155
0111
0109
FF92
00A9
0030
0041
014E
0072
0068
FDDE
FFA8
FFFE
FFD5
FF07
00C7
00E3
0041
FF0A
FF8F
015A
FE33
FF96
FF6B
00B6
FDAC
00A2
FFBF
01E8
FEE4
00FD
FFD1
FFEF
FFBD
FFDC
FDC4
00E9
FD55
FFF2
0024
00AE
00F9
015A
0142
00C4
FDBA
FE90
0125
000D
FF02
004C
008D
FE41
00C0
FE55
0189
0080
FD79
00BE
FF65
0083
013C
FD74
FF2C
0107
019B
FF99
0170
FE38
FB80
01A4
00A1
FF79
FE85
008D
00A8
FEEA
00E5
0186
