012E
FFDA
01F1
FC19
01AC
FF35
F95E
003B
FF87
F8AF
FEC2
0139
FE81
0318
01F6
01B1
FF4F
FE29
FFBF
0244
FF15
FEC4
01C8
0306
FDBF
FC7A
F9D1
02F2
02F5
FC8D
02E9
075A
FD08
0097
FDD2
0549
02BC
FFA7
023C
FE49
0345
02FC
FC07
00FF
FD05
018A
00D4
01AE
0043
0269
0271
FF42
FE0F
00A6
FDCE
FBB2
03B1
FFF7
F993
00FD
02B3
FCB3
0229
0247
0064
FD91
FDD3
FE39
FDD2
01AE
0216
012D
FD2E
0025
0225
FF51
0237
0211
FD88
FD72
FB40
0151
FDAA
FB2E
057B
0387
02EB
FB3F
00EC
0202
FE1C
0328
FD00
00CD
FBA8
FDA2
FB99
FB41
0113
FFBB
0172
034E
0108
F6F0
03EB
017F
F374
03EF
0171
F41A
FA8E
02AC
018A
025E
FFC2
03E8
0302
FA3D
F9C0
02BC
02B9
01D3
0190
025D
FACF
F6F1
F92A
036F
04A2
F68D
054A
0DEE
FA3C
03BB
0119
0706
0420
0217
02B3
FA77
05C4
04EB
F7FB
026D
F8ED
01D7
0719
0193
04F3
0246
0672
0393
FFB8
FE5D
0125
FA16
0A02
043D
F285
039F
04CC
F7F2
0196
01D9
02AB
025C
F88E
014A
F960
FF3E
0576
02B8
0228
F7B1
02B5
FE14
042C
022F
F8BD
010D
F521
00FD
0320
F4E9
08FB
0274
007C
F895
0330
FDF4
F9BD
00F1
F8F4
0690
F775
01EC
F4CD
F8CC
0369
02A6
014B
FF1C
01A9
FB3A
01DB
02C9
FA00
037D
0386
F8DB
FC9E
0180
FFD9
FF36
FD5A
0158
02F4
FC47
FABD
01C9
012B
0312
FF07
0016
FE70
FA02
FE35
0258
FF94
FBD7
032F
0875
FB61
02DC
00E6
06E7
014C
00BB
0236
FCC6
0443
01EA
FC50
FEE6
FB3C
01AC
0324
FF7F
03DD
FEF7
0219
02E6
0436
02AD
035B
00E3
059D
00FF
F9A1
0042
0282
FA18
FF25
00EA
0129
FEA1
FBCE
0399
FC2C
01FA
026C
0142
FE19
FD8B
FD99
0416
00E7
FE12
FB39
01E5
FA76
045C
0306
F9F1
0521
FF07
FE82
FE92
029A
FFA0
FBE9
027D
FC70
0175
FC85
FEF0
FABE
FC9E
0305
029E
