FF940061
010CFF58
FF9AFE2E
00CEFF07
FEF500C2
FFA5FFFF
011C0223
001EFFA9
FFFAFFEF
FEF7009A
001E0034
0012FFAE
002B0028
FF32005A
0018007C
FE39FFCE
0068FEA1
008D0000
FE540051
FFF6FE67
FDEE01C9
01690062
FFCC00CA
00980083
FF41FFB2
FFDF0190
000BFFD9
009AFEB3
FED1FF7D
FFDEFFD3
0078FF36
00630070
FEC1FF44
FF7C004A
000BFFD1
FF630031
0091FFEF
006B0071
0096FFCC
FEE3FF23
000CFFC4
01B10107
027AFF90
0065FFC9
FFA7FDF4
FFE7FFA7
003EFF6B
FFFC0092
FFE0010F
FF43FFFD
FEBBFE85
0083022A
FF930013
FF55FE2E
FFCA023F
01E1FF7E
01B4FF82
004500F9
FF6FFF4A
FF0C00BB
008E00C0
FDE7FFD2
FF0EFF0A
FFD7FE33
FEADFF2C
FF8C0019
012FFF87
FFFF00FF
FFFE0107
007B0016
01F70035
00260006
FF28008B
FE3D0139
FFA40022
FFC3FF66
FFE50034
FF95FF82
FFB0FF22
FF0E00E3
00520093
027FFF59
FF32FFA9
FFA2FF28
FFE301D1
007BFFF6
FFB50035
008F008A
004E006E
0146FFBC
FF96FFDA
FED0FF78
00A40073
FF3BFF66
0176FFF9
FE9DFF6B
FFACFFE2
0085FE43
00F60081
FFB0001C
01450009
FF1F0006
FFCEFF69
FFEAFFA0
FF21FF26
FEF70045
01C200CA
00B8001F
FFA8007F
005000AC
0002FF58
0034FF28
00620101
FF9700C8
010DFF92
FF0AFED0
FEE5FFB4
FFD2005D
FFCEFEEF
011CFEA9
00F7FFA9
FFE2FF97
FF850076
FFAFFFD5
002900B1
00D8019D
FE94008F
007BFFAF
FFF700E4
FE89FF2F
0118FFFD
0024FFDF
001BFFD5
FFB2FF46
FFCEFFFD
FFC1FECA
FF560143
01770131
FFC1FF0C
00D0FFA8
FE1E0233
FFB101CB
FFCBFF7F
FF640050
FF01FF97
00C4FF47
FFCCFFCC
FFBC0022
FFCFFEA2
FF000031
0024FFF5
FF95FF73
00BDFFD4
0050FF4C
FE29FF23
01810004
0025005E
00C40008
006BFF40
00630004
01FB00E9
0066004C
FF88FEFD
FF61FE49
01A2009B
FFD700BD
013CFFCF
FF9900BD
0090FFB5
00CBFFC0
FF29FF18
00220045
FFA1FFB4
00EDFF79
FE94FF9C
FFE3FFD4
FDA1FFDB
FFC20066
FED4FF23
FF61FFD3
FEAA004D
FEC5FF67
FEF40040
0089FF68
FFD50048
00080099
FE5EFF4B
FEBDFFF2
FFB3FF9B
00EF00BC
FF38011D
FF5F0024
0028FED2
FFBC002E
FF8BFF0E
FFABFE9A
00830083
0076FEBC
00910028
FEFCFF6F
FF2D003D
003100DA
012BFF66
00C80021
0123FEE5
004D0034
018BFE67
00AAFFC3
FF830039
0026FFF5
007100DC
FFA9FFCA
002000FB
0031001F
0105FF70
FEF70025
FF36FF9D
FF6BFFDA
0072FFA8
00D9FF9D
01A1007E
00DC00C6
FFA0FFF0
FF44FF8D
FFCD00F6
FF47006F
0013FF31
FFBF0052
00570034
FF9D0095
FF45007B
FF56FF31
00C1FFED
002DFF17
0056007F
FF5300DD
0103FF9D
FF5EFF70
FF3D0045
0127FF24
FFF0FFBE
FF240096
0110FF06
FF9A001F
0008003F
FFFC0036
005FFF4D
FF79FF26
FF2E008D
FFC00072
0010011F
FF38FFB1
FF96FF73
0158FF28
00FF001D
FFFAFE79
FFB3FE81
00FC0024
FF91FF4E
01210095
FF8500B7
FF71FEFB
00C10117
023000B8
0056002E
0113FF21
0184014B
0058FFC1
FF7BFF80
00910052
01C00100
005200FE
0198002A
001EFEF2
00F9FEFF
0122FE83
007C0089
003DFF3E
FF5800FA
0008007F
FF51FF7F
00AA0159
FF46000A
0045002C
FEFB0059
004B0031
0072FF1E
FF2EFFE9
FFC4FFAE
FF89010B
003C0018
FF9C012E
FFBCFF62
005AFF10
FF39FF33
0017FF9E
FF7AFE43
00B8FFD4
FFF4FFDC
011400AB
01A7FE8A
FEFA0076
0077FF77
FF18011B
006D0074
000E0119
007300BB
FEDE0065
00B7FE9F
FF5EFFD1
FFC80167
015DFECE
00B4FE1B
00F90052
006CFEC1
006EFFF3
FF65003B
00E80103
00B2FFD3
0020012D
FFD4FEA4
027CFEBE
012F003D
0105FF64
FFA1000D
FF7700AC
0141FFD2
FED5003B
FFB90073
FEB6FFDC
008DFF8B
FF75000D
FE4100A9
FF1DFFF7
FFDB00CA
FEB2FF9E
FF1CFF57
0018FF2F
FFC8FF50
000FFF7C
FFEDFFDD
005F002C
FF6300AC
FF2FFFFC
0077FF7F
00BDFFE5
FF7101C7
FF57FF39
FFB4FFB5
0104FFB4
FF890032
0057002A
011700A3
006B0000
FFE8FFE9
FEECFF41
013500BA
FF12FFFB
FF760150
FFC000F4
01450041
00170053
0093FFFD
010D000B
00150052
008001A5
00060022
0040FF32
FFD30026
FFFF00A7
FEE7003C
00D6FF96
002E00AB
FE39FFA7
007AFF7B
00130158
00400034
0028FFDA
FFF40045
FF5A00DF
FFB1FFC7
00390124
013CFFBE
FFE4FFA5
0056FFCF
FF88001E
0048FFF8
FE90FF5A
01790093
00DA01FD
FFC901CC
0063FF86
FF28FFE1
002900C3
01E5006A
0014026E
0052FFEB
FF63FFB2
FFC0FEA3
009AFFF0
FF32FDF3
FEEFFDBD
FEFBFF5B
FFBD00EE
007AFF70
0143FFDD
FF2EFF94
FFCA0005
FFE5FEEC
FFC5009F
008DFE47
FFCB0058
008FFFB0
001C019B
000B0003
FF16FFC9
01370026
006C00B3
FF6C0013
FE6D00C3
FFD10135
FF3DFFCB
FE91FFEE
004F0147
FFEEFFBA
FF1200E2
01C30136
016C0106
00E9FF98
00A60192
FFF4FEA5
008C00F2
FF81FFA5
FFE7FF3E
00B5FFE6
FF89FE22
00AF0027
FFA2FF15
FF3FFF2E
FF0200A2
00260068
009201A0
00C0014A
0043FFCE
009D0028
011E0016
FF1D0177
005EFFF0
FFC6FF18
FF1500ED
FF68FFD0
FFF7FF73
FFA2FF0D
FF8A0021
011AFF6B
FE5A002B
FEEEFEFA
000BFFD5
FF6FFF72
FF650049
008E0067
FFA0004A
FFE1FFE1
005FFFB5
FFA400D0
FF55FFF4
FE51FFC4
FEBBFF8A
0017FFDB
00C6005F
FFEAFF75
FEC6FFA5
FFACFF6F
007EFFC0
FD9BFFCD
FF4FFF65
022DFF23
FF78FFEB
00B5FFD1
FF600072
0045FF8B
FFBF0043
FFA900DD
0098FEAB
0049FF46
002AFF9A
FEED003D
FFE00197
FF9FFFD3
00730041
FE75006E
FFF7007C
0056FEA9
FEC5001C
0017FFB5
FF9DFF4F
FEFC0094
FFD5FE04
FE8CFF81
FF9EFFA6
0089000B
0145FF6D
FFD300B3
FF7200CF
FEB10086
00D10040
FF62FEB6
FF1B0167
FFE0FFFD
0054FF4B
FEF80054
010D010E
001C01AB
FF870029
FF87003C
0075FE95
FFE200C4
FF8F0020
00D8FF2A
00290049
FF1500C0
FFD40017
00A9008C
FF7EFFE0
007A012A
0045FF58
FFA8FF78
FF39FFA0
01380050
FF810135
FFDA0089
0066002B
0072FFD4
00C2FEA4
FFBDFF2C
008CFDD1
0036006D
004800E3
0018FF98
FF0C0105
FF45FFDF
012BFF7D
FE650128
FFA0FFB6
FF98FEBA
FFD30081
00CE0021
0048000E
010E0010
FF7000E0
00AA004F
FEBCFFA7
0025FFEE
FFBA0153
FF20FFAB
FEECFF95
FEE500E4
FF4B01A7
00DD0003
0032001A
FEFBFFBA
FFF300D4
FF4EFECA
008A0036
002D00D0
00BBFFFC
00D4FF4B
0063FF8D
005CFF30
0012FF64
01BB001E
00270021
FF01FED6
0101FEDC
005DFFDB
006B0039
0112FFB0
FF290172
FEE9FF08
0067FF8E
005A002E
FFBA0011
FFBFFFE5
FEB7FF08
01020132
FFE4004E
FFCDFEFB
009000A0
FFC7FF83
FF190104
0061FF17
0083FF42
00DBFFBA
FFC60025
FF23FF95
00C90093
FFE30015
01250169
FF5AFFB7
001500CF
001BFF61
FFAE002F
0047FEB4
00140062
FEDF0094
002F014E
0080FF63
005EFF1A
FF8C006E
FF2FFF91
003AFFC6
010DFE68
010400BE
FF2500CF
FE36FF2D
FECE0055
FF04FFEA
FEC5FF84
0042014A
FFAD00D8
FFF1FFBE
007DFFEB
019FFF19
FFF20116
01BD013F
FECBFFD6
FEF6FFB5
00000045
FF1C00B7
FF6F0063
0168FF74
005D0105
FFB70005
00AAFE9C
FF47001A
FF190073
0081FF35
00780023
00DBFF9F
FFC001F0
FFA3FFBC
011FFF36
FFB6FFD1
FEC300B5
FFB4FF7E
FF2E00AF
0184FF97
00CE016B
008C00A5
0030FFA8
FF5BFF4D
006900BB
0084002D
FF9A00DF
FFF100E4
00A70032
00010065
0192001D
000DFFF3
FEEE0119
FF77FFD2
FEE700BE
0065FF27
00270064
FFECFFF7
00820089
FF0C01F8
FF1F00A4
FF50FE54
00F90099
0047025C
001AFF48
019B0010
FF270072
FFFAFFF9
FF9A0163
0042FFEE
FF98FF3A
007601AA
01400139
FFF6FFE5
FF64FF39
00E10007
012D0017
017EFF2D
00B80086
FFC8FFCC
00140016
00D800AB
FFA3FFFF
FEB7FF89
00000034
FFF800DB
00E6FEEF
FF4CFF5B
FF8EFF8A
FFAF0068
FFBF010D
FE7AFFEC
FF8000F2
01480087
00EE00C9
011CFFB4
FE5101C3
025C004C
00300111
FFEC001F
00F8FEEE
002A00E9
00F8FF4A
0011FFCD
FF97FEF9
005D00DE
FF96005D
0056005D
0112FFDC
FE9EFFF5
00630090
FE96FE63
FFFCFF62
00F70117
000EFFCE
FF98FFAB
00DD0011
FF840136
FE11FF78
00B9FF90
0015FED8
0006007A
FDFA00BD
FF95FE67
003800F2
00E400C7
0062FFE2
FF8B0020
FF620143
011CFF41
000BFE14
010E0072
0046007C
00660027
00A90105
FF9000D2
FF790054
00FEFF47
FFF40013
FEF4010D
0105FF12
0037FF59
0034FF85
002F001D
010BFFF2
FEB80035
0131006B
FF33FEBC
0194FF74
FEBAFFD4
008FFEA0
FEC8002D
FFB80025
FF780003
FF7FFF29
0109FF08
FFE8002D
0027FF20
FEE00007
FFC30111
FE9DFF1B
FF96FF87
FF52FF20
FFB2FFB4
0035FEE4
FE7BFF48
FED600A2
FE460027
FF15003C
FF560005
FF7D006F
00100142
01EFFECF
FFBC00D8
FFE40028
FF9401BA
0017002D
FFA1FF3D
FF7A0051
0097FF6E
FF2200F3
FF98007C
FFE400A0
01C80078
FF930074
00DBFFFE
FFFB015A
016B0030
00C800D5
FF9FFF1F
FEBE00BD
FFC2FF76
FE3F0156
0136008B
020C0017
0036FEDC
FF8401CC
FFD100E1
FF55FF5B
FF96FED7
00430073
FFDEFFF9
FF0B011F
00ACFFC2
FFC0FF27
01640005
FFF6FFCA
01B3FFCE
FF420014
001CFF0D
FF7CFF6E
FF4EFFA2
FE59FF12
008FFF2B
FEBAFF71
FF6DFEFB
FF81FF4E
003CFEC0
012D0011
00620120
FF26FF2E
009A003E
002DFF78
FF4C0050
FF08FFC4
FF920082
FF9E00E8
003CFFE8
FFB30049
FF7A00A3
FF8FFF90
0020FFDB
FFF000DA
00D4005B
0050FED2
FF34FFA7
0171FE8C
FFC3FF56
01C7006D
014AFFEF
FF66FEED
009BFF4E
FF80FE4A
FF3B00B8
FE77FFC2
019D0053
FF68FFE6
FF2BFEC9
FEB9FF1F
FF12FF42
00A2FF32
004DFEF3
FFD2FF6D
FFAA025B
013AFFDD
FEC40012
0069001A
014E015E
FE6CFED2
00C1FF82
FF9B006C
FE0FFFF8
00C4FFD3
FF9E00AE
FF82FF9F
FF4600C8
FFDAFF84
001E011A
0024000D
FE29FEE6
FE93FF00
020E0096
FF60FFB2
0014FE5F
01B400D3
0057FF7B
004A0068
FEE90028
FE7CFF20
FF73FFFD
00460169
FEE7FFC7
FF5EFF31
000B005B
FFFCFFF5
FEA2003C
005C0009
FF500026
FF680124
0034000A
FFED00E2
FF7AFECD
0117004E
00A00092
001000E5
FEC5FFFD
009400B9
FF2A0077
0010FFE5
0051FFE0
FECFFED4
000B0078
FF98000E
0101FFD6
0008FFB5
FFE00064
000700E1
002BFF74
0169FED4
0014FECE
002FFEF9
FD58006A
FFB7FFB9
FFA3FF35
00C6FF41
0066FFCC
FF3A00E6
00E900B6
FF920093
00870051
0047011B
FFCBFFE5
0059FFA3
0045FF7E
00C6FFC3
FF6F0060
FFDB014B
0108FFF1
00E000E5
FF4CFF71
0112FEFC
002AFFE6
0044FFF5
FF4B005E
01D4005A
00100124
FE97FFF3
00920059
009B0067
FEE70006
005AFF92
018FFF01
FFFAFF1D
005E0098
FF5E0008
007C0085
01320092
FF220035
0120001C
0002012A
003A0029
FF16FFE1
FEB0FFBA
FFD900CE
00AB00C0
FFFBFFB7
0001FF20
01660074
00EB0038
024E008B
FF49010E
FFACFEC2
FE9D00E0
FF6C011B
FF890041
FF81FEDE
008FFF9D
0125FF86
FE780098
002D0222
FFD6FF4D
FF6D00B5
FF390085
00DA0066
FF89FF4E
0113FF5D
0010FF2C
FEA1012C
0131FEDC
FF3E0096
FF79FF6E
002400C0
008B0086
000AFF5D
00CB0012
0105FF63
FFA0006D
FFB400F9
01850013
00C9FFB0
FF6900A0
FF4CFFCD
0093008B
FF78FF6F
FF94007F
FF5EFE8C
FFEC0028
006DFF78
FFC3FED4
00890085
0000FF17
00030128
FF8E000D
00C4FFA2
011B011B
FF630001
0163FFE7
FF8C010D
FF52FF35
FDCF0032
0041002D
FED1FF88
0030FEAF
0057FDEF
00400110
00BBFFA7
FFF20089
00A0FE7E
FFCFFFC0
FFFA0118
FFEEFEF1
005500C4
0096FF46
005600F6
FF36FEB2
000AFE69
FF78FFDB
FFF60186
FF7EFF3E
FF2FFFF1
000E000B
00960073
FF1100E5
016BFF65
00720081
FFACFF78
00DD00A3
FFE10002
FEE0006E
002E00B5
FF9E002F
0073009D
00CA0065
FFF7FFD8
005FFEA6
000EFEC7
00100077
FFA0FFDB
FF41FFEB
0237FFE1
FFFF0038
FF1600B4
013A006D
FFF5FFB3
001B0009
FEFC00DE
FF47FE4C
003BFF8B
FFDF0106
01BAFEC6
FFCE009B
0012FFE0
009CFDEC
0169FF6E
FFE000DE
00E1FFB6
01A10047
FEACFFB1
FFB6FEBB
00FAFF86
FF53FFDF
FF260136
00010235
FFCBFE9F
016FFE62
FF810073
FE02FFC5
FDCEFE53
001F002A
0097FE9C
FFE8FF71
009E002A
0087000C
0067011D
FFCC00E0
FF0D009A
00CBFF50
011DFFCC
FFD4FFF8
FECCFFFB
FEEE003C
002A0157
FF6C000A
FF5BFF8E
FFB3FF68
FEC2FF0B
003600A8
0136FF84
FEF2FFDF
017E0176
FF65FF2F
006AFF70
FEE80108
FF66FFC0
FEFFFF3C
005801D2
FDAAFFF9
00B4FFFD
FFE60036
FFB60077
00830121
0058FFA2
FFADFFE7
FF30013C
FFA2FED7
0183005A
005A0072
FEB100F7
00E4FE60
FF90FF64
FFC500C0
0032FF8D
FFC3FF7C
00350000
FEBE0141
FFE00051
00E7FE27
FF7DFFD4
00A600F0
FF5800A4
01890088
FF4000F2
FF38014D
01D300C8
FFB800F0
FF5DFFB5
FFE90032
0006FF2D
FEB800E4
0220FFF7
FEEEFFF6
0023010C
FF63FFF7
FF4600BD
00B1FF10
0072010E
0144FFBC
FFAC0043
00B200C1
023DFF91
FFA50023
FF1CFF23
FF030004
FE93FF7D
FEDEFFBF
FF96FFA7
00CC0115
FF93FFF3
00370005
FF8CFFAC
01D901B7
001F006B
FFD3014E
009C00E2
FEEAFF9B
FE25FF7F
01A7FF77
FFF40155
0092FFE4
0021FEEF
FEEF0055
009C008A
FFA5FFBF
FEC40112
0114FE27
00BAFF57
FFAF0073
FF8FFFFC
FEFD0048
00E80091
0071FEDC
FF5F002D
FFE300ED
FF2CFF6B
FFCFFEFF
FFCFFFCB
FFC6001C
FF7C0017
0005FFAE
FF92FFEF
FFA7FED7
012BFFA6
FFE8FFC2
FF8B0018
FF1200B3
0171FF8E
FF1AFF43
FFBDFF57
008CFF9B
009AFF9A
00D2FFD7
FF39FFA5
FFE101AD
FFFD00AF
FFFD00BF
007000F6
FF64FFBC
0007006C
FF6FFFEC
FFCAFF60
FF8A0079
FFF4FFCE
FFFFFFC5
FF2EFFFE
FF46006A
FFB10013
FFDE002D
FFB00171
FFEB0072
00000088
00D20037
FF3D0021
00E2FF7E
FFE20082
FF9E0006
000C00B2
FFCFFFCA
0065FF17
0069004A
FFCB000C
00CDFF40
FF8E0017
FEC6FFA9
00DFFF8B
000D0055
00120040
FE82008A
017DFEDD
00490114
001CFEE4
008E008C
FFB80070
FF8EFE10
00890040
FF53FFE6
FF550011
00500048
00AEFFAC
002100C4
00C1004E
0138FFD2
01B9010A
00830015
FFD200D3
FEB1FF26
FFAEFF48
0040019D
FF440079
FFEFFE9B
00880153
001DFF96
002E00C8
01290029
FF39009B
FF6200FF
00750107
004DFF89
00360086
0145FFCF
FF91FFCD
01BBFFBD
00520172
00130104
FEDB0012
FFDCFFF7
FE75FD9D
0011FEE1
FF8300A9
0071018C
FFCF0112
FF30FF87
025101F0
FF940066
003FFF3C
0049FF6B
003801B3
005CFFF1
006100C7
01D1006E
00CAFF7F
01CCFF82
0195FF39
FEB40036
FF45FFC5
FE02002C
0195FF2B
FF60010F
FFA6FF29
FFCC00BC
FF2C0171
FF470039
FD81FF7F
00B900DF
0083FF71
001500CE
FFFD004C
008BFF9C
FFC60022
0032FF98
0028005D
00240195
00290096
015FFF35
FF5700A0
0006020C
FFFF0282
FFBE00E1
0068FF80
FF1BFFE5
0004FFA8
FF3CFFE5
FF37FEFD
FF85FFCA
FF2A00E6
FF75FF73
003D0063
FFF4FFC6
0063FFB1
011AFEDF
FFC1FF89
FF5FFE9B
0059FF97
FFFAFFE4
FFC3005C
00BCFF72
FF95FEEA
FFCA01D9
FF59FEE5
001FFFEA
FF5B011A
FFB4FFA8
01FA00DE
FFD400CD
FE15FF26
007B0043
00AB0116
0105FFF4
FE5A00BC
FF65FEF0
0042FF2B
FF7AFF82
FF7500C4
002F0060
0168FEF2
FF79009D
FFDFFEC9
FF980095
FF30FF91
FFBEFF0C
FF3B0021
FF1DFF3C
FFEA0054
01B7017C
FFB9FEB3
0002FF2C
FF01FFE9
007CFF1D
FFB7FEC2
FF410051
0118FFA2
FF93FEF3
006AFF88
FF5101CA
00A8FF57
004200A4
00F5FF0C
00C7FEAE
FFF70143
FF3901B5
0209002F
0093FF83
001AFFA3
FFE9FFFF
0059FFCA
0100007F
00720039
FF5FFE91
FFBCFF21
00A400FF
0086FFB9
FF13FF2C
009DFF76
FFE2FF1D
0116FD05
0095003B
FEF2FFC2
019FFF4F
FFECFF41
FF900063
FF7AFFF6
FFDFFE74
FEF8014F
FF81FF5F
003D00AB
FEE6FF6F
FFFB015B
FEAEFF28
00C20006
FFE6FE25
00DF01A3
FF8000D7
FF63FF67
FFECFFDA
0083FFAA
FFF3004E
FEFAFF29
005F000C
00D7007C
00B20064
FFBB00BF
FFE6FFF8
FFBC0071
FFC90027
FFD60014
008100C9
FF060127
004300E4
006CFFB5
0021FF90
013CFE76
FE58FF8B
FEC0FFBD
FF8DFF40
FF58FF80
0066FF10
FFB7006D
FF440002
FECC00C1
000F0048
FF68FEF7
0024001E
FF07005A
0049FF67
FEB1FF7F
005700B5
00CB0010
00310017
00B8002F
0059FD6E
0104FF61
FEBF004D
FF560077
FF9EFF75
0054002B
009BFF87
FEF4FF5C
FF210053
FF5E001B
000A0072
FFEDFFEF
0023005C
003D0075
002A0109
FEFD0059
FF6201B0
004AFFDB
FECBFF25
002700AA
00C50060
FEDA00BC
01ECFEC0
FF7BFFEF
FF69FF76
00F4FFC2
FE40FF53
FF9001C9
FFDF0056
002B0106
FFC6FF83
0046FE7A
FF93FEE5
FFA3009D
FF2BFFC8
00500025
FF5100E0
FF7A0019
FFE80118
FFEFFF8B
00F00157
FFF2FF94
FEEE0068
01930115
007F0078
FE980092
FFEBFFD0
FF18FFA0
01B401B7
FF4EFFD4
00500051
0086FE66
004B00E7
003F0042
00C60100
0102FF92
FF950035
FFE7FFAE
FF97001D
008D0132
0095FF76
006100D4
FF270109
0010FF58
FFD8FFDA
FF0EFEF3
012400F2
011E007B
FF53FF0A
FFC9004F
000A002E
002B0032
FF56FFF0
00E9FF1F
FEAFFFDB
006B00FC
01B5FFBD
003C0042
01490002
FF9AFFBA
00C3007F
0012FFB9
0013018A
0073FF79
FFBC002D
0066FEC7
FF250044
006200C3
0132FFD2
FF32FFC4
0100001A
00E5FF25
FE66FF66
FEC7FF5E
FFFAFFAD
0037FECE
FFD8009B
FEB7FFDF
000BFF62
002B0079
005B0027
FED800D2
0028FEA1
0024012F
002BFF94
0024FFDD
00C1FFDB
FFFBFF0D
FEDCFFF2
FE8F0013
FED2FE47
006F020F
0040FFBC
002BFFC6
0106FFF2
0089FF8E
FED300A7
FFBE006E
FFF30046
007E000D
FEF4FF45
000400D9
013FFEC2
FFB4FEB8
FF7DFF3A
FEAA007E
0045FEED
FFEE013B
011CFFE0
008F0032
FF4EFF46
FE62FF81
00E60018
00BEFFBB
FF780023
0106FF89
FFDFFF39
011500A0
FF24FEFE
FFCEFFE8
002700F1
007DFF6F
0017014B
FF22FFFB
00D1008D
009C00E4
00D3FE7A
FECCFF80
00A30141
FEC40106
01A600CE
FFAC0028
00970077
FF980072
0077FF13
00970028
01080037
FFFAFF11
FFF9FF33
FEFBFF0A
FE0F00A1
00C8FFFB
FF99015A
FF22008E
00520084
FE5CFEE0
FFA5FF44
FE95FFD6
FFE5FFDB
010E0005
0013FEF4
0016FEF2
0039FEC0
FF97FF43
FF83FFB3
00DA00D5
00910110
FFA3000B
001C0061
FF47FF56
FFC50075
00DB0072
FFD50024
FEFCFFF4
FFF40021
FEBCFEAE
FF4E010F
FF99FE60
0038FF80
00BDFF85
001AFF02
FF5400FF
000E0178
0033FF36
005B0046
FF7901C0
00FEFF38
002E0032
FFD5FFEC
0010004F
0049FF80
004FFE6F
006DFEF8
FF7DFFD2
FF92000A
FF8F0068
020001FB
01C3FFDC
FF4F023F
FFF1FFC8
01900115
00550093
FFA10005
00E10045
0071FFE9
0021006D
FDC80036
FFDD0065
FF450034
FFE500DD
FE97FF58
00450038
00CE0141
FF760032
FF960052
01090083
FF86FFDF
FE64FFE3
FE1EFFD3
FFCEFFC5
FEFB0038
00740098
FF1EFF83
FFDF0133
FE9300C8
0067FE9A
FFDEFFF5
FFEFFEEB
FFF1FED4
000DFFF3
FF66FF62
008E01A3
FF60FEA6
004FFFE0
009900A6
00590034
012B0023
FFA6FF3C
FF8D0071
0093FEE0
FFDBFEDA
01A300BB
FF48FF8F
FFD4FF67
011B014B
FFC3FF7D
004FFFF1
00A401C9
009FFF91
004B00AA
FE7900D0
018D0053
FFA9FFCA
FF0BFFFF
0153FFD5
0008008D
FFB0FFB0
006FFF9F
0013FFD4
FEBF006B
003BFFDD
007C00D2
FF8000DC
FFB5FF93
00CDFF74
011EFF5C
FFEAFF83
00EFFF85
FFB9FFB1
FF3E00FB
0088FF9C
FFABFF86
FFC9FEBD
FF72012E
00A2002F
FF24FF11
FF7AFFA9
0197FE51
002DFF8F
FF48014D
FF3AFFFA
FFD2FFC7
00F5FF42
000AFFE8
FEED008A
0146000A
00FBFE8C
015CFF66
FF1B00D9
FEB2FF96
009F012B
02660019
00B5FF00
006AFF4F
019B001A
000B0026
009400F5
005300FE
01D4FF35
0093FE1E
004CFF63
FFCBFFA3
00ACFF74
00C7FF8C
FF2AFF49
FFFFFFF7
000D000D
0098018B
00570010
01B40042
FFF40115
0032FFD7
FF890123
FFCAFEEF
007CFF81
FEC7FF7D
FFB7FEC3
FEEBFEFC
006900A9
002BFFCF
00D8FFF5
FE71FF31
00840134
FF6E00FD
FEDCFF74
FF62FFCC
FF5C007F
010E0032
00BCFFEE
015EFFD3
00C2FF36
009C0022
019F0018
003DFFE7
000B003C
00D50086
00350029
FF55FF7E
FFE7003F
00120073
008800CC
0087FFFB
00740101
006200F1
0133FFFD
00E4FFA9
FFBCFF5F
FFCCFF20
FFBB005A
0057001C
FF720054
0025FFAA
FF29FFAE
0119FF5D
FF1AFFD3
FF36006D
FFEBFF9A
FFD3008A
00A3FFDE
FEA4013B
003BFFF4
0023FF97
00BBFFA4
FFF3002F
00110053
FFBEFFC2
0044FEE8
01860060
00F3001E
016E0163
00CEFFD0
0123FFB8
007C0018
FFD60059
FE3AFF47
0053FEEC
FFECFF93
FFB9FE6D
00CE0066
FE8DFF65
FFA1001A
FEA1011F
FFE0FFA7
009B00D4
FFB2FED5
00290039
FE7F0066
FFDEFE73
0014FEF3
003BFE66
00C6FF54
021AFF78
FF8F0054
FF680078
FFA100AE
0084FFC2
FF39FFE8
FFB00026
FF86FFC2
FF17FFF6
013A0092
00820059
FF7B0095
00C9FFE5
FFA8FE0C
FF6D0058
0048004A
002D0060
FFDD0164
FF2E017E
013400CF
FF3EFEF7
00160043
016B00BD
00E7FFDB
FF78FFB8
FF77009A
0068FF27
FF3F0069
FFFBFFDA
00B1FE13
001D002F
FF7EFF13
001AFFED
0030FF2F
00E2FEFB
FF1EFF0E
FFA2FFB0
0163008D
015C0006
FE870069
FE850025
0049FFC4
FFEBFFA7
0093FFE0
FF96FFEA
FFB3FFA2
002BFFEA
000A011B
010CFECF
FF84008C
FFC40067
FF4BFFE7
0113FEDB
FFB8014A
0155007F
013BFFF0
FEBCFFD3
00C100FC
FF12FFD5
0095FF35
FFC5FF53
0001007A
01DAFF6C
FF450130
FFA2FFFE
0009006D
FFE10086
008CFF44
00E2002A
FEE3FF04
FF1C008A
0043FF7D
0038FFE0
FFAD0029
003100C6
FEF9002B
0033FF3D
0089FF4B
010B0110
FECCFFD2
0095FE5C
FFDC005C
003EFF4C
010DFEAE
FF06FFC1
00D7FFA0
FED10079
0031FED2
00E4FE77
FF99001B
006DFFB6
FED9FF7F
0005FE9C
FFC0FF75
0087FEC3
FFBFFFAD
FEE10023
FF07FFDF
0141FF7A
00E0FF2A
001EFE9A
0005FF42
FFE2FF7F
00B80050
00810007
006A01E9
00CF0003
00C6FF79
01460035
00F50008
00200034
0107014F
FEC6FF8D
FF62FF8C
0091FD93
FF920023
FF51FE82
FFDA01D3
00B2FFA2
FF7AFF54
FF57FEDB
FF6CFF95
0049008E
0077FE2E
003EFFE2
FFB5FFDF
FF51001B
00EA0066
00FEFFEB
FF87FEC8
018800B6
FF2301A6
FF04FF7E
FE60FEC2
00420014
0046000B
00C60060
0026FFA8
0046003E
00C101A0
0041FF40
008FFFE1
FFE6FE28
005DFF20
0023FFF2
FF600020
001C00E2
FFE4005B
FFCF00D0
FFE3FF5A
00BF006B
FF220045
FF6DFFBF
0035FFC2
FFF300A0
004500DD
00E5FF70
0077FFBB
000F009A
FF330030
00A4FF2B
FEC000E7
00ABFE0D
0076FFBB
003E0014
002C002E
00FD0017
00FA0070
00160066
0092FCE6
FEC6FF65
FFED00AD
FFB80054
0069FF7E
FF65FE50
0071FEF4
000DFF9C
FFE3019B
FFDE012A
FF2C007E
FFF5FEBE
FFEC0058
FF940015
019401AC
005900FD
FEED001F
01A3FF6D
FE35FF8D
00130034
015CFFA8
00290082
004000AE
FFBBFE77
00E50147
FEDAFF68
FFE1FFDB
FFAD009C
009F00D0
FEBD014F
017CFEF8
00BAFF48
002D00C3
001F0073
00DAFFC8
FF620085
00CC0010
FDADFF3C
FF9EFE9E
007CFFFD
FE80FF3F
FF2B004B
00200132
0009FFDD
010B002E
01030136
FFE2FFD4
FF7500FD
FED30204
FF9BFFD5
0006006A
00BF003C
00C00030
00240071
FF640048
004CFEDD
FF010115
FFAEFE87
FF51004E
009900E3
00E7006B
FEE7FF5A
FF87FFEC
0071000F
FFAF000E
005D0199
0248FF0D
FF9AFFB9
FED40014
00E600B4
01330005
0028FFF8
0036012C
FFF5FF2B
FF4FFE6D
00720007
0019016D
FFBE003D
00BD0023
03100076
FFA2013F
0008FD7E
00D500C3
004E00F7
FFF0FFD8
003A00D3
006A026E
00ACFFEE
FFE10030
00180041
FF6F007C
0070FE60
FFBAFFF2
FFDB00E4
FF64FE0C
00C9FF4D
FFD6FF66
FFAD0179
FF16FF1A
FFEC0039
FED8001C
FEEAFF41
00840105
FF49FFA8
FFFC0064
01D70083
FF29FF95
FFC9FED9
FF94FFB0
FFA2015F
0010FF6F
FEFFFF0A
00A800A4
00510020
FF7A00BB
FEFDFFA3
0080FFBF
0037FF9A
FFD5FF6C
FEFD013E
FED600B0
000F0001
0098008F
00C9FD0A
016D0047
0085FE9D
FFCD0091
0017FF61
00E300A3
00F50006
00DDFFCC
00570075
FF9B0065
006FFFE0
FF00FFBC
00470020
FF0700D2
0014FFA8
FF7FFED3
FFD10220
00B30085
FE7AFFF0
0259FF37
01800040
01D10005
FFE8FE76
FF3DFEB9
004000D5
0052FFB0
FF6700CF
0094FF5D
FFD4FFE3
FFCFFF81
FFB0FFA9
00B90123
005EFFC6
023800F9
FFC700EE
014200CC
0117FF33
FFBA0010
0001FF17
FFCBFFFF
00EE025B
FE9600A5
011E0007
0115FEBE
FFC1FF39
00E6FF9E
00620050
007400C0
0108FFEB
00C3FF56
FFD7FEA6
005F00DA
FFB0008B
FFEBFFD5
FF6C0006
FF920083
00500041
000D0039
FF23FFFA
FF1EFFF1
000BFFCB
FFF1FFBA
FF46FFB1
FFE70063
FF41002F
0010009F
FFB2010F
0050FFDC
FFED00A2
FE3AFFB1
00D20091
00700185
FFD7FFC8
012C023B
FFA7FF7E
007700AB
FE36FFA4
FFAC009F
FE36FFC0
FF0DFF74
FFD7FF3E
FF20FF6B
00BC00B5
FFFDFF99
FFB200F0
0142005E
FF5F0047
FFA000CD
00B0FFDE
FF08FFCA
FEF600A7
FF4600C7
018EFF0D
FEF1000A
001E007C
FF12FE17
007000C8
FFA70141
00D4FFF3
0099005A
FEB7FF26
00AF012C
FF810081
FFEFFE70
FF64006E
FEE4FF5C
FF9E0172
FFF60159
00F1FF44
006600A3
FF9AFFE8
FFEAFFC4
FF330086
010A0109
FDA2FF26
FEEC01AB
008801B1
0016014B
FF7400BC
FF7CFFA2
0041FEEF
0088FE9C
FF78FF9C
FE1BFFF9
00D5FE0A
FF6BFF94
FF1CFFAF
FFD2FFE3
FE310043
017DFFCA
FF950031
FF8200DC
0069FFD9
FE69FF83
FF610052
0096FFF9
00AC0024
FF9F0062
01A70076
01F6FF76
00B1FFDF
018C0025
007000B4
0000FFFA
016C011E
001BFF23
00E60011
0078FED5
004300D9
FF910040
FD9500D8
FDEC01EC
00640095
FE430161
FFF3006A
00020026
0014FF78
FF100085
01300184
0172FF70
00C7009A
FED00031
01BDFF13
0168FFD1
FEE7FFE7
00100121
FF2FFED0
00610149
FE8B001E
FFBA004F
0025FFCD
007BFEB0
0005009F
007EFEFA
00B900D9
0168FED1
FF62FED3
FF780031
005600A8
00B0005F
00EF00A4
000DFF99
FFE0FF02
00B9FFE2
FEEB0033
01E5FFE1
FFC300AE
014F00F2
0035003E
FFE9FF74
FE0E0033
FFF8FFB7
FF410064
FEC6FFF9
FEBAFF61
FF7BFEAC
FEACFFEB
FF1A0026
0071FF25
001C000B
FFDBFF45
FFC60112
FF460005
006F00D6
004E0100
FEAAFDC6
FFF2FFE8
FF74FFC7
FECDFF16
00960038
FED3000C
0096FF1F
00A6FF3C
FF72FEF3
000CFF99
01910166
FFBEFFB5
010AFF8D
006F0017
00960024
00A8FFD7
00D1FF9C
FEAF003F
0038FF57
FDEE0043
0032FF8E
FFF70074
FFA6006F
FFB30045
003FFFFB
00360007
00F5FFB2
FFB00049
FEF0FEC5
FF390056
0064FD5D
FF8CFE17
006D0184
00C2FFF6
003DFFC6
001BFFBB
00B9FF4D
001F001C
004BFFFF
0013000D
01B6FF1E
002BFFAB
0063FFD7
FF1DFFB8
FF340169
00FCFF5E
028301A2
00F8FF2E
00B9003C
00AC00BF
FF07003F
000EFD9B
FFE2FF2D
FFEE005A
00010072
FFA700AE
FF690106
FEC80074
FFE9009C
FF89FFA9
FF73FF3F
FF7800C1
007CFF5B
FF92FF81
004101B1
0130FF87
00580076
00AA0136
000700CF
0044014B
00C5FE09
FFBAFF15
016E00A2
00130146
01BAFFD4
0001002D
FF51FF46
00360068
FF370160
FEEBFF4A
FF5B0183
00260004
0069FF67
006A000B
0079FFE1
0094FF6A
015F00AE
0181006D
FFD000B7
FFB7016C
FFE501A4
002C00D1
FF9CFFAA
002C00A1
FFADFF47
FFBA0078
FF67FF78
016F000D
001000A4
005BFFEA
FFCA0036
FF5D00B0
FFF6FFDE
FFB9FF5D
00F0FFF7
FF88FF43
0022FFA0
FFC2FEF2
001A006E
FE89001B
000000BC
00CE00CC
FF66015B
005100FE
FF7EFFB3
FF5FFF9A
005C0030
FF090101
FFC4FF8A
0025FE1E
0047008F
005100CE
FF600145
FEF30062
FFDA0029
00FB014A
FDC50048
00360135
FEEBFE7D
FFF70102
FFBD0027
0095FF73
00C0FF3E
FF210189
FE8DFFC6
FE650001
FF8FFFBD
007100E1
0054011A
02A500A2
FE4BFEB2
0072FF4D
0155FFEB
FFB0FF18
00BDFFAD
0125FF88
018FFEC1
FFE2FF48
FE980073
004EFFEF
00E0FFE5
0066FF0A
0081FF75
FE8C00C5
FE380081
FF0AFF7E
003C010B
FFC9FDF1
001CFF86
FFED0073
0053FFC1
0014FF4B
FED2FF7F
0081FEFD
FFBCFF62
0085017B
FFA4000C
FEDAFF2B
FF600039
0070FF96
FFA0FF9B
00F30080
FE970025
FF8DFFCB
0068FEC7
009500C5
00CE0033
FF38FF52
01C8FFEC
00860074
FE4600A0
FF23FF3B
002F0134
FFD8000C
003CFFE9
015DFFE5
FF05FF15
00010035
FFEDFE83
FFA3FF12
FF550070
FE7201D4
0057FFF0
FFFDFFD8
0067FFD1
FE7DFFAD
FE97FFB4
01EFFE1F
FF8EFEB8
FF6DFF88
000DFF88
002E0032
0026FFEE
FEF5FE74
0023FF36
FFD1FF80
002E0083
00BF00B3
002DFF68
FF11000B
00460047
FF70FEBB
00B2011A
003C003B
FF25FF75
003F00AB
004AFF93
FF90009C
00220012
FFE500A1
FF1700CC
0034002C
000AFFA5
00960060
FEE9FEC9
00D8015D
FF1A0075
016EFF6E
008AFF7C
0092FE39
00A4FF13
FFCE0023
007A012B
00ECFFAE
0197005B
011700AF
00DBFFEE
FF600162
015DFF4F
025F0045
0047FF71
FFAB0083
001DFFE7
FF22FFE9
0066FF17
FF820014
00C10066
008FFF69
004F00F5
006A0020
0031000B
013500AC
FF22FF67
006601B5
FF89FF3B
0073FF09
0055FEC3
0050FF48
00D000D0
FF1B00A4
FF4EFF74
FF82FFDD
008E0053
00510133
00DA0139
001D0043
006D0002
FFCA000A
FFC5FFCC
FF85FEB1
FFD0003C
0096FFF8
00B1000E
007E00D8
00FA00BD
FFE8FFF8
FF980048
00E2FF49
0102004B
0140FFCA
004AFFC7
004A0094
0096FED4
004D0042
00510075
FF3BFF42
00E0FFDD
FEB600A0
0041FDFC
00FCFF9E
0000FFA7
0098007B
FEC1FF5C
FFF3FF42
FF05FFBC
FF67FF66
0018FFD2
00CDFF18
0006012E
008BFFD0
0043FEE2
FF91FFE4
0155FF61
008E0015
00B3FF91
FF7DFF89
00CEFFF1
000DFFDD
0008FFAF
FF8F00BB
FEA1FEFE
FF56007E
FF7FFFEF
004CFFF9
00B5FF6B
0057FF01
004000FF
FFC2FFF1
FFACFF95
FF7200F3
FDFDFE66
FE95FFA2
FF91FFD2
00B400DF
FDEC01EB
FF68018F
0105007E
FF84FF2C
FF760171
0027FE84
FEEB012F
FFE0FF94
0122FF83
FFD3FEF0
FF93FF43
FF8E00C0
FF35FFF5
FFE20193
001D00B7
00F1FF60
0050FFF9
FF0AFEB2
000500CA
01A9015C
FF17FF0A
0043FEDC
0063006F
010EFEC3
FEE30004
FFB3FF31
FEDAFF64
003AFFE5
FFF3007B
FE96FF45
0082FFBA
0026FED5
FE0C0173
006CFF7A
FE0A00EA
FF35003F
FEB6FF1C
0018FEE5
011EFF93
00E8FFA8
FF13FF66
FE1C009C
0002FFD2
00470032
FFF600BE
FFFDFFDF
007AFFCB
0064FF42
002FFF22
0001012E
002FFFB2
00BA0081
00A0FE4C
002CFFC5
FFC7007D
00F60094
FEF50076
FF2D003A
FF4CFF46
0061FFE1
FF37FFB7
005C0058
FF7F0131
0005FF49
01BBFF84
FF72FFB3
FF3CFFA8
00C6FEDA
00D000A8
002101C0
00E90060
006A0010
FF81FF72
FF52019D
FFE1003A
FFBCFF52
0109010F
FF3801A9
FF27FF67
FF2D00B7
01B600EA
0014FF37
FF89FFF0
006200C6
FF280027
FF8E005B
FF7F00BE
00D500B7
004E0011
FE56FFB2
FF0C003F
002F0111
FE6DFEB9
001EFE26
00F900E2
FF290003
FF9CFF87
00C3FF5D
0044FFF3
FE2FFEF8
FFD1006E
FF69000B
0002FFB1
FF98FF72
016D0061
FF89007C
FFC700DC
FF7FFF0E
00310025
FF6400D8
007300CD
FF93FFB4
FD79FFE6
FFF80179
FF9D017F
007CFF5A
FF91FF0A
0047FFAE
FF080131
FE6DFF47
FF9DFFCD
FFE80176
007CFFF0
018400CE
00980111
00BEFFBB
FF6AFFB2
FF5BFFE1
00FF0136
FFBD000A
0000FEB8
FF8F00D5
00E3FF1C
FFBDFFA5
FF9C01A5
FD32FFE3
00200116
FFDAFF78
FEBFFFFF
00AEFFB6
003AFF5D
006700DD
FFD10029
00080003
FFB10084
015B0045
000100D2
FFBF009E
FF64014E
0073FEE2
007EFFBA
00830103
FF8FFFE0
FF8AFF56
00AA0050
008EFF73
FF89FFBA
FF4C002B
005400CE
00AA00A7
FF5AFFAA
FEE000CB
FFAF0147
0022FF61
00B7FFCE
FFA200C7
01160038
FF11FF07
FF85FF44
FF80010B
0011FF5C
FF18FEFF
0111FFAD
FF94FF1D
FF35FFA5
005AFFE9
FF68FF85
000FFFDF
FE21FF41
010C0040
FF67FF8F
00C10185
FF8CFF11
00BA008A
0016FF02
FFA00006
FEE6FEF9
FFA2FF85
FEA0FF22
02350168
0042004D
FF00FF8F
005F003D
FF60008D
FE42FFB6
0042FF83
012F0088
00C2FFAB
FFA2FF91
FF5A00FE
FE730046
FEDEFFF7
FFBF00CC
0073FE3B
FEF1FEB3
FFAB0056
FFB100B4
FF7EFF7E
FF4E00A3
FF070242
FF8C0036
007AFFAF
FFBC006F
FF39FFC9
001EFFA0
FEBFFF7C
FFCEFF4A
001AFF68
FF280060
000B009E
FFC000E5
FE90FF0A
FFB8FF16
FE020051
0116FFB9
FFE7FEFB
00FE0155
FF4A0006
FF65013F
FF83FFDC
0070FE9A
00A50068
00C700C3
FF19FF63
00A1FF4C
FF860048
0157FFFB
00520008
FEFC021D
002100A0
FF9FFF9F
FEF1FF6F
0132000A
010FFF6C
FF75FFD4
FF63001E
FFF4FF52
FEA0FF38
00AD004B
00CDFF74
00E2FFAE
FF7D0084
00910174
00E7FF2E
0077FF72
FFE70075
FFA30173
00D30028
FF44FF42
FFB4001D
FF1CFF71
FFA0FFA8
015FFF2D
00F2FF70
FFC6FF8D
FF69FE8A
FF800046
011CFFD3
0104FFEF
00C0FF3D
FF43001A
FF9200E5
00D700EC
FFE901D8
FF5FFE93
009000D2
00120035
0003FE20
008E0030
FFD6FFF5
FF13FFEE
FFE9FE1D
FF59FFBF
0088004F
FF5EFE5D
FFB5FFD2
0129FF66
FF6B0138
FFF3008E
FEB10141
FF8100F8
FF41018A
0043FDAD
00EEFF86
FF5D000C
FEB90026
FE5BFF55
FF93008D
01BB009E
0087015F
00310036
013FFFE9
012F0071
00950093
FFD100FE
006800DE
FFF2FFAC
003B00E6
FF770004
0070007D
00F1FEA9
FFAB01D2
FF22FF76
FF1B0086
FF9DFEEC
0165FFD7
017BFF1C
00690132
006DFF00
004200AB
01C3FFAF
FF380158
0062FF6A
FF8A00E6
00500012
FFA7FEE2
006FFF6B
0044008D
FFEA0106
003AFF90
FE570098
0298FF84
FFCF00D4
0124002E
005000AF
0069FF6C
FFE90014
00CD005F
001DFF9F
00E0FF61
FF19FEFA
00A1FFEA
0116FFED
FF14FFC9
FE3C00D9
FF340058
007C0079
00C2FEB0
0057FF4D
FEF4FF74
0093FFEF
FF8A001E
0024007D
FFD5FF30
FFAE003A
FFAD0020
0050FE9C
0117FFE5
00420026
00E4013C
FFBFFE79
FFCDFF80
FF58FF60
FFB2FF1D
FEC60145
009DFFC2
FF0700C8
0002010B
01990169
0052FF6E
FFAE0071
009DFF34
FF8C00BF
00EE0024
FF6E0038
0064FE99
0083FEC9
FF9FFE5C
FFB8FFBB
00F0FECE
FF650159
FFE8FFFA
00670010
FFCD0037
0086FEFD
01D20142
00BA017C
014AFF7C
005E000D
FE8A012C
007CFF66
00880024
00FAFF38
FEA8FEC6
FFCD0107
FF45FFF0
FF79FF8D
FE750092
FF59FEE6
00FEFE98
003FFFBA
FFC40230
FFF5FF5A
014FFF0D
00CB0018
FF3CFF1A
005D0064
FFA30080
FF050056
FF33007D
FF99FFC2
006900A2
00CEFED8
FFD4016D
0047004E
FF9F000B
FF76007B
00D9FF7F
003D0082
FFBB0129
FF9CFFFC
FFAB0153
FF54FFA6
FFC40085
FFE8FFBF
0072FFDD
007000A9
012AFFBD
00E0FFA3
0072FEA9
0080FF55
0022FF4C
FF34FFF8
015300F7
0056002D
FFC2007A
FFE5FFD9
FF0FFFC3
FEB8FFCF
0097FFAC
0111FFEC
FF1EFF6F
01490085
0123FF6E
FFE2FFD3
0039FEA8
003800F0
FF940046
FF6801E5
FF4F0166
FFBEFF4A
0127FF6A
FF8300DE
003FFF97
00140012
0083002D
FFD40079
FEB90148
0021FF01
FF570176
FF710098
001A0023
FF97FFDA
FF25000D
001200AD
FFE80126
0112008F
00470114
FEB2001D
00360096
FFCAFFE3
00510060
FF4C0057
FFBD0086
0182005A
FFED00C2
0208FF92
FFA6005D
00BF0002
FF8BFFAD
0009002C
0031FFE5
0050FFD5
015400BB
FE5000DC
FDD2FF57
FFB2FFA6
006DFFE6
0109002F
0045FFFD
008BFFB0
FF9F0043
FE500062
FFAF0042
FFF2005E
FFB4FFA4
004D00EB
00B1020C
0069FE9D
008AFF09
0095FF60
FF4F001F
FEF1FE11
0190FE90
008CFFB7
0006FF3D
FF9E00A8
00760054
01060198
FF360017
FFEEFFC1
FEE700A6
FEB0FFEC
FF08011F
003F00B4
FFC40121
004E00D4
0062FF8A
FE31FF59
011300D3
FFF30092
FFBE0178
00B9FFDA
004100C4
00C90036
FFD0000A
FFFC0008
FF15002E
FFDD0035
FF340067
FF7FFE32
0005002D
FE9D0048
FFAC00A5
008DFF2D
00DA0003
003200AF
FFF8FFB2
FFD0FFCE
FFF2FEC8
FF15FF4D
0097019B
008700B0
01B80103
0006FFAD
0151003F
FEB0FFF4
FF1AFFCF
FFC0FFBD
FE93FF26
00AA0063
FF930164
FF37FEB2
009BFE75
004FFF4C
FFC5FF78
004AFF2F
010AFFC1
0021FFFC
FFA00175
FFB0FEB0
00B5FF91
FFC40111
002EFF14
01CFFFC7
002DFF83
00E20139
FFB1FF1D
FFC6013E
FFC60138
FFC3FFFA
00200001
00970081
FF07FFB5
FFC8FF47
00D8002F
FEFD00F9
00CEFEC6
00CBFFC3
0134FF8F
FFBA005A
FF33FF39
0012FF46
FF58017E
003B012A
FDF20026
FF410050
00CA0115
0059FF8A
00490007
FE82FFE7
FFDF0133
0008FFA8
FF36FF9E
00220040
FF16FFEC
FFAE0220
FF420066
015800ED
0158FF3F
FFE40120
FFFC009B
018AFEC6
00700106
002EFEFB
00E500F5
FEC7FE2C
011800E3
005500EB
00B40008
00AC0115
00BF009C
00E900E7
0039FED7
FF9C00A8
FF2C0005
FF61FFCC
0092FE9C
004A0088
0142FF41
FE540085
FF6CFF68
00BDFFCE
00E400C6
FF8BFFC1
FF05FEFE
002600F3
FF9C014B
FF530057
FF64FFD1
FF8A00F6
FF04FFC0
FF1D0050
020EFFC0
FF7700E6
0080FF5C
FFF2FF1A
FFCB01B6
FFF9FF13
011BFF09
01B200D9
00800050
00DA002E
FFB6FE25
01030080
0006FFF9
FFDAFF7D
FF4F002A
00860006
0091FFA9
00BB001A
023701C3
0045FF8B
FF0B0012
FF0E0029
01C8FF8B
0044FF26
FF8DFF30
FFAEFFBE
00CAFFFE
FF820075
00FD001E
002DFFBF
00DC0087
0165018E
009001F9
FEE50013
FE9F00C6
FF4EFE86
FFA8FF37
FF14FE6F
FF95008B
00A3FEFA
0022006A
003E000E
FF7700AA
FEF4FEF9
FE9E0033
0035FF5F
0000FF2B
FF68001C
00B0FF07
FF7200A3
0006FE5B
003B000A
0030000A
011AFF4E
0073FF80
00A6FFB8
FF9300DF
002C007A
010BFFF3
009BFF9E
00A5FF4F
0041FF9E
00E1FFEE
000F00D7
001B0017
001A011A
FED0013A
FF5500BC
004EFE42
0015003C
00A5FFAA
005E0152
00ACFDCF
FFACFFDD
FEFDFF7A
FFC300B0
008C00F1
00370079
0017028A
0007FF91
FF6000A3
FE77FF29
00680008
FF5E00C1
FF75FF2C
007EFEA7
FE10FFD4
FF31016C
00D00089
FFAFFEFC
FF58FFBD
0097002E
FF29FFF6
0026FFC9
00EFFF48
003B000D
0065013B
FF81FF92
012AFF23
FFC30085
0036001C
002DFFDC
FEF500F4
0030FF0B
FF1CFCFF
FFF3FEF2
FF9FFF95
FEEDFE89
FE95FFAB
FF2F0071
FE95FF98
FF5DFFBA
FF540187
FF4300E5
FF32005A
00E5FED1
FF55FFEA
FFBAFEBB
00C30063
00EF00D1
FFCCFF69
FF90FEDC
FFE30039
0003FFE8
FEEAFF77
0067003D
004B0041
FF07FE95
01050063
FF730216
006400D0
FED100A5
009BFFF7
00090141
0014FF06
0090FE5C
0046FF1C
00BCFF42
0040007A
00B10021
00BFFEC1
0090014B
FEE7FE3E
006500B6
FF4F0010
00820079
FF5CFEC8
FF22FF21
FF97FF2A
FFC5FFBE
FFA0FEE3
0054003A
FED3FE97
FF53000E
004200A1
FF970141
012AFF57
FFC7000B
001FFFCC
FF7DFF7D
FF76001C
FE36FF97
FFF100A6
00FEFFEF
002501A9
012401C5
FE9401DC
FF3B00F8
FF17FE70
FFE3FFD2
016BFF5F
FFDF010D
FF64FF67
01B7FFB4
FFB6FFEE
FF7EFFB8
FF9DFECC
FFA00022
FF72FF9E
008C0071
0097008D
01DB0086
FF800032
FF32FF78
009B0053
0075FF50
009CFFD6
0042FF9F
00FC00CB
FFEEFFE1
FFF8007D
0132FFC4
FF790047
0204006F
008B004A
0077FF38
001400DB
FE68FF78
FFAB0095
0039008F
01840072
01910072
FFDEFE3E
FFF8004D
0053001E
0098004B
FF2B00FA
FF6DFEFA
00650123
FFD30152
01250030
00F000FE
FF96FEDB
01970138
FF39FF92
0006002B
00D3FEE9
0018FF31
FF43FE72
0029FE70
FF6B00E1
00470014
FFDFFEDB
FFC8FF17
FF2DFF8F
FFDD009C
FEF00081
000800A4
FF79FFA4
013D0045
002B0064
FF36001D
FEA6FFAA
0152008F
FF38003E
001B0037
FFC9FF70
00FAFF24
00DE0066
FEC1FFE5
FE1CFFAF
006300AF
00570263
00120038
FFF0FF5E
FE4BFF99
00A80120
0066FFE3
004F0016
FE6A0069
FFACFF10
00E8FFBE
FFE50023
003CFFC3
016A0038
FFD20098
FE4DFFFB
00A40017
FFF900B8
0118FED4
FFD00024
00A4FFE6
0138001F
FFC00006
FFF10048
FFAC0168
007DFF26
FF640202
00160069
001700DA
0054FF9D
002F00BB
0113FF4B
0051FF6B
FFB500F4
FFC5FF38
FFE4FE9C
00510049
00FBFF30
FF61005F
00AEFF22
014C00D0
0167FF36
002C011E
00290196
FF7FFFA6
011B0028
006AFF7F
FF3BFFF3
002AFFEC
005800BF
00C6FFB5
00060059
00CC0030
FEAD0050
FEB8007D
FF69FF4B
00D2FF7C
010E0085
FFDF0020
0147002A
FFC20033
004EFF52
013200BB
FF2F0059
006900F8
012BFFB8
FFD8FFBF
FE84007F
0160002A
FFC9FFD0
FFE30052
00E800A9
FF580094
0040FF28
FF5BFFD8
002F00CE
FE670052
01110199
006BFF96
FFAFFFCA
FFFEFFDA
FF5DFF79
01050003
004BFFD2
FF53FFE3
0042FEE6
FF88FE45
001C00B1
FFB60068
00B4FF1B
00DCFFE7
FFB2FF30
00FD0106
010000C7
FF080138
FDE9FFDA
00780095
000D0040
FFE8002D
FEC9FF6C
00520070
0094FFC5
00340190
0010FE76
004A0083
FF81FFB4
005F00D8
0088FFD8
FE1EFF36
FFE5FF55
00C6FFAB
FE3E0125
FF060027
0119FFDB
FF77FF3D
008A0048
FFA5FF67
FFEFFEBD
003F0164
FF89FF5B
FEF7FFC2
011C0107
0036FED0
FFCE00B1
0066FF3B
00C0FFD8
006BFE36
FF09FFCE
004800C1
009B01D3
0103FF41
0067006B
FF62FF03
00E40075
00A8003D
007DFF35
004DFFD1
FE44001C
014B007E
FF960048
0049016E
0211FFD7
0073FF5E
001D00AA
006FFFA3
FF6BFFD7
015401BB
017AFED1
FF52FF2B
000AFF39
FF4F0026
00270038
FFA0008E
FF49FFC4
FFCC00B5
FF0A0061
002EFEC3
FFE8015C
00980079
FF3100FA
FECCFF12
004100FC
FEC3FFB7
FFE600B5
02440191
FFDFFF93
00480049
000BFFF9
0048FF46
FF60FEA3
00230042
0082FF44
002900BA
FFF3FFAF
FF7B005A
FE3C013B
FDDCFEEA
0072006A
FEB9FF09
FF7BFFBF
0067FF73
FF8BFF6E
006900B2
FF18FF27
008800CE
00B6FFE4
00E6FFC8
0079004C
FFFE0024
FFA0001E
002E0061
00D0005C
00980003
00680027
0073015D
0095013B
FF7C00AB
003600E0
FFA3FF18
00E1FFD8
FEF3FEE6
00530058
FF3FFFB4
FFD50056
FFB600EC
FFC8FF10
005D006B
0081FF77
FF6B0004
0194003E
FF6D000B
FF900050
FF5F0155
FFCF00BE
FF74FF82
0077008F
005FFF7E
0015007C
00D4019D
FEA4006D
0073FF94
0136007D
FF5A0105
FFE1FF78
00CCFFD6
00CC0188
FFE9FFBE
FF6A001E
00D400B3
FF9BFF66
005100EC
FF92FF08
FF3AFF60
00CB0081
FF58007E
00C3FEE8
00AF01CA
FF85015A
FFDD0083
00AFFF11
FFEC0104
00B40004
004900AE
007DFF79
FF9301E9
FF71004F
00150073
FEE800B2
FF8BFF83
005300B1
FF83FFCD
00DDFFF2
FF1F008D
00560055
007F0071
0044FF5B
FF5500CF
00A6FFC8
FF33013D
FEB5FFAF
00DAFF0F
000CFF62
FEEB0023
FF590104
FED00088
FEFCFFCD
FF4EFF46
FF4F001A
00B00133
013300B6
008E007A
FF4BFF38
004800D8
0053FEBB
00EFFF9D
01350058
FFDAFFAD
0076018B
FE8A004D
FEB60160
FEF7FFF2
005900F6
0057007E
004CFEBB
00CCFF2D
FFBCFE5E
FEC3FFDB
01310178
FFC0FFC2
FE940107
0003FF79
014AFFB8
00190073
00010153
003E007B
00CA00CA
FFAD0091
00A5004C
000600C5
014CFFC3
FF8CFF53
0000FE7B
0048FF3C
FF7EFF60
00A4FEC7
FFDFFFB2
01180072
00AB004D
FF36FEC6
00A3FF8A
FF9BFF67
FFF10043
001FFF19
FE90FF9A
00F2FEFB
009E0139
0123FF8A
FE500010
0132006D
00A50053
FFA6FF8A
00A5003B
0069FE97
0044011B
FF94019E
007DFEF6
FFE1FF35
FFE1FFC1
FF5EFFC4
FFA700F0
FFA4FFDE
FFC7FFEE
01F10078
FEBF0037
0041FF7F
016D0083
0085FF9D
FF84FEC0
FFF3004A
009D00BF
FF5300C8
016EFFBC
002F0157
FFD60016
0027FF85
FFFBFFA3
FFE10067
001201EA
FE800081
FFEEFF3B
0022FE17
00AB0051
020DFED1
0081FF26
0077FE08
FF0B003F
FFCEFFCB
FEC40138
FFD7FFB6
0092FF6E
FEA200E0
FF9D0069
FFE2FF9F
FFFA005E
FFCFFF20
FE4E0008
00D4008A
0084FEBE
00170090
FEAEFFDE
FFC2000D
FF87FFDD
00420141
00090078
FFBE0023
FFED00FB
00560079
00F60008
FEA5FF94
007E00E2
0000FFEB
FF91FF62
FEC6FE8F
FF78FF0A
FF74FFA7
003AFF27
01A200C2
FE9DFEE1
011CFF6F
FE43FF2D
0091FF17
008BFE3B
0027FFD7
009BFFA3
011000A8
FFA10150
0023012C
002400AA
0005012B
FE560109
FF78FFD8
FFD8FF79
FF9CFF08
010CFF0C
0080FFED
005CFECA
FE1CFFF6
0065FF8C
FFFC0013
013DFF7B
FEF60066
FFF2FEFF
FFAFFF5D
00EFFFF9
FF9CFFA2
00ACFFAF
FFBEFEA7
0045FF85
FFEE00FC
017AFEFF
01190041
00660117
FF24FFDA
FF6B00D4
009E0204
0070FF4D
FFE8006A
FFC000DA
FC19FFFC
FEE700DA
0076FFFE
FF5AFFE0
00DC0017
0039FFBB
00A7017B
00770064
007E00A9
01380101
FF360004
0035FE2D
FFAB0113
FEBD002D
FF0AFF9D
FF39FF73
012DFF1C
00F5009B
00C70146
003F020D
FEF00098
FFC2FF68
FF82FFE7
017700A9
00D50054
007B001F
015600B3
014AFFB5
0043FFD4
00B7FF93
00F200A5
FF0BFE5A
006A0020
FFA8FE87
FEDFFFCC
FF640066
FFD6004B
FFC5003C
FDC50076
FFFAFF22
004600E2
FFDFFF6A
FEA30041
00B30083
009EFF6C
FF31FF27
FF87FEC7
006CFF6D
FED5FFE2
01040039
FF72FF7D
0100FFF5
FF6CFFA7
006600BF
01110155
01170082
FF240103
FF6AFF8B
01770080
FF76FFDD
FEE1007A
FEC200D5
00CE0080
FEDA0086
FEC30117
FF9DFFCB
FF5EFF06
003B00B5
0126FFE7
00E3008B
00B60146
0050018B
00B900A9
007100A9
0107FF39
00D00067
FFFAFF08
FF79FEEE
012A002E
0068FFAC
00D7FFA9
003F00D3
0024FFD1
FF340086
FF0D005A
FF31FF30
0018021E
001D00C7
FF84001E
FEF7FF6E
00430089
FFDD0006
FF5901E4
005B0039
00CB0012
0111FE90
0063FDB6
018000F1
005B0153
00ACFF78
FF99FFAC
FED7FFFF
FFADFF65
006DFF73
01190166
FFC1FFB7
002CFF5E
FFEE0095
0071FF2B
0021FF3C
0086003C
007EFEF9
FF9CFF90
0124006A
01700060
0037FF76
0057FF75
FFAB00C5
007A022F
0037FFEC
FF9EFF56
FF87FFFF
006F0097
000EFED3
006FFE51
00030039
0019FFAE
FF0F0108
0041FFB2
FFBE00D4
00DD000C
0103FF23
008DFF51
00BC0025
00C3FE66
FDF4001C
019F00FB
FFF1FF9D
FE91FEB3
0002FFEC
00FFFE45
FF51FF50
0060018B
01D00002
0071FE65
001B00FF
FFA00081
007BFE86
FF2FFFBC
0011004E
0031007A
0095FF68
FECCFFB6
00C400EA
FE30FF5D
011BFFBD
FEC4FF22
0082FFA8
01D9FFA4
FED80084
0016006B
018DFF25
00B10115
FFAB01D2
FF5700BB
FF200042
FEB1FF12
00CBFFD3
FF3E00DD
FEA2FE22
000CFEAD
FFF400E0
FF3E0144
FF0FFF69
FFC8FFE4
FFB5FF11
00730024
FFC9FF17
0083FEBE
FEBC003D
FFB30058
FF7BFF85
FF7CFEE5
FF81FF82
FF8A0084
FF8BFFDC
FF6DFFB8
FF22FFDC
0036FF17
FE210005
00FBFFFB
FFB4FFDC
FF45FF1A
FF91FE90
FF1FFF55
0116FF09
FF030036
FF81FF84
FFF70093
FFAA00AC
FF3F00B0
FF65006C
FF3BFFCC
00D80025
FF94FFBF
FF780125
FF71FF1C
FFE5FF7A
FF21000A
FF0100F2
FEA80197
FF1EFFEB
003BFECF
FE59FF56
FFD30016
010C00A0
0113FEBB
00C4FF17
000CFF66
FE540215
FF0F0099
FF88FFC7
FF4FFF02
00310004
00EB008F
01B1007E
FF0B009C
FFED0031
FEE5FF79
FF05FFC5
009AFFFD
FF3A0077
FF04FFC7
FFDCFF8B
FEF6FF74
013100BF
FF65FF7D
00F80016
FF8B0039
FEC20132
00C00116
FF34FF66
FF95FF8C
FF6E0151
0033FF77
FEDD0018
FF37009C
00F4FE1B
FF3CFF2B
00330047
00F3008D
00D8FF5D
0225FFE5
00D0FE2A
007D0053
0027FEB8
FF430152
FFFD0166
FE35FF6A
FF54FF2C
00B3004F
009200F4
0075FF38
00C5FFA8
FF340030
0063FEA7
FF5CFF23
FFB100D6
00B60124
FEF7003D
00F50093
00A8FF78
00E800EF
00EDFF16
FFD40001
FF87FFAE
FE56FE32
FFBEFFFB
FE7AFFF4
0137FEE2
00590055
009FFFE6
00FDFF87
FEF3FEDF
FE980086
0033015F
FF3B0115
FEE6FE33
FEDC0072
000C000D
004300B2
00AD005C
FF7700E6
002701B1
FF1AFFF7
0180FEBA
001F015E
012D0037
010AFFDF
FFF5FFBA
00B2FEE4
010DFF0B
0173009F
00A4FFF1
FFC10096
0000001A
011BFF0D
00CF0051
014F00E7
00DF0056
FEBC010F
006CFF2E
FEA6008F
FFDB0068
013BFFD2
014D0099
0075FE32
0030FE3B
FF0CFFD0
FFD200E6
009A0040
00410014
FEE10098
01AB00C0
0118FF5E
FFEBFFEE
FFD200FB
010FFFE7
005B00BD
010D0100
00AA01DB
FFBC009F
00BB00CB
00310099
0146FFB5
00B60017
FFE50020
0111FF5F
0171FFE1
003EFF99
FF42FF0F
FF4A0001
FF90FFE3
004DFFCF
006D00E8
00650005
FFEA0044
00B30091
FF98FFA0
FEAE00A5
0134FF2F
FF660020
01ECFFD3
FF600058
FF74FFB0
01670033
00BC001A
01B8FF99
00A4001E
FE44000C
FF3D00D4
004FFFC3
00380105
00B00043
0013FF43
FF1DFEEB
0064FFF7
00D9FF57
001B00B5
FF7300E6
FF4B00BD
FFC50019
01D10080
00B0FFC6
FFA8FE9C
0122FFB0
FF3B0106
FF4DFF86
FEA1FFE4
0059005E
FFCCFFA3
FF9EFF4D
0155FFAB
002AFFB1
FFFF000D
00100065
FFCC00EB
00650011
FFF30114
FE30FFAC
FFD9FF8C
FEA4002F
FF16FF53
00AB012E
00E2FFE9
FF3A0070
004BFF6A
FFE7FFDA
FF79FFE1
01F3FE69
00CBFFF2
FF910263
001A0021
000D00AB
FE8800D6
FE86FF1B
012BFEC4
00ADFFE7
FFA8FFAF
002500F3
FF4AFF1E
FFFDFFFC
00620071
002A00C3
00BAFF5D
FFCEFF08
FFDEFFE0
016800FD
FF66FF71
FF680029
FFBEFF77
00E8FF13
FF4CFFCF
FE11010D
FEAD0167
FFEDFF7E
0099FF16
00160007
001FFFBC
00EC01C3
01270076
002D00C1
FFA200B7
FF05FF8D
00330053
0065FFF9
FF120126
0083FDDA
FF6A00E0
00E9FFFB
FF970051
FFF40007
0080FF88
001EFF7A
00450013
00250020
005DFE6F
009F00D4
01170138
FF61FFCF
008100A7
00C00211
00AE012D
016F0153
FFD600D1
FFFFFE83
00C800A7
FF1B015B
0055000B
00A60100
0079013E
0016006A
FF1CFF7E
0047FFFA
00A600BA
0006FDD8
006CFFF5
0003013E
0055FF7B
FF130063
FFB0FFF3
FF4CFFC4
FEC9FFD7
009EFFBB
FF0E0054
FFDEFF41
0067FFF0
0163FF9F
FF61FFF8
FFDFFE9A
FEF7FF35
FF8AFF53
006400B7
00B8FFF9
FFB9FE47
FF7DFFAB
0067010B
FFBF00B9
00B70136
FE6BFFDD
FFAD0176
FFA6FE80
008BFEA6
FEA6010A
005AFEE2
0071FE5F
FF1C0074
0047009A
FFA0FF6A
FFDBFFAE
001EFE92
008FFE65
FE3F0072
009F007A
005BFE95
00BA0112
FFA701BF
009B004B
00AEFF7C
FEFA0166
0013010D
FF81FF09
FFFBFFF7
000E001D
0114012E
00A7FF52
FF26FFDE
FF70FEB8
002F0015
FFD3007A
FF89FF9E
FF46FEF1
FF1DFF3D
01D4005A
0007FE8E
FFD4019B
0037FF9F
015A0014
FF7B010D
003B0090
FFEE000F
000CFF79
001300B9
FFA4018D
01A9FFFD
FF55FF3B
00280073
0034FE7E
0147FFCF
FE60009C
007D0069
00EAFFBC
FFC001E0
001300AC
FF2FFFCE
0026FFCA
0048FF36
FF40FF25
00A2FFCA
001EFEEB
FFA9FFE4
FEB7FF9F
00C5FF51
FFCD00C9
0065FFB1
FF43FF9C
00ADFE76
FFFD0119
FF470066
FEA20038
001501B1
00D30015
015EFFC6
FF86007B
FFFEFE62
FFD70038
00E7FFCB
00C6002F
0093FFFB
FF1900A6
00C4000F
0097FE6F
00F4FDCF
0116FE6E
FEE20070
0159FF4B
FF230028
FF6DFFE7
011C00A7
FFE800D4
006B00BA
FFCDFFB6
00650083
FF51FFEC
0000FFB2
FE8000BD
FFBAFFF4
FFD0FF8C
007E009E
FFDF00DF
0066FE81
00470079
0080FFC4
FF85FE96
FF6B0070
FEB9FED8
FFF2FF31
FF46FF91
00FA012D
FFB200AB
FF83006D
00C5FFFB
011CFE8D
FFF400B9
FF34FEE6
002400F2
010FFFE4
FFB9FFD6
FFF8FFA8
01920057
0034FFEC
FFC9FFA1
00790073
FF9B00DF
FFACFFF0
FEFF00DE
00ACFF52
FFA9FF37
FFCB0030
00070023
FF08FFD6
FF82FFC9
FF5D00CF
FF7EFFF8
FF6401E6
00460080
FF9600CD
FF940033
003B003C
FFFFFDE1
FF5C009A
FEF6004B
00DEFF7A
00770077
FF9400C8
FFD300C8
020900FF
00120040
0047FF97
FFA7FEF2
00C10073
0030FE57
0023FFE9
FEDE0049
003EFFE6
016B002E
FEEEFFCC
00020122
011F007E
FF3000A0
012A0035
FFB4FF31
FFD3FF68
001CFF63
FEC3FF1F
FF20FEF5
018700AB
00CC0067
FF90FFFD
FE71011A
000A00A9
FF44FF3D
002DFF0F
003000BF
FE980104
0034003E
FF28002A
009AFEF6
FF3AFEF6
FEF600CB
0020004F
0087FF94
00070034
00FA003B
000B002E
FF6C0120
FF6B000D
003BFFF9
006E004F
00A20135
00B1FF89
FFCB011F
FF46007D
FEF10056
00E000F3
0296FFF7
FEACFFCD
0001FFE7
00230050
FFE1FF88
FF860094
0074FF50
FF5AFF5D
00B6FFA5
FF91FFFD
FFBDFEDA
0026FF20
014DFFDE
0007FFC9
0017001A
0003FFFC
00430148
FFC3FF72
00ED0016
FF34FD92
FF6FFF5E
0027FEDB
006AFDE6
01BFFDEC
FEBEFF3F
FF5DFFAD
00160098
FFEFFFFA
FFEBFFFD
FEF2FF71
FFB6FFC5
FEA40110
FFD90005
0006FFB1
0132000F
FF9BFF4A
FF7C0087
FFC500B2
FF97FF85
FF220088
FFFF00AA
FF7B015F
FF1C001B
FF6E0051
0093FFF5
FF12FE6E
0009FF8E
0067004F
FEAF0128
00D90089
FF2A0085
FEB601F2
00E600D8
0046FF32
FF0AFDE3
FEC50050
FEA0FFBF
021AFFB3
01AEFEBB
FF01FE5E
FE9F020A
00AF0122
00090045
008E0052
FFDAFFF2
FFAE0052
FEA9FFBD
00E3FFBC
009300B1
00A2FF0E
FFC100A0
0106FFAF
FF42FFCC
00A10124
FF9FFECE
014700D7
FFA7FF3A
FFD1FF90
FFFCFEBE
00BA009C
FFF6FF2D
FF090204
FE390074
FFA9FFD0
00F8007B
FF45FF00
00D6FF9D
00DCFF22
FEE1FFCE
00A8FF88
FFBCFF23
FEF20074
FFDEFFA8
00A2FF82
FF26FFF3
FEEEFFDF
FE8801FD
FFAE00AF
FF410059
FF2DFF90
0007FEA6
FFE300AD
000E017F
FF950005
01B10069
FFF2FF1D
00B0FE23
FFCBFFEE
FF3A00F0
0171FF22
FF8E0057
FF4CFEC7
FDF1FF17
0055FF13
FF9200D6
FF2D0076
003EFEEC
00E3009B
00C4FF5F
009100BD
0067FF68
00DDFFBA
FF5F00C2
00B10100
002F0061
003A0163
00BAFE6A
002600C7
006D0040
00AAFF19
010DFFA0
006FFF07
FF99FF3F
008DFEA5
00EAFEE1
FEFDFF0A
FF1B0009
FE4BFF4F
00AC0098
01180098
FFD10055
00F8FFDE
00DCFFEC
00BB008E
013C006B
0131FFBA
01C20030
00970069
017A00DB
FFE9FFC2
0079FF7E
0031FFED
012E00B7
FF96FE8D
0075FFD5
0096FFAB
FFEBFFDE
008BFFE5
0024002D
003EFF5A
FEEF00BB
FF3D0010
FFFAFED7
FF07FEA8
FFC3FEC4
FF6BFF7D
FF900090
000B006F
FEEC00D1
0050FFC5
FFF600E5
FEEEFE91
FF49FE2B
001D0148
00DBFEBB
0137004F
0017FFCF
0040FF0F
0033009A
FFEBFFD5
00A4FE39
00270174
FF66008E
FFFDFE79
FFD300B4
0068FFCF
FFA4FF2B
004BFDC0
FEB70098
00D40015
0199005A
FF030076
FEC301C7
005CFFA6
018D002A
FFFFFFC4
01160134
FFB9FFA1
0053FF9D
00CBFF65
FFD90058
00ADFF88
006C007D
FF86FFDA
FF74007B
00830057
FFEB0007
FFBAFF8C
FFA6FF60
00A4FF34
FFF8FFD3
003A0051
0032FF57
FEDD00BB
FFCF011D
0030011A
FF53FFBC
0038FF94
0039FFF9
0021FFE6
FF3000B8
018E014A
0001FEEC
FFB1FEEA
FEE3FFAC
FF6100DD
FED3FEE4
FEECFFA5
FF2E0026
00EDFFE4
FF9BFFAC
0098FF06
FF8C00B5
FF98FF2A
FFD5FEC0
008C006E
FFF20114
0019FF18
FFA5FF38
0017FFDA
FF6CFEF2
FFBD008E
FDAF0136
FED1001F
FEF4FEA6
0026FD0B
FF48FF93
0099012C
FE140082
FFBF0010
0094FF17
FFF4FFD4
FF63FED7
FEC50179
FFAE0018
00B6FEAE
FF4BFEEC
006C0154
008C012B
FE2FFFFE
004CFF55
FF9BFF87
FFC4FFF4
FFCC0014
FF0E0088
00950126
000B0039
FEDE0064
FF410076
FFD20189
0069FFB3
FFD1FF8E
00A10111
000B002C
FFC7FF5D
00A80043
FE9A00AA
FF7DFED6
009700E7
013AFEA8
FFF700C1
000E00B3
0045FFCA
FFBDFF53
009E0151
0101015E
FEEEFEC0
FEF9FFBB
FF9DFEFE
FF96FEAA
0079FF7D
FFB4FF8A
003B016A
010BFE8B
FFC5FF03
FFC0FFC3
FF96FF76
014EFF9D
FEBFFF3E
00C20011
FE9300AB
0154FFC4
00E00000
FF920010
FFFFFFC8
015DFFA9
FF9E0139
FE8A0046
0052FDEF
FFDE004A
FE89FF74
00DCFFA6
FF1CFEB8
007AFFC1
FFC6FFF0
FFD0FF76
FF94FFAB
FFF600DF
FF2BFEA8
FEB70021
0115FFF6
FFE20011
00D1FFE9
00010195
001D0089
FFD5002E
015FFFFC
FFB00036
FE6BFF1F
FF9C014B
FFC300E7
0042FFE3
004AFFF5
FFA4FF7A
01D900CD
FFFFFD9A
