FFFC
00B4
01DA
FFFC
0145
00DA
FF5E
01F0
FEEE
FFD4
01BB
FE40
FFCC
009D
00DB
0017
FEBC
00B9
00EC
FFCF
FF07
FE58
FE94
00CC
FEC4
005B
0168
FFE0
FF87
FE99
0108
FE8F
FE68
FEA2
FEA0
FEAD
0083
001A
0185
FFAD
FF40
004D
011A
0138
FEFB
FFA9
FE70
0008
01DD
0024
006A
0101
01D3
0079
FF51
01CF
0164
004B
0128
FFE7
012D
01E2
FECC
005E
00E9
FE8A
FF72
009A
FF2B
FE58
FE57
01DE
010C
0041
FF3C
0041
FE20
015C
01D7
00E8
FF8C
FE28
0018
0021
01B8
FED7
FFF0
013D
FF7B
FF20
FEED
009E
002B
016A
015E
0074
FEB0
005E
00D8
FEC1
0131
FEC4
FE9B
014A
FFBA
FE37
FE2F
0086
FEA5
FF3F
FF73
FFF1
0003
FEC0
015B
01F0
001D
0184
FEEB
0038
00E2
FFBB
00CE
FFB4
FFD3
FFC7
FF70
FEF9
FEB0
FFCC
0156
FEB2
0037
0101
FE53
011A
FFF0
006A
FEEC
01C2
0066
FEDC
FF07
0001
009D
0091
FE37
00D7
FE17
FFC8
FE67
FE6A
FECD
FF62
0050
FE16
FE8A
01AE
FF7B
0048
FFDE
00DC
002B
005C
01A0
FEA5
0182
FFF4
FF7C
FF28
0125
00C1
FE75
FF7A
FED5
FF42
FE93
0071
0052
FFB7
FE10
0028
FEC9
007A
0007
FF49
0133
FEB4
0096
009E
0158
FE30
00F3
00FF
FF95
0195
FF73
FF20
0064
0131
FFEE
0132
FFE7
FFD0
002A
00C0
01C7
FEEF
01E8
0122
FFC2
FF33
FEE3
00EB
00C0
00C6
0070
FE59
00C5
FEFB
00BE
00F9
FEFA
001A
FF62
00DD
FEAA
FFAD
009B
002A
FE90
FF7D
018C
00FA
01AE
00A1
FE1F
00B0
0110
0153
FE3D
FE43
00DE
FE3F
0124
FE57
007B
00CD
010E
0022
002E
010A
FE92
0091
002A
FE26
01EC
01BE
001C
016A
01E4
FE5A
FFD4
00BC
FF45
0193
FEDF
01EC
FF84
FF37
FE77
01C4
0155
FECD
001D
FF47
01B1
FF62
FEB3
FF83
0151
013D
FEDF
00FE
0088
FE7F
FF3A
FF28
0126
FF05
01A0
01BF
FEFF
0005
FEEB
00B5
FF63
006C
0089
FEEE
00B0
FF41
FE8B
FEFA
FF28
0102
00DC
FEAD
01DD
00FF
0104
00FC
00D0
FF49
00A7
00DC
01BB
FE32
FF0B
0183
FE4D
00C0
0126
01C9
0051
00F6
FE7A
0012
0108
FF9C
FF2E
006A
FEF3
FF8A
FF02
FEF7
FFBE
0071
FF21
0033
0031
FF56
0039
FF1D
FF02
FF1C
FEFB
FFA3
FE83
FEB6
0120
FF5C
000F
FFF5
0061
0086
008F
FFC4
FE60
0107
0024
FEB0
FED1
0153
0151
FE38
FEE5
0049
000F
FE64
00FF
FE96
00FE
0029
003A
FF16
00DD
0079
01EF
FEA4
FF0E
0179
FFD9
FF97
FE97
FE7C
FE30
FE9D
01D3
FFCB
FF41
FF4D
00B9
009A
00DE
FE74
0071
004D
FEA6
FF99
01C8
FFE0
FE20
FF59
0125
FE36
01B7
00C4
0161
01D8
FEDC
FEA2
0152
FF84
001C
01E1
009F
FEA4
01B9
FF8C
FE6B
FF60
FFBB
00C3
FF81
FF85
0182
FE1E
019B
00D6
FEE9
00EF
00BA
0045
FFA1
0183
0081
FEBC
0139
009E
003E
FF35
017E
FF94
018F
0180
0160
FFE4
FF1B
01D5
FEFF
0085
014A
FFE9
FEC4
FFE4
00D6
FE52
00FC
FF85
0128
FF4B
00E5
00D2
FF1A
FF3A
00D8
00AE
FF40
FFE2
015C
0195
FF34
0099
017A
0075
01C9
010B
FE83
FFDE
014D
FFFF
FE5C
FF51
FEEA
00A4
FE7D
FE37
FEE8
006F
FFEF
007B
01C3
FF10
FE28
FED9
00FB
FE3A
FEF0
FFAC
004C
0098
FE84
FF86
0069
01DE
FFBF
01C2
0166
00DE
003E
FF1A
01B7
FFBF
0082
00C4
002A
FE1B
00F6
0013
FEC3
FE6B
01B9
FEC7
FF23
FF08
01CE
FE69
0034
FE8D
0046
FFE4
001E
FF1F
01B3
FFA4
0012
FEDC
FFE2
0181
0149
0132
FFB7
FF63
01D4
FFAA
003C
0037
0044
FF2A
FE2E
0162
00B4
FF75
0085
FEA5
FE3D
FF7E
FFCC
FFD5
01E7
FF20
FFA2
FF4E
000D
0093
FF0F
FEA5
013F
FE55
0146
FE21
FFC6
FED6
01D2
FF49
01AF
0016
FF81
FECE
01A7
FFC9
FEC5
0109
0011
FE36
00A8
FE36
01A4
00DC
FFED
FEF7
FEC9
FF0C
FF5C
00A6
FF3F
FFA8
FFA7
FF27
