FFAB
FDEE
00E8
000C
FEFD
FDBB
00E0
FF9E
FD54
FFB6
0257
FDEA
FF24
FDD7
FFE1
016E
0068
FFBF
0387
FFE1
010B
FF99
FF6F
0011
0090
005C
0119
FF6E
FD6F
005C
FE92
FE61
FE51
02D8
FFFA
FF47
0000
FF08
FFB8
FDE2
0102
0084
FFA4
FDFA
FEA0
0206
00B5
01BC
00A2
FFAB
FDD5
001D
00EE
FFCA
0283
FEBE
FF63
0053
00B8
FDB6
0055
007A
FFD2
FF32
FE4A
FF5C
FE18
FEB3
0109
014A
0172
0311
0198
0059
01EC
010C
038E
FECF
FE8E
FE71
0057
015A
FE05
FE55
FFF6
FFB3
FE43
024D
00C4
FED0
030B
FFBA
FF06
FFDD
FF5F
01AB
FFCE
FD79
0013
FEBA
