00B5FF69
00E3FE92
FF4C00A2
02740070
FFBAFEB2
FFD700CE
FF67FFC2
014400DA
0060FFFC
FF08FF2E
FFDF00A3
016DFFE5
FF890000
00200106
FFB5FF36
FF5DFF32
FFE7FF1B
00B00017
FEE7FDCF
FF1C0072
FF730022
FF350086
FED800A5
FFF4FF16
FFE8FEBE
00170082
FF09FF03
FECE00D8
009C0018
FF70FFA0
00C0FF66
0062FFC0
00D9FF04
007BFFAD
01A5000F
00B9FF53
004A007C
FF980021
00440094
FF10FEF3
FF98FE24
FFFEFF7C
FE7D00A0
FF52FFF9
FFF000E5
FEFA00BA
FE5DFF7F
FF3AFF25
0035021C
FF3FFFD4
00A40056
FFFBFFBE
FFE5FDC9
FF580012
FFAE009D
FF6A009D
FF0BFFDC
01B30099
0004FF79
0087007C
01460093
00010094
0040FEC1
FF5D0019
FF8BFF1A
00C4FF8D
FF240052
FFB4003B
FF51016C
FF2700C3
00F5007A
0023FFB1
0018016E
FF72FF62
FF760099
01120073
FFBBFF10
FE4D00B6
00D3FFC7
FF44FEF1
FFBFFFA1
000500F8
0042FFCE
001CFDAC
0025FF95
FEFC0045
008A0049
0023FF8B
0001FFD6
FF12FFC2
FFEB01CB
FEBCFE88
FFB9FE60
FF2D000C
00C6FFBF
FF96FFEF
00A20055
FEED01C8
00A8FFED
FEE5FED3
001AFF9E
00C0FFD5
022FFFBB
FEDA00E7
FF3C003F
FF5D0057
000D0065
FFD30015
FF580109
FFB9FEC5
FF84FF7E
01B0FFBD
015F0013
FF3E015B
FEA401A2
01030160
FFDB00BD
FFB7FFA9
FF26006C
FF88FF75
FF38FF2E
FF3CFF77
FEEDFED8
FF7CFFD6
FFDAFFD6
00E1FF3C
FFEFFEDB
00C2015E
0117FFF7
007100C6
FFBBFE87
FF29011C
0046FFD6
00A0FFE9
0034FEB8
01420066
FEACFFBD
FF8D0080
00F5003F
FF730063
FFFE005A
FFCF0033
00B40057
017C001D
00A4FDF7
00CBFF55
FF41FEB5
0089FE80
FEB10011
FF78FFCC
FFF8FF02
FFA1FEE3
FE1D0076
00D0FEAB
00F2FE2C
0073002E
FFEFFFF9
FF5500FE
008B00D4
FF830080
FF4FFF9B
FF75FF5B
FF1AFFA5
000A0058
00E2FF08
FF9DFEBC
FEE6FFA1
00BCFFE0
FE86FFF3
FF48FEE1
003E012D
FFB3009C
00CFFFF6
FF96FF31
005CFF7C
FFEDFFCF
FFBC0004
0125FFDC
007A00A2
FED1FFFA
0065003A
00020055
00540174
FFEB0039
FFB0FF30
FF83015D
00E1FF7F
003000FF
0009FF89
FF7000DE
FFC4002F
FF9FFFCE
FF71FEBC
FF2F00D4
0166FF15
FF5D015D
FEA60000
0036FE13
FF1C000F
00D300DC
FF910048
0006FEA0
00BBFE69
0139FF4F
015F00B4
007BFF52
004800DB
FF53FF36
00330099
FEC8FE50
0057FF7A
FFACFFE6
FFE90155
015500DA
0092009D
FFDFFFC1
FFFDFF7B
FF44FFFF
005BFF7F
FF7DFEFF
0140FFA3
0110FF8F
FE92FF5C
004900F3
007B00B7
00D0001C
0030FF26
0023FF99
0073FE71
00570009
0051FF52
FFC3004E
00D900A4
01BFFFC9
FF7CFFA2
FFA900D9
FF6E01A4
FF9FFFFB
00FF012F
00CE001F
FF0CFFA8
005BFEF5
01EA0016
FEF000A5
00C300E5
FFE20072
FFD200CA
FFF1FF8A
0005FF03
0058FFFA
FF51FFD1
000D0009
FF74FF36
0043FFE1
008E011D
FFDEFE1D
009E009C
00AE00D3
FF4DFFEF
012C00C9
FF9EFF16
00C8FEDF
FF4EFF81
0078FFFF
0033FFCE
00D0FF53
0044005C
002E006B
FF2BFF4C
FE5FFF94
0024FEF8
018FFF6C
FFDCFF6F
FFDEFF60
FECC0067
0011FFA5
FF59013A
0018FFC3
0044FF57
FFE500D3
FECEFF1D
011F0049
014500C8
FFC30033
01740035
0039FFAF
001B009C
FFC0FFBB
0117FFE4
00FB020A
00BEFFEB
FFFF009D
FF94FF69
FD63FE41
FEEC002C
0003FFA2
0044010A
004CFF7D
004EFFCA
FFFE0128
FFF4009B
FFB5FFEA
FF49FFA8
FFBEFE5F
00C6FEBB
00610002
001F0002
FE7B01A8
0020008A
0099FF3D
FF2AFF56
00390123
FEEFFF75
FEDDFF3C
FFE9000D
FFE6FFD2
00C20068
FF3DFF96
FF330105
FFD9FF3B
FEAD0048
00EAFEBB
0184FEFF
009B000A
00B2FFF4
0099000F
FFB40000
FF59FF91
FE7A01E4
001F00C1
013FFF81
006D005D
FF83004D
009DFFF8
00D5FFBA
00E40000
FE6EFF31
FEB20041
FE3100F1
00A7FFA6
FFAB015D
00B3FF4B
FF22FEB6
001D0009
FF88007A
FFA900A7
FF9500D7
FF0AFFCE
FF12FF21
FFA3FFA1
FF96FFA4
FF63FFB4
00CF003A
00A800AF
FFBD007D
00980040
0089FF5C
FF86FF13
FF1F0095
007DFF55
00EA009A
0013FF8F
008FFF1C
FDB80022
FFC6FE82
FFA50033
FFE3FF26
012DFFD6
FED6FFC5
FF13FE9F
FFE50108
FFE8FF9A
00D3FF2C
FFA9FF38
00E6FF45
01F7FF79
009C000F
FF10FED1
00EEFEC5
0079FFB8
00A7FEDB
FF9A00DE
FEE400EA
FFFEFF1B
FFFE0022
FFAA0040
000BFFB3
001A00C0
0060FF52
FFE3FFD1
FF91FED0
FF2CFF9E
0187FF7E
006D00D3
FEB60058
FF770091
FF7D0089
FEFCFFC3
0084003E
00C3009A
FF59FF56
FF3100B1
008C0065
FF5D0061
00A5001E
FFE70105
FEA3002F
FFA7FFA1
014FFFA4
01560135
FF51FFB9
FF430132
FF1E0036
002900EE
001AFFA9
00210049
00380088
01370083
FEE7FEB8
009DFEE8
0047FFC5
0053FEB3
FEC6FFA4
FEF1FEF1
FECEFF63
FEF000A4
FF97FE9C
FFF9FFD2
FF50FF5C
00270032
00D2FF16
FFE4011D
000AFFA7
013DFFC5
FFD7FF4C
FFDFFE80
FECD0008
00370043
00460044
FED6FF25
FFC60068
0146FFF2
FFA6FFC3
FFD8FF81
0068FF0A
00CCFF93
FF910029
FFBA007F
00E1FFEF
FFB0FEA4
FFCE0016
0057FF40
FECA00C3
00BE0021
002C00A2
00F2FFBF
00DD007F
0086FF70
01F3FF42
0060FF6B
0043012A
FFD30031
0111FF63
0058FF6F
010F0117
FF61FE7E
FF1BFF7C
00CDFE71
012FFF58
FFFCFF99
FF54FF1E
FE03FF37
FF25007D
007CFF0B
FFA8FEB6
00F800E2
FF810026
00690108
01710016
00ABFE70
0043FFC3
00A70003
000BFF5B
FEF5FEF4
0015FEE7
FEFBFE86
007F0066
00ECFF41
FFB400F1
005E00A0
FFD0FFF2
FFB80053
00A30010
FFC2FF4B
0054FF07
FED1FF81
01B3FE8F
00D30060
0023000E
005B01F1
FFD2FEAC
005000DA
FF250105
008EFF85
009C00A7
0056008E
FFB30077
FFE1FE88
FF87FE3E
FFB6FFC2
022AFFCE
01B30016
FF7B0165
FF920189
FFAC00FF
00ACFE17
017A013B
FF7EFF6D
0065FFBF
0086FF71
00D3FF92
00080065
FFBD0065
FF0DFFC4
002FFE8D
012600C8
00F4FFE8
FF06FF48
FF8501BB
0128FFC3
FE4E00C5
FFEAFF29
FE8F0012
00390162
00F60052
00010011
FEBE0037
0081FF85
FF8A0060
007700A9
0034FFCC
FEE5FE68
0019FF3D
00F0FFDB
0107FDDA
FFF3FEE3
00460154
FFAD0047
00CA004A
013400E8
00C40061
003600B3
0001FF04
001D008D
00AE006F
000B007A
FFD9002C
000700FD
FF9B00C8
008FFFA8
FEA20003
FF4D0061
00690070
0032009B
0014FFDA
009DFE88
FF550162
004A002E
FF870027
00DD014A
FFE4000B
0019FF3A
0014005D
FF3800F6
FFCCFF14
00DFFF25
005500C1
0059003E
FF2D009C
0126FEA4
FFBDFFD1
FF5C0094
005AFF11
0167FFB5
FF57FFDE
00B4FEA1
0003007C
FFC2FEC9
0033FEF0
0072FEBF
0140FFFF
FF74FFB1
00B00037
FE44FF56
FF86FFA4
FDF2002A
00180039
FF0000A6
FF63FFED
0044000D
FFCB0085
FF9C0049
FF5FFFBB
00410066
025100BF
FFC1FED0
FF5AFF3F
FF6BFF10
FF2CFFDE
FFE6FFD2
00BA001A
FF64FE5F
009C0077
000BFFEB
004AFFA2
0018FF29
0033FE8A
FEBE01F8
FFB9FE84
FFF8006B
FFBAFF37
FE5000A8
FFC10035
008EFF50
FFBE0082
0070007D
FFF800AB
00E40056
00D50140
FF31FE32
0027FFB9
0008FFD6
0047006E
FF24FFD6
00730131
FFA40055
0018FFD3
0043FF6D
003C0094
FF68005D
007D0055
000FFF1B
FFBA0006
0107FF3F
FEE7FF92
FF8FFF72
00110089
FF4E00C4
FFF6FF0E
FFC50050
0067FFF5
0031004F
00E30039
00190184
006FFF40
00070105
FEA0FEEB
FFE6FFD8
FEF100D2
FFD5FF07
006DFF8E
FF330127
007C00AD
013DFF04
FF8D0009
FF35000D
0066FFF3
FFA6007C
00D5FEFD
01AF008E
FFE000E4
FFAFFF8D
FF9200B5
000601B8
0044FF77
00D1FFCB
FFC9FE39
FF8AFFF1
0018FFE2
00AA003D
FF4AFF5A
0091FEB0
FE480003
FF7EFF5F
01D0FFA4
FF29FFA0
00C700D3
FF560113
FF000040
008E0060
00720047
0012FE6E
0075FEDB
00EB00C2
01060140
FE7200C4
010AFF37
FFB7FF7C
FF9D0155
FEABFEEA
0097FEC1
FF8FFF4F
00820030
FFAE01A3
FFE10115
FFE7FE64
FFC8FFAF
0049FF7D
FF9FFFA9
FF5800FE
FF5E004B
FF69FEC2
FE42000C
001700F3
FF76FFA2
FF8200D8
00640141
0058FFF4
FFDD0154
FFBA009B
FF4A00B6
00A5000C
FF92001E
FFFBFEFC
00BA004C
00F0FE6F
00E30004
FEC9FFFA
00060001
007300D0
FDF30099
0017FF73
FEA10044
006D00E5
FF5D0135
FE03FF11
FE6E006A
FED50044
FEF60124
FEC0FF83
FFC3FF6B
00C8FF94
FEF0FF95
FF21007C
012AFFC2
FF47FF13
FFD0FFF5
FFA8FFF0
FF9DFFAA
FF6E0029
0024011B
FEF7FF36
FF2C00AD
FFE10038
006600C2
003701A4
00CBFF2E
FF1B0039
FFFDFFD0
00EEFF14
FF71FF33
005CFFD5
00DBFFE6
0072FE36
FFE1FFD8
FEE1008A
FFFBFFDC
FFB9FE9E
0014011E
FE93FF56
008E00DC
006B007C
006DFF93
00710124
FF3FFEF8
FFB7FFA1
005F00C5
0119FFA6
00D600FE
001EFF74
FEBBFFB1
FF6601BF
0079003D
FFBA006D
00D3002F
004CFF52
FEF6FFC8
FFE1FF50
FF7900E4
FF96004D
FFC1FFB1
FFE800C4
00B300A1
FEA0007C
FF68FCCB
FF800002
FFABFEEC
FF39000A
FFCDFF43
000100E7
00C00152
FF5CFEFC
FF0300EE
001200C5
00D800F8
008E003D
006F0093
0097FF9A
FE99003E
004E00C6
FF83FF33
00EEFF84
FF6D0114
008AFE50
FF8500AC
00B2004F
011FFFC9
FEA1FEBD
FEBD014B
0109015C
FFA1FF61
0064FEED
FFD1FF87
FF74FF3C
001B016F
FF8F0006
FFF7009E
00AA00BD
008EFFF9
FEE3FF97
018A0067
001800D8
FE27FED0
005CFFC6
0208FEED
FF8BFF44
FFA50099
FFF6FFF2
00BE00B1
0022FD9F
0015FF60
000BFF78
0026FF11
FF8FFF4F
FFDBFFC4
003FFFF3
FFD70088
FFF1FEA9
0116FF6B
FECA003A
0067008B
00F2FF78
FFBA00AA
FF9AFEBD
00280169
FD7DFFB2
00CBFF92
FF7E010A
FEF40084
000EFF3C
FFD30047
FF3F016A
FFA900D3
FF71FFCB
FF850062
FE4900F9
0030FFF8
0116FF59
017F00A4
FFA5FFED
00F5FFEA
FE8D0009
00C300D9
010FFF1D
000A011C
00C50051
FF7B0149
FF23FF9C
FFFF0079
020AFFFD
001D010B
FF53FF9D
0010015D
FF74FFA1
00750051
000100FE
FF32FFB0
FEF20025
003A00B6
FFF5FF9E
FE3AFF36
00D5FFC9
001CFEDD
00340075
FEEFFF70
0075FFD3
00DA0041
FEB3FF43
011A005D
FF5DFFF2
FF29FFB6
FEDD0076
015400BA
01B6002F
0096FFF3
FF6000DC
FF90FF52
FF8900DE
FFABFFDF
01F8002D
01280015
00570001
004C00B9
FDA20020
0048FEEB
0030FF29
002BFF61
00EC0068
FEB0001B
FFBA0000
FF08013D
00C4FF95
FF390033
FFBDFF1C
FF69FFB5
FFD3001A
FEB100A9
00420166
FE40009D
FF5400B0
FFE4FFF8
0003FFA8
000DFF8E
01770036
FF470119
FF94FFB5
006D0141
010D00B8
FF890182
FFF0FF2B
0158FFC5
FFC40133
008A00AF
FF67FFB7
003E009F
FFD7009D
FF74005D
FFA2FF00
FF2DFF7D
FF61008F
016A0094
FF73FF42
0090FF2D
00C301D5
FF76013A
FF9D0027
010F000E
FEC90033
006BFFE4
FFC0FFC8
00E5FF66
001DFE47
FE49FF8F
FF4400CA
0067FFE2
0078FF2C
005AFF6C
FF99011F
0025FD9E
0041FEE6
009E00B2
FEC4FFB0
FEE90005
FF59FF3A
FFD2FEC6
00450004
0082FF03
FF93013A
FFDCFFBD
FF97007A
015C004B
0141FF75
FF7CFF98
FFD7006A
FE9C005A
00D8FF75
FE5DFF0B
FFCA0029
00020134
FEECFFDE
FF47FFC5
006B0106
00870247
0070008B
01B60018
007400F5
00780048
FF7E00CA
FF80004F
00740016
FF9400B1
FFA90103
FFB7FE94
0142FF1B
FEAFFF69
00FB00A7
0026FF5C
006400F5
FF2B0194
01900055
004301BE
FFEEFF29
004BFFEA
00FFFF51
FE620031
00A5FFAB
FFD70069
004400B3
FF43FF36
FEC2FFF9
FF15FF20
FFBA0024
FF490027
FE33FF8F
FFE4FEEA
00100002
0014FF3A
FF670053
FF93FEF9
00500048
00FAFF74
0056FFA4
FF88003F
FFAF0036
00510035
0151FFD1
FF50FF7A
008DFED5
FFCD00AA
002FFFE9
FFA3003A
01A0FDEC
00A6FF70
FFDF00B3
FFB8FF32
FF9B0060
FFF5FF57
00B3002B
000BFFDB
FF620077
00F30080
00D9FFCE
0003FFAA
FFA0FFE0
00D8FF93
016D0062
00B7FFCA
006500CE
00D2FF5F
FFAFFF33
0127FF9D
000F000E
FF43FFEF
003A01BE
0026FFDB
002C0001
FF9800B1
FF750136
FEE201F7
00DAFE29
FF3FFF5E
003C0010
FF28FFC8
FFE80010
0098FFB1
0007FF8F
00BC0097
FFFDFFE7
FE34FEC5
FEEC00C0
FF26FF57
FF92FFD1
01D5FF04
FFDF009A
014CFE68
FF3CFFB6
0004FFAE
0151FFF7
FFB5007C
FF27000B
00590000
FE77FDFD
0124FFE4
FF81FFE2
FECBFFA1
0145006D
00D70078
FF90FF6A
00360058
FEC5FECD
FFE4003A
0058FEE8
FFF40175
FF5C0081
0052017F
0025FFE6
00CC010A
0002011F
0054FFAD
00030054
FF5CFFF6
FFF30035
007FFF26
00560006
006E003B
FFE2005C
0069FF4F
FE92FF81
FEEFFFCA
008F006F
FE8EFF65
FF6A0137
FEA1002D
FF51FFF9
FF67FFBB
00B0FE49
00A9FF86
FFDAFFB1
012C016C
FEB5FF89
FFCFFF76
00A0FFBF
FFD7FECF
FF360111
FF8AFFD9
0054FF9B
0027FEDE
FFE6013E
0070FFAC
FF51008E
FF9CFF70
FF93000B
0085FF3C
FF08012C
FF6B00C4
FF82FF14
012600D1
0139FFBE
FF4D0022
0075FE2F
FE8DFFA6
FF45FF9D
FFCA0177
008DFFF7
006EFF9D
00DAFFB9
FECC000F
005B00A2
0049FF31
006BFF51
00B0FEFF
FFF2FF2F
00B1FF41
FE17FF60
00C2FF4F
FEE600D8
0061FF34
0177008A
003A021A
0140000E
006F0061
FF68FFCF
FFD90066
FF86FFE2
013A00ED
0094FF6A
FFD0FFBF
FFE600F8
FF530104
FF5A0026
FFFC010B
00CAFF5B
00E6FE7D
0035003D
FF72000B
00D8004B
FF2D0041
FFB0FF05
00A4FE60
FF8E003F
0110FFC0
FF3D00A6
FF22009D
0118FF9B
FFB6FE53
FEF4000F
FFD9FF3A
FFE1FFCA
0074FD17
FFDD000F
0068FFF1
0132FFC4
FFF300CC
FE43FFE8
0067FF8A
008D0120
FFEDFF06
008BFF53
FFA5005C
006FFE82
017EFFD8
FFCF0151
FE04FF02
003AFF6C
FFE6FFC2
FF51000C
FFF4FF47
FFFCFF84
FF94FFFF
FF3D00B4
FEC1009D
FF260074
00F30086
0069FF38
FF2A0023
FFFEFF46
0007FFB9
FEA80034
FF5FFFF1
FFA900C7
FFEB0195
0167FFAF
FE56FF4E
002DFF70
005DFF48
FF51FEE4
FF6D0041
FFA3FEFC
00B600FB
FF73FF58
003FFF36
FF70005E
FEBEFFED
FFDA00E9
0009FFCB
FF240046
009CFF38
005300F1
FF1CFFE6
008601D6
0058FE0E
FFF4FFEC
00D00077
FF8AFFA5
013B0132
FEE80185
00360064
01CC0137
FEE9FEA7
0131FF98
FFC5002D
00E5FF91
FFBAFFDE
FFBAFFF9
0075FF21
FE49FEF1
009EFF65
FEE10101
FF0FFE86
FFB30072
0020FEAB
FF140064
FEC3FFC9
0016FFE1
0088000F
FF4E0008
00D6FFD9
FFF901A3
00A2FFC7
FF4100E0
005F00DB
001601FD
FF640025
FF75FEB5
0105FFE7
0128FFA8
FF4300FF
FF1CFF9F
FFD1FFBF
FF3C0075
00AEFF2B
FF88FFA0
005BFEE2
018B0077
00490052
0051FFD5
00680128
008300DD
017D0170
005A0000
FD5300CD
010C0099
FF6BFF72
02030032
007D004A
FF90FF85
0052015D
FFC100BD
FEAB005D
005EFF17
001FFF83
001A0069
FF74002F
000000A2
FFA7FFA0
0081FF46
FF7F010B
0067FFD3
00760051
FFC5FF05
013500B0
0148FF27
FFF50079
015CFF6C
00000027
0093FFDA
000F005A
FEC70132
01370042
FF54FF80
001801F5
007A0078
FE560032
FFE700D6
00CA0046
0091FF96
00D5012A
00BDFEBF
0007003B
0028016F
002100CB
00F8FFD3
002A002F
FF22FFA6
FEB30025
FFABFF85
0031FFCD
FEC601D9
001A0037
FF90FFE2
00E80197
FEE1000D
FF860008
FE440089
FF9DFE8D
00780056
FFAD0090
FFD6FE91
00AD006E
FFF1FFAA
00500037
00A5FF2F
0127FF4D
FE2FFFBC
FE94FF3F
FF02FF64
0002FFF4
FFB4FF61
FF7CFFFF
006CFEBE
FF9FFFAB
FFE40018
00D3FF6B
00CA015B
FF4FFE86
000CFED0
009A0042
FF0701A1
FFBEFFBF
FE5AFF5F
FEF6FFFA
00590071
FFD5FF94
FF42FF34
016EFE22
012700A7
FF2A0112
FFCC003F
FF09FF70
00A7FFF1
00490011
001E0064
FF850077
FFA2FF80
00D201B3
0075006B
FFEF00D7
FFEC0098
0026004E
013D0043
00E6009E
FFD60029
00370067
009F00FB
00D2FF02
0001FF91
001000D7
00C901F8
FF020069
00A3002F
00BD00CB
FFFCFFA3
FEAE000B
012BFFA9
FEDFFFA3
0053FF90
FFEB0101
016600C4
FF7B0195
FFA9FFEC
00B600B0
FF8B0090
FFB2FF46
00D2007B
FF1A00D7
00500230
009C0115
FFA6FF42
01170107
FEE4FF9A
0090FF7E
FFF6009B
00070022
FF830203
0182FFC7
FECBFFD8
FFC4FF9A
FDE4FFAF
FF4DFF41
005C0025
00EFFF19
FF28FF70
00EE01D3
0003FEB0
0104FF1A
FEF9002E
00400012
0133FFE7
009C00FD
FE97016D
00DF0110
FF7BFFF3
013FFF8E
FF130025
FFC30008
0097FF54
FFFE0042
FFCC0054
FE99FE62
FFF600E6
FF89FF7D
FFBC00A0
FF3500B1
016C00FC
FFDE00E4
FF18FF64
017000C5
0068FFEB
FED70043
0021FF71
FF29FFD0
FFAE00C5
008300F0
004AFFD7
FFA8FF5F
FF99FFAD
FFA3FF89
002500EC
FFDCFF77
FF7900B4
00C5FEB8
FFEB00A1
FE970125
003FFE8B
FE710004
0196013C
004E014D
01730033
0001FFF9
0027FEC6
FFBE002B
004FFEBC
FF25002F
001AFF8A
0191FF9A
0068FF93
00EDFF18
00B601A5
00C4FE79
005500A1
FE2500C1
00B1008C
001FFF3B
0071FF7A
FF9BFF32
007FFF45
00800085
00D8007C
FFA6FFEB
FF57FF1D
009E005F
003CFE9C
FF9400C6
FF2E0084
018CFED5
FD8E01A2
FFFB0023
FF82011E
FFAFFEDD
FF89FFF7
FF39FFC6
001DFF57
FFBC004E
0032FFBB
0145FF7C
FFFF009D
00D800B1
FF6BFF2C
FEF50152
FF0DFF7F
0049008E
FF23014C
FFF6FF3C
FED6FF75
005CFF1C
FFEFFF2A
FF31FEEF
00E00051
006C0026
003EFF41
00F3FF92
00720156
00050082
010FFF84
004CFFFB
FFD200DD
FF6FFF45
00F5FF0E
FEE3FF05
FFE4FF87
FECD0176
FFE3FF44
FE70FF22
FEA50022
0220009D
0077FEA3
FF630099
00E3FFC8
00AC0037
FFB2016A
FFCCFFE1
00C000E5
FFA60085
FF210073
0064FFAA
FED0FECA
00E1FFFB
015B0028
0017FFEF
0020FEE4
003DFFB7
0054FFA9
FFF600FE
0000001E
004A00A4
001EFFBC
00D30009
FEB400D2
0035FECC
FFE1FFC6
FFF20013
FF620072
FFC6FF2E
FFF6FF93
008BFF33
00870056
010D00B3
FF6C0085
FFE500E0
FF9A0079
FFFC0091
FFC4FFA8
FE45FFC5
005BFF98
FEC20082
006300B8
FED80025
FFC2FFC3
FF57FFEA
000EFF1C
012FFFE0
FE8BFE87
003D0010
0147FF98
FFFFFFC4
FF320001
0087FFB7
0084FFDA
001AFF05
01C7FFC7
00920081
0016FF91
0043FF2E
024D0046
FEE1006F
000DFEAA
002700B4
FF8300BA
0156FFBF
FFD400BA
FED3FF73
008600C0
FFFEFF90
00C4FF9E
00C0FEDF
FF57FFDD
FF8C012F
008E013E
FF8CFEF2
FE340091
FF8DFF14
FF5EFFA8
0065003C
FF51FF3D
019BFFB7
FFBAFFF6
0037007D
000500F6
FE6101AB
0170FF6D
00E1FFFD
01600111
00C3FFD9
0093FF80
FF25002B
FFF200DD
FF7A0064
FFC9007B
FF1C0141
003DFF5E
FFF3009B
FF75FF24
00250042
00BAFF88
FFF0FFE7
FED7FEF1
017FFECF
FF920114
01070067
006B0083
0040FE5E
00190020
0039FEF0
FEF3014B
0027005A
0006009D
001D01A5
FFB2FFFA
000E0011
00380027
004FFF84
0045FFB8
FFF800B3
FEE200B5
00C40036
FF5FFF10
FFDB00A3
FE710189
FF3FFF3A
0004FECE
000200B6
FF85FFD5
015DFFDB
00220069
FF8FFF25
00EF0046
FFA0FFF9
FF2E012B
00080021
FFCF0049
FFF9FFBB
FF97003F
FF100183
00EA001C
0035007E
FF95FF16
FF9A0115
FF02FF6B
00CBFF67
FF3A019F
001F0053
011FFEC6
0130FF87
FFB90149
0111FFB5
0004003F
FEDCFFB5
003F0103
004AFECC
FF1B005E
FF2DFF8A
008EFF6F
009BFEEC
FE21FF7D
017EFE28
005E005F
00C1FF88
FF5FFF64
006EFF65
00D5FEA6
011E003F
015E00FB
00F0FFDF
FFB1003E
FF2BFF58
0001FFA0
FF62015C
FFF70003
FFBAFF15
0055FF41
FEFFFEC3
FF7FFF7D
FFEBFFED
0045FE94
007D0149
FF980122
00E2FFE4
0161FF42
00170051
FFA7FF30
FF0D007F
FF50FF06
FFAFFF25
FFA5FED6
0166FF7B
FF400107
00700027
004EFFA6
0033003E
0176FFC7
00590003
FF770111
001BFF8C
0080012C
FFC8FFB8
00DE012F
FFE900B2
01B101A3
FE34FF61
FF430080
FFBD0067
FF79FF60
00750019
00F2FE7C
00E6019F
00AEFF41
FF26FEE1
005BFF09
FF9100A2
FF79FFD4
FF7C0181
0040013D
FE54FF4F
0003FF87
FFCFFE8A
008B009D
00EA00FE
0047FF3E
FF9600E8
00E3FFDE
FFCB0023
003000A8
FED3FF27
010A00AA
003B015F
00AEFF9A
0122006E
00DD0367
FF47FFE8
00E201B5
001C00B7
FF8BFFD2
FFC9FFAD
0019014A
0005003F
FF59012E
00030072
FEB5FFA9
0040FE9F
00F8FFD8
FEEE0075
FFE3FFF0
0006FECE
FF79FFC8
006901B8
00580017
003800C2
00B20020
00DA00C1
FEF50120
00DF0091
FF7F0120
0019004C
006E00CD
011A00C3
FE150051
0199007C
0139FFE1
FF5B01B9
FFD7FF17
00F30015
00BCFFEA
00B90030
FF0CFF75
01C10010
002EFFA6
FF13FE78
0110FF21
0127FFD1
0060FF16
FFF200B7
FFF5FE8C
FF3CFFB3
FFCC0007
FFFC0081
00E8FEF1
0089FF71
FEA3004F
FEEBFF94
00C00047
FFF70141
FF47FFFC
FEE2FF3A
FFDC0158
002D0078
0086FF7C
01A5FFE1
FF5BFED3
FF1400B3
0119FF11
FF75008D
001B0100
0022FF00
0015FFB3
018700C1
FFC70107
FEBBFF42
0051FF78
FFDFFF51
0100013C
00CE0053
00FDFFB0
0099FF0A
000C0020
FEEEFF2A
FF2EFF96
000EFF32
009900B4
006FFFC8
00DE008E
FF6BFE4F
008501BE
FFADFFA9
00110113
FF550209
000EFF6B
01D1FFDE
0013FFC3
FF59FFE4
00D5FF01
FEDF00A4
00B5FF1A
00E1FF4F
FFADFFA6
0129FFFD
001B007E
FF58FF18
00D30038
FFF6FF5D
FF92005B
FEE5008B
012F0039
0011FEEA
00C40055
01350004
0103FF86
00F600C0
FEFAFE6A
FF9DFF88
FF73016F
FFEAFF1D
002900AE
01C5FF8E
FF5A0000
0068FFAA
00BFFFEE
FEE800C4
FFB7FFE5
009FFFCB
01C6FF02
00E1FFB5
FF820138
0042FF1D
FFD70090
008DFF5E
FFB3FFFD
FFAA012D
0136FF10
007300B3
0145FFB6
FE490009
001D0030
FED1001F
00C20074
FF470026
FFA4FFD2
FFF50081
00B5011D
FFB0004B
FEC0FF42
002B003F
FF57005B
FF5D0059
00310154
FFE8007E
FFD100A2
0041007F
0070002E
0050FE80
FFED01BC
FF7D00B6
00FBFFF6
FEEF002B
FFBB009E
FFD2FFD3
FECFFF62
FE980006
002D0095
FF470106
0049FE6E
0054000E
0036FFF8
0139FF9B
FF540122
FF210052
0048FFDB
FF840140
FF92005C
FF63FFEF
012BFFA3
FF34FEBE
002EFFE4
004100E3
FFADFF6B
FE36FFA8
0082FF02
005E016E
FF670078
00CA0103
018E0100
00E8000C
FECA0009
0007FF46
FF78FE8C
FFE1009E
00A90008
FFEC00BD
FF6AFFB5
008D0229
FFFEFF44
00DBFFAF
01CE000F
006F007D
FF2CFDEA
00BB0041
FF340025
FE14FFB5
00010172
00ACFFFB
FE2DFFFF
FFEC0028
FF190080
003F00F3
FFC2FF41
FF7FFFD7
00AA00C8
FFAF0064
FEA3FEFF
FFA900B5
0134010D
FFAD003E
00B4FFF9
00A600A5
001800D3
FF27FE68
FF890110
0175FEFC
FFF9FFDE
FEFD0089
FEA6FEE8
0028FFEC
00D3FF42
FFA90006
FF0BFF7A
FFBA0005
0007FFB1
00DD006E
FFDBFFCC
FF96FF08
00CE0154
FED2FF87
00B5022D
FF0A000E
006F0068
006F0027
FFD0FFCE
00170000
01340079
001FFF2D
00CCFF8B
FF88001E
002E00E4
FEAC007A
01290042
008EFFF6
0098FE2C
FF5701E4
FFD2FFB3
00C80075
00ABFE67
00AF0087
005F0050
0042FF3C
FF94012A
FF88FFAA
FF5AFF9F
FE98FF5F
FFBCFF51
0099FF2B
FED6FF71
FE72FEB0
00DA0117
FF57FE49
0023011C
FF19007C
00160037
FE900022
FF3300B2
FFE001D4
FFCF00EF
015CFFDA
0148FF37
01270050
FFA20047
0060FFEE
FF3A0007
FF17FF00
014800B7
FE64FF55
00A0FFD8
00990142
FF640161
FF2DFFE9
FF7800FE
FE48019E
FF11FEDF
FF7EFEF9
FFEB004D
01B90028
FF4300E4
000D0020
FE74FF8B
00D0FFEC
00260090
FF9EFFD2
00DEFFFE
00BFFF96
FFDB017B
FED000C4
FF8A001B
FF17FEBE
00B5FF7D
0030FED1
FFA9FEDA
FEAD00DD
FF7A00DC
0023FF81
FF1A008A
005800D7
FF98003C
FF3400B0
FFFAFF31
00A900A8
FF4DFFAB
FE380164
FFEEFF9D
FF8900AA
FFDE012E
000100F9
014700D0
FF8C016F
00270000
FF05FEFC
0017FDEA
FF81FFC4
FFF0FED6
0076018D
FF5100E9
FF1C0140
00AE009D
00A1FFA3
0066FEBC
FFDDFF59
FE86FE68
000D0079
00AF0001
FFB10048
FF8F002D
FFD5FFA0
01970021
FF1A00C6
FF89FF71
FFD0FF9A
00660070
FF970089
0028023E
0018015C
002900B5
00B200EB
FF6A006A
FFF3FF25
00CA0017
006BFF90
0059010E
002900FD
FFB300C8
FE9CFF1B
FF7E0074
00CD00C0
FF5BFFF0
FFEDFFC2
0081FF58
018EFF47
0068009E
013D0129
011D004B
00E0FF06
007EFFBE
FF2600A9
FE46FF67
FFF60007
020B021C
00A6FF0B
0020FF9D
01400198
FEE9FEF7
FE69013F
FFD3FFC0
FFBF0218
FFBCFE14
FE8400F8
FF75FFC7
00EDFFCE
005FFE2E
0109FF60
00560002
001AFF83
0001FF53
00590006
006CFFA0
01DCFF82
01140148
0069FFBB
011500BC
FF4F0069
00C201A3
00290015
FF3EFF6F
FF7BFEFC
00D3011C
012D001D
FF7A00E5
FFB30013
0012FFB9
FF89004B
0054FF82
FEF201C9
00310052
FF4E0149
00F8FFD7
00E300DE
FF2002AD
FF8701A5
002F00BF
005BFF8A
007C0073
012D00CE
00090016
0055FFF7
0059FEF5
FF92003B
FF2800FE
004B0009
004D002D
009CFFCD
FF97FF91
FF40FF67
FEBDFF34
FF05FE7B
00F9FFFE
003F008A
0096010A
FE15FE61
FF6A0028
FFBEFF47
00E700B8
FFA1FF84
FF3F000F
008EFF51
006DFEF0
01500020
002AFFC1
FFC7FF48
001F0005
0088FE39
FE8D023D
000EFF79
FFF5FEA6
FF7AFEA7
0056012B
FFFBFF58
FFBE00D3
FF62000C
00A8FEB6
FFF70017
FEC8004C
01E0FFE0
004BFFC9
00E200FD
001DFFEB
FFA6FE72
FF44FFD5
001CFFAC
001DFFAA
FEA1FEE3
00BA0110
FFF9FEA8
00C5FEBE
FFBF006A
015FFEC2
FFF6FF09
0072FF45
001AFF91
00C50009
00F0FF90
007CFF6F
0116FF05
FFE0FDF6
0002014C
FEE2FFFF
FFF0FF9F
FF6FFF4D
007BFE9D
FFC10030
0070003D
00EEFF38
00730199
003900B6
0000009D
FFBA013D
001F0179
FE770092
FFC6FEF2
FF770015
FF2E0005
00250066
000C0084
FFF8FF8F
00730019
009600B8
FFCAFFD9
FEC5016A
FFDAFECE
FFBC0092
00D80027
002E00C8
00FAFFFD
00E4FE40
FFD1004D
00670037
003DFF6B
FF1FFF7D
003AFF97
00B60088
003CFF79
FFE100F1
00B1FF7C
FF7C00C3
FF6BFDC1
000A008F
FEBF00BF
FFB60299
0221FF79
FF11FFBF
FF56FF85
0012FED3
FF40FEED
000EFF38
FF7CFFBA
FFD7004A
FFA4FFC8
00EAFFFE
006700AB
FFCCFF28
006B00C2
008AFFE6
FFFC0027
008CFE79
FF91FFC8
FF0E0142
000B0148
FFF6FFCE
0069FF5D
FFD20169
FF0A00D1
FFCE0081
FF6200BC
01BFFE93
FF17009B
FF10000C
FEF900ED
008FFF92
FE7C0155
FF4BFFA7
002FFFFE
00A901AA
FF99FFE9
FF9C00E7
FFA900F2
FECB0047
FEE4FF3D
FE440036
FF8B0084
FF8FFEF8
FF6E002B
FFA7006A
FEC0FFC0
FF4A00AF
FDF7FF9F
FF42FFB4
01AEFFDC
00050095
0030FE81
002FFF85
FFFAFF69
FFEBFFE1
FF1CFF94
FF84FF24
0140FE2B
FFEBFFD5
FFEAFE2C
00E4000A
00A300B0
0074FE61
FFA1FFEC
006C0066
FFBFFFD6
FF6200A5
FFC9FF80
0042FF17
0158FED6
FFA30007
FF94FECC
006C00E1
FFC9FF94
010DFF53
FFCD007C
00BBFE2B
FFD4005F
FF06FE24
0019003C
FE74FF7E
006A0072
FEC6FF2B
00AF001F
FF1500B0
FFE500A0
FFBFFF3A
FE57FEDB
FF67008F
FEE9FF4D
0088004A
FFCEFFF6
015800BB
FFE200F2
FF6A0171
00490111
0097003B
013E002A
0090015A
0061FFC9
FFD100E9
000DFF6F
FE19FF3B
FFEDFFED
008F013F
017700CA
FF79006D
FE6301A5
FEE400FF
013BFFCD
003400DC
FF6A013F
00AFFFAD
FFD1003B
FEB4FF58
FE1300B9
00A600D5
FF93003A
008A0041
FF5BFF6E
FEE70230
021BFF30
FFABFFCB
0012FFF4
FE02FF11
FEDBFE97
00A200BE
FF7AFFEA
FF45FEC0
018A0009
0013FF44
00DEFF74
0163FFAE
FF5C011E
007500DB
FFC6FEFD
00C3FFAB
FFE30029
0071008F
FF2D008C
0019003B
FFCFFFD8
FDDD0077
0122FFEF
FFD6FE9C
FE990188
00E6FEDA
009D0015
01760005
0075FFD8
0075FFEA
FF37001C
FFCA0007
007BFEE8
FFFAFEBE
FF88FF99
0146FF9E
0064FF13
004500B5
007DFF58
FFCCFFDD
000C00A2
0070FFE0
00EDFF85
004F00D7
005D0024
01160083
01A8FFF8
00FC0051
01ABFF93
001F0054
FF95FFD3
FF93001F
FF0FFFBF
FEDC00E9
FEA6FE87
008D008F
FFED00ED
0088FFCE
0039FFA6
FF54010F
FEECFEC8
FFEEFF96
FEFE00D3
FF78FF8E
0012013B
0086FF66
FF65FF45
FEECFEEC
FFBDFEE4
014E003C
FED80138
FF0900E2
00330035
FEC900AC
0116FF35
0131FE33
FFE0FF49
01BD007E
0166FF76
002C0126
FFA20056
00C8FE43
FEF500E7
00610037
00210000
002DFFE5
00FAFF9D
0200007D
FFE8FF27
008A00BB
FF29FFE9
FF21FFE8
0098019B
017B007F
FE0200E7
005600E3
001900CA
0041FFE9
012C0005
FE990066
0152019E
FF3A027C
FFC4008C
FFE90073
FFFC00F3
0028FFF1
FF25FE33
007400E1
01090051
01140049
FF3DFFF3
001BFFB8
00B00063
0042FFF9
FF1AFF69
FEC500AB
0012FF0F
FFFAFFAB
009F0038
00820037
000E0101
0040FFC4
00A9FFC7
00F8007F
00520039
0048FFBE
FF74002C
011C0056
009F00CA
00F2FE9B
00FDFFE5
FF9EFFE5
00DC0024
005000AA
FF9100DB
01680060
0014FFB7
000E00FD
FFA800C1
FF4CFFDE
0121FF61
FF81FE51
002300C6
FF45FFF2
010AFF6A
010A0021
FEC0FF98
FFA3FF96
FF71FECF
00E40083
00C10098
FF00000C
00FD00CE
01C30035
001C0141
FE6FFF82
005900F2
008A0104
FF260168
0050008E
000B00F6
FF6BFFE1
00D90029
FE820150
00750058
FF6DFFC9
0028010B
001CFEAF
009E0005
FFD5007C
FFD50142
FFBEFF60
FED8FEB6
FF5DFFA6
0008FFA8
FF9BFF5B
FFB1FFD4
00BDFFD8
FF8FFF4A
FF47FEEB
00F5FFC8
FFAAFE7C
00760086
002D0034
FF32FED0
FF700001
FF7AFEE3
0034FFFD
002E0229
00FF001E
00030024
003DFFC3
00A90064
FEADFF1F
0050FF40
002E00B9
FF8BFF3D
011CFFEE
FEB9FE60
FFEDFFA6
FF3D0046
FF81FFE7
00640046
FFECFED2
0016011A
00D00112
00D4009C
FEE90035
FEC20073
004EFF70
FEB5FEC7
FFC3FE53
FEF5FFE6
00ABFEC2
0031FEF2
FE97004D
0074003C
007B001A
00660179
FF83002F
FF6100F7
0006FF3D
FFF9FFD0
FFEDFF34
00A6FFAE
003FFF84
00C701D0
FF38FF7F
FFA1FFB9
FED5FEBF
FEF20129
009AFFA6
009D00B6
0095FF6C
00210066
FF13FFEA
FF6BFFCB
00860155
FEC3FF99
0017FF47
FED50166
00ED002C
FFE3FF69
00600016
FF280051
FFD2FFD2
0087FEFE
000C0184
002F018E
FF52FF4F
000FFF5A
FFF9003E
00CEFF25
FFE400BD
FF67FE86
01A40154
FF880044
FF6FFFC6
FF720090
0082FFE9
FEF8FF64
FFD20073
FF2F001C
FF06FFF1
FFA900EB
FFE2FF0C
FFD20076
006FFF8D
FFBF0087
00BE00B3
0039FE51
FF580029
0034FF65
00460007
0063FF3C
00420196
FF7000CC
00A2FF0A
FFFCFFF4
00D1FFBA
0168FFF3
00090068
FFF100E6
FFA5FFB3
FFD10028
FE5BFF5A
0149FFE4
007F00C7
003DFF2A
0000FF7A
0066FF9B
FF6E01A3
FFB2FFDF
FF530115
FEFB00A7
0048FFDF
FFFAFF1E
010DFFFF
009C0123
FFE20088
0070FF1C
00CC0016
FEE0FF92
00E60048
FF19004A
FFAD006B
FEBE00AF
FF9CFFF8
FF1700FD
FF7AFFE7
FF8BFFB8
FF5BFEFE
FF980137
FFAD015F
FFDBFFE8
FF39002E
FF810032
FF590076
FFBB0018
00B2FF42
001800FC
000BFFB3
FF6B0145
005601CE
FFF50092
001D00D1
FF410107
00660126
00C9FEEB
FF0A010F
FE980000
FF960178
FFB7FF76
0009FF19
FE320136
FF5B0133
0125FFEE
FFF5FF91
00230092
00060028
FF9AFD74
FFFA003F
013FFFA9
00D0FF04
000FFF3F
00FD0017
014CFF3D
0096FEF2
FFE7FE1A
FF30FF97
FFAA008D
FFA40075
005C0163
0064FFB2
010CFF07
FFB500A6
005900FF
FF21FF31
FEF800BC
FEBB0064
00090009
00E000F0
00010136
001D0162
0123FFBB
010A0037
0194FE28
002FFF00
00ADFF68
FF9F00CE
00CBFFAB
022B0108
009CFF39
FF810013
0081FF1F
FFA4FFBC
0034FEA8
FF62FFDE
00240010
FEF6FF99
004CFE4B
01310083
0011FF54
FF99FFB7
0011001A
FFF10036
0041FF3B
0000FF7F
FE54026A
FF10FFB4
00A7FF8C
003E00B5
FF290097
FFE0FEFC
FFB2FFE0
FF66FEF9
00ECFE61
00EB0192
005400F0
FF500031
00E9FEEB
FF2DFFCF
FFFC013C
FE77011F
FE0A00E0
0088FF1F
FF8500C8
FFD3007E
003FFF42
FF930137
0005FEA6
0091000A
FF6300F7
00BDFF7D
FFA4FEE9
FE64002A
FF640002
00BB002C
FFC20049
002B006C
FF2FFFA3
000AFFEB
007001E9
0047FE90
FE72007A
0023002E
00D9FFA3
004AFFA9
FEB30026
FF3AFF2E
000EFE0B
019A00F3
0023FFAF
FF12FF26
FF8BFFA6
FE7FFFCF
FE52FFB4
0061FEC2
FFE0FECB
FEDFFFC5
00B80109
009CFFC6
007C0099
FF3A017C
0167FFAD
00AF00DE
00470099
FF4B0072
FEE8FF81
00E7FF32
0049000A
FF4E005F
FF48FEAC
FF7BFFA5
FF0700E6
007500BD
FFB9FEED
007600B1
FF38FFDF
00CA010B
0160FF81
FFFC0031
FF84FF1D
FE30016D
0040FF6A
FFAC0060
0021006B
FEF40021
FF01FFFE
FF86FF96
00490166
FFE60031
FFAAFFA0
007D013E
FF240025
FF0BFE35
00F500CD
00920082
000300B4
0013006D
FF76002F
FF56FF9B
0002FFA4
008AFFE4
FFA1018D
FF88FFEE
FF1200A7
FEFCFF1D
015AFFD9
FEC0FFEF
0029FF5D
0011FFE8
00D2FF5F
0069FE86
0174FF99
FF3D007F
FFCCFFFC
FFA4FFCC
0175000F
FEF60046
FF77FE7E
FF94FFB7
FFEDFFAE
0051FECC
00B700F3
0127003E
FF940061
FFAD00F8
01C6FFF2
011EFF0B
002B00A0
FF4A00B3
FF21FFF5
01C0010A
0062FEDF
0074FE32
001400E5
001001D4
00C0FFC3
FFE2004C
00F7FF4B
00ABFE34
003200D7
FF790109
FFF2FF70
FEC5FE81
FF3D0131
FF590136
FF490198
FFE4010E
000D006E
00EF00D7
01ADFF5C
007D006A
0078003B
FF4FFF96
0021FF61
012BFFD0
00EC006C
0039FFD4
FF930069
00A8001E
FF050062
FF2C0134
01000287
003E01DE
015100BC
FF4AFFB7
FE960123
00C30219
FEE00034
FFF80172
FF800106
00C900B4
00210043
00280011
009D002C
FF660024
FF69FFBD
FE74FFB9
FF9600F7
001C003F
FF6600C4
FF6D0010
00D6FF8E
FF4EFFC8
FF4BFF45
00D5FFFB
FFA50088
005F006E
0043FF45
004FFF36
0110FE9B
010100C0
FF0F002A
FF9C013F
FE2C0000
FF7EFFE7
01C7FF68
FE6C0007
0136FFF0
001500E2
0104FF20
004D007D
007600A1
014DFFFF
FF5FFF6B
00190023
009EFEF3
00D4006F
01250113
00B000EF
FE9DFF6E
0047FFD5
FFDFFFD5
01600136
000DFE6B
004300E4
0045FDFA
FFD6FE92
FFDD004F
00C30000
005AFF06
000AFFF9
FFC30001
FEDD002A
00FA00C1
FEEA0059
FF3FFFFB
FF12012A
01910059
0018007A
FF730022
00C5009A
FFFA0121
FF020094
FFFF00A1
0079005C
FFEFFFD6
FF8E00ED
000DFF7E
001EFFCA
FF64FF65
01A0FF87
FFDD0131
FF7BFE68
009D005E
FFBDFFF1
009CFF42
FFD200D9
FF81FED0
FF4700FC
FFD40007
0048FFE6
FF2D0010
FF910052
FF6CFF31
FEB5000E
0125FF7B
00800114
006900ED
FF9AFF8B
002E0190
FF81FED6
FFFC006F
FF640068
005AFF72
009BFF8B
000AFFDF
00CFFEAF
FF7EFFD2
0086FFEE
0034FFE5
004100E9
FF3DFFFF
00460074
0099011C
011A001F
FFFB003F
FFF70001
00AD010D
0047FF68
FFF3FE39
00EDFFE1
FF76FEC6
0077002B
FE14FF1B
00290064
FF24FFDE
FF2B012E
FF55001F
00B5001D
FF27FFD4
01C30091
FFAF00F4
004F00AE
FEE5FE7C
0001005E
007FFFE8
0065FFF6
FF9F0042
00110110
00F101E8
FFD600F9
0024FEA9
FF53001B
FF7B00CA
0136001A
00C7FDF3
FF73FEF3
006A005B
014CFFA8
FFBBFF2A
FFDE006B
0114FF5D
FE8EFF8F
004CFF6E
FFA6FF9B
FF6E0132
FE440073
FF8B0010
001100D0
00A80040
0005009B
FFBD00D0
FF33FF9B
00A2FFC4
FF4B0179
FFA1FE78
FFFAFE18
018100DB
FEE1FF44
FFADFF27
0049005F
FFBFFFA9
FEDA0086
002BFF4D
00B7FEF8
001B0155
00F000A7
0083FF72
FFC3FFCF
FF3EFF94
FFF00075
FF930006
01E5FDBE
008CFF53
00A8FE33
00450011
FE4300AE
FFED0044
FFD100AC
FFB3FFD7
FFBC0101
FF1CFEF1
00EB0049
FF2F00CF
FFAE019A
FF93FF8E
0091FF82
001F0025
0055FF35
FF3DFF9C
005E011C
00C1FFB2
00BC00B5
FF7E0053
0005FFBF
FFAAFF02
0011FEEE
007100C5
00D70016
FF270022
FFE9FF5E
0088FECC
FED90276
009900DE
FFD9FEF5
01540033
FFECFF4B
FF6FFF85
FE7BFF64
004A009C
00B300AE
00B8016B
0083FE54
0071FF36
002700D7
FEF3009F
FFA5FF75
FFB800F2
00B60090
00CA002C
FF9FFE86
FF8F000A
0125FF82
FF2DFEB1
FFD20125
FFCF014B
0091FFF1
0136007A
0044FDE7
FFEB0139
0097006D
FF0FFE25
FEB100D3
004BFF7F
FFF8004A
000700A9
FEE0FEB6
FFA7FFD5
009D0014
FFF3FF6B
005FFF4B
FE00FFB3
003D0057
FFACFFDC
000F0040
003E0047
0164FF6A
FF7000F5
0182FF8C
FF2C0067
00BF0114
FF9FFF72
FF81FE68
FEAEFFF0
00CAFFEF
FF61008F
00F1FEF5
00540016
00FB014B
FF23FE74
00770161
FF6E000F
00D1FF6A
FF82FE7B
FF5AFFCC
FEDCFE78
FECF0011
00BFFF60
0136FF6F
008EFFD0
FE78004A
00D00075
0165FFC9
003A0014
FF78FEE6
00380021
0030FF81
01690022
FECEFF43
FFB7FF95
FEE80124
01160123
000C0032
00980024
FF620129
00A1FF59
00C7FF9A
FFB5FEE8
FF780000
FFFDFFF3
0021FEB1
0130FF8C
0017000E
FF8D0096
001FFEB9
016B0166
FFFF002B
0148FFAB
FFF100F5
FFA3FF48
00580113
FF6101AF
0029FFEF
FFAA0070
FEB1FEDE
FF99003B
011A006C
00550053
0098004C
0091FF60
0175FEFE
012F0032
FF32FFEC
FFB7FF01
FFB1FF73
FFC4009C
0191FF41
0067FF16
FF16FF1E
FF9100A5
FF5F00A2
FF31FF34
FF790021
FF75FEA1
FFBBFFF0
0096003E
FECEFEC8
FF13FFD0
FF70FF80
FFFA01B1
FF34FE5B
000EFF91
FF780020
00F5006B
00CC0125
00840041
FF1F00E5
FF6E00C5
009AFF88
FF1300D6
FE95FEB0
FF8101A0
FE26FF46
FFE1002C
FF070025
002CFEEA
00620045
00A50060
FF52009F
FF5AFF22
00C7FF7B
009E0052
FF790017
0056005F
011801C5
FFC6FEB3
0047FFE4
0052FFD1
FFBAFFE5
0112FF54
FF33FFF1
FE8FFFDF
00FDFE77
00BB00A5
FFF2FF13
FF5B0124
FF03018D
FE9600E6
FE59005C
FEFA0091
FE9F00A7
FF30FFA1
00570046
FFA6FE6D
FF81FF40
00D8008D
FF96FF51
001B01AA
0060FF42
FFD3FEAE
FF3A0208
01910079
0018FF6B
007AFEC2
0182FF72
FF17FF06
FF64FFB8
FF0BFF57
00E1FF14
01BA00C6
FF9D001D
00F6FF84
01770138
FF37FEC9
FF47FEFE
FF590022
0074FFB7
014B010E
0057008F
FFED01B6
FF630035
0097FF57
FF3B0087
005000A6
01B3FF71
FF5C0078
006D010D
FF6700D7
FF73FFBA
009FFF29
FFA90036
00E10071
FFAD003C
008501ED
01120103
00D2FF2E
FFBD008D
FEB900F1
00B201A3
0011005C
005EFFDC
00D50102
005EFF49
00DB006F
FFB6FDE2
0169015A
005D000C
FF65FEF8
00E1FF7C
01F4001D
FFE4FFFC
0145FFE2
FE3F0035
FFDE01E9
0042FF76
00B0007A
FF6400BE
0026FEAC
FF95FEEF
FF3901CA
FF56FF82
01BC01E5
0059FFB9
00220031
0025FFFE
FE8A002E
FD680156
FEBB0092
0011FED7
FFCF0058
01A400E5
00CFFFD3
FFEDFF97
0133007B
FF1AFF09
FF4DFFE2
00E0FFDA
FFB300C1
0018FFFF
009D0053
FECB0049
FFD1FF4B
FFC700C9
0032003D
FEDE0156
00D6FE7F
01D8FFF3
FF44FFFB
0047FF48
005A0047
FF960100
FFE1FFD3
0026FFFE
FF780065
006B0075
00A3FFAD
0058FE27
FFBAFEE6
008F004B
00C5003F
FFA30052
0036FFAD
0064FF8E
FF53FEE5
002C0067
006A0055
002C00C3
FF9DFF2E
FFFBFF22
00E700CB
0103013F
FF83FF75
FF8D0026
FEDA0128
00FCFEE8
FEEBFFE3
0016FEE4
001FFFC9
00D7FE65
00100012
FF650009
FF2F005E
0101FF83
009FFFF5
FF750187
0026026E
FEF800AD
00A1FFEE
FFC7FF02
018F00F3
FEA1FF53
FF9E0064
FFB8015A
FFF6FFF3
FF900067
FE820079
00800097
01F8FFF4
FFB2006F
005AFF18
0136FFD2
FE8A012F
FF9EFFFE
00C7009A
FFD800BD
0066FE59
0097FF09
00F1FEDC
013CFEC3
FFAC00AC
0067FF88
00640072
FE6F0090
FF0D00D8
FF10FF8E
FE2300BB
005FFFBB
FFB50061
FF6DFED5
FFC501EA
00EDFF7E
FF59017B
005B00CF
FEA40124
FFC9FF2E
00540004
0181FF45
0060FF59
0140FFB0
FFB40162
00C5FF9C
001CFFD4
FF590003
00870103
00720089
FE21FF9C
FFA3FF74
00D7FFC5
FFB1FFBC
007CFFC5
FFBD004B
0098FFA1
FF8E0122
005D0008
FFAA0157
FF63007F
000EFF97
FFCC0093
FFC300A6
FFBCFFE9
0112FF72
FE0AFFC8
0144FFF3
0051FFAD
FFEE006B
FF2CFF06
00C40093
01240076
FF3D0219
FFC70060
00E100CB
0052FF55
FFCCFF97
FFC3002F
FF45010F
00BDFF82
FFF7FEE5
FFFEFF9C
FFC0008C
FEF400E4
FFBBFF9E
00DA00B0
FEDDFEB9
007EFFBE
FFB300BC
FFDC0017
012DFEF9
FE6F0108
FFCB013B
004800F2
FEA6FFEC
FFDEFFF5
0048FFB7
FFA50141
FF56FFB0
FFF5FF44
FFDCFF96
0032FF6E
FF36FFD8
FFD30021
FF97FE4F
FFFD0006
FE95FFD8
FF82FF3F
FE58FE49
FF9BFFE0
FFEBFFF1
0069FD77
FF9200EC
FEA60032
FF72FF66
FF99FF64
FF60FF98
01CA0129
0191002A
00A8005A
FFF30146
00170027
FFE60024
FF7CFFC0
FF96002C
FF74FFB4
FFF0005B
0037FF8D
0057FF88
005500FA
FEE100FF
FF94FF8A
005BFFB4
FFCFFE57
FF5A00D2
FF7D01B2
FF58008F
001700B9
011200B4
00DB0003
00E700A5
FFCF0068
009F0079
00550041
008B0052
FFC5FF93
FF62FFCC
013E00FD
008700FD
FE68FF5F
005CFEF4
008F00FB
FEFBFF80
FFBEFF2C
FE620051
0064FE5C
FFC4FFA7
00A4FF9F
FF15FF3C
00E8FEBD
FFA50051
FE77FFC0
00980257
00650073
FF83FFA7
FFE9002A
FEE2FFDA
FFD50020
FFEEFF9B
FE77006D
FF97FFA8
FF92000A
01BFFFC1
FF23015A
FFC10175
00A90061
00B100C8
01000012
0032FF8D
FE71FF84
00F8FFC2
FFB900E0
00C5FF4A
003B0023
FF980043
005F0008
00FEFE5B
FF6BFF4C
00A4FF75
FFDB0131
FFCFFFAF
FEE0001B
FFA5FF56
FFEA0084
FF7F0064
FF2E0067
004B007B
004AFF6E
FDF400FA
FFD8FFA7
FDB9FF99
000F005D
0142FFDA
FEE40087
00E6FFD8
00870005
00ADFFED
000701A6
FF27FEA9
FF4EFF30
007CFFF3
009EFE49
003AFEE6
FEE0FF29
FFB00126
FF65FF5D
FFE700A4
0003FEBE
FF6AFFE7
00320172
01B2FFBE
0095FFDB
019AFFB7
00B2FEFC
0042FED7
FF2A0048
00F8FFD5
FFA10152
0036000D
007C00B7
FFCEFF6E
FF78FEBE
FFF301A3
0057008B
FF83FFB9
0107FFF0
0024FFFE
FF53001B
0103FEF1
00C5FFF5
0142FF54
FFD1018F
FF8CFF22
FEDFFEF4
000BFEF9
FF18FF52
FF7D0082
FFAF0163
0047007A
00F6FEB3
FF7B001D
00000038
FFC6FF9C
0072FF0C
FF75FE6E
005600D9
FE8C0010
00700078
0093FFD9
00FC0068
01500110
0097FFF9
FE74FE71
FEB200A7
006CFFC5
FFE8003E
007CFE6B
0072FF3A
FFF2FFEF
00ADFEC1
FFCE00EF
0096FF38
FF11FFED
FFE8FFD3
FEECFFC7
005BFFFD
FEC600CA
FF9600D9
FF8EFF05
0004FFC6
014EFEA4
002BFEE0
00EAFE9E
00820102
00C80030
00300049
009CFF9E
00FEFF22
0118019A
007AFFE8
FF4A00CE
FEBDFFF9
01FA00A6
0013FFDA
FF86FF77
0009FFE1
00CE0015
00580032
00780010
003CFF67
FF8C0090
FEB1FF3B
003AFFBC
FF46FF02
000A007F
00D000BE
FF060083
005600CC
0084001C
FFCEFFBB
FF9000A5
0185FED9
0045FFCA
FFDA00C6
0014FFC8
FFD60056
FFBDFFD4
0078FF68
FF0BFFBC
FED400FD
FE0D007F
FF260001
FFD700E6
005B004E
FFA7FFB8
FFA70092
FF4A023F
008B0102
FF1EFFC3
FFF0FE35
FEBBFFD5
0137FFFC
FED0FFDF
FEE5015A
FECE0018
01BCFF35
00830115
01830057
0133FF87
FFEE000C
FEEDFF6C
FF67002C
008F0018
0191007E
00C9FFEE
FF7A0144
016EFE44
FF750067
0118002C
FFA5009F
FFA600D8
FE93FF20
0098FF00
FFA1014C
0099008D
FF16FF9D
0068FFCB
00930053
000FFF3C
00E7FF6D
006FFF2C
FFED0093
FE75FE80
FF7A00F5
00EA0234
00F8FF9A
FFA80062
000B0063
FF210006
00FEFF51
0028FFB5
006B01AB
FF570045
0039013F
FFC7FFD9
FF410052
FFB900DA
FF81FF74
FF21012E
016E001C
00BEFFB0
FF16009A
005DFFE2
FFD2FFC9
01840000
FF99FF40
FF65001A
FF74FF4C
0078FFCD
FF83FEEF
FF62FF03
0093FFB8
FF19FFDD
FF0000C9
FF8B009A
001F0084
FF7BFF63
FFB4008E
FF470008
00BEFFCC
00F2002E
FF310057
003DFFAD
FDAFFF9A
FFD0FF32
FE02FEAD
FFA2FF49
FF8000C1
FEBA0066
00A4FEC9
FEF8FFA0
FF950094
008DFF55
FFD1FEAF
005EFF06
FEEFFE86
FFF0FF65
FF3C010C
00920093
FF1500CA
00ADFF47
FFE0FEC0
FF87008B
FFD90189
00BCFEDC
00720043
0065FE27
010C0045
002CFF46
00DB0016
FFE80014
006E0020
FF2DFE58
FEB7FF44
005A002D
00A2FF9A
009C0146
00B2FF2A
FF8E0032
0052FF51
FF27FEEB
FF1F00E4
011C000D
FF770077
FEADFF9D
FF53FF7B
FED40032
00060124
0076FF0E
FF1FFF83
0077FFE5
0208FEC1
0018FF7A
011CFF81
FF8E0037
00ABFF76
00B200A4
FFE9FF48
0174FEDD
FF350058
0080003B
FF83FF19
FE89FF4C
FE9EFF5E
FF7BFF20
FFAFFF89
013900A9
FF780087
FE9000D5
FF57FEFD
FFC9FFE0
009DFE72
FF94FE7E
004301B4
007DFF90
FF4DFFB2
006BFFE3
FEF2FF7F
0035FFBF
000EFFFE
FF8700BC
00E1FED9
013200E0
004E00FA
0110FEF8
002100E2
000200B1
FFDCFF5A
FF5A0052
FF74FF05
00BDFFC7
0090FDB3
0202002E
008601C5
0117FFD5
FE5B01E1
0041FF9E
FFAEFDC1
FF3C0124
FF7CFE56
003D016A
0103FF03
FEE6FF7B
0091FF60
FF4D009D
FFC100AB
0087FE68
00DC00B4
00BF0159
FFDAFFBC
FF36FEE9
FFF9FEC4
004EFF9F
0122FF63
00C5FF87
007AFF33
00270091
006FFFBA
FFA5010F
FE16FF78
FF11FFBC
FF7D0029
009E0017
FF49FF57
FF9500C6
0051FF85
008BFFD3
FF92FF40
01500062
0007FF53
014D009C
005CFFED
0098003F
00F3FF8E
00030059
FF2EFFE5
0002FF86
00D80027
018F0021
0067FF9B
FE8A0122
FE3AFF49
00BA0072
0045FF75
000F00DB
FFBCFE96
FEA9FF81
FFD3FF01
008C00E7
FF99004E
01020007
00B900CC
0033FE52
00E1FFCB
FFACFFB6
009C00FA
FEA900C8
00FDFF7E
FFD0FF55
FE63FF71
FF94FF72
FFB9006E
FFA7FF9D
001E010E
00660002
FFD4FFC3
FDB2FF04
FDAF0041
026DFF81
FFBA003A
FFFDFFC7
00D40046
FF6700F2
FFC30108
FFC7FFF5
FF3CFF0D
001200B8
FE2DFECA
0079FFD2
FFB1008A
FFE6FEA5
0094003D
011BFF85
FFE60005
0040FF46
007C00DD
00AEFFCF
01700036
0190004E
FF78FF0F
FF98007D
0005FFFA
FF4EFE7F
01770055
0015FFE1
FE460066
FF2701A6
FE0F007D
012BFF59
0174FFAC
FF8E004B
00490103
00F0FF1B
FEEB001F
00C2FF7C
FFD00108
00420055
00C6FF9C
FF21009B
0028005D
00AE00EF
FFDC000E
FFD400FB
FF3CFF94
00510099
0036FF14
FF4001A5
01EC001F
FEFA00B5
FF970051
0013FEF6
008E001D
FEC9FF8E
FFD7007A
FFCCFE3E
FF66001C
009B0095
FF2300D2
FF000159
009AFEAC
00F7007C
00B200B6
005601AD
008600BE
FF87FF85
FF63FE74
FF50FFEF
FF4300C6
005A001C
00A001CF
FE3000AE
FFC9012D
FF42FF7E
FF8E000A
FFCB0026
FE400060
000AFF5A
0081FF9E
FFF7FEDB
FF9C0029
FFF3FECC
0099FF70
FF6BFF8F
0054FFEF
FF3AFED7
007DFFD1
FF4700C5
FF46003A
01490002
0069FFDA
FFFA0013
FF7BFE8F
00580014
FFF50021
FEB2FF65
00FA0041
0076007B
FE7400D5
FF9D00D4
00E2FFF0
FFBB013C
FF3FFF85
00F8FF9B
FF24FFD7
00160064
FFF9FF71
000AFF6E
FEDD0047
FE830148
FFA1012E
0030FF3E
0005FF73
0067000D
000AFFDD
FF2BFEB3
00900028
FE4BFF34
FE5DFF35
002400D0
00F9FF7D
FE63FFEE
0081FF3C
FFA6FFD7
FEDCFFB6
FF93010C
FFD5013B
00E4004B
FF61FEFF
0025FD9F
FF64FED6
FF8E0029
00E1011E
004EFF44
FF9E0149
0033FEDB
019CFFDD
00D1FF05
007AFF5C
00BD00D9
FF89006E
00BBFE7F
005AFEFC
004BFFEA
FF52015A
FED50026
003B000D
FF81FFC0
FF73FF85
FFE90195
006E005C
003AFF63
FF8F001A
00830095
0118FF74
00060047
019E0127
00BC0049
FF410025
FF62FFF5
FE60FEC5
FFBDFF84
FF6B00BF
FE95FF79
FFC5FFB5
00B6FF80
00F4018A
003AFE82
0004FF56
FF07FE9C
003C004D
FEF1FF29
0090FFFB
FF79FFFC
FFB5FF6F
FE610005
FFD4FF6E
FF87FFC9
FFAC0180
FF2D0087
FFC80059
FE6FFF35
005DFF2C
FF9FFFAB
0008FF2C
FF6300D1
0104005B
000D00CC
0094FF57
00A0FFD5
00E00110
001DFFEC
006D000E
FFB5003D
FF4D00EC
FF53002B
00ABFF78
0013FE8D
003CFFEA
01830042
01200019
FE2BFFD8
FF2CFF67
FFC40050
014A015E
014BFF0D
00A6FFAB
FF0C00C5
FF70001C
00280052
0059008D
016D007D
00BCFFDE
00BD00F0
0156FFA1
FDC2FF74
FE9CFFB6
00E4FF9A
FFA60229
FFA2003D
0013013F
00AE0023
FFA30100
00B3FF08
017AFF10
FF56FFED
FF52FF85
FFBD005C
FF39003C
FEE4FFD6
FF2D007A
FEABFFAF
0152FE64
01870042
FF310013
FF78FEAC
003C00AB
FF770032
FE800005
FF8E002B
FF26FF1F
006800FC
FF3E0000
FFDC0060
FFDD014A
FF7AFF1D
FF99FF81
005C0061
0002FED6
01980002
00A90101
FEC3FED5
FF3F000D
00B100D2
00A5FEFD
FF8FFFFA
FF35006A
FFB1FEED
FFFCFF0D
FF80FEAC
FFCAFEE8
005B0042
00C8FED9
FFDE0152
FFD6FFE9
0100FF81
FFC1FFD6
FF65FDDE
FEF10028
FFAE00FD
0121006E
00C4008F
FF34FFE1
FFA4FE9D
01B300DD
00C0FEC6
FF37FFC0
FF180078
0007009C
00E500D2
009D0043
FF5700DE
FFF3FFD7
FEF20055
FE7FFFEE
003D0120
FEFBFFC4
FFE0FFBB
0053FFD4
FFA50093
0003004A
00B7FFAC
002FFFD6
005B00BB
00330020
FF9E006B
009200F2
00A4FFB6
FFE9FE4B
0086FF04
FFDC014F
000A0042
00BCFF6A
FE97010B
FFCD0071
FFE6FECB
00E600A6
008A0068
FEDCFFE8
0094FFD7
FFF700EA
0010FFB8
0112FFEB
0093004F
00E40027
026A007B
00D40045
0048FFC7
004F015F
01A4FF0B
0136FFD9
0069FF31
00EF0017
0089FF21
FFF2FFA2
00AB002F
0073014A
FF340098
FFFDFFC4
0039FEA1
0119FFC8
0183FFA8
FF8EFF4D
FE49FFD0
FFEFFF39
0081000F
FFDAFFC6
0077FFA2
003E00F8
FFDF0037
000300DD
FEE40077
FEE000D9
FF40FEFB
FFEEFFB8
FF31FF93
005F0001
0124FE65
004601BC
0156007E
00370006
FF58004A
00470095
FED900EF
0008FEE5
00DAFFCE
00D10044
FF3A0090
FF53FFC2
000CFEEA
FEE0FEEB
01060094
FEE300A1
0097FEF6
FF30FFEB
000C0021
00D60009
0018FEF3
FF7EFF69
FF59FFEC
00DB00D3
FFEC019C
FEE9FFCF
FEDCFF90
FF4E00DE
009B00E7
FF87FE66
FEB6FFBC
FEDB004E
00640105
FF3A0093
FFEAFF7F
009201AB
FF4B0199
01040135
FF51FF40
FFE1FF29
FF7D002B
FF7E00F9
00530039
01F000A8
004501E9
FFE6FFD2
FFB4FF1B
00220077
00A8005B
FE8900FC
002DFF98
FFE5FF2D
008A005A
00A6FF02
0051FF4A
FFA40014
0061FF31
FF670100
FEFF007E
FF2A009B
FFC50109
FFDAFEE8
FE860098
00F201B5
FF160065
FF2401AA
003E0111
FFF1FFCB
0048FF04
FFA6FF5B
FFF00044
0028FF70
FF680009
018E009E
FF35FF2A
FF21005A
FF6300E1
008401FC
FF8D0063
FF62FFB1
00660118
FF84FFF3
00D700EE
00C20041
013C0013
FFDD0045
013D0061
00A4FD81
FF32FFCD
FF350030
FE5EFE3C
FFDAFF61
003B00C2
FF13FFC3
FF810099
0146FE07
012DFFDE
FFF20139
0007FFA7
FFE70005
00840090
0110FFA6
0061FFA4
00BD00FD
FF60000E
FEFEFFCD
0056FFEA
FEF10179
FFD801C9
0022006D
FF48FEBE
0004FE73
FFAE00B6
FFF0FF18
FFE80142
0083FFDF
00A10027
003FFEAA
006D0032
FF720048
00F6005D
0175FFBC
FF78FF15
FF7CFF9F
00250112
002A00C2
FFC8FFFF
FEF7FEB1
FE61FF09
FF1300E6
FFDDFF82
FF810149
FF91FFC3
00370058
00100163
FE8700A0
FFFF0171
0037005E
FFB40054
FECE00FF
01DDFF0F
0097FF9D
0033FF32
FECB01A4
001DFFB2
FF08002E
007001D8
FEBD000C
006A011D
FF810092
FF68FF7A
FF1FFF36
01E0009D
FFC800A0
007600FB
00090092
0018FE69
FFC600A3
00AAFFC6
FF4100E7
00850069
004FFF5B
FF5DFEA4
0028FFFB
FF84FE88
008D0107
FE46012A
FFCA0078
FED100B2
00690016
0036FF27
FF6300F6
FF16FFB2
001BFF6F
FFD1FFBB
0183005A
000CFEF2
FF80FF56
FED7FFF3
FFCCFFF0
FFEDFFFC
018CFFAB
FFE8FF43
0027FFE6
FFF5003D
FFB60094
0193FF93
003DFF9E
FF3FFFB8
FF5700BC
01E1FF1A
FF64FF95
001C0098
FEF400E5
015C0061
00C3FEFE
001901F2
0006FE8C
FFBD000E
0033FF32
004800A2
00590115
004DFFB9
0043FF4A
00540139
FF220016
000CFE5F
008EFEED
004E0124
FEFBFFD9
FEB7FEBF
000D00F5
0095FFBC
FFDA0058
00EA00B5
FE75FFDB
0297FFE9
FFFE0043
FEFDFFE1
013400E2
00E600F3
016DFF19
00FE006A
01000032
0072FDFF
004C0071
00A0FF96
003400D0
FECDFF8D
FE84FF98
FF5000C6
FF7DFF8C
0021FFAF
00610003
0046FF6F
FF500054
009000CD
00BCFE87
00680048
0038FFD1
00C40093
0037FFC4
FFFEFFA8
FF2A0057
FFE000D8
FEF9FF30
0187FFBD
025C006E
005D0116
0056FF68
006101B2
FFAE00A2
01C700C6
00500032
FF59FF1A
FF3D0093
FFD200A9
FF9BFEF3
FE6B008E
013AFF57
FE60FF0B
00450098
002B01A8
FFB60015
FF19FF65
018CFFEC
007E004E
FFC1FEEA
00BA0030
FF44FF52
008B0081
00BB004B
0076FEDA
FF71FE2C
FF35FEEC
FF36FF70
000A0057
FF44FFB4
0052005C
013500D8
004B0195
00A5009B
FFE0FF1C
FF7C00C6
01B2FF85
00790032
008400EC
FF9FFFD3
00B60091
001200EB
FF8EFFA2
0045FFD9
004E0048
FF47FEFD
FED5FF71
FF27000E
0081FEDB
FF63FF4F
FF59FF5D
FF76FFDD
0079FF79
FFE1FED2
FF95FF70
FFDF010E
FF280018
014D0050
FFB0FF0C
0088FF63
00C70125
FF040097
FED4FFB4
005DFFB1
000BFF49
FFCF0054
00B8FF99
00410172
FFE5FFF7
FF65FF57
0049FF5A
0028FEF8
01990127
FF88FF77
00280026
FF3D009B
FF7CFF8C
00E6FF1A
0047FEF9
FF28FF82
FE6A0022
01D30043
FF150062
FEF2004C
FF6D004B
FF53FF4C
0135FFC3
004900BA
017BFF2D
0014FF8B
FF2700D0
017A016C
FFC7003B
FFC20039
FF47FDE6
FEDFFDD2
FFEFFE0B
FE950105
FFD001E3
FF1D00CE
00720049
0092FF84
0083FFCC
FFFEFFA2
FEA10032
00CDFEC5
FF46FF7D
0084FF2C
009AFFCE
0167FEB3
FFE0FFB9
FFE60057
FFD8FFDC
0021FF7D
000AFFA8
FEF00042
00A9FF8E
00BEFF36
FF460067
FF230091
FF46013B
FE94FF4C
00CD0097
FF670059
00EAFFF6
005BFFB0
009BFFB2
FE560039
FE5501F5
FF9C00A6
FF94006F
001C0013
00940011
01770058
0071FFF3
FFEFFFAC
009C0056
FF3D00AD
0153FDAC
FEF7FFD0
FF50000E
FF1F0066
0059FF0B
FFCF01F0
00FF0053
007E000C
0150FE9C
FEFC0110
FF19FE5F
0019FFCD
FF8C002D
0028FFB5
FF4FFFD9
00FDFF12
00B4FEF9
003C0023
0044FF3B
001C007F
FFC2FECC
0067FFA3
00A10135
001300B0
FF66FFA6
0068001B
FFC5FFDB
FFD7FFF9
00620085
0053002C
005300B3
009F004A
00580095
0080FF31
00C2FF07
0010012F
FF7E0069
00C60092
FFDDFFF9
00D4FF5D
00690063
004400A5
FFFD013B
FF860037
008CFF8F
FEAA0073
00B3FF8F
00F9FE5D
00E9FFAA
FFADFF02
0059FFB6
FF4D01AD
FE55003A
FE960084
FEE80070
0064FF30
FFBB009C
FF41007D
FFCB002B
FF85FEE3
FF8AFF88
FFA4FF54
FF0BFF81
FF1AFF6E
0106FF36
FF2FFEF4
FF41FFA6
0126002D
FF0CFFE4
0001FFC2
FF4D0021
FFBB013E
FF81FF5D
005AFF9B
FF9A015A
011701EA
FF7E001D
FFBBFFD3
FFF0FFCC
00480028
FFA100B9
00C10005
0038FFE2
00590014
0095000A
002F0081
FEC200D0
FFB2FF58
FF9EFF7B
FF4BFF8F
FFD4FFB9
00610043
FE95009E
FDE3FEF6
015A00A8
00DBFFF6
FFDC008F
0049013D
FF4A0026
000A00F9
002F0013
008B006A
0051000F
FF6A0007
FF4F00B4
012BFE1E
FF0502A6
00040145
013BFF9C
00CDFF25
FFD60073
FF4301A5
00C8FF86
000CFF0C
FF57FF14
FDC00062
FF890027
FED200A5
FF7C0080
000F0122
FFCF003D
FFB9FF9C
0040FF24
01310038
00C6FFF3
00E80067
FF19FF0A
FFC2FF76
00460016
0122FF70
0029FF8C
0159012C
004D0107
0026FF5B
FFCE0034
0084FF7C
FF2E0052
00E8FFAF
004BFF2C
0048FFF7
FF8D012B
0162FF07
002CFF7F
FF67FEBB
FFDEFF99
FF92FF26
FFAF004A
FF1B0019
0052002E
00550080
FF880089
FFF1002F
FF2C005E
002B0093
0074007F
FF20000E
FF0800BC
FF3D0023
FFE600A9
FFBB00AC
0194FEEE
0018006E
FECB0225
0028FF7E
007BFFE9
006AFFA3
FEA000C8
FF97002E
0059FFC5
FEC3FEFC
0051FFFF
FF4D0153
FFAFFF7A
0058FF86
008200A0
017A0071
0014FE59
FE4FFF03
00A4FEEA
FFAF006F
FF920137
FF80FFE9
FFEE0000
009401DF
FDB6FF6F
FF7AFF18
FF740070
0021FEF4
FF92003A
FF96007F
FFF200D7
01B9FFC5
FFE4FEA3
FFFDFF57
FEB0002B
FFB500D9
FF500096
00F90175
0028FF9A
FD64FF9A
FF51FFBA
00C200A3
0039FF77
FFBDFF6D
002F0064
FEE5FFE2
FFEF0043
