FFD6
FD5B
01E1
0086
FF13
FDB7
00E1
FF61
FD5D
FF1E
0232
FDD0
FFD7
FE73
004D
0112
01EF
FF2E
0362
FF57
00D6
FEFC
0044
FF42
00DE
003F
01BA
FF5D
FD5B
0093
FEF0
FE20
FDE1
0239
FFD8
FED3
0048
FE6C
0053
FDB8
00B8
000A
FF42
FDAB
FE50
02C7
FFBD
01D9
0054
FFA9
FDF8
FF45
00E6
014B
0099
FF03
FFB6
0154
00E4
FDB2
018E
00DA
FF69
FF6D
FE1A
FF5F
FE46
FE89
00C1
010C
00B8
01FF
0179
0013
0196
0029
0309
FF79
FE49
FED9
0040
0414
FE9C
FE50
FFAB
0088
FDDC
02F4
0086
FF1C
02BC
015A
FF0D
FF46
FFBB
00E9
FF9A
FD96
0032
FF53
