0416
FB09
FECA
F329
0684
FBE5
FEA2
0007
FBEB
09CE
0A6B
F25D
0634
0251
00C8
01AF
F642
F973
00F8
0558
0049
03AE
00B6
FDF4
03C9
F5B2
0883
07A2
F7D4
F3ED
FDFA
09A0
0216
06BE
F90D
FB34
066D
F6F8
0071
F75F
F9AE
00B8
02C0
02DF
0234
FC2B
FF25
0559
0040
FB04
FC29
07DE
074E
EF8D
081C
FE97
FC24
05B2
FE37
FF90
07D6
FF6F
03F5
FC84
F9AA
FD21
0343
F2F9
0987
FA55
FF9E
0153
02E3
04C2
FD33
FDC4
029F
00B9
01F8
086A
F353
FDDE
FD5A
F918
021E
F815
FEE3
F7AF
0D93
F95F
089E
FC6A
FDBC
F936
032E
FFA2
0775
0104
04A6
FCF2
023B
0095
0044
0051
F8EF
FFEE
017D
047F
FD86
FD1C
073E
056F
FC98
F68C
051A
F977
0091
FF0C
FD8F
066C
020E
FC45
0252
FF52
020A
F95E
05A0
06A4
04F1
0690
FD8C
F92C
0690
02B0
FFCC
0095
0012
0542
0237
014A
F507
FC49
02FC
068B
FF12
FBE5
034D
FD6F
F8D0
F8BD
0033
030D
F4D1
FA9B
017B
04EA
04A9
FB48
FEEE
02E6
0467
063F
0C37
F1D2
F61C
F64C
F425
F9C7
04D7
0006
FE29
0640
FC3F
FEBA
FEDB
02A5
F9CB
FE29
016D
FE8D
001B
F3ED
04FA
FF00
FEBE
0061
0AD8
0013
FC05
01B0
F86F
F98D
FFCD
042B
FA60
FD2D
01D4
0595
08DC
0131
00AF
F9E3
FBAD
078A
07CD
0B73
FEFA
F812
FFD6
0701
03C4
01EE
F79D
012E
FE7B
00FB
04B7
069F
0559
03C3
F918
FFFB
01AF
062F
FF5A
FCC1
FF24
0284
0134
0844
F8BC
0170
0297
FEB1
FD59
04EA
01E9
FBD8
00ED
04F7
09C2
04CA
F248
0AA0
FDAA
FBBC
0799
00CC
FE5D
0408
F7A5
0008
0300
FD25
0A7B
FD6B
FB19
F985
00DD
08E8
F594
FF14
FE77
FEA8
0498
000B
FBCE
F91D
F5C5
FE0F
0112
FD6A
0879
040D
FA5B
FF96
053D
FBA7
0183
0105
01EE
00DF
097E
F8A5
FFA1
0264
073D
F845
05C6
FCF1
07F0
01A1
FFDC
03D4
02AA
FCA5
075F
FFC8
0023
02D4
FB7A
02E2
FF56
FD28
02F5
0478
0771
06A0
FC9D
F82E
0205
03A6
FFB9
F75F
0543
F83C
F5AD
028E
05CF
033C
FC54
F461
FAAD
07EA
0534
0A38
FB7A
01BE
F50A
FA5F
0210
F212
FDE7
078F
F929
F3E7
0206
FD5B
FDAC
FB98
0534
0443
FE10
0D83
FF13
FFA6
FFCF
01AB
05FD
F7AD
03D1
03DC
E580
FEBF
0175
02E1
FE2C
F9BE
0108
039C
04F0
0357
FC10
FB37
03B2
F392
0E11
0501
FBF6
F371
FBAD
0246
FE59
071A
F4C8
FCEA
00A1
02C6
094A
FA5C
04E8
F6B9
03CE
FEF5
0058
FEB9
0171
02FB
F89E
0011
02E7
04AC
03A1
00F6
FBD7
FFF9
0081
0071
FBCB
FFF0
0643
03B6
037A
FE8C
FBD2
F82A
062E
F5E1
0844
FC4F
01DD
F3FD
0765
0352
0996
053F
F762
F72E
FBEB
0195
0417
01FB
0B90
02AD
FF87
FBF6
0563
06D2
FF15
0263
FAB4
F7D0
0520
FF29
FF14
0288
0008
FDBC
088A
FE69
03EA
FC57
FF32
0138
021B
FB8B
FFE1
0456
FB16
0200
08E0
FFD4
FD23
06AD
03D1
00A9
0619
0455
F4AC
FFB6
0414
FFBC
044D
015D
FCD8
0C32
064F
F96A
050C
0357
FF96
FBD4
0699
F92C
FD72
FC5D
F9CE
F969
FA36
FF6F
03D2
0483
01AF
FC2F
008A
0344
0234
03F6
FE6C
0548
FA6F
02C2
05E2
0C38
FA3A
FEDF
03BE
F5E5
010D
009B
08C9
FF1D
0087
FBEF
03D4
F541
0748
F5ED
01F5
037F
05AB
01B9
011F
03B3
FAFD
0017
011C
F724
0939
FE15
FE4F
F3AB
0DEA
FB66
FD55
FC6D
FFAF
FD70
050E
01FB
00B7
FED0
F99B
02E7
02C5
0904
06A5
FB82
FE91
062C
FFF2
FDCF
01F2
FF97
FC3D
FFC2
FF11
0459
028F
041D
FCDC
007A
0379
FF8E
FCAC
FE02
031D
01E7
FBB5
FBA2
FA4C
FEE6
06E1
FD3B
0C64
01C6
02BE
FFD6
01E9
0553
0375
FE3F
F6DA
FF49
0C4C
FB26
03A7
00CC
0166
04B4
FF89
047C
06E9
FEA3
0ABD
01C7
F5E8
FD61
FE14
FF5D
F9F1
FB80
03E2
03DF
03A3
0234
FD2A
FE49
FD6C
043F
