016B
FF6D
018F
FDD4
0397
FDD7
026E
FF3F
015B
FF0E
FEDD
0251
FCD0
03DA
0323
02C7
0131
FFB5
007F
FE2C
FFBE
00C6
FE13
01C1
FFF7
FF8C
FDE4
048F
FEEF
000C
006C
003E
FEEC
0179
FF61
FF08
FFC8
FE98
00DE
FCB9
0179
0043
0222
0137
004D
FE8E
FFA2
014A
FF94
003C
FE1A
FEBC
031E
FF9F
FEB7
034E
01D3
FF51
FFB1
FF50
0129
0486
0000
01B5
FF7C
FF34
0151
0200
0262
0080
FFC8
026C
004A
0222
FFEE
FE1B
0038
00A5
FF68
0182
FD5E
FF6F
0195
0217
0059
00F0
02F2
02EF
FF60
FD6F
FEE4
FEB8
FEAD
0139
01FB
012C
FE6B
0368
00EC
FF74
